#version: 0.2
o t
q u
qu ot
quot ;</w>
& quot;</w>
我 们</w>
a n
酒 店</w>
i n
一 个</w>
e r
提 供</w>
a s
a t
a r
2 0
可 以</w>
服 务</w>
e n
使 用</w>
o r
o n
公 司</w>
e r</w>
任 何</w>
网 站</w>
信 息</w>
s t
i c
他 们</w>
所 有</w>
U R
& #
a g
请 求</w>
r e
c o
r o
a m
i t
UR L</w>
a l
o n</w>
20 1
其 他</w>
i l
e l
e s</w>
如 果</w>
0 0</w>
没 有</w>
e t</w>
&# 9
a c
时 间</w>
以 及</w>
通 过</w>
工 作</w>
o u
产 品</w>
i s
显 示</w>
什 么</w>
h e
中 国</w>
数 据
自 己</w>
包 括</w>
重 要</w>
I n
价 格</w>
可 能</w>
o l
这 些</w>
系 统</w>
p x</w>
a p
地 图</w>
选 择</w>
as px</w>
进 行</w>
i n</w>
e s
r i
e l</w>
中 心</w>
o s
1 9
需 要</w>
有 限
有限 公司</w>
ag e</w>
这 个</w>
1 0</w>
查 看</w>
co m</w>
e c
a n</w>
a l</w>
设 计</w>
问 题</w>
数 据</w>
内 容</w>
国 家</w>
in g</w>
a d
数据 表</w>
美 国</w>
S t
免 费</w>
o o
en t
a i
已 经</w>
D at
e t
技 术</w>
u r
e m
设 备</w>
用 户</w>
因 为</w>
1 2
预 订</w>
i a</w>
he et</w>
世 界</w>
as heet</w>
Dat asheet</w>
o m
公 寓</w>
P age</w>
距 离</w>
知 道</w>
帮 助</w>
部 分</w>
情 况</w>
i m
不 是</w>
国 际</w>
企 业</w>
位 于</w>
公 里</w>
k i
3 ;</w>
&#9 3;</w>
相 关</w>
o w
1 ;</w>
&#9 1;</w>
l e</w>
网 络</w>
详 情</w>
关 于</w>
o r</w>
c h
i on</w>
方 式</w>
客 房</w>
20 0
设 施</w>
这 样</w>
获 得</w>
你 们</w>
e d</w>
管 理</w>
支 持</w>
视 频</w>
安 全</w>
ap os
apos ;</w>
& apos;</w>
g t
文 件</w>
e n</w>
能 够</w>
就 是</w>
0 .
住 宿</w>
t h
t o</w>
活 动</w>
软 件</w>
如 何</w>
u n
客 户</w>
开 始</w>
要 求</w>
标 准</w>
或 者</w>
现 在</w>
必 须</w>
下 载</w>
e d
a s</w>
a v
地 区</w>
ot el</w>
类 型</w>
项 目</w>
渡 轮</w>
l e
gt ;</w>
& gt;</w>
访 问</w>
协 议</w>
程 序</w>
i r
同 意</w>
页 面</w>
应 用</w>
客 人</w>
an d</w>
生 产</w>
2 0</w>
浏 览</w>
附 近</w>
发 展</w>
分 钟</w>
am p
不 同</w>
位 置</w>
有 关</w>
主 要</w>
i d
以 下</w>
方 案</w>
作 为</w>
这 是</w>
保 护</w>
资 料</w>
时 候</w>
这 里</w>
C h
地 方</w>
1 0
市 场</w>
功 能</w>
船 票</w>
a b
i g
机 场</w>
o g
不 会</w>
接 受</w>
t r
H otel</w>
1 1</w>
用 于</w>
一 些</w>
1 2</w>
小 时</w>
u m
成 为</w>
i s</w>
5 0</w>
拥 有</w>
但 是</w>
i v
u c
12 4
en t</w>
e x
了 解</w>
经 济</w>
条 款</w>
完 成</w>
同 时</w>
124 ;</w>
&# 124;</w>
非 常</w>
继 续</w>
最 新</w>
在 线</w>
规 定</w>
3 0</w>
政 策</w>
2 4</w>
e w
一 种</w>
e b
因 此</w>
T h
之 间</w>
法 律</w>
照 片</w>
版 本</w>
控 制</w>
全 球</w>
1 5</w>
材 料</w>
服 务
联 系</w>
a r</w>
电 视</w>
方 面</w>
第 三
st r
组 织</w>
保 证</w>
根 据</w>
解 决
这 种</w>
A n
u s
对 于</w>
a y</w>
人 员</w>
游 戏</w>
汽 车</w>
政 府</w>
u l
供 货
供货 商</w>
不 能</w>
p l
城 市</w>
自 由</w>
然 后</w>
最 大</w>
生 活</w>
研 究</w>
责 任</w>
为 了</w>
发 生</w>
权 利</w>
a m</w>
处 理</w>
大 学</w>
找 到</w>
表 示</w>
连 接</w>
解决 方案</w>
并 且</w>
计 划</w>
o f</w>
k m</w>
a y
实 现</w>
电 子
分 析</w>
地 址</w>
系 列</w>
工 具</w>
条 件</w>
环 境</w>
o d
发 现</w>
0 0
ar t
M ic
适 合</w>
i on
影 响</w>
amp ;</w>
& amp;</w>
注 册</w>
具 有</w>
旅 游</w>
个 人
欧 洲</w>
f t</w>
存 在</w>
许 多</w>
更 改</w>
方 法</w>
in d
确 保</w>
日 期</w>
. 0</w>
a t</w>
英 国</w>
发 布</w>
an d
S h
过 程</w>
u t
A p
c e</w>
a d</w>
起 来</w>
超 过</w>
无 法</w>
关 系</w>
设 有</w>
最 佳</w>
认 为</w>
at ion</w>
法 国</w>
利 亚</w>
创 建</w>
邮 件</w>
2 1</w>
例 如</w>
8 0</w>
得 到</w>
能 力</w>
an g
是 否</w>
f f
ent s</w>
er r
R e
还 是</w>
所 以</w>
来 自</w>
安 装</w>
质 量</w>
1 .
一 次</w>
ki e</w>
编 辑</w>
U S
Mic ro
at e</w>
之 前</w>
其 中</w>
个 人</w>
搜 索</w>
适 用</w>
私 人</w>
结 果</w>
餐 厅</w>
点 击</w>
s h
怎 么</w>
行 业</w>
业 务</w>
合 作</w>
it y</w>
il l
看 到</w>
由 于</w>
开 发</w>
范 围</w>
a k
之 一</w>
on t
i c</w>
应 该</w>
资 源</w>
各 种</w>
3 0
那 么</w>
A l
两 个</w>
简 单</w>
o b
A d
1 8</w>
房 间</w>
1 3</w>
d uc
它 们</w>
h t
百 科</w>
注 意</w>
利 用</w>
希 望</w>
及 其</w>
N E
2 5</w>
1 8
领 域</w>
浴 室</w>
1 6</w>
1 9</w>
状 况</w>
机 构</w>
维 基
维基 百科</w>
完 全</w>
o p
P ro
股 份</w>
会 议</w>
i d</w>
201 6</w>
社 会</w>
d e</w>
喜 欢</w>
一 切</w>
B l
o v
直 接</w>
投 资</w>
快 速</w>
交 易</w>
音 乐</w>
行 为</w>
正 在</w>
意 大
旅 馆</w>
语 言</w>
出 现</w>
s e</w>
S u
执 行</w>
耶 稣</w>
享 受</w>
链 接</w>
t er
描 述</w>
A g
那 些</w>
1 4</w>
一 样</w>
o s</w>
设 置</w>
特 别</w>
P l
o c
自 动</w>
工 作
提 高</w>
空 房</w>
需 求</w>
决 定</w>
建 议</w>
而 且</w>
统 计</w>
co o
A v
通 知</w>
进 入</w>
U n
专 业</w>
一 起</w>
意大 利</w>
只 是</w>
in g
历 史</w>
每 个</w>
应 用
制 造
S T
测 试</w>
目 标</w>
5 0
i f
Th e</w>
报 告</w>
名 称</w>
ag es</w>
采 用</w>
第三 方</w>
提 出</w>
很 多</w>
员 工</w>
申 请</w>
其 它</w>
最 低</w>
平 台</w>
工 业</w>
损 失</w>
性 能</w>
I N
e v
u s</w>
那 里</w>
整 个</w>
包 含</w>
u b
产 生</w>
M ar
1 6
还 有</w>
体 验</w>
p or
只 有</w>
错 误</w>
阅 读</w>
h n
区 域</w>
供 应
家 庭</w>
集 团</w>
登 录</w>
管 理
检 查</w>
西 班
出 来</w>
4 0</w>
成 功</w>
19 9
1 7</w>
购 买</w>
P h
允 许</w>
目 的</w>
re s</w>
建 立</w>
T ec
A r
s k
in e</w>
海 滩</w>
移 动</w>
早 餐</w>
之 后</w>
孩 子</w>
用 途</w>
尼 亚</w>
e st
不 要</w>
教 育</w>
日 本</w>
正 确</w>
想 要</w>
上 海</w>
i p
德 国</w>
er v
re s
20 0</w>
负 责</w>
删 除</w>
E n
泳 池</w>
B e
1 00</w>
1 3
c h</w>
评 论</w>
C l
电 话</w>
承 诺</w>
上 帝</w>
满 足</w>
经 验</w>
A S
文 化</w>
增 加</w>
第 二
星 级</w>
th e</w>
S p
空 调</w>
帐 户</w>
i t</w>
应用 程序</w>
的 话</w>
销 售</w>
科 技</w>
学 习</w>
耶 和
耶和 华</w>
T ex
操 作</w>
最 后</w>
2 .
制造 商</w>
主 义</w>
一 直</w>
最 好</w>
运 行</w>
4 0
更 新</w>
媒 体</w>
原 因</w>
T r
o st
il e</w>
收 集</w>
合 作
e w</w>
形 式</w>
全 书</w>
导 致</w>
健 康</w>
广 告</w>
im ages</w>
er s</w>
委 员
百 科
百科 全书</w>
儿 童</w>
费 用</w>
el l
s o
电子 邮件</w>
人 们</w>
目 前</w>
it e</w>
as t</w>
妈 妈</w>
公 园</w>
欢 迎</w>
7 4
委员 会</w>
F r
未 来</w>
伙 伴</w>
配 有</w>
列 表</w>
旅 客</w>
期 间</w>
全 部</w>
oo k</w>
um ents</w>
隐 私</w>
服务 器</w>
In str
an t
e g
事 情</w>
修 改</w>
保 持</w>
Tex as</w>
一 定</w>
a i</w>
运 动</w>
coo kie</w>
结 束</w>
有 效</w>
密 码</w>
Instr uments</w>
说 明</w>
an g</w>
考 虑</w>
R o
代 表</w>
ol og
朋 友</w>
旅 行</w>
世 界
基 于</w>
2 2</w>
准 备</w>
如 此</w>
一 步</w>
E N
为 什么</w>
银 行</w>
团 队</w>
空 间</w>
制 造</w>
u d
学 生</w>
刷 新</w>
告 诉</w>
成 本</w>
人 民
ic s</w>
C om
ou r
香 港</w>
增 长</w>
一 下</w>
联 网</w>
以 此</w>
俄 罗
E x
虽 然</w>
商 业</w>
6 0</w>
结 构</w>
供应 商</w>
u e</w>
获 取</w>
duc t
a ff
持 续</w>
声 明</w>
舒 适</w>
ad e</w>
厨 房</w>
201 5</w>
机 会</w>
i o</w>
计 算
ar e</w>
NE T</w>
过 去</w>
努 力</w>
p ro
作 品</w>
1 5
旅 舍</w>
L E
此 外</w>
基 督</w>
Tec hn
限 制</w>
轮 渡</w>
电 子</w>
入 住</w>
东 西</w>
建 筑</w>
添 加</w>
许 可</w>
A N
l is
世 纪</w>
A R
传 统</w>
P ar
特 定</w>
i k
变 化</w>
造 成</w>
西班 牙</w>
这 一</w>
甚 至</w>
电 脑</w>
国 际
独 立</w>
游 泳池</w>
ou n
优 惠</w>
解 决</w>
生 产
不 过</w>
F l
一 家</w>
e x</w>
品 牌</w>
er s
at ion
创 新</w>
感 觉</w>
j p
带 来</w>
ic e</w>
基 础</w>
7 .
es t</w>
al l
联 合
产 品
个人 信息</w>
符 合</w>
翻 译</w>
明 确</w>
ai l</w>
Techn olog
支 付</w>
便 宜</w>
M a
一 部分</w>
承 担</w>
i st
无 线
控 制
1 4
以 色
减 少</w>
步 行</w>
模 式</w>
恢 复</w>
艺 术</w>
首 页</w>
部 门</w>
真 正</w>
o t</w>
第 一
作 用</w>
ai res</w>
2 3</w>
H T
水 平</w>
以色 列</w>
寻 找</w>
Ag ri
e p
提 交</w>
数 字</w>
am e</w>
图 片</w>
风 险</w>
测 量</w>
an t</w>
今 天</w>
aff aires</w>
Agri affaires</w>
ar d</w>
完 整</w>
改 变</w>
行 动</w>
ac k
身 体</w>
201 4</w>
1 7
ow s</w>
共 和
W ind
口 商</w>
o w</w>
套 房</w>
选 项</w>
输 入</w>
手 机</w>
供 求
授 权</w>
美 元</w>
应 当</w>
真 的</w>
供求 信息</w>
北 京</w>
机 械</w>
贸 易</w>
专 家</w>
合作 伙伴</w>
or g</w>
on g</w>
R es
一 点</w>
学 院</w>
so ft</w>
P D
m a
C ent
工 程</w>
通 常</w>
这 么</w>
M an
分 享</w>
加 入</w>
儿 子</w>
来 说</w>
相 同</w>
限 于</w>
英 语</w>
US D</w>
成 员</w>
B r
互 联网</w>
不 断</w>
u m</w>
博 物
err y
or e</w>
自 然</w>
新 闻</w>
i b
网 页</w>
当 然</w>
有 权</w>
jp g</w>
当 地</w>
O N</w>
t er</w>
食 品</w>
回 答</w>
Micro soft</w>
达 到</w>
in a</w>
相 信</w>
受 到</w>
I P</w>
ic on
博物 馆</w>
然 而</w>
I S
P r
不 到</w>
展 示</w>
多 个</w>
ac e</w>
地 点</w>
介 绍</w>
当 前</w>
容 易</w>
em pl
车 辆</w>
Wind ows</w>
葡 萄
C on
配 置</w>
生 命</w>
参 与</w>
m ent</w>
乘 客</w>
S em
定 义</w>
学 校</w>
价 值</w>
A C
发 送</w>
下 来</w>
W i
确 定</w>
现 代</w>
参 加</w>
无线 网络</w>
打 开</w>
多 数</w>
俄罗 斯</w>
广 场</w>
y p
不 得</w>
网 上</w>
前 往</w>
最 高</w>
f or</w>
从 而</w>
违 反</w>
2 8</w>
课 程</w>
娱 乐</w>
以 上</w>
In c</w>
2 6</w>
措 施</w>
C A
终 止</w>
记 录</w>
代 码</w>
0 00</w>
治 疗</w>
特 殊</w>
一 般</w>
政 治</w>
共和 国</w>
浏 览
科 学</w>
M A
C O
实 时</w>
内 部</w>
供 应</w>
ed ia</w>
商 标</w>
F ac
除 了</w>
最 近</w>
知 识</w>
理 想</w>
o p</w>
更 加</w>
人 类</w>
St re
g e</w>
E l
女 人</w>
W or
浏览 器</w>
有 人</w>
f or
立 即</w>
状 态</w>
Ap art
2 7</w>
检 测</w>
比 较</w>
on e</w>
一 天</w>
看 着</w>
M L</w>
3 2</w>
离 开</w>
账 户</w>
数 量</w>
理 解</w>
压 力</w>
P H
按 照</w>
现 场</w>
花 园</w>
度 假</w>
未 经</w>
会 员</w>
斯 特</w>
erry to</w>
201 2</w>
201 7</w>
E R
男 人</w>
eb ook</w>
201 3</w>
S e
m l</w>
认 证</w>
ri p
PD F</w>
大 小</w>
i z
实 施</w>
速 度</w>
某 些</w>
工作 人员</w>
酒 吧</w>
经 济
感 器</w>
音 乐
存 储</w>
T empl
社 区</w>
额 外</w>
商 务</w>
出 口商</w>
营 销</w>
a z
查 询</w>
他 人</w>
Technolog y</w>
无 论</w>
觉 得</w>
or k</w>
G u
w e
那 个</w>
A m
重 新</w>
进 一步</w>
有 些</w>
不 可</w>
Stre et</w>
同 样</w>
培 训</w>
计 算</w>
n g</w>
i an
ec t
i e</w>
c t
传 感器</w>
F i</w>
加 工</w>
降 低</w>
方 便</w>
风 格</w>
U S</w>
3 .
返 回</w>
计算 机</w>
维 护</w>
配 备</w>
大 量</w>
图 像</w>
下 列</w>
w i
规 则</w>
t h</w>
效 果</w>
Fac ebook</w>
必 要</w>
保 留</w>
p er
as s
iv e</w>
域 名</w>
确 认</w>
icon duct
亚 洲</w>
印 度</w>
遵 守</w>
Templ ate</w>
en d
ou se</w>
准 确</w>
p ng</w>
加 拿
针 对</w>
创 造</w>
这 家</w>
卧 室</w>
制 作</w>
安 全
ec tr
Sem iconduct
丰 富</w>
景 点</w>
轻 松</w>
L in
关 联</w>
R E
即 使</w>
随 着</w>
ai w
b o
智 能</w>
om e</w>
点 评</w>
s p
赔 偿</w>
保 存</w>
W e
最 终</w>
sk in</w>
b y</w>
豪 华</w>
停 车
2 4
来 到</w>
7 0</w>
不 仅</w>
授 予</w>
C ar
美 丽</w>
经 过</w>
模 型</w>
2 9</w>
任 务</w>
co m
保 险
更 好</w>
市 中心</w>
o u</w>
取 得</w>
2 5
公 共</w>
用 品</w>
In ter
兴 趣</w>
阿 尔
父 亲</w>
荷 兰</w>
9 0</w>
G r
st er</w>
讨 论</w>
事 件</w>
采 取</w>
高 级</w>
淋 浴</w>
3 1</w>
几 个</w>
In n</w>
优 化</w>
C as
大 会</w>
por t</w>
拒 绝</w>
201 8</w>
办 公
on ics</w>
ation al</w>
能 源</w>
加拿 大</w>
路 程</w>
电 影</w>
B id</w>
意 见</w>
宗 教</w>
声 音</w>
Av g</w>
喜 爱</w>
纽 约</w>
出 售</w>
温 度</w>
年 轻</w>
A M
a il
a h
收 到</w>
尽 管</w>
PH P</w>
自 动
流 程</w>
意 味
Ro ad</w>
西 亚</w>
大 多数</w>
h t</w>
wi ki
车 程</w>
文 件
可 是</w>
广 泛</w>
S erv
n ew
ur e</w>
一 位</w>
享 有</w>
真 实</w>
意味 着</w>
仍 然</w>
基 本</w>
几 乎</w>
提 升</w>
才 能</w>
3 5</w>
到 达</w>
e y</w>
A T
卫 生
随 时</w>
主 题</w>
作 出</w>
车 站</w>
别 墅</w>
书 面</w>
购 物</w>
效 率</w>
属 于</w>
提 示</w>
商 店</w>
ip p
面 前</w>
文 章</w>
理 由</w>
提 前</w>
教 会</w>
巴 黎</w>
C oo
引 用</w>
咖 啡</w>
i p</w>
人 士</w>
L ast</w>
u g
挑 战</w>
完 美</w>
ht ml</w>
on g
C or
技 术
Q u
身 上</w>
证 明</w>
独 特</w>
ar d
开 放</w>
3 D</w>
es s
变 得</w>
p edia</w>
多 少</w>
个人 资料</w>
le ft</w>
HT ML</w>
l d</w>
动 物</w>
可 用</w>
只 要</w>
el s</w>
成 立</w>
res s</w>
停车 场</w>
程 度</w>
抵 达</w>
C ol
n e</w>
共 同</w>
伦 敦</w>
指 定</w>
标 签</w>
Semiconduct or</w>
浴 缸</w>
周 围</w>
改 善</w>
爱 尔
0 1</w>
国 内</w>
怎 么
调 查</w>
唯 一</w>
E m
统 计
消 息</w>
品 质</w>
客 户
5 4
度 假
tr ade</w>
评 估</w>
目 的
名 字</w>
总 统</w>
H am
b er</w>
实 际</w>
看 见</w>
结 合</w>
2 .0</w>
商 品</w>
长 期</w>
可 靠</w>
战 争</w>
c l
任 何
19 8
全 面</w>
避 免</w>
认 识</w>
p h
EN T
以 来</w>
目的 地</w>
爱尔 兰</w>
D e
201 1</w>
推 荐</w>
良 好</w>
澳 大
A D
i a
先 生</w>
A P
老 师</w>
aiw an
集 成</w>
8 .
i es</w>
斯 坦</w>
里 面</w>
关 注</w>
文 龙</w>
f l
r e</w>
损 害</w>
m in</w>
in t</w>
En g
直 到</w>
解 释</w>
咖 啡
以 后</w>
表 面</w>
wiki pedia</w>
S N
aiwan trade</w>
力 量</w>
利 益</w>
罗 马</w>
C ity</w>
每 天</w>
人 权</w>
w it
an n
共 享</w>
消 费
i re
联 盟</w>
告 知</w>
建 设</w>
代 理
似 乎</w>
al l</w>
n et</w>
201 0</w>
形 成</w>
单 位</w>
关 闭</w>
意 义</w>
模 块</w>
付 出</w>
c ont
美 食</w>
资 产</w>
租 赁</w>
i ew</w>
货 币</w>
背 景</w>
因 素</w>
7 5</w>
医 疗</w>
租 车</w>
稳 定</w>
F re
规 模</w>
以 前</w>
调 整</w>
In st
另 外</w>
表 现</w>
包 装</w>
特 色</w>
Wi Fi</w>
3 3</w>
学 家</w>
阳 台</w>
现 有</w>
引 起</w>
新 加
an c
合 同</w>
oo k
5 00</w>
i an</w>
2 6
下 面</w>
ac h</w>
感 到</w>
此 类</w>
强 大</w>
网 络
颜 色</w>
4 5</w>
I C
放 松</w>
安 排</w>
L is
澳大 利亚</w>
大 型</w>
举 行</w>
三 个</w>
a f
g i
巨 大</w>
战 略</w>
操 作
承 认</w>
母 亲</w>
启 动</w>
30 3
阿 拉
意 思</w>
u n</w>
H ost
ectr onics</w>
上 述</w>
优 势</w>
O S</w>
当 时</w>
合 理</w>
S c
法 院</w>
S y
格 式</w>
中 文</w>
停 止</w>
基 督
再 次</w>
各 项</w>
联合 国</w>
知 识
出 口</w>
屏 幕</w>
S A
3 6
产 业</w>
7 2
新加 坡</w>
免 费
欧 盟</w>
商 务
研 究
咨 询</w>
体 系</w>
er m
工 艺</w>
部 件</w>
尺 寸</w>
策 略</w>
表 格</w>
热 门</w>
200 8</w>
至 少</w>
装 置</w>
an y</w>
f m</w>
回 到</w>
类 似</w>
时 代</w>
复 杂</w>
P or
无 线</w>
o m</w>
o k
th is</w>
开 发
复 制</w>
人 民</w>
目 录</w>
音乐 会</w>
人 口</w>
in t
做 出</w>
收 入</w>
始 终</w>
领 导
w or
F or
称 为</w>
一 条</w>
I P
第 一次</w>
关 键</w>
an ce</w>
大 家</w>
眼 睛</w>
清 洁</w>
3 6</w>
F il
R O
u x</w>
4 .
票 价</w>
除 非</w>
冰 箱</w>
O r
交 友</w>
运 输</w>
en ce</w>
自动 化</w>
200 9</w>
J av
比 如</w>
永 远</w>
O p
订 单</w>
o g</w>
an s
游 览</w>
按 钮</w>
一 系列</w>
严 重</w>
组 合</w>
游 客</w>
促 进</w>
l and</w>
怎 样</w>
统计 数据</w>
表 明</w>
鲜 花</w>
信 用
产 权</w>
室 外</w>
I T
es s</w>
发 表</w>
用 餐</w>
论 坛</w>
自 行</w>
精 神</w>
联 邦</w>
度假 村</w>
先 进</w>
扩 展</w>
a in</w>
金 属</w>
驱 动
俱 乐
ac k</w>
4 .0</w>
俱乐 部</w>
C ont
H C
地 产</w>
商 业
以 便</w>
O R
多 种</w>
工 程
船 上</w>
Ham ster</w>
c o</w>
交 通</w>
而 是</w>
lis h</w>
F ile</w>
社 会
建 筑
b l
a w
第 一</w>
埃 及</w>
详 细</w>
LE D</w>
v er
阶 段</w>
金 融
越 来
A L
各 地</w>
r o</w>
C D</w>
工 厂</w>
t on</w>
Com p
L e
伟 大</w>
机 器</w>
瑞 士</w>
0 2</w>
验 证</w>
输 出</w>
E M
地 板</w>
尤 其</w>
V ill
E R</w>
健 身</w>
意 识</w>
I M
B u
AS P</w>
航 线</w>
双 人
T C
比 例</w>
哪 里</w>
教 堂</w>
首 先</w>
分 类</w>
无 需</w>
数据 库</w>
著 名</w>
取 消</w>
监 控</w>
作 者</w>
联 系
C ENT
十 分</w>
圣 经</w>
大 部分</w>
运 营</w>
空 气</w>
or y</w>
生 物</w>
An d
看 看</w>
装 饰</w>
V is
详 细
传 输</w>
想 到</w>
构 成</w>
财 产</w>
不 想</w>
P o
方 向</w>
解 答</w>
明 白</w>
前 台</w>
L a</w>
现 代
z h
一 项</w>
e m</w>
版 本
5 .
Eng lish</w>
正 常</w>
其 实</w>
基 础
种 类</w>
指 南</w>
9 .
专 业
之 外</w>
识 别</w>
定 制</w>
玻 璃</w>
不 再</w>
信用 卡</w>
ac h
将 会</w>
Fr am
H ouse</w>
W eb
G re
泰 国</w>
家 具</w>
g le</w>
交 流</w>
客 运</w>
心 里</w>
ar y</w>
G oo
文 档</w>
哪 些</w>
平 板
越来 越</w>
比 赛</w>
I T</w>
3 4</w>
id e
对 象</w>
ew ork</w>
X Hamster</w>
转 换</w>
身 份</w>
频 道</w>
ow er</w>
el l</w>
步 骤</w>
I D
高 度</w>
休 闲</w>
平 均</w>
I D</w>
i x</w>
UR Y</w>
r am</w>
c n</w>
经 营</w>
福 音</w>
3 9</w>
Coo kie</w>
只 能</w>
A ir
于 是</w>
Fram ework</w>
愿 意</w>
ow n
故 事</w>
ec t</w>
F erryto</w>
伊 斯
s on</w>
平 方
组 成</w>
提 供
群 岛</w>
s ite</w>
CENT URY</w>
ic a</w>
事 实</w>
平板 电视</w>
女 性</w>
食 物</w>
P C</w>
参 数</w>
高 效</w>
查 找</w>
3 4
协 会</w>
预 计</w>
m m</w>
令 人</w>
S k
it es</w>
韩 国</w>
台 湾</w>
e ar
yp e</w>
主 页</w>
免费 音乐</w>
风 机</w>
站 点</w>
In d
是 不是</w>
3 8</w>
al e</w>
柏 林</w>
办公 室</w>
信 号</w>
决 于</w>
星 期
探 索</w>
取 决于</w>
休 息
正 式</w>
SN 74
消费 者</w>
S M
ou r</w>
知识 产权</w>
总 是</w>
威 胁</w>
交 易
s s</w>
T M</w>
尼 斯</w>
禁 止</w>
时 尚</w>
经 常</w>
尝 试</w>
通 信</w>
H ome</w>
Par k</w>
摩 洛
行 政</w>
用 性</w>
信 息
摩洛 哥</w>
疾 病</w>
地 中
t e</w>
S E
公 开</w>
感 谢</w>
核 心</w>
版本 信息</w>
病 毒</w>
攻 击</w>
死 亡</w>
N or
年 代</w>
仅 仅</w>
制 定</w>
票 价格</w>
f o</w>
希 腊</w>
i al</w>
50 72
5072 7.
和 平</w>
坐 在</w>
We b</w>
多 年</w>
物 质</w>
ri v
b er
医 生</w>
专 利</w>
版 权
C o
on d
靠 近</w>
e H
8 0
那 样</w>
反 应</w>
地中 海</w>
Apart ment</w>
5 5</w>
D O
具 体</w>
我 要</w>
老 人</w>
Ph ot
经 理</w>
反 映</w>
法 规</w>
露 台</w>
ou t</w>
u p</w>
研 发</w>
使 用
电 源</w>
3 7</w>
事 会</w>
任何 人</w>
户 外</w>
本 地</w>
原 则</w>
力 于</w>
坐 落</w>
付 款</w>
细 胞</w>
致 力于</w>
用 户
一 年</w>
l in
A c
D ev
外 部</w>
过 来</w>
推 动</w>
duc t</w>
宽 敞</w>
an a</w>
义 务</w>
A s
中 国
er e</w>
放 在</w>
0. 1</w>
优 质</w>
危 机</w>
组 件</w>
清 楚</w>
投 资
航 行</w>
肯 定</w>
晚 上</w>
u p
中 华
C H
单 击</w>
概 念</w>
ind ex</w>
艺 术
众 多</w>
第 一个</w>
涉 及</w>
每 晚</w>
友 好</w>
200 7</w>
办 法</w>
err y</w>
电 池</w>
即 可</w>
动 力</w>
S Q
争 议</w>
St e
房 地产</w>
现代 化</w>
il l</w>
发 出</w>
0. 00</w>
资 讯</w>
助 于</w>
充 满</w>
每 年</w>
生 成</w>
升 级</w>
相 应</w>
斯 特
巴 塞
保 险</w>
积 极</w>
ic k</w>
ad a</w>
B ook
登 记</w>
ow n</w>
交 付</w>
金 融</w>
b r
事 实
防 止</w>
20 00</w>
规 划</w>
e y
也 许</w>
自 行
in o</w>
人 数</w>
0 8</w>
一 间</w>
迷 你</w>
P re
场 所</w>
非 洲</w>
来 源</w>
而 言</w>
齐 全</w>
制 度</w>
V ia</w>
广 州</w>
火 车站</w>
推 出</w>
患 者</w>
窗 口</w>
上 网</w>
N ew
ipp o</w>
接 口</w>
带 有</w>
想 法</w>
菜 单</w>
S an</w>
收 费</w>
吹 风机</w>
拼 写</w>
D i
客 厅</w>
房 子</w>
每 日</w>
4 8</w>
按 摩</w>
激 光</w>
v is
特 性</w>
如 今</w>
往 返</w>
中 央</w>
理 论</w>
特 点</w>
折 扣</w>
8 8
Fil eH
FileH ippo</w>
购 物
承 担
使 得</w>
资 金</w>
3 00</w>
as h</w>
M P
接 触</w>
全 新</w>
命 令</w>
性 化</w>
详细 信息</w>
it ed</w>
代 理</w>
l a</w>
一 边</w>
D es
太 阳
打 印</w>
ic k
as h
突 然</w>
as t
妻 子</w>
t d</w>
ht t
妇 女</w>
领 先</w>
沙 发</w>
首 选</w>
C am
Be ach</w>
i l</w>
一 名</w>
法 律
一 张</w>
6 0
旨 在</w>
很 大</w>
主 席</w>
保险 箱</w>
领 导</w>
动 态</w>
ac t
文 本</w>
M on
永 久</w>
40 4</w>
时 期</w>
开 展</w>
行 李</w>
注 册
D is
地 球</w>
动 机</w>
文 字</w>
十 年</w>
回 来</w>
ri g
变 更</w>
混 合</w>
或 是</w>
优 秀</w>
有 助于</w>
Goo gle</w>
el ectronics</w>
谷 歌</w>
视 为</w>
经 历</w>
u st
S I
面 积</w>
通 讯</w>
隐 藏</w>
高 兴</w>
联 合</w>
医 院</w>
ag ram</w>
公 共
i j
号 码</w>
修 复</w>
SQ L</w>
类 别</w>
B ro
全 国</w>
R A
能 性</w>
说 话</w>
聊 天</w>
p r
m ar
加 强</w>
at es</w>
Air port</w>
有 点</w>
I I</w>
衣 服</w>
m ents</w>
改 革</w>
覆 盖</w>
道 路</w>
技 能</w>
N ew</w>
试 图</w>
适 当</w>
电 梯</w>
电 机</w>
htt p</w>
女 孩</w>
明 显</w>
微 波
S P
张 贴</w>
以 为</w>
微波 炉</w>
e e</w>
圣 灵</w>
卫 星
举 办</w>
东 欧</w>
快 乐</w>
T or
大 约</w>
承担 责任</w>
英 文</w>
不 错</w>
a k</w>
u b</w>
Inst agram</w>
波 罗
冲 突</w>
9 9</w>
申 请
S T</w>
墨 西
教 授</w>
b u
2 7
L A
Pl ay
事实 上</w>
es e</w>
辅 导</w>
ab le</w>
饭 店</w>
董 事</w>
高 尔
B ar
6 .
汽 车
后 来</w>
is s
障 碍</w>
侵 犯</w>
充 分</w>
分 销</w>
批 准</w>
面 临</w>
波罗 的
S o
地 位</w>
出 去</w>
拉 斯</w>
Micro electronics</w>
落 于</w>
机 械
绿 色</w>
波罗的 海</w>
坐 落于</w>
控制 器</w>
c on
代理 人</w>
应 对</w>
不 可
E d
姓 名</w>
new s</w>
吸 引</w>
实 验
C D
2 8
t s</w>
家 庭
19 7
J o
iv ers
改 进</w>
i m</w>
不 管</w>
Serv er</w>
社 交</w>
200 5</w>
家 人</w>
协 助</w>
个 性化</w>
i r</w>
u r</w>
0 5</w>
犹 太
等 等</w>
id e</w>
指 出</w>
十 字
ST Microelectronics</w>
l ine</w>
巴塞 罗
W S</w>
a x
布 拉
ig ht</w>
0 4</w>
趋 势</w>
驱 动</w>
i er</w>
lis t</w>
4 2</w>
旅 游
D V
未 能</w>
Su ites</w>
处 理
团 体</w>
r a</w>
驱动 器</w>
听 到</w>
一 旦</w>
at h
P al
宣 布</w>
Inter n
0 3</w>
ki p</w>
er y</w>
C r
专 门</w>
标 志</w>
高 速</w>
C S
地 理
出 发</w>
受 欢迎</w>
条 目</w>
人民 共和国</w>
0 7</w>
室 内</w>
绝 对</w>
某 个</w>
竞 争</w>
宣 传</w>
出 版</w>
无 论
美 国
第 十
19 6
平 衡</w>
相 当</w>
佛 罗
透 过</w>
全 世界</w>
s t</w>
欣 赏</w>
回 复</w>
别 人</w>
女 儿</w>
北 非</w>
ki es</w>
n er</w>
Lin ux</w>
危 险</w>
a u
确 实</w>
处 于</w>
小 型</w>
现 实</w>
卫生 间</w>
寻 求</w>
ire ct
ro p
迅 速</w>
自 由
到 底</w>
O N
4 6</w>
2 50</w>
m e</w>
天 气</w>
利 率</w>
实 际
资 本</w>
本 身</w>
清 单</w>
属 性</w>
很 快</w>
版 权</w>
反 对</w>
H ol
Ap p
Bl ack
en g
e f
仲 裁</w>
增 强</w>
这 次</w>
比 亚</w>
元 素</w>
退 款</w>
细 节</w>
v er</w>
中 间</w>
智 能
红 色</w>
框 架</w>
od e</w>
足 够</w>
屁 股</w>
基础 设施</w>
密 钥</w>
4 1</w>
I s
各 国</w>
有 限</w>
葡萄 酒</w>
是 因为</w>
说 道</w>
ob e</w>
移 民</w>
实验 室</w>
体 育
M y
0 9</w>
变 成</w>
L td</w>
土 耳
操作 系统</w>
预 测</w>
B o
市 场
白 色</w>
通 道</w>
w are</w>
5 8</w>
数 学</w>
l t
相 机</w>
G l
St ud
平 面</w>
对 话</w>
分 配</w>
证 书</w>
植 物</w>
所 在</w>
a u</w>
毛 巾</w>
订 阅</w>
E L
签 证</w>
参 观</w>
合 适</w>
博 客</w>
硬 件</w>
塑 料</w>
保 障</w>
农 业</w>
公 民</w>
5 3</w>
便 利</w>
土 地</w>
E U
H Y
气 体</w>
一 份</w>
部 署</w>
港 口</w>
审 查</w>
简 介</w>
有 时</w>
整 体</w>
卓 越</w>
自 身</w>
有 线
相 对</w>
货 物</w>
地 上</w>
破 坏</w>
中华 人民共和国</w>
cont ent</w>
编 程</w>
自 然
伤 害</w>
一 致</w>
有线 电视</w>
S t</w>
4 9</w>
软 件
c ss</w>
双 方</w>
en g</w>
制 品</w>
M C
qu e</w>
摄 像
面 对</w>
经 营
用 来</w>
Intern ational</w>
她 们</w>
in fo</w>
顶 级</w>
Vill a</w>
认 可</w>
国 家
博 士</w>
以 外</w>
今 年</w>
上 市</w>
居 民</w>
y n
at t
本 站</w>
ro id</w>
办 理</w>
j s</w>
4 4</w>
自行 车</w>
s c
水 壶</w>
仔 细</w>
之 中</w>
d er</w>
双人 间</w>
航 空
世界 各地</w>
Pro f
0. 2</w>
花 店</w>
St ation</w>
rip t</w>
科 技
u k
a ul
专 用</w>
合 金</w>
样 子</w>
观 看</w>
Un ivers
好 像</w>
斯 科</w>
US B</w>
发 挥</w>
海 岸</w>
正 是</w>
配 件</w>
oo d</w>
展 览</w>
定 性</w>
3 0.00</w>
物 流</w>
200 6</w>
5 1</w>
ch ip</w>
如 下</w>
披 露</w>
灵 活</w>
基 金</w>
历 史
转 移</w>
听 课</w>
给 予</w>
撤 销</w>
指 数</w>
a o</w>
C an
D e</w>
分 别</w>
at a</w>
失 去</w>
指 导</w>
地理 位置</w>
物 品</w>
气 候</w>
h u
故 障</w>
Micro chip</w>
相 比</w>
洗 衣</w>
Ad min</w>
感 受</w>
牙 语</w>
有 趣</w>
原 始</w>
帐 号</w>
b ur
B C</w>
C at
界 面</w>
困 难</w>
扩 大</w>
巴塞罗 那</w>
顾 客</w>
愉 快</w>
贡 献</w>
及 时</w>
可 能性</w>
担 保</w>
i e
U s
Av en
I m
下 降</w>
航 班</w>
A b
约 翰</w>
年 龄</w>
wit h</w>
不 锈
从 事</w>
或 许</w>
or t</w>
扫 描</w>
Ad obe</w>
Lis t</w>
年 度</w>
机 关</w>
Fre e</w>
s erv
非 常
第 二</w>
克 兰</w>
具 备</w>
能 量</w>
大 门</w>
第 四
深 圳
单 独</w>
父 母</w>
损 坏</w>
印 刷</w>
营 办</w>
洗 浴</w>
模 拟</w>
当 事
沟 通</w>
播 放
W IN
一 场</w>
ac t</w>
互 动</w>
构 建</w>
m in
MA C</w>
em ber</w>
功 率</w>
观 点</w>
剧 院</w>
长 度</w>
投资 者</w>
一 台</w>
维 亚</w>
利 润</w>
律 师</w>
巴 西</w>
Cent er</w>
R ed
虚 拟</w>
av e</w>
曾 经</w>
实 业</w>
安全 性</w>
一 流</w>
实际 上</w>
访 客</w>
定 牌</w>
In t
许 可
ro m</w>
储 存</w>
HY IP</w>
k s</w>
根 本</w>
米 兰</w>
接 收</w>
ak e</w>
C al
0 6</w>
Book ing</w>
令 人
tr y</w>
相 反</w>
必 填</w>
4 3</w>
T E
t i
可 靠
土耳 其</w>
担 任</w>
下 去</w>
评 分</w>
犹太 人</w>
l er</w>
P S</w>
en s
T rip
担 心</w>
评 价</w>
平方 米</w>
可靠 性</w>
规 格</w>
B erry</w>
g er</w>
思 想</w>
飞 机</w>
5 2</w>
bo x</w>
放 弃</w>
球 场</w>
引 擎</w>
在 于</w>
4 7</w>
N ame</w>
有 着</w>
传 播</w>
布 鲁
综 合</w>
脸 上</w>
DV D</w>
上 面</w>
运 用</w>
公 众</w>
ai r
参 考</w>
新 西
克 斯</w>
t al
固 定</w>
is e</w>
M us
显 示
间 接</w>
S ch
5 6</w>
9 9
训 练</w>
l y</w>
德 里</w>
享 用</w>
T R</w>
深圳 市</w>
机 制</w>
活 性</w>
转 让</w>
日 子</w>
en n
革 命</w>
lt ;</w>
& lt;</w>
M O
尼 亚
值 得</w>
营 地</w>
6 4</w>
Ma c</w>
关 键
响 应</w>
L im
形 状</w>
S a
干 净</w>
S al
火 车</w>
信 仰</w>
耶 路
公 约</w>
耶路 撒
规 范</w>
备 份</w>
ar s</w>
C he
行 政
赢 得</w>
两 种</w>
连 接
6 6</w>
丢 失</w>
收 益</w>
常 见</w>
8 5</w>
洗 衣
停 车</w>
即 时</w>
5 4</w>
N ational</w>
系 统
援 助</w>
波 兰</w>
武 器</w>
大 陆</w>
Black Berry</w>
ig n</w>
击 败</w>
耶路撒 冷</w>
不 起</w>
1 1
le y</w>
反 馈</w>
将 来</w>
送 到</w>
And roid</w>
标 题</w>
无论 是</w>
同 一</w>
5 9</w>
鼓 励</w>
原 来</w>
Man ag
职 业</w>
一 件</w>
开 关</w>
f erryto</w>
u al</w>
证 据</w>
官 方</w>
for m
曼 谷</w>
当事 人</w>
赌 场</w>
o o</w>
转 换
竞 争
其 他人</w>
远 程</w>
路 线</w>
基督 徒</w>
t y</w>
S O
不锈 钢</w>
机 票</w>
t w</w>
暂 停</w>
S ou
流 量</w>
适 应</w>
另 一
设 计
A V
Host el</w>
8 8</w>
轴 承</w>
床 上</w>
图 书
航 空</w>
并 非</w>
答 案</w>
模 板</w>
W h
om b
统 一</w>
保 密</w>
监 测</w>
ub l
约 束</w>
对 此</w>
码 头</w>
监 管</w>
欧 元</w>
发 展
WIN DO
感 染</w>
虚 拟
维 持</w>
设 立</w>
门 票</w>
大 卫</w>
实 践</w>
P C
h otel</w>
ar a</w>
as c
10 00</w>
收 取</w>
严 格</w>
宾 馆</w>
O n
跳 转</w>
表 达</w>
汇 率</w>
芬 兰</w>
公 路</w>
6 5</w>
满 意</w>
领导 人</w>
Fl ash</w>
v i
邀 请</w>
WINDO WS</w>
连 续</w>
r a
机 器
代 表
二 十
罗 马
I N</w>
真 是</w>
出 租车</w>
环 保</w>
权 限</w>
工程 师</w>
2 9
跟 踪</w>
事 业</w>
第 三</w>
T aiwantrade</w>
H e
信 心</w>
权 力</w>
t aiwantrade</w>
无 效</w>
潜 在</w>
一 篇</w>
物 理</w>
坚 持</w>
餐 馆</w>
产品 名称</w>
马 上</w>
架 构</w>
等 级</w>
4 00</w>
ic t
Ad vis
图 形</w>
海 洋</w>
An g
子 公司</w>
抱 歉</w>
中 央
怀 疑</w>
住 宅</w>
单 元</w>
S S
选 举</w>
ir e</w>
经营 者</w>
新西 兰</w>
重 大</w>
特 征</w>
er n
T R
清 除</w>
深 圳</w>
尊 重</w>
有 线</w>
b e
T A
接 近</w>
寿 命</w>
消 除</w>
M at
顾 问</w>
左 侧</w>
墨西 哥</w>
L M
经 典</w>
出 租</w>
布拉 格</w>
5 7</w>
感 兴趣</w>
完 善</w>
为 此</w>
可 用性</w>
时 间
周 期</w>
y a</w>
性 质</w>
ri st
理 念</w>
例 子</w>
角 色</w>
化 学</w>
or s</w>
强 度</w>
ep t
手 段</w>
普 通</w>
il d
美 洲</w>
事 项</w>
试 验</w>
饮 料</w>
d el</w>
债 务</w>
保 罗</w>
观 察</w>
档 案</w>
阻 止</w>
Advis or</w>
消 费</w>
约 定</w>
Ph one</w>
Em ail</w>
节 省</w>
精 品</w>
黑 色</w>
图书 馆</w>
有 用</w>
首 次</w>
渡 船</w>
西 方</w>
推 广</w>
强 调</w>
函 数</w>
Aven ue</w>
交 换</w>
鸡 巴</w>
版权 所有</w>
L ab
标 记</w>
I C</w>
资 格</w>
新 闻
否 则</w>
礼 物</w>
定 期</w>
旅 行
民 主</w>
药 物</w>
基 金
H ot
一 款</w>
M in
自 定义</w>
祷 告</w>
旁 边</w>
3 9
保 护
is h
ic h
音 频</w>
机 票价格</w>
钻 石</w>
损 害
损害 赔偿</w>
P ress</w>
不 好</w>
全 球
等 待</w>
亿 美元</w>
案 例</w>
B ou
H O
依 然</w>
os t</w>
U N
8 00</w>
皇 家</w>
发 动机</w>
指 示</w>
一 座</w>
风 景</w>
管理 员</w>
I L
照 明</w>
太阳 能</w>
正 如</w>
en s</w>
明 示</w>
暗 示</w>
氧 化
en c
Sp a</w>
厘 米</w>
失 败</w>
动 作</w>
m 2</w>
il le</w>
电 缆</w>
会 议
A B
播 放</w>
标 识</w>
I E
V iew</w>
电 压</w>
存 储
特 尔</w>
大 酒店</w>
接 入</w>
诊 断</w>
采 购</w>
整 合</w>
u x
3 7
有 没有</w>
Univers ity</w>
il es</w>
i el
G ro
青 年</w>
确 性</w>
默 认</w>
Trip Advisor</w>
不 得
帝 国</w>
万 一</w>
重 点</w>
报 道</w>
l o
快 递</w>
交 通
排 名</w>
ic es</w>
传 送</w>
C o</w>
不 用</w>
业 余</w>
os e</w>
城 堡</w>
杂 志</w>
客户 服务</w>
成 果</w>
各 个</w>
S ol
引 导</w>
w ay</w>
荣 耀</w>
洛 杉
l og
居 住</w>
os h
Ch ina</w>
a h</w>
200 4</w>
Comp any</w>
I S</w>
格 兰</w>
数 字
进 口</w>
A t
司 法</w>
ic o</w>
电 器</w>
册 子</w>
马 来
大 道</w>
Apart ments</w>
G ol
处理 器</w>
确 保
S C
学 位</w>
an e</w>
e a</w>
平 板</w>
il d</w>
地 铁
早 期</w>
设 定</w>
l es</w>
wor ld</w>
民 族</w>
合 物</w>
专 利
6 8</w>
ion s</w>
遇 到</w>
每 间</w>
S D
贷 款</w>
导 航</w>
穆 斯
实 体</w>
G en
C oun
化 学
这 项</w>
精 确</w>
Ste am</w>
创 意</w>
m a</w>
参 阅</w>
修 订</w>
our ce</w>
假 期</w>
家 里</w>
Wor d
宇 宙</w>
小 册子</w>
刺 激</w>
3 8
ub e</w>
t he
工 业
er a</w>
智 慧</w>
怎么 样</w>
机器 人</w>
3 2
就 要</w>
y s
佩 斯</w>
循 环</w>
终 于</w>
看 来</w>
此 处</w>
V al
人 才</w>
森 林</w>
尔 斯</w>
a in
蓝 色</w>
意 外</w>
穆斯 林</w>
新 型</w>
一 个
er t
采 取
国 王</w>
er n</w>
销 商</w>
打 算</w>
性 别</w>
里 斯
图 标</w>
on ic</w>
D el
ma p</w>
r al</w>
o x</w>
还 要</w>
Sy st
优 良</w>
9 5</w>
维 修</w>
as e</w>
Bl og
分 布</w>
gi str
集 中</w>
地铁 站</w>
型 号</w>
纪 念
越 南</w>
ar t</w>
Play er</w>
是 从</w>
事 先</w>
T S
英 寸</w>
部 份</w>
文件 夹</w>
部 长</w>
秘 密</w>
co l
事 务</w>
近 似</w>
怎么 办</w>
1 50</w>
G H
石 油</w>
用户 名</w>
每 次</w>
奥 地
et ail</w>
提供 商</w>
本 书</w>
E N</w>
休息 区</w>
S il
渠 道</w>
手 册</w>
往 往</w>
分 子</w>
下 午</w>
色 情</w>
Ex p
书 桌</w>
拉 斯
公 布</w>
购物 中心</w>
C P
g r
通 用</w>
技 巧</w>
外 国</w>
an s</w>
娱 乐
布 达
V i
北 部</w>
成 人</w>
a g</w>
接 着</w>
n s</w>
a ur
显 著</w>
耶 稣
0. 3</w>
职 员</w>
达 成</w>
定 向</w>
奥地 利</w>
贸 易
D riv
A HC
P ol
级 别</w>
看 起来</w>
Re gistr
难 道</w>
缺 乏</w>
体 育</w>
e k</w>
建 造</w>
发 行</w>
i um</w>
进 程</w>
漂 亮</w>
期 待</w>
S qu
oun d</w>
k a</w>
洛杉 矶</w>
观 光</w>
N at
I R
依 据</w>
忘 记</w>
含 有</w>
第三 者</w>
f rom</w>
共 产
十 二
确保 您</w>
态 度</w>
贴 牌</w>
coo kies</w>
所 谓</w>
S kip</w>
痛 苦</w>
主 机</w>
军 队</w>
m an</w>
SN74 AHC
普 遍</w>
v iew</w>
C R
议 会</w>
许可 证</w>
it t
布达 佩斯</w>
心 中</w>
履 行</w>
收 藏</w>
预 算</w>
i Phone</w>
图 表</w>
ro n</w>
加 以</w>
p er</w>
成 就</w>
ic al</w>
ul t
专 注</w>
启 用</w>
比 利
疑 问</w>
I F
基 地</w>
铁 路</w>
in ese</w>
那 时</w>
损 毁</w>
P S
200 3</w>
C ap
平 面
S ant
M ot
Op t
华 盛
当 中</w>
携 带</w>
澳 门</w>
症 状</w>
替 代</w>
Mar k
餐 饮</w>
留 下</w>
做 到</w>
Res ort</w>
取 代</w>
身 边</w>
创 作</w>
中 心
O l
医 疗
ov e</w>
P L
重 量</w>
总 部</w>
7 1</w>
进 去</w>
19 .
T O
科技 股份</w>
左 右</w>
先 知</w>
衣 柜</w>
公 公</w>
阶 级</w>
听 见</w>
在 内</w>
pro duct</w>
南 部</w>
打 造</w>
随 后</w>
at or</w>
同 步</w>
联 络</w>
co un
我 会</w>
ri d
补 充</w>
谈 判</w>
幸 福</w>
最 多</w>
印 度
污 染</w>
成 长</w>
维 也
零 件</w>
安 静</w>
休 息</w>
任 意</w>
拉 克</w>
卫 生</w>
G e
乐 趣</w>
un d
F in
索 赔</w>
尽 可能</w>
E r
Ap p</w>
一 只</w>
角 度</w>
fl ower</w>
乌 克兰</w>
智能 手机</w>
老 公</w>
工 人</w>
I A</w>
超 级</w>
财 富</w>
瑞 典</w>
m on
真 理</w>
St r
好 处</w>
职 位</w>
悉 尼</w>
订 购</w>
ig ht
N et
优 越</w>
黄 金</w>
宠 物</w>
灵 活性</w>
I n</w>
提 到</w>
P er
6 2</w>
迷 人</w>
Jav a</w>
附 加</w>
I B
上 升</w>
sh ow</w>
u t</w>
出 于</w>
诉 讼</w>
线 路</w>
后 果</w>
接 送</w>
电 力</w>
预 定</w>
ay a</w>
Us er</w>
L e</w>
f r
M et
露 营地</w>
h ai</w>
c amp
永 恒</w>
局 部
J P
财 务</w>
出 色</w>
耶稣 基督</w>
维也 纳</w>
W est
he n</w>
旧 金
龙 涛</w>
oc k</w>
国 人</w>
愿 望</w>
前 述</w>
管 辖</w>
时 刻</w>
投 入</w>
伦 萨</w>
i x
好 好</w>
8 6</w>
电 邮</w>
四 个</w>
转换 器</w>
纤 维</w>
葡萄 牙</w>
旅 程</w>
物 业</w>
拍 摄</w>
佛罗 伦萨</w>
R oo
旋 转</w>
Stud io</w>
马来 西亚</w>
us s
阳 光</w>
z a</w>
促 销</w>
拯 救</w>
精 度</w>
仪 器</w>
皮 肤</w>
面 板</w>
灵 魂</w>
G D
流 行</w>
0. 5</w>
几 年</w>
as s</w>
重 复</w>
转 变</w>
玩 家</w>
水 疗</w>
大 厦</w>
苏 联</w>
基 本
圣 诞
联系 方式</w>
习 惯</w>
莫 斯科</w>
回 应</w>
表 演</w>
爸 爸</w>
摩 西</w>
w h
现 象</w>
墨 尔
o l</w>
运 作</w>
员 国</w>
指 标</w>
ac c
暖 气</w>
成 熟</w>
足 球</w>
维 尔</w>
C amp
显 然</w>
情 形</w>
a p</w>
遗 产</w>
6 9</w>
生 物
商 标
门 口</w>
奖 励</w>
N Y</w>
分 公司</w>
预 期</w>
签 署</w>
太 阳</w>
去 年</w>
运 动
电 视
出 版
这 时</w>
实 在</w>
兄 弟</w>
10 0
Word Press</w>
环 境
局部 性</w>
伊 朗</w>
C E
精 密</w>
EU R</w>
液 体</w>
壁 纸</w>
阿拉 伯
有 所
实 用</w>
面 向</w>
两 人</w>
e c</w>
比利 时</w>
尔 顿</w>
产 地</w>
丈 夫</w>
H ar
竟 然</w>
积 分</w>
祭 司</w>
D E
阿拉 伯</w>
V M
C A</w>
尔 德</w>
铁 艺</w>
o k</w>
合 并</w>
场 合</w>
c a</w>
借 助</w>
犯 罪</w>
门 徒</w>
ma in</w>
t a</w>
连接 器</w>
或 本</w>
英 里</w>
st ars</w>
烤 箱</w>
平面 设计</w>
纳 入</w>
墨尔 本</w>
W at
接 待</w>
地 面</w>
申请 人</w>
L O
N o
次 数</w>
至 于</w>
推 进</w>
日 起</w>
w w
or d
研 讨
道 德</w>
护 理</w>
要 是</w>
自 助</w>
会 儿</w>
匹 配</w>
模 具</w>
企 业
rig ht</w>
加 利
j ect</w>
h a
M ag
6 00</w>
最 小</w>
CA D</w>
头 发</w>
0. 0</w>
衍 生</w>
教 徒</w>
内 存</w>
旧金 山</w>
身 心</w>
军 事</w>
7 7</w>
简 化</w>
R et
标 准
D N
条 约</w>
像 素</w>
AP I</w>
E v
车 客</w>
黑 暗</w>
v ide
天 使</w>
电 动</w>
所 有人</w>
美 好</w>
S m
公 告</w>
释 放</w>
An t
更 换</w>
投 诉</w>
强 烈</w>
民 主
st ar</w>
基金 会</w>
s s
兼 容</w>
中 方</w>
303 19</w>
IS O</w>
一 眼</w>
一 代</w>
G ard
彼 得
叙 利亚</w>
慢 慢</w>
年 前</w>
外 观</w>
分 辨
调 用</w>
不 了</w>
卫星 电视</w>
实 验</w>
样 品</w>
S ing
Prof ile</w>
各 类</w>
6 3</w>
驾 驶</w>
学 会</w>
深 入</w>
海 外</w>
研讨 会</w>
凭 借</w>
手 动</w>
P et
后 面</w>
调 节</w>
信 任</w>
加 密</w>
舒 服</w>
协 定</w>
g u
分辨 率</w>
最 初</w>
主 教</w>
二 手</w>
an o</w>
Registr ant</w>
排 除</w>
自 我</w>
不得 不</w>
视 图</w>
时间 表</w>
is t</w>
编 辑
硬 盘</w>
if e</w>
要 性</w>
地 带</w>
俄罗 斯
重 定向</w>
入 口</w>
一 百
T H
决 策</w>
浪 漫</w>
Se ar
a j
典 型</w>
M o
ing s</w>
T S</w>
生产 线</w>
网 址</w>
A z
客户 端</w>
订 立</w>
y ou</w>
进 步</w>
频 率</w>
西班 牙语</w>
十字 架</w>
做 法</w>
追 求</w>
I G
办 事
政 治
定 位</w>
兑 换</w>
前 面</w>
B el
哥 伦
D L</w>
联系 人</w>
负 载</w>
B re
高尔 夫
差 异</w>
人 生</w>
更 大</w>
复 活</w>
匈 牙
收 购</w>
兴 奋</w>
房 屋</w>
协 调</w>
Un ited</w>
Manag er</w>
加 速</w>
端 口</w>
x x</w>
A N</w>
览 会</w>
Dis co
对 不起</w>
C re
B al
百 分
南 非</w>
所 说</w>
n a</w>
el op
X X
i g</w>
警 告</w>
排 放</w>
中 断</w>
分 发</w>
d o</w>
成 员国</w>
城 市
各 样</w>
50727. 54
众 人</w>
请 参阅</w>
l and
洗衣 机</w>
记 住</w>
Red irect
容 量</w>
段 时间</w>
oc k
遭 受</w>
为 何</w>
变 量</w>
camp site</w>
电 话
刚 才</w>
1. 5</w>
婴 儿</w>
之 旅</w>
哪 个</w>
分 析
威 尼斯</w>
asc ript</w>
u f
桌 面</w>
S S</w>
l et
A C</w>
面 包
首 席</w>
织 品</w>
C M
非 法</w>
逐 渐</w>
欢 迎
上 去</w>
氛 围</w>
ag o</w>
200 2</w>
路 径</w>
大 理
Blog ger</w>
e k
掌 握</w>
高 性能</w>
从 来</w>
依 照</w>
L og
呈 现</w>
9 6</w>
当 前
A U
7 2</w>
大理 石</w>
人民 法院</w>
n o</w>
奥 斯
平 均
ol a</w>
夫 人</w>
W in
电 流</w>
案 件</w>
00 1</w>
Redirect ing</w>
S im
An al
酒 店
侯 龙涛</w>
i al
边 缘</w>
即 将</w>
v s</w>
o ol
G 4</w>
装 修</w>
官 员</w>
P ost
金 额</w>
斯 洛
街 道</w>
口 头</w>
经 销商</w>
董 事会</w>
办事 处</w>
苹 果</w>
英 特尔</w>
书 籍</w>
Ex c
A S</w>
咖啡 机</w>
信 赖</w>
大 规模</w>
配 合</w>
中 亚</w>
re e</w>
清 洗</w>
优 点</w>
特 朗
家庭 式</w>
T O</w>
思 考</w>
航空 公司</w>
参 见</w>
H an
切 割</w>
想 象</w>
美 景</w>
检 验</w>
ubl ic</w>
构 架</w>
协 作</w>
加 上</w>
Technolog ies</w>
过 滤
报 价</w>
依 赖</w>
群 体</w>
年 人</w>
顶 部</w>
T E</w>
对 方</w>
5 5
暂 时</w>
吩 咐</w>
迪 拜</w>
身 子</w>
预 防</w>
特朗 普</w>
er al</w>
ab out</w>
节 目</w>
景 观</w>
热 情</w>
6 1</w>
保 健</w>
全 包</w>
Ch ar
ay s</w>
E C
罗马 尼亚</w>
考 试</w>
天 堂</w>
天 然</w>
引 力</w>
m an
R ue</w>
劳 动
M ont
F un
201 9</w>
T P</w>
附 件</w>
燃 料</w>
D r
Cl ub</w>
优 雅</w>
捷 克</w>
w as</w>
th at</w>
日 常</w>
演 示</w>
v e</w>
t im
S am
填 写</w>
小 组</w>
吸 烟</w>
遵 循</w>
彼 得</w>
in c
技术 支持</w>
ot e</w>
说 完</w>
暴 力</w>
Cent re</w>
高 品质</w>
L E</w>
Driv e</w>
艺术 家</w>
清 晰</w>
G ame</w>
a x</w>
高 潮</w>
监 督</w>
Jav ascript</w>
on a</w>
6 7</w>
天 然
一 声</w>
5 3
人 物</w>
男 性</w>
Z h
持 续
外 交
m b
当前 情况</w>
h ouse</w>
T im
营 商</w>
投 选</w>
平 等</w>
ol l
O ff
303 19.
设 备
古 老</w>
太 平
C op
Cor por
Cent ral</w>
手 指</w>
易 于</w>
o y
Com m
ell a</w>
容 器</w>
n e
不 住</w>
假 日</w>
N e
融 合</w>
in i</w>
敏 感</w>
记 得</w>
d es
打 印
手 中</w>
来 看</w>
有 者</w>
更 为</w>
执 行
M il
12 0</w>
高 层</w>
物 园</w>
匈牙 利</w>
教 师</w>
成 分</w>
R iv
9 1</w>
欧 洲
L ive</w>
D M
Pr o</w>
上 海
i ang</w>
gi f</w>
有 效
医 学</w>
w eb
公 司
第二 十
菲 律
App le</w>
做 好</w>
m iles</w>
Sh ang
热 带</w>
阿 姆
ic h</w>
L S
en a</w>
花 束</w>
加 热</w>
合 法</w>
E T</w>
编辑 器</w>
ou d</w>
情 绪</w>
充 分
展 开</w>
新 鲜</w>
气 候
此 时</w>
z i</w>
纽 约
独 家</w>
B er
高 质量</w>
晚 餐</w>
名 单</w>
人 家</w>
就 业</w>
y l
过滤 器</w>
作 业</w>
G B</w>
B O
加 斯</w>
r y</w>
7 5
un g</w>
L V
零 部件</w>
D own
销 售
之 下</w>
摄像 头</w>
投 票</w>
得 以</w>
0. 4</w>
第 五
巴 士</w>
d a</w>
数 百
理 事会</w>
少 年</w>
仆 人</w>
洗 碗
200 1</w>
M or
专业 人士</w>
炉 灶</w>
n ey</w>
州 市</w>
那 种</w>
结 婚</w>
Res id
设计 师</w>
接 下来</w>
进 来</w>
持 有</w>
aul t</w>
an k</w>
汽车 旅馆</w>
干 什么</w>
现 金</w>
逻 辑</w>
7 8
M al
洗碗 机</w>
T he
ang e</w>
列 出</w>
an k
这 位</w>
所 述</w>
延 长</w>
总 理</w>
O ut
马 德里</w>
Ar t
照 顾</w>
上 传</w>
权 人</w>
这 篇</w>
ur al</w>
见 证</w>
予 以</w>
缺 陷</w>
斯 顿</w>
期 望</w>
彼 此</w>
回 家</w>
密 度</w>
oo l</w>
P R
a b</w>
Bl og</w>
Tr ans
A le
见 到</w>
ou s</w>
生 命
这 座</w>
omb ia</w>
对 本</w>
审 判</w>
A ut
笔 记
ot h
C it
询 问</w>
首 都</w>
胜 利</w>
激 活</w>
深 度</w>
Disco ver</w>
融 资</w>
彼得 堡</w>
D r</w>
统 治</w>
存 放</w>
色 彩</w>
前 提</w>
A ct
一 会儿</w>
为 止</w>
水 族
7 6</w>
Cam s</w>
退 出</w>
日 志</w>
X P</w>
ation s</w>
Pro duct</w>
ap p
Host el
劳 动</w>
K B</w>
卫 星</w>
d e
N ov
素 贞</w>
d ata</w>
体 现</w>
al a</w>
效 应</w>
er o</w>
飞 行</w>
7 0
S we
印 象</w>
编 码</w>
马 尔
分 离</w>
M B</w>
糖 尿
中 东</w>
俄罗斯 联邦</w>
2. 5</w>
1. 1</w>
小 厨房</w>
出 席</w>
内 置</w>
彻 底</w>
出 生</w>
M od
华盛 顿</w>
简 称</w>
各 自</w>
F air
Be h
W est</w>
深 刻</w>
oo d
国 务
常 常</w>
插 入</w>
进 展</w>
便 捷</w>
竞争 力</w>
报 纸</w>
j o
B ay</w>
与 此
克 罗
戒 指</w>
un g
S er
天 主</w>
回 去</w>
放 置</w>
可 爱</w>
设备 齐全</w>
写 作</w>
别 的</w>
先 前</w>
e an</w>
on to</w>
T I</w>
ic on</w>
必 需</w>
准 则</w>
ig n
糖尿 病</w>
视 觉</w>
焊 接</w>
刚 刚</w>
Ch inese</w>
家 族</w>
ar i</w>
漏 洞</w>
M ed
9 8
总 裁</w>
谢 谢</w>
从 未</w>
V ide
M A</w>
条 例</w>
ir a</w>
侵 害</w>
M as
害 怕</w>
E u
库 存</w>
主 动</w>
眼 前</w>
律 法</w>
菲律 宾</w>
私 权</w>
一 套</w>
Lab els</w>
续 费</w>
A R</w>
7 8</w>
l i
透 明</w>
稳 定性</w>
教 学</w>
丹 麦</w>
缓 存</w>
ow er
im age</w>
食 品
行 程</w>
d i</w>
n ot</w>
文 学</w>
1. 2</w>
Sear ch</w>
隐 私权</w>
百 姓</w>
Tec h</w>
h r</w>
沙 滩</w>
年 轻
消 失</w>
今 日</w>
P at
ik e</w>
支 出</w>
on d</w>
C our
am a</w>
呼 吸</w>
关 心</w>
冒 险</w>
双 手</w>
至 关
ot t
辅 助</w>
无 限</w>
y st
us t</w>
TC 1
ear ch</w>
E S
广 告
冠 军</w>
运 营商</w>
至关 重要</w>
o f
其 余</w>
Re g
重 要性</w>
所 在
未 找到</w>
风 暴</w>
生 素</w>
单 一</w>
阿姆 斯特
G er
大 号</w>
N o</w>
赫 尔
c he
A L</w>
气候 变化</w>
一 体</w>
明 亮</w>
新 兴</w>
ro om</w>
这 件</w>
教 练</w>
V er
a c</w>
生 效</w>
K ar
准 确性</w>
3 3
涵 盖</w>
各 种
le v
s e
无 障碍</w>
倘 若</w>
长 时间</w>
压 缩
一 句</w>
著 作
计算 机
P O
国 会</w>
布 尔</w>
乘 坐</w>
财 政</w>
中 有</w>
不 知</w>
抽 烟</w>
利 斯</w>
不 行</w>
B as
沏 茶</w>
视 频
女 士</w>
R ad
邮 箱</w>
熟 悉</w>
回 收</w>
用 具</w>
途 径</w>
in ess</w>
U C
h am</w>
A k
元 件</w>
u an</w>
期 限</w>
旅行 者</w>
可 见</w>
9 0
俯 瞰</w>
C ro
My SQL</w>
乐 园</w>
B ed
场 景</w>
身 份
B us
神 圣</w>
估 计</w>
on t</w>
市 区</w>
月 份</w>
手 术</w>
主 任</w>
Tor onto</w>
培 养</w>
领 袖</w>
new s
轻 轻</w>
有 所</w>
Am er
伊斯 兰</w>
临 时</w>
层 面</w>
餐 桌</w>
活 力</w>
Gr and</w>
判 断</w>
D C</w>
Corpor ation</w>
引 发</w>
am es</w>
St at
Gre en</w>
博 彩</w>
ail s</w>
9 2</w>
Hostel world</w>
K el
命 名</w>
装 备</w>
地 毯</w>
模 特</w>
液 压</w>
Mus e
官 方
n ame</w>
敌 人</w>
熨 斗</w>
天然 气</w>
事 故</w>
ow ay</w>
基督 教</w>
会议 室</w>
传 递</w>
s o</w>
pl o
区 别</w>
VM ware</w>
s ch
P e
M c
4 8
Th is</w>
阿姆斯特 丹</w>
研究 所</w>
主 张</w>
eg ory</w>
Pl ace</w>
算 法</w>
m s</w>
法 兰
m y</w>
上 次</w>
过 滤</w>
烧 烤</w>
天 上</w>
7 4</w>
维 加斯</w>
缔 约
不 少</w>
饮 食</w>
由 此</w>
G A</w>
适 销</w>
赐 给</w>
Exp ress</w>
厨 房
u a</w>
橡 胶</w>
第 六
提 及</w>
协 商</w>
9 3
wit ter</w>
诸 如</w>
日 至</w>
立 刻</w>
Squ are</w>
Beh ance</w>
庆 祝</w>
D A
热 水</w>
外 面</w>
布 局</w>
微 软</w>
房 价</w>
事 务
动 画</w>
单 人
节 性</w>
各 方</w>
男 孩</w>
em ent</w>
O ne</w>
服 装</w>
贝 尔
却 是</w>
犹 大</w>
it al</w>
紧 张</w>
半 岛</w>
一 同</w>
总 体</w>
数字 化</w>
风 扇</w>
后 续</w>
论 文</w>
德 语</w>
概 述</w>
zh ou</w>
难 以</w>
St ate</w>
M L
2 1
od a</w>
Opt oway</w>
床 间</w>
er t</w>
or n
M E
克 斯坦</w>
塞 尔</w>
i i</w>
老 婆</w>
重 视</w>
ij ing</w>
面包 机</w>
病 人</w>
G L
采 集</w>
h a</w>
m ail</w>
召 开</w>
V ir
it s</w>
适 用
烤 面包机</w>
原 理</w>
P i
访 问
管理 系统</w>
宿 舍</w>
股 东</w>
拉斯 维加斯</w>
社会 主义</w>
心 脏</w>
有所 不同</w>
形 象</w>
an y
大 西
P E</w>
超 越</w>
F TR</w>
打印 机</w>
季 节性</w>
列 车</w>
阿 密</w>
衣 橱</w>
实 惠</w>
衣 架</w>
士 学位</w>
移 除</w>
干 扰</w>
警 察</w>
北 京
对 手</w>
Ar ch
a ut
迈 阿密</w>
R d</w>
文 化
主 管</w>
提 醒</w>
交易 所</w>
uc k
管 道</w>
有 机</w>
主 人</w>
8 6
工 资</w>
New s</w>
Syst em</w>
S ec
治 理</w>
豪 华
与 其</w>
战 斗</w>
Gro up</w>
夏 季</w>
切 换</w>
民 众</w>
手 续</w>
巴 基
开 启</w>
抓 住</w>
极 大</w>
公 平</w>
St ates</w>
完 整
C C</w>
侵 权
iel d</w>
av ig
英 尺</w>
走 进</w>
路 上</w>
编 号</w>
健 身
不 必</w>
7 9</w>
塞 尔
数据 中心</w>
声 称</w>
两 年</w>
班 车</w>
本 款</w>
Cas t
供应 链</w>
Sant a</w>
展 会</w>
里 兰
Shang hai</w>
大 战</w>
Jo h
加 载</w>
低 于</w>
加利 福
地 铁</w>
几 天</w>
at ed</w>
学 者</w>
播放 机</w>
下 榻</w>
s a</w>
到 来</w>
侵权 行为</w>
is s</w>
多 么</w>
Y ou
很 少</w>
干 预</w>
代理 商</w>
g et</w>
c ent
招 聘</w>
一 片</w>
科 学家</w>
一 阵</w>
JP G</w>
加 快</w>
休息 室</w>
一 半</w>
吸 引力</w>
高 速
荣 誉</w>
第二 个</w>
大 众</w>
祝 福</w>
像 是</w>
GD P</w>
gt on</w>
A u
联合 国
华 沙</w>
伊 拉克</w>
电 气</w>
多 次</w>
控制 系统</w>
H el
In f
专 有</w>
Cl oud</w>
纪 念</w>
景 色</w>
p e</w>
提供 者</w>
另 有</w>
3 5
快 捷</w>
全 权</w>
Sou th</w>
发 送
乡 村</w>
0. 6</w>
ail able</w>
7 3</w>
玩 具</w>
et a</w>
门 票价格</w>
啤 酒</w>
脚 本</w>
分 区</w>
潜 力</w>
大 楼</w>
高 清</w>
尼亚 州</w>
节 能</w>
假 设</w>
用 作</w>
零 售</w>
M ob
高 达</w>
午 餐</w>
共 同
年 来</w>
r u</w>
Sh ow
股 票</w>
年轻 人</w>
结 构
T V</w>
G ir
Serv ice</w>
注册 名</w>
呼 吁</w>
Wor ld</w>
慕 尼
撰 写</w>
赫尔 辛
巴基 斯坦</w>
B ed</w>
m ore</w>
亚 历
Por t
答 应</w>
奇 怪</w>
国 外</w>
慕尼 黑</w>
物 料</w>
大 概</w>
姊 妹</w>
记 者</w>
H ig
太平 洋</w>
E M</w>
不 敢</w>
转 向</w>
共 有</w>
W i</w>
证 券</w>
器 件</w>
中 等</w>
E ast</w>
口 气</w>
总 数</w>
货 币
离 子</w>
一 月</w>
Coun try</w>
or a</w>
Vis a</w>
决 议</w>
ro l
9 8</w>
电 动
优 先</w>
这 场</w>
法 语</w>
K h
转 型</w>
节 点</w>
东 京</w>
约 翰
摄 影</w>
加 勒
8 2</w>
异 常</w>
魅 力</w>
多 样
概 览</w>
Can ada</w>
不 足</w>
限 度</w>
尚 未</w>
l in</w>
N O
胡 志
某 种</w>
合 法
使 徒</w>
表 情</w>
测 试
零 售
旅游 景点</w>
en d</w>
本 人</w>
进 口商</w>
相 互</w>
T e
此 次</w>
真 空</w>
退 房</w>
7 00</w>
2 2
成 绩</w>
海 滨</w>
pro duct
上 午</w>
电子 商务</w>
演 出</w>
一 把</w>
g l
Sk ype</w>
EM FTR</w>
本 来</w>
源 代码</w>
共产 党</w>
任 命</w>
s l
金 属
Pro v
av ailable</w>
电 影
宝 石</w>
199 9</w>
早 上</w>
成 器</w>
秒 杀</w>
部 队</w>
A G
高 温</w>
过 期</w>
燃 油</w>
工 具
P ower
w e</w>
瓷 砖</w>
阿 根
M ac
轨 道</w>
CO M</w>
回 报</w>
Hol id
美 味</w>
熨 烫</w>
b e</w>
M e
8 9</w>
精 彩</w>
一 部</w>
密 封</w>
Be ijing</w>
冲 击</w>
高尔 夫</w>
立 场</w>
S D</w>
R F
容 纳</w>
还 会</w>
Su per
梦 想</w>
承 受</w>
格 兰
示 例</w>
g an
共 用</w>
分 为</w>
om ain</w>
厂 家</w>
留 在</w>
M B
El ectronics</w>
都 柏林</w>
舒 适
Re st
直 径</w>
Sing ap
玻 璃
该 国</w>
光 学</w>
符 号</w>
建筑 物</w>
安 保</w>
公 寓
行 使</w>
副 本</w>
sp a</w>
白 素贞</w>
is h</w>
8 1</w>
直 播</w>
毫 米</w>
受 益</w>
因 而</w>
星 期</w>
气 氛</w>
显示 器</w>
S i
t ype</w>
朝 鲜</w>
如 同</w>
重 新
r it
屋 顶</w>
发 明</w>
0. 7</w>
爆 发</w>
仓 库</w>
练 习</w>
温 泉</w>
M er
c k
强 制
M el
直 达</w>
输 入
A T</w>
阿根 廷</w>
使 命</w>
记 忆</w>
精 选</w>
j a</w>
Nor th</w>
婚 礼</w>
uf act
丁 堡</w>
样 式</w>
几 分钟</w>
大 街</w>
导 体</w>
we b</w>
发 言</w>
冰 毒</w>
Cont act</w>
多 种
I V
D S</w>
字 符</w>
d en</w>
发 出
冷 却</w>
毕 竟</w>
own a</w>
B est</w>
一 段时间</w>
产 量</w>
水 果</w>
m e
开 放
L T
创 造
追 踪</w>
海 景</w>
不 仅仅</w>
男 子</w>
b r</w>
干 燥</w>
特 拉</w>
多 样</w>
磁 盘</w>
充 电</w>
ufact ur
Kel owna</w>
缤 客</w>
in s</w>
日 益</w>
延 迟</w>
基 因</w>
当 局</w>
克 里
强 化</w>
教 训</w>
高尔夫 球场</w>
季 度</w>
除 此
境 内</w>
灵 性</w>
我 国</w>
原 料</w>
东 方</w>
突 出</w>
cl ass
卫星 频道</w>
s v
ol d</w>
对 面</w>
极 端</w>
M P</w>
祈 祷</w>
影 片</w>
R os
S el
科 学
流 动</w>
u l</w>
温 暖</w>
价 值
d u</w>
人 体</w>
Ch rist
一 块</w>
效 益</w>
下 述</w>
理 学</w>
卡 拉</w>
Ret ur
d s</w>
留 言</w>
生 存</w>
手 工</w>
生 成器</w>
宪 法</w>
干 洗</w>
包 装
人民 币</w>
u plo
液 晶
t y
h ave</w>
芝 加
蛋 白</w>
农 场</w>
E S</w>
不 久</w>
电 烧</w>
9 4</w>
花 费</w>
S H
事 物</w>
亚历 山
低 价</w>
An d</w>
无 法
附 加
com p
北 美</w>
依 法</w>
注 意
归 档</w>
给 出</w>
王 国</w>
por t
1. 6</w>
完整 性</w>
Sa int</w>
领 土</w>
克罗 地
D R
公寓 式</w>
T witter</w>
背 后</w>
当 天</w>
our s</w>
维 基</w>
搜 索
送 餐</w>
D A</w>
一 段</w>
岛 屿</w>
指 令</w>
恐 惧</w>
转 化</w>
相 似</w>
领导 者</w>
免 受</w>
小 心</w>
E T
199 8</w>
大 使</w>
七 月</w>
或 车</w>
br and</w>
一 体
消 耗</w>
得 救</w>
插 件</w>
电话 号码</w>
是 说</w>
影 响
1. 3</w>
业 务
im g</w>
时 刻
麻 织品</w>
ww w</w>
仔 细
福 利</w>
打 击</w>
如 需</w>
Singap ore</w>
影响 力</w>
对 比</w>
劳 动力</w>
sh op</w>
Roo m</w>
心 理</w>
维 生素</w>
演 讲</w>
it ion</w>
导 入</w>
走 向</w>
内 外</w>
小 姐</w>
N S
想 起</w>
思 维</w>
微 笑</w>
里 亚</w>
伊斯 兰
用 力</w>
H z</w>
官方 网站</w>
Des ign</w>
海 上</w>
大 厅</w>
实 行</w>
的 确</w>
iz ation</w>
自 主</w>
p re
综 合
克 力</w>
电 热
Is land</w>
镜 头</w>
Cl ick</w>
Sp r
Phot o
f t
每 周</w>
毕 业</w>
R om
C C
y th
机 床</w>
Res ource</w>
看 法</w>
P an
ex t</w>
et s</w>
Man ufactur
Inter net</w>
h el
乳 房</w>
Po d</w>
巴 勒
0. 8</w>
i ed</w>
ad e
ri s</w>
潜 水</w>
西 部</w>
大 堂</w>
B ur
脂 肪</w>
8 3</w>
碎 机</w>
卫生 纸</w>
F e
P W
产 阶级</w>
am b
城 区</w>
9 3</w>
惊 讶</w>
绘 制</w>
花 卉</w>
合作 者</w>
宁 静</w>
尽 快</w>
扮 演</w>
振 动</w>
之 日起</w>
吸 收</w>
生 活
光 纤</w>
1 10</w>
平 安</w>
同 事</w>
石 头</w>
实 力</w>
依 靠</w>
全 套</w>
经 文</w>
之 内</w>
M ad
bu y</w>
Su ite</w>
发展 中
发展中 国家</w>
B R
不 停</w>
大西 洋</w>
od ge</w>
体 中文</w>
人 群</w>
清 洁
最 为</w>
avig ation</w>
Gard en</w>
较 大</w>
桑 拿</w>
M S</w>
健身 房</w>
走 路</w>
对 应</w>
青 少年</w>
斯 里兰
天 气
所 有者</w>
利 于</w>
Muse um</w>
Lim ited</w>
英 雄</w>
S w
透 露</w>
时刻 表</w>
芯 片</w>
滑 雪</w>
y le</w>
ap h
抽 象</w>
D ou
明 市</w>
vi ew
ch ild</w>
ool s</w>
远 离</w>
商 城</w>
in ce</w>
US A</w>
交 给</w>
W al
套 件</w>
赋 予</w>
层 次</w>
压 缩</w>
服务 提供商</w>
引 入</w>
老 板</w>
斗 争</w>
版权 法</w>
搜索 引擎</w>
恐 怖
更 是</w>
G N
第二 天</w>
SE O</w>
尼 西亚</w>
Cas a</w>
不 论</w>
i k</w>
H D</w>
之 地</w>
实 例</w>
疯 狂</w>
厨房 用具</w>
Col ombia</w>
补 偿</w>
功 能
脱 离</w>
仪 式</w>
Hot els</w>
露 出</w>
阿 富
参 与
Un is
l s</w>
负 责
M y</w>
捷 克
b g</w>
az a</w>
R ob
本 质</w>
同 性
Rest aur
Off ice</w>
A M</w>
钥 匙</w>
每 月</w>
跟 着</w>
发出 通知</w>
p ar
y m
紧 紧</w>
内 心</w>
办 公</w>
含 量</w>
ell o</w>
目 光</w>
杭 州</w>
终 端</w>
化 工</w>
日 历</w>
Con n
点 头</w>
ax d</w>
陶 瓷</w>
麻 烦</w>
un d</w>
Gu est</w>
c u
Op en
CS S</w>
玫 瑰</w>
牛 奶</w>
法律 责任</w>
常 规</w>
何 时</w>
万 豪</w>
acc ept
么 样</w>
b i
Int el</w>
睡 眠</w>
教 导</w>
制 成</w>
与此 同时</w>
所 有权</w>
H ill</w>
4 5
即 便</w>
i P
L C</w>
观 众</w>
座 位</w>
生产 率</w>
et ails</w>
h ere</w>
E C</w>
胡志 明市</w>
明 星</w>
地 标</w>
赌 博</w>
at e
就 是说</w>
l y
H u
前 景</w>
上 万</w>
常 用</w>
Cas ino</w>
空 气
电 路</w>
Photo Fun
PhotoFun ia</w>
服务 商</w>
名 为</w>
马 拉
难 忘</w>
阿富 汗</w>
G mb
o d</w>
ur y</w>
Bus iness</w>
球 员</w>
挪 威</w>
id a</w>
遭 到</w>
摄像 机</w>
施 工</w>
爱 丁堡</w>
对 待</w>
士 顿</w>
床 位</w>
Unis onic</w>
开 心</w>
什 么样</w>
Retur ns</w>
便 是</w>
奖 金</w>
雅 典</w>
ai r</w>
In form
涂 层</w>
国务 院</w>
Nat ural</w>
提 取</w>
天 空</w>
C ode</w>
卡 车</w>
Fl or
ob al</w>
J ul
accept ed</w>
不 够</w>
in k
成 千
除此 之外</w>
肌 肉</w>
外 壳</w>
SA P</w>
筛 选</w>
vide os</w>
少 数</w>
嘴 里</w>
一 方</w>
l ook</w>
in es</w>
地 理</w>
法 案</w>
之 遥</w>
专 属</w>
建 模</w>
斯里兰 卡</w>
动 物园</w>
8 4</w>
斯 坦
P P
it h</w>
英 格兰</w>
阁 下</w>
Dev ices</w>
愤 怒</w>
议 院</w>
ec h</w>
腕 表</w>
T own</w>
巴 马</w>
惊 人</w>
El ect
各种 各样</w>
三 年</w>
鼠 标</w>
已 有</w>
另一 方面</w>
可 怕</w>
ov er</w>
am s</w>
成千 上万</w>
日 内
去 过</w>
附 属</w>
g ir
已 知</w>
Gmb H</w>
现 状</w>
u res</w>
第三 十
p ublic</w>
L ake</w>
财 政
Web Resource</w>
4 2
E l</w>
P ay
Fair child</w>
飓 风</w>
审 核</w>
ik i</w>
重 建</w>
m od
咨 询
恩 典</w>
可 视
高 压</w>
早 晨</w>
Dev elop
芝加 哥</w>
IN G</w>
一 无
手 里</w>
Pro ject</w>
Holid ay</w>
I tal
存 款</w>
单 个</w>
容 性</w>
分 之一</w>
合 成</w>
信 用</w>
ou s
爱 好
S K
键 盘</w>
仲 裁
围 绕</w>
Ag oda</w>
维 多
没 想到</w>
认 真</w>
New s
效 力</w>
y t
bur g</w>
既 然</w>
摩 托
il a</w>
专业 知识</w>
乃 是</w>
En ter
政 权</w>
ri x</w>
Ro y
电热 水壶</w>
o en
难 以
英 文
悠 久</w>
On line</w>
职 业
log in</w>
各 处</w>
画 面</w>
叉 车</w>
Sh ar
停 止
v ille</w>
心 情</w>
生产 商</w>
有 力</w>
ent o</w>
改 造</w>
凤 凰</w>
Lin k</w>
Mot or
投 注</w>
B i
爱好 者</w>
w ood</w>
S un
迁 移</w>
底 部</w>
Pl us</w>
明 天</w>
on s</w>
珠 宝</w>
S ur
校 准</w>
当 代</w>
发 送到</w>
典 雅</w>
优 惠
剩 下</w>
知 名</w>
临 床</w>
C E</w>
Pro duct
奥 尔
S ex
唤 醒</w>
Po int</w>
显示 屏</w>
制造 业</w>
椅 子</w>
T A</w>
订 房</w>
经 由</w>
上 主</w>
开 业</w>
K r
IM E</w>
Cop y
贝 尔</w>
究 竟</w>
Su b
ap p</w>
陈 述</w>
程 序
it o</w>
E st
S l
度 过</w>
液晶 电视</w>
托 管</w>
停止 使用</w>
ic an</w>
f er
遍 及</w>
繁 荣</w>
9 7</w>
结 论</w>
多 伦
停 留</w>
事务 所</w>
en z
爱 好</w>
塑 料
CR M</w>
权 益</w>
姆 斯</w>
赫尔辛 基</w>
199 7</w>
温 度
公 主</w>
证 实</w>
不 幸</w>
苏 黎
St ar</w>
雇 员</w>
ob s</w>
P N</w>
拖 鞋</w>
L ond
蒸 汽</w>
尽 情</w>
民 间</w>
品 种</w>
in e
13 13</w>
付 费</w>
osh op</w>
假 日
全 景</w>
ai s</w>
y s</w>
w ork</w>
垃 圾
冬 季</w>
奥 林
话 题</w>
预 报</w>
假日 酒店</w>
曲 线</w>
沙 发
广 播</w>
九 月</w>
m er</w>
上 来</w>
o v</w>
聚 集</w>
经济 体</w>
聚 会</w>
ti que</w>
I L</w>
中 文
6 7
复 兴</w>
带 到</w>
燃 烧</w>
for d</w>
相 互
B A</w>
3 60</w>
W ill
雇 用</w>
al s</w>
这 话</w>
多 达</w>
音 机</w>
足 以</w>
ad er</w>
紧 急</w>
an al</w>
Cat egory</w>
毫 无
e z
袭 击</w>
U l
破 碎机</w>
事 宜</w>
IB M</w>
腐 败</w>
半 导体</w>
主 义
光 临</w>
Az ure</w>
认 定</w>
ot t</w>
输入 您</w>
放 心</w>
哲 学</w>
TC 1313</w>
之 上</w>
i y
办公 桌</w>
i Pod</w>
Or gan
咖啡 厅</w>
rid ge</w>
ist a</w>
线 性</w>
ect ion</w>
沙发 床</w>
V C</w>
T ube</w>
ur a</w>
本 文</w>
渴 望</w>
显 得</w>
发 电</w>
评 级</w>
驱动 程序</w>
行 业
Re al
Pl aza</w>
商务 中心</w>
2. 2</w>
窗 户</w>
空 中</w>
夏 天</w>
Resid ence</w>
一 路</w>
S A</w>
圣诞 节</w>
隔 离</w>
波 尔
陷 入</w>
住 所</w>
遍 布</w>
二 氧化
不 见</w>
神 秘</w>
ion al</w>
Han zi</w>
D an
六 月</w>
宝 贝</w>
g h</w>
而 已</w>
邪 恶</w>
30319. 34
am il
廉 价</w>
0 8
价 格
缩 短</w>
发 生
美 术
游 泳</w>
虚 假</w>
T L
法兰 克
税 收</w>
禁 用</w>
当 今</w>
199 5</w>
10 1</w>
f ast</w>
B ang
五 年</w>
V eg
首 尔</w>
P A</w>
it a</w>
眼 中</w>
使用 寿命</w>
木 材</w>
至 今</w>
亲 自</w>
自 助
毗 邻</w>
灾 难</w>
央 行</w>
女 子</w>
五 月</w>
if ied</w>
水族 馆</w>
3. 5</w>
顺 利</w>
L ife</w>
T w
奥 巴马</w>
地 处</w>
L ux
方 位</w>
区 间</w>
菜 肴</w>
希 尔顿</w>
S U
大 幅</w>
拉 丁
苏黎 世</w>
生 态</w>
谢 您</w>
秘 书
斯 克</w>
or g
物 体</w>
两 次</w>
多伦 多</w>
class if
L o
ag s</w>
宽 度</w>
除 外</w>
P art
特 大号</w>
很 难</w>
Lond on</w>
庭 院</w>
H y
组 成
组成 部分</w>
j ak</w>
Mob ile</w>
管 辖
亚 马
预 言</w>
法律 法规</w>
Exc el</w>
刀 具</w>
m y
h i</w>
峰 会</w>
今 后</w>
ap er</w>
豪华 酒店</w>
第二 次</w>
d is
Joh n</w>
日内 瓦</w>
复 杂
地 说</w>
一 会</w>
后 者</w>
姐 姐</w>
本 市</w>
ou t
简 体中文</w>
第 七
ri a</w>
in k</w>
Manufactur ers</w>
A P</w>
拉 罕</w>
桌 子</w>
D E</w>
批 发
U k</w>
Phot oshop</w>
得 起</w>
质 量
禁 烟</w>
动 性</w>
et r
就 算</w>
A G</w>
G ar
高 端</w>
我 能</w>
富 有</w>
R el
周 末</w>
F ed
缔约 国</w>
serv er</w>
D ar
L odge</w>
节 日</w>
1. 8</w>
classif ed</w>
Un classifed</w>
探 讨</w>
弹 性</w>
木 地板</w>
大 脑</w>
本 网页</w>
洁 净</w>
开发 者</w>
雅 各</w>
景 致</w>
报 表</w>
品 尝</w>
隔 音</w>
裁 定</w>
p e
av el</w>
礼 品</w>
1 50
经 验
侵 权</w>
储 备</w>
g ro
真 相</w>
B en
问 道</w>
学 术</w>
五 个</w>
S on
项 目
t op</w>
营 养</w>
v ent
赛 事</w>
走 出</w>
P M</w>
保 养</w>
开发 人员</w>
Par is</w>
源 于</w>
免 责</w>
鸡 尾
文件 大小</w>
亚 伯
语 音</w>
沿 着</w>
巧 克力</w>
Bed room</w>
签 名</w>
周 年</w>
coun try</w>
8 7</w>
Dat a</w>
批 评</w>
配 置
G al
税 务</w>
AC T
金 钱</w>
end ant</w>
s u
转 身</w>
Web site</w>
em p
开 源</w>
人 口
赛 车</w>
加 州</w>
et t
9 5
近 平</w>
教 育
爱 情</w>
习 近平</w>
T F
倾 向</w>
in a
辐 射</w>
负责 人</w>
呼 叫</w>
n avigation</w>
压缩 机</w>
Di str
多 功能</w>
垂 直</w>
ic e
地 下</w>
回 事</w>
种 族</w>
00 0
很 棒</w>
in s
演 员</w>
亚伯 拉罕</w>
As s
Fr anc
受 害
f ound</w>
Anal og</w>
中心 地带</w>
SN74AHC T
防 护</w>
C ur
无 缝</w>
彩 色</w>
o h
c re
电 脑
1. 4</w>
H er
3 .0</w>
宝 宝</w>
光 线</w>
边 界</w>
W e</w>
职 责</w>
L oc
f e
难 民</w>
卡 尔</w>
Sh ow</w>
Co jak</w>
小 屋</w>
199 0</w>
m at
超 出</w>
普 敦</w>
黄 色</w>
汉 堡</w>
真 主</w>
拓 展</w>
聪 明</w>
药 品</w>
而 出</w>
Al l</w>
总 监</w>
Bl ue</w>
生 涯</w>
摆 脱</w>
全球 化</w>
lo ad</w>
2 3
D S
偏 好</w>
体 内</w>
美 容</w>
环 球</w>
生 长</w>
生 气</w>
活 跃</w>
东 部</w>
oen ix</w>
V ict
支 撑</w>
弟 兄</w>
字 母</w>
启 示</w>
顺 序</w>
司 机</w>
主 意</w>
世 上</w>
Y ork</w>
V R</w>
C ir
s ex
专 题</w>
笔记 本
片 段</w>
West ern</w>
国 民</w>
C N
笔记本 电脑</w>
M ir
传 真</w>
布鲁 塞尔</w>
垃 圾</w>
op h
L ar
保 持
W E
T C</w>
紧 密</w>
d etail</w>
画 廊</w>
楼 层</w>
em s</w>
使 馆</w>
味 道</w>
收 音机</w>
9 00</w>
sp ace</w>
佛罗 里
H ot</w>
颗 粒</w>
马 斯</w>
00 00</w>
试 验
一 生</w>
id s</w>
运 输
数据 保护</w>
仔细 阅读</w>
in gton</w>
登 陆</w>
ver y</w>
管理 局</w>
著 作</w>
尼 克</w>
弟 子</w>
出版 社</w>
伯 特</w>
利 亚
驾 驶
危 害</w>
将 军</w>
Swe et
伊斯兰 教</w>
使用 者</w>
r u
c or
哥 哥</w>
咖啡 馆</w>
往 来</w>
Ph oenix</w>
精 美</w>
温 柔</w>
带 给</w>
罗 斯</w>
um b
Pal ace</w>
d er
d i
AM 26
故 意</w>
播放 器</w>
P u
iP ad</w>
会 计</w>
秩 序</w>
ach e</w>
机 遇</w>
亚马 逊</w>
账 号</w>
体育 场</w>
in ter
文 明</w>
信 徒</w>
o ch
E D</w>
配置 文件</w>
亚历山 大</w>
系 列
激 烈</w>
un t
短 期</w>
割 机</w>
同性 恋</w>
修 炼</w>
Bre ak
瞬 间</w>
感 情</w>
均 匀</w>
错 过</w>
可视 化</w>
Restaur ant</w>
分 开</w>
Copy right</w>
村 庄</w>
成 型</w>
穿 着</w>
奖 项</w>
re qu
妹 妹</w>
0. 9</w>
眼 神</w>
最 快</w>
否 认</w>
读 取</w>
克罗地 亚</w>
佛 教</w>
忽 然</w>
以 往</w>
ro r</w>
总 经理</w>
一 页</w>
替 换</w>
c an</w>
T ab
B y</w>
绝 佳</w>
C B
G B
城市 地图</w>
16 0</w>
竞 赛</w>
D av
都 市</w>
雷 斯</w>
P RO
Ger ber</w>
e g</w>
附加 费</w>
L u
co n</w>
俄 语</w>
维多 利亚</w>
ro l</w>
高 于</w>
M IME</w>
合 约</w>
鸡尾 酒</w>
理 会</w>
三 十
Cont ent</w>
短 信</w>
债 券</w>
pr ise</w>
1 .0</w>
格 里
H or
CO N
般 的</w>
洛 斯</w>
增 长
蛋 白
不 但</w>
o x
蔬 菜</w>
F O
斯 塔
1 20
房 产</w>
嵌 入
奥 兰
瀑 布</w>
一体 化</w>
婚 姻</w>
ul l</w>
E P</w>
n ew</w>
最 具</w>
惩 罚</w>
2. 1</w>
跟 随</w>
D eb
选 定</w>
负 担</w>
资 本
相 结合</w>
学 员</w>
e o</w>
a ug
疼 痛</w>
人 工
集 合</w>
话 语</w>
混 凝
神 经
C L
涂 料</w>
K s</w>
简 便</w>
起 身</w>
I K
e z</w>
D irect
极 其</w>
L i
歌 曲</w>
这 方面</w>
样 本</w>
化 合物</w>
a w</w>
不 予</w>
f ield</w>
细 则</w>
桑 拿
哥伦 比亚</w>
内 裤</w>
法兰克 福</w>
吃 饭</w>
一 道</w>
支 援</w>
皮 革</w>
奢 华</w>
一 室</w>
心 灵</w>
业 界</w>
全 年</w>
腐 蚀</w>
本 法</w>
周 边</w>
D re
精 致</w>
所 示</w>
ion ary</w>
i ence</w>
楼 梯</w>
会 展
阴 茎</w>
互 相</w>
总 结</w>
B A
i OS</w>
神 经</w>
森 堡</w>
工作 室</w>
XX X</w>
HC T
一 看</w>
口 交</w>
完 全
肛 门</w>
绘 画</w>
p s</w>
床 单</w>
T X</w>
人 力
委 托</w>
政 党</w>
持续 性</w>
低 成本</w>
材 质</w>
通 往</w>
名 义</w>
癌 症</w>
会展 中心</w>
该 项</w>
混凝 土</w>
ild ing</w>
俄 国</w>
B ud
B E
主 权</w>
il ton</w>
介 质</w>
克 服</w>
F C</w>
蓝 牙</w>
30 00</w>
犹 太</w>
全 国
科 隆</w>
崩 溃</w>
烹 饪</w>
宝 贵</w>
d ef
蒙 特
Bou tique</w>
认 知</w>
事 儿</w>
9 7
米 尔</w>
Bro w
多 久</w>
中 华</w>
r i</w>
K or
谈 论</w>
沃 尔
过 度</w>
s kip</w>
世界 大战</w>
yth on</w>
Pre m
参与 者</w>
阀 门</w>
违 法</w>
L C
法 庭</w>
B ar</w>
性 感</w>
厚 度</w>
内 在</w>
1 80</w>
t it
高速 公路</w>
生 态
ul l
al es</w>
世 人</w>
再 说</w>
50 00</w>
中 学</w>
昂 贵</w>
舞 蹈</w>
经 纪
签 订</w>
闹 钟</w>
D rop
u i</w>
Out look</w>
展 览会</w>
集 体</w>
血 液</w>
代 价</w>
uplo ad</w>
De f
势 力</w>
方 针</w>
分 数</w>
am ai</w>
商务 酒店</w>
歧 视</w>
有 利于</w>
双人 床</w>
ad el
熨 衣</w>
管理 人员</w>
百分 比</w>
m o</w>
原 本</w>
要 素</w>
并 未</w>
任 一</w>
词 典</w>
阿尔 巴
锻 炼</w>
意 志</w>
R ou
种 植</w>
输 送</w>
有 名</w>
取 得
几 何</w>
all ery</w>
找 出</w>
预 约</w>
ill a</w>
那 天</w>
C T
M E</w>
马 耳
反 而</w>
C ert
配 器</w>
经济 学</w>
排 名
墙 壁</w>
一 点
RE 4</w>
延 伸</w>
子 孙</w>
船 舶</w>
裁 决</w>
建 于</w>
D ec
奥林 匹
st on</w>
D ub
远 远</w>
指 引</w>
红 十字
z z
紧 凑</w>
a f</w>
化 妆
H om
财 务
媒 介</w>
199 6</w>
感 谢您</w>
哥 华</w>
马耳 他</w>
温 哥华</w>
灯 光</w>
没 什么</w>
宗 旨</w>
p age</w>
官 网</w>
人 花</w>
硬 盘
挂 牌</w>
Sh op
不 多</w>
地 段</w>
轮 胎</w>
舒适 度</w>
您 好</w>
外 交</w>
De ut
H K
蛋 糕</w>
主义 者</w>
价值 观</w>
面 包</w>
提 起</w>
山 脉</w>
卢 森堡</w>
电 台</w>
相 当
下 方</w>
s el
ot o</w>
仿 真</w>
扫 描
T ag</w>
刊 登</w>
农 村</w>
c at
读 者</w>
罪 孽</w>
时 光</w>
常 见
教 科
ade ite</w>
苏 格兰</w>
工 艺
百 万</w>
i am
an i</w>
oo r</w>
黄 金
浪 费</w>
这 儿</w>
贫 困</w>
T ri
舞 台</w>
营 业
购物 车</w>
审 计</w>
天气 预报</w>
P a
文件 系统</w>
农 民</w>
萨 尔
all y</w>
颁 发</w>
com m
清 理</w>
伊斯 坦
W ar
恶 意</w>
噪 音</w>
波 士顿</w>
排名 第</w>
尽 量</w>
多 家</w>
b a</w>
不 时</w>
牧 师</w>
Motor ola</w>
积 极
erm any</w>
Vide o</w>
B a
B I
莞 市</w>
东 莞市</w>
搜 寻</w>
意大 利
同 一个</w>
er g
激 励</w>
主 体</w>
默 德</w>
波 罗</w>
厂 商</w>
封 装</w>
i os</w>
膨 胀</w>
应 许</w>
一个 月</w>
一 周</w>
安 德
7 7
V en
ut e</w>
Organ ization</w>
24 5
坚 定</w>
数 值</w>
仿 佛</w>
代 替</w>
直 至</w>
圣 地
布 罗
任何 理由</w>
牺 牲</w>
C O</w>
加 利亚</w>
罪 恶</w>
宫 殿</w>
检 索</w>
命 运</w>
本 次</w>
斯洛 伐
印度 尼西亚</w>
Post ed</w>
d ev
葡萄 牙语</w>
ad o</w>
器 械</w>
体 积</w>
二氧化 碳</w>
近 期</w>
虚拟 机</w>
S E</w>
M oun
打 电话</w>
胜 地</w>
自 从</w>
亲 爱</w>
An n
t own</w>
润 滑
2. 4</w>
术 语</w>
候 选
v a</w>
观 赏</w>
软件 包</w>
全 方位</w>
TC1 303
lin k</w>
积 累</w>
球 队</w>
万 美元</w>
强 制</w>
储 蓄</w>
舌 头</w>
M art
us e</w>
ur y
浙 江</w>
b ack</w>
电 信</w>
三 种</w>
ill s</w>
ic a
L as</w>
美 妙</w>
4 4
场 地</w>
in n
厕 所</w>
一 丝</w>
Enter prise</w>
L ang
菲 尔德</w>
资 源
负 担
P ack
访问 者</w>
失 望</w>
用 水</w>
海 军</w>
杨 明</w>
外 汇</w>
美 女</w>
法 定</w>
aiw an</w>
摄 影
例 外</w>
团 结</w>
工 会</w>
m en
M u
is co</w>
A l</w>
F ar
麦 克
iz e</w>
买 家</w>
k h
选 中</w>
地 震</w>
创 立</w>
一 整
E s
ang zhou</w>
A V</w>
199 4</w>
199 3</w>
Ale x
6 6
实 用
建 议
将 要</w>
讲 座</w>
圆 形</w>
配 套</w>
T ur
L iv
谨 慎</w>
Ar t</w>
变 革</w>
退 还</w>
加利福 尼亚州</w>
x xx</w>
ch ange</w>
军 事
St ore</w>
Drop box</w>
资 助</w>
睡 觉</w>
com e</w>
穆 罕
三 维</w>
力 学</w>
京 都</w>
衡 量</w>
编 写</w>
开放 式</w>
伊斯坦 布尔</w>
展 现</w>
Th om
前 来</w>
0 5
会 员
银 行
第四 十
T ype</w>
使 者</w>
奥兰 多</w>
受害 者</w>
里 奥</w>
复 印</w>
圣地 亚
影 像</w>
L ove</w>
魔 鬼</w>
跳 舞</w>
预 先</w>
塞 浦
时 报</w>
O ld</w>
摩托 车</w>
生 动物</w>
道 理</w>
HT ML
T op</w>
T aiwan</w>
CP U</w>
B ack
手 表</w>
ag e
一无 二</w>
最 高
SA S</w>
城 镇</w>
喜 悦</w>
负担 得起</w>
早 就</w>
独 一无二</w>
橄 榄
德 尔</w>
主 耶稣</w>
姓 氏</w>
ad s</w>
萨 斯</w>
塞浦 路
卡 塔
恐 怖</w>
风 景
青 岛</w>
路 易
Ch at</w>
苏 州</w>
穆罕 默德</w>
全 身</w>
所 得</w>
树 脂</w>
也 就是说</w>
一 切
监 视</w>
连 锁</w>
圣地亚 哥</w>
I V</w>
GH z</w>
Break fast</w>
咱 们</w>
便 携
一 人</w>
bo a</w>
发 电
候选 人</w>
t t
G i
R ose</w>
温 馨</w>
再 也</w>
R S</w>
减 轻</w>
or ia</w>
36 5</w>
v ers
阿尔巴 尼亚</w>
欢迎 您</w>
诚 信</w>
湿 度</w>
交 互</w>
S I</w>
受 本</w>
D L
旗 帜</w>
战 略
A D</w>
系列 产品</w>
一 般
Man ual</w>
独 立
八 月</w>
行 事</w>
充分 利用</w>
依 赖
at h</w>
客 服</w>
看 出</w>
抑 制</w>
L av
注册 商标</w>
蛋白 质</w>
M iss
议 题</w>
0 x
加 拉
作 家</w>
st er
st e
Coo kies</w>
零售 商</w>
1. 7</w>
有 时候</w>
对 话
抬 起</w>
Sy n
钓 鱼</w>
紧 急
打 破</w>
V O
耐 用</w>
一 组</w>
暴 露</w>
扩 张</w>
天 下</w>
家 伙</w>
O b
王 子</w>
听 器</w>
I X</w>
保 加利亚</w>
士 兵</w>
R i
姑 娘</w>
便 于</w>
行 星</w>
乔 治</w>
ma z
I ON</w>
Ch an</w>
大 大
k e</w>
企业 家</w>
听 说</w>
指 向</w>
商 场</w>
un a</w>
预 览</w>
南 亚</w>
住 房</w>
立 陶
直 观</w>
爆 炸</w>
水 上</w>
一 面</w>
浓 度</w>
缅 甸</w>
和 谐</w>
为 主</w>
G P
野 生动物</w>
庞 大</w>
s m
S av
相当 于</w>
极 为</w>
Al l
有 害</w>
落 实</w>
C N</w>
自 治
放 入</w>
s earch</w>
R F</w>
美术 馆</w>
T P
F ire
弹 簧</w>
居 然</w>
p d
模 块
齿 轮</w>
瓦 尔</w>
攻 击
时 段</w>
入 侵</w>
E L</w>
斯 基</w>
总 会</w>
ia o</w>
2. 3</w>
Lis boa</w>
斯 德
磨 损</w>
彻 斯特</w>
D u
讨 厌</w>
说 法</w>
I O</w>
R ec
嵌入 式</w>
d r
199 2</w>
钢 琴</w>
装 配</w>
套 餐</w>
你 好</w>
只 好</w>
主 管
长 国</w>
x x
密 切</w>
3 1
转 售</w>
酋 长国</w>
贡 献
局 势</w>
e en</w>
ber g</w>
马 里</w>
Roy al</w>
成 像</w>
形 态</w>
7 50</w>
罪 人</w>
去 除</w>
疗 法</w>
拍 卖</w>
季 节</w>
c ess</w>
简 直</w>
坚 固</w>
全 体</w>
AU D</w>
听 力</w>
模块 化</w>
land s</w>
泡 沫</w>
嘴 唇</w>
这 份</w>
安 慰</w>
L A</w>
护 照</w>
毫 升</w>
性 爱</w>
ol e</w>
电 磁
不 断
h ome</w>
LT D</w>
p ost
as se</w>
标准 化</w>
激 动</w>
矛 盾</w>
特 拉
突 破</w>
el le</w>
F A
塞浦路 斯</w>
采取 行动</w>
总 值</w>
ic le</w>
C am</w>
哥 尔
议 员</w>
et h
A f
生产 力</w>
分 散</w>
风 味</w>
采 访</w>
巴 厘
卡 斯
ul ar</w>
ac le</w>
租 用</w>
复 合
只 会</w>
伸 手</w>
we et</w>
茅 斯</w>
serv ice</w>
P ython</w>
al d</w>
In v
改 写</w>
盈 利</w>
拉 脱
大 大</w>
成 年人</w>
强 迫</w>
巴厘 岛</w>
Av e</w>
Amer ican</w>
激 情</w>
M ore</w>
木 质</w>
穿 过</w>
名 叫</w>
一 刻</w>
数 目</w>
H P</w>
能 否</w>
合 规</w>
Ak amai</w>
带 领</w>
里斯 本</w>
自 制</w>
博 览会</w>
ou pe</w>
e e
at er</w>
S an
得 出</w>
传 来</w>
穿 越</w>
希 伯
能 源
汉 语</w>
教 程</w>
乐 团</w>
制 药</w>
姿 势</w>
之 选</w>
管理 器</w>
s ch</w>
lev ard</w>
斯德 哥尔
适用 法律</w>
安 卓</w>
灵 感</w>
温 和</w>
柬 埔
感 激</w>
c k</w>
诸 多</w>
寄 存</w>
赶 紧</w>
h ot
克 尔</w>
调 试</w>
雇 主</w>
混 乱</w>
D B
十 月</w>
勒 斯</w>
Pr ot
G R
D iv
桑拿 浴</w>
前 进</w>
次 世界大战</w>
体 制</w>
J un
键 入</w>
充 满
I t
志 愿
发 起</w>
F S
邮 编</w>
1. 9</w>
幸 运</w>
回 忆</w>
货 运</w>
支 持
萨 斯
f ace</w>
种 子</w>
它 会</w>
套 装</w>
之 星</w>
摘 要</w>
昨 天</w>
永 生</w>
伴 随</w>
不 适</w>
一 层</w>
O O
基本 上</w>
不 安</w>
热 器</w>
O c
糟 糕</w>
犹 豫</w>
下 文</w>
监 狱</w>
达 州</w>
锁 定</w>
以 太
Gre en
y our</w>
Prov ince</w>
受 伤</w>
免 遭</w>
海 湾</w>
快 捷
葡 萄</w>
开 车</w>
双 床间</w>
民 族
L ib
建 设
导 出</w>
Ind ex</w>
3 20
此 刻</w>
最 大
b ro
斯洛伐 克</w>
独 自</w>
Riv er</w>
Gl obal</w>
融 入</w>
包 裹</w>
切 割机</w>
图 案</w>
业 绩</w>
疫 苗</w>
C at</w>
发送 给</w>
T al
毫 无</w>
会 话</w>
充 足</w>
英 国
I II</w>
原 材料</w>
公 交
斯德哥尔 摩</w>
肉 棒</w>
E F
强制 执行</w>
宣 言</w>
欲 望</w>
群 众</w>
广 播
公 正</w>
有效 性</w>
V ista</w>
M em
搭 乘</w>
s ale</w>
双 腿</w>
T ro
拉脱 维亚</w>
干 机</w>
分析 仪</w>
象 征</w>
摇 头</w>
不 同
观 念</w>
初 始</w>
微 微</w>
常见 问题</w>
对 抗</w>
l ight</w>
Po int
峡 谷</w>
地 狱</w>
iv es</w>
W OR
搭 配</w>
回 归</w>
助 听器</w>
Vir t
提 名</w>
大 海</w>
8 5
邮 寄</w>
香 港
担 忧</w>
化学 品</w>
仪 表</w>
Z IP</w>
激 光
专 长</w>
年 底</w>
大 师</w>
克 拉
书 面
窗 帘</w>
生命 周期</w>
Gen eral</w>
El ectr
赞 助</w>
多 尔</w>
烘 干机</w>
联 机</w>
S it
l i</w>
IS O
卖 方</w>
酒 精</w>
Elect ron</w>
队 伍</w>
根 本
交 换
大 使馆</w>
12 .
Con ver
龙 儿</w>
四 月</w>
el ine</w>
Eu rop
分 裂</w>
St or
E D
S n
对话 框</w>
妇 人</w>
达 国家</w>
发 达国家</w>
占 领</w>
C le
阿尔 泰</w>
杰 出</w>
格 林
歌 剧院</w>
抗 议</w>
L es</w>
一 支</w>
Vill age</w>
部 位</w>
诞 生</w>
res s
全 自动</w>
里 约
精 英</w>
热 内
热内 卢</w>
G PS</w>
里约 热内卢</w>
想 着</w>
里 斯</w>
吉 岛</w>
建议 您</w>
非常 适合</w>
个 体</w>
Pl ay</w>
殖 民
无 形</w>
T re
哈 萨
Wh ite</w>
ury 21</w>
轻 轻
德 拉</w>
光 电</w>
曼 彻斯特</w>
威 尔
普 吉岛</w>
头 上</w>
Por t</w>
之 处</w>
修 正</w>
Pre c
特 此</w>
填 充</w>
Semiconduct ors</w>
平 静</w>
复 合</w>
占 据</w>
希 腊
et te</w>
K S</w>
E X
1 30</w>
还 原</w>
哪 儿</w>
立 法</w>
商标 注册</w>
产 业
cent ury21</w>
特 区</w>
U L
L ane</w>
J an
L ov
沙 漠</w>
查 阅</w>
几 步</w>
c el
4 9
里 亚
合 格</w>
开 设</w>
式 化</w>
V ent
欢迎 光临</w>
律 师
到 期</w>
日 元</w>
外 汇
理 工
热 带
u str
虚拟 化</w>
斯 堡</w>
通 讯
繁 忙</w>
Su p
约 瑟</w>
元 区</w>
载 明</w>
管理 体系</w>
大 法</w>
欧 元区</w>
接 触
天 国</w>
开 口</w>
出 示</w>
万 元</w>
阿 姨</w>
g o</w>
年 间</w>
圣 马
小 说</w>
塞尔 维亚</w>
讲 话</w>
在 此
b our
H a
适 配器</w>
S and
G E</w>
逐 步</w>
录 制</w>
广 泛
产品 质量</w>
i ang
R em
经济 学家</w>
柬埔 寨</w>
AM D</w>
SM 5
D etail</w>
铺 设</w>
儿 童
秘 书</w>
s d
le x</w>
额 外
抬 头</w>
ex per
a v</w>
志愿 者</w>
is on</w>
199 1</w>
透 明
一 致
T err
起 到</w>
第 八
ers on</w>
H ilton</w>
无 条件</w>
两 位</w>
专 辑</w>
第 四</w>
海 关</w>
夫 妇</w>
S G
J ap
时 钟</w>
克 莱
正 面</w>
ir st</w>
欺 诈</w>
份 额</w>
Q U
分 支</w>
ov a</w>
赛 季</w>
气 温</w>
小 于</w>
is ion</w>
独 厚</w>
L ou
家 中</w>
上海 市</w>
得 天
得天 独厚</w>
超 市</w>
车 票</w>
H D
波 动</w>
供 电</w>
生 日</w>
便携 式</w>
安 东
Bou levard</w>
文 本
小 吃</w>
mar k
怀 里</w>
开 普敦</w>
J ess
交易 者</w>
机 组</w>
忽 略</w>
I l
额外 收费</w>
南 方</w>
4 6
决 心</w>
轻轻 地</w>
符 合
国 内外</w>
r on
斯 达
人 间</w>
广 东</w>
U I</w>
挑 选</w>
图 书</w>
干 嘛</w>
古 巴</w>
不 满</w>
今 晚</w>
198 9</w>
早 已</w>
削 减</w>
正 好</w>
拉 夫</w>
马 拉</w>
粉 末</w>
荣 获</w>
期 权</w>
缓 解</w>
Ind ia</w>
差 距</w>
导 演</w>
情 感</w>
学 科</w>
化妆 品</w>
接 头</w>
J un</w>
B ir
A maz
外 国人</w>
模 拟
酒 廊</w>
配 方</w>
分 割</w>
组 装</w>
N XP</w>
持 久</w>
pro del</w>
ad ing</w>
比 特</w>
华 为</w>
Ex pl
高 精度</w>
Gu adel
中国 政府</w>
B ab
Ant on
预 备</w>
以太 网</w>
Guadel oupe</w>
od y</w>
罚 款</w>
执行 官</w>
没 事</w>
88 99
克 鲁
ec h
亚 太
L uc
整 理</w>
jp eg</w>
字 符
主 持</w>
阿拉伯 联合
阿拉伯联合 酋长国</w>
斯洛 文
经验 丰富</w>
IP O</w>
礼 宾</w>
过 后</w>
f re
克 拉</w>
艰 难</w>
公 爵</w>
说 不
活 着</w>
K n
肝 脏</w>
est ed</w>
渲 染</w>
街 区</w>
物 种</w>
民主 党</w>
墨西 哥
外 线</w>
澳 洲</w>
斯 科
并 不
F S</w>
摧 毁</w>
Sc ript</w>
ur r
缓 慢</w>
Wor d</w>
集 成
缺 少</w>
买 方</w>
sk a</w>
O n</w>
薄 膜</w>
res p
H ong</w>
瑜 伽</w>
太 空</w>
S oc
Ang el
一 口气</w>
报 警</w>
兼 容性</w>
Col l
自 愿</w>
不 然</w>
一 分钟</w>
J obs</w>
相 册</w>
k a
K ing
ian o</w>
游 艇</w>
日 落</w>
正 义</w>
桥 梁</w>
Veg as</w>
用户 界面</w>
注意 力</w>
总 线</w>
声 波</w>
ian a</w>
c ar
个 月</w>
我 方</w>
假 如</w>
而 成</w>
等 于</w>
内 核</w>
10 2</w>
纪 录</w>
网络 连接</w>
V ol
M edia</w>
Gol d</w>
8899 shop</w>
风 险
医 药</w>
怀 孕</w>
所 作</w>
不 许</w>
Sy d
巴 拿
创 始
似 的</w>
注 入</w>
儿 女</w>
P al</w>
放 大
岩 石</w>
c am</w>
T ub
室 内
眼 里</w>
焦 点</w>
多样 性</w>
数 码</w>
伦 西亚</w>
岗 位</w>
人 均</w>
海 报</w>
日 后</w>
必 然</w>
m es</w>
发 电机</w>
鉴 于</w>
忽 视</w>
同 学</w>
阐 述</w>
发 射</w>
一 处</w>
捕 获</w>
So i</w>
Wi ki
丰 满</w>
语 法</w>
浴 袍</w>
S he
要 么</w>
电 极</w>
泄 漏</w>
S ex</w>
赚 钱</w>
大 声</w>
国际 机场</w>
ic ation</w>
ol i</w>
临 到</w>
od ay</w>
辩 论</w>
坐 下</w>
不 愿</w>
院 子</w>
P endant</w>
意 图</w>
al ia</w>
Fr ance</w>
ight s</w>
M ill
救 赎</w>
愿 景</w>
IP 地址</w>
k er
集 中
巴 嫩</w>
增长 率</w>
S L
A I</w>
尼 奥</w>
求 购</w>
三 条</w>
S ar
智 利</w>
T el
Ex per
1 40</w>
小 学</w>
历史 悠久</w>
天 线</w>
渐 渐</w>
运 河</w>
Act iv
千 年</w>
辆 车</w>
高 等
爱 沙
k ing</w>
具 体
t e
信 念</w>
秘书 长</w>
引 进</w>
所 罗
车 道</w>
因 子</w>
生产 总值</w>
被 迫</w>
立陶 宛</w>
氧 化</w>
敬 请</w>
B B</w>
D I
C T</w>
酒店 客房</w>
选 民</w>
c r
营 业</w>
T T
继 承</w>
o ot
遭 遇</w>
纠 正</w>
公 式</w>
b t
ad min</w>
精 液</w>
审 议</w>
复 苏</w>
Bu ilding</w>
d es</w>
K ing</w>
拷 贝</w>
校 园</w>
夜 间</w>
b le</w>
运 会</w>
u y
附 带</w>
从 前</w>
s id
妈 的</w>
单 词</w>
创 业</w>
修 道
他 妈的</w>
徽 标</w>
全球 性</w>
有限 责任</w>
商 人</w>
斯 普
神 奇</w>
杀 死</w>
插 座</w>
两 国</w>
送 达</w>
帕 尔
去 世</w>
报 名</w>
尼 泊
东 省</w>
ph p</w>
ah a</w>
3 50</w>
讲 述</w>
6 5
当 作</w>
党 派</w>
B on
当 选</w>
巴勒 斯坦</w>
诺 斯
姐 妹</w>
印 尼</w>
全 文</w>
优 异</w>
人力 资源</w>
M D
H S</w>
解 放
投 影
家 长</w>
划 分</w>
2 80</w>
u re
阿 塞
十 二</w>
著作 权人</w>
宣 传
R en
民 宿</w>
P aper</w>
最 早</w>
破 碎</w>
at i</w>
计 量</w>
帖 子</w>
一 辆</w>
V PN</w>
硬盘 驱动器</w>
布 置</w>
何 种</w>
an j
所 用</w>
回 顾</w>
奇 迹</w>
天 津</w>
s w
C M</w>
古 典
Thom as</w>
花 园
纪念 碑</w>
意 愿</w>
三 星</w>
阿尔 及
B it
裤 子</w>
Develop ment</w>
新 增</w>
邮 票</w>
颤 抖</w>
Syd ney</w>
日 本
助 理</w>
爱沙 尼亚</w>
壁 炉</w>
tal k</w>
生 意</w>
k i</w>
居 室</w>
太 多</w>
re g
向 前</w>
n ing</w>
压 器</w>
W ol
马 克</w>
阿塞 拜
流 体</w>
呵 呵</w>
注 重</w>
剪 辑</w>
AV I</w>
A ir</w>
拉丁 美洲</w>
创始 人</w>
依赖 于</w>
You Tube</w>
av a</w>
HTML 5</w>
E V
工 商
9 001</w>
12 5</w>
重 组</w>
家 居</w>
l ist
或 收</w>
这 会</w>
格 拉
误 导</w>
白 俄罗斯</w>
向 上</w>
加 床</w>
O m
J ade</w>
艾 滋
近 年来</w>
天 前</w>
精 神
O R</w>
网 球</w>
玛 丽</w>
def ault</w>
权 威</w>
人 心</w>
Lim as
服务 供应商</w>
上 方</w>
AN D</w>
R G4</w>
英 语
眼 镜</w>
秘 鲁</w>
k er</w>
P ri
运 费</w>
山 市</w>
说 出</w>
讯 息</w>
lin es</w>
马 卡
格 式化</w>
两 者</w>
Pay Pal</w>
N ic
热 量</w>
R am
所在 地</w>
and a</w>
定 书</w>
代表 团</w>
人工 智能</w>
大 桥</w>
宣 告</w>
公 有</w>
住 客</w>
ic t</w>
贡献 者</w>
创 新
for m</w>
性 交</w>
布 宜
通 话</w>
运动 员</w>
成 品</w>
多 项</w>
营 养
死 刑</w>
区 分</w>
带 宽</w>
五 星级</w>
兰 语</w>
壮 观</w>
粒 子</w>
人民 政府</w>
随 机</w>
巴 比
i ent</w>
T ours</w>
巴 布
DN A</w>
无 疑</w>
伦 比</w>
一 根</w>
摩 擦</w>
惊 喜</w>
p o
人 工</w>
绩 效</w>
威 斯
出 手</w>
D ig
那 儿</w>
残 疾</w>
节 约</w>
马 达</w>
速 率</w>
环 节</w>
C S</w>
旗 下</w>
Cit rix</w>
b it</w>
高 档</w>
大 于</w>
无 比</w>
Mark et</w>
驾 车</w>
O P
双 人</w>
l ing</w>
F M</w>
做 爱</w>
MP 3</w>
3 00
想 想</w>
岛 上</w>
一 下
过 渡</w>
形 势</w>
优 美</w>
防 御</w>
国际 化</w>
纺 织</w>
共 识</w>
巴比 伦</w>
下 次</w>
圣 诞</w>
乐 意</w>
sk y</w>
T un
y n</w>
表 达
艾 利斯</w>
肉 体</w>
开 支</w>
Ab out</w>
工 件</w>
助 人</w>
h an</w>
电 站</w>
DN S</w>
30 4</w>
肿 瘤</w>
土 壤</w>
专利 权</w>
颖 而出</w>
迹 象</w>
脱 颖而出</w>
聚 合物</w>
进 化</w>
解决 问题</w>
腺 癌</w>
情 景</w>
p ost</w>
e i</w>
K ong</w>
字 面</w>
产 能</w>
f ile</w>
15 00</w>
提 议</w>
主 流</w>
V M</w>
蚂 蚁</w>
争 取</w>
无 数</w>
周 边
8 00
获 得
Ma x</w>
有 利</w>
m ed
3. 1</w>
法 官</w>
Cert ified</w>
mar k</w>
an ia</w>
1 11</w>
amil y</w>
马 克
T weet</w>
笑 容</w>
放 到</w>
安 理会</w>
业 主</w>
布宜 诺斯
进 出口</w>
宁 波</w>
A B</w>
M id
过 于</w>
US E</w>
大 腿</w>
可 行</w>
8 4
联 邦
边 境</w>
阻 碍</w>
事 长</w>
I M</w>
黎 巴嫩</w>
旨 意</w>
含 义</w>
千 万</w>
赤 字</w>
Lux ury</w>
GN U</w>
其 次</w>
小 镇</w>
再 生</w>
毁 灭</w>
副 总裁</w>
Sp here</w>
B ell
车 间</w>
不 好
Gu est
再 生
t empl
幻 想</w>
供 给</w>
AL S
土 豆</w>
St and</w>
沉 默</w>
好 评</w>
j i</w>
营 造</w>
e on</w>
L a
印 刷
上 涨</w>
沙 特
巴 斯</w>
本 国</w>
垃圾 邮件</w>
re n</w>
项 卡</w>
k ey</w>
降 临</w>
on line</w>
选 项卡</w>
河 流</w>
多 元
自 信</w>
写 道</w>
血 管</w>
Fin anc
黑 客</w>
S af
Al b
高 科技</w>
广告 商</w>
IN E</w>
资本 主义</w>
乐 队</w>
av en</w>
S F
雷 德</w>
扫描 仪</w>
优 先
向 导</w>
记 载</w>
卡 斯</w>
忙 碌</w>
9 6
时 捷</w>
关 税</w>
修道 院</w>
从 中</w>
散 步</w>
久 性</w>
详 尽</w>
迎 接</w>
离 线</w>
柔 软</w>
哈萨 克斯坦</w>
加勒 比
保 时捷</w>
伙 伴
特 惠</w>
Tr ade</w>
系 数</w>
会 计
发 达</w>
单人 床</w>
y e</w>
C ou
皇 帝</w>
st yle</w>
E ur
触 摸</w>
E G</w>
矩 阵</w>
定 价</w>
匿 名</w>
频 繁</w>
一 群</w>
江 苏</w>
广泛 应用</w>
a a
D ay</w>
斯 托
SN74 ACT
嵌 入</w>
应 力</w>
y k
al i</w>
尼泊 尔</w>
斯洛文 尼亚</w>
感 动</w>
requ ested</w>
ad or</w>
D G
里 克</w>
莱 恩</w>
忍 不住</w>
管辖 权</w>
操作 员</w>
缴 纳</w>
安 拉</w>
反 射</w>
s i</w>
公司 简介</w>
h e</w>
In fo</w>
排 序</w>
尊 贵</w>
吉 隆
盎 司</w>
尊 敬</w>
书 记</w>
而 定</w>
玩 笑</w>
Car l
所 行</w>
吉隆 坡</w>
AC E</w>
中 止</w>
上 下</w>
扩 散</w>
40 00</w>
饮 品</w>
旷 野</w>
心 理
市场 营销</w>
年 份</w>
奥 运会</w>
ch e</w>
i en</w>
教科 文
屏 蔽</w>
og r
使用 权</w>
m el</w>
退 休</w>
或 经</w>
市 长</w>
RA M</w>
细 菌</w>
四 条</w>
c ess
翻 新</w>
教科文 组织</w>
信息 网</w>
p ing</w>
耳 朵</w>
三 角
测 量
序 列</w>
P riv
A ri
背 包
男 士</w>
E P
角 落</w>
H ist
比 亚
显 现</w>
导 向</w>
议 程</w>
确 切</w>
市 景</w>
Deut sch</w>
A ug
恶 化</w>
引 领</w>
布宜诺斯 艾利斯</w>
密 切
迫 害</w>
tr a</w>
A sh
重 庆</w>
密 封
媒 体
商 誉</w>
促 使</w>
职 务</w>
波 斯
股 权</w>
留 宿</w>
亮 度</w>
D on
幽 默
保护 区</w>
筒 式</w>
核 武器</w>
征 服</w>
多 媒体</w>
美 联
字符 串</w>
一切 都
ri c</w>
Or acle</w>
w in</w>
Wor ks</w>
只 不过</w>
发 行
电 阻</w>
收 获</w>
参 考
le ge</w>
0 4
理 性</w>
金融 服务</w>
o c</w>
货 车</w>
k ok</w>
f r</w>
SN74 ALS
解 析</w>
倡 议</w>
三 角</w>
I E</w>
牙 齿</w>
开发 商</w>
Un ic
特 价</w>
未 有</w>
内 识</w>
uc k</w>
交 货</w>
ipp ing</w>
委 员</w>
决 策
enc y</w>
耳 机</w>
幽默 感</w>
发 光</w>
无 与
学 金</w>
商 品
s up
国际 贸易</w>
web site</w>
et e</w>
苏 丹</w>
子 女</w>
收 听</w>
总 额</w>
千 米</w>
狠 狠</w>
in st
De c</w>
这 句</w>
华 丽</w>
D om
山 东</w>
al ity</w>
无与 伦比</w>
当 年</w>
运 转</w>
埃 尔</w>
f ox</w>
策 划</w>
一 颗</w>
W u
P ST</w>
精 力</w>
劳动 者</w>
贴 现</w>
沙特 阿拉伯</w>
y r
X box</w>
斯 蒂
恶 劣</w>
几 内
发 票</w>
Ar g
屠 杀</w>
几 十年</w>
结 算</w>
同 志</w>
算 是</w>
携 手</w>
布 里斯
噪 声</w>
门 锁</w>
宗 教
G O</w>
胸 部</w>
几 次</w>
章 节</w>
传 说</w>
四 周</w>
M Hz</w>
古 代</w>
作 物</w>
R ed</w>
No .
公 斤</w>
广 大</w>
t ools</w>
建筑 风格</w>
t oday</w>
AT E</w>
10 5</w>
离 婚</w>
K e
进 而</w>
会 谈</w>
尔 特</w>
St ar
etr onics</w>
滚 筒式</w>
Sp ec
Pl etronics</w>
s i
损 伤</w>
ib le</w>
ar i
明 智</w>
一 杯</w>
Comp on
诚 实</w>
1 200</w>
不 变</w>
N A</w>
评 语</w>
红 帽</w>
h ol
G o
Y ou</w>
信息 技术</w>
Pl at
选 择
闻 名</w>
注 明</w>
一 带</w>
re l
I r
人 会</w>
飞 往</w>
女 王</w>
伙 人</w>
一整 天</w>
J a
剩 余</w>
at s</w>
初 步</w>
Y oun
隧 道</w>
数据 恢复</w>
成 都</w>
恶 意
y o</w>
一 大</w>
工作 组</w>
列 入</w>
优惠 券</w>
地 圖</w>
圣 洁</w>
19 80</w>
谈 到</w>
M os
HT TP</w>
ad y</w>
静 态</w>
防 水</w>
re a</w>
粮 食</w>
co de</w>
en se</w>
b el
面 上</w>
尼 日
不 良</w>
S B
冷 却
O per
莱 坞</w>
报 摊</w>
中 世纪</w>
一 本</w>
um p</w>
日 常
工具 栏</w>
pl y</w>
e ar</w>
o i</w>
j ect
T erm
瓦 克</w>
大 奖</w>
代表 大会</w>
一 次
at ive</w>
le au</w>
W IPO</w>
Por n</w>
Ma in</w>
南 京</w>
F i
马 其
满 意
am m
E LE
coun t</w>
毕 业
这 张</w>
起 源</w>
贴 心</w>
负 荷</w>
莱 斯</w>
Anton io</w>
清洁 用品</w>
代 客</w>
ard s</w>
举 报</w>
F er
金融 危机</w>
校 长</w>
围 墙</w>
保 证
ak a</w>
高 效率</w>
纠 纷</w>
n y</w>
d ay</w>
微 型</w>
背包 客</w>
抚 摸</w>
强 劲</w>
一 股</w>
20 20</w>
红十字 国际
红十字国际 委员会</w>
人 为</w>
d omain</w>
威 尔</w>
处 罚</w>
弯 曲</w>
自 豪</w>
瓦 伦西亚</w>
W el
纯 粹</w>
s en</w>
p p
M S
6 4
万 人</w>
判 决</w>
b or
开 门</w>
Hig h
导 游</w>
H and
会 见</w>
福 德</w>
大 连</w>
这 间</w>
硬 度</w>
一 对</w>
jo b</w>
T om
Se a</w>
脑 袋</w>
索 引</w>
滥 用</w>
厉 害</w>
交 叉</w>
D en
男 女</w>
74 LV
更 高</w>
慈 善</w>
子 民</w>
斯 塔</w>
九 条</w>
添 加
对 外</w>
指 着</w>
in d</w>
ar r
平方 英尺</w>
ph ot
路 由
阿塞拜 疆</w>
伙伴 关系</w>
试验 机</w>
B ook</w>
制 动</w>
N ot
D u</w>
通 货
这 事</w>
半 年</w>
益 于</w>
拖 拉
er ing</w>
相 连</w>
黎 加</w>
报 告
3. 3</w>
des ign</w>
T o</w>
前 所
减 肥</w>
款 项</w>
超 声波</w>
夜 晚</w>
Unic ode</w>
科 尔</w>
温 室</w>
航 天</w>
可 怜</w>
C F
Dav id</w>
16 3</w>
采取 任何</w>
右 侧</w>
于 助人</w>
乐 于助人</w>
见 解</w>
考 察</w>
脉 冲</w>
押 金</w>
弟 弟</w>
四 十
m ember</w>
K ey
新 一代</w>
挖 掘</w>
et ing</w>
5 00
索 菲
崇 拜</w>
起 诉</w>
南 海</w>
阿 联
阿联 酋</w>
手 上</w>
哥 斯达
合 伙人</w>
P ower</w>
For ex</w>
有效 期</w>
奖 学金</w>
邮 政</w>
0 7
攻击 者</w>
可 持续性</w>
Bang kok</w>
该 软件</w>
在 家</w>
一 方面</w>
ist er</w>
T ai
F L
小 子</w>
por ts</w>
Res erv
198 8</w>
阴 道</w>
波尔 图</w>
网络 服务</w>
建 成</w>
if i</w>
P ost</w>
四 星级</w>
p ol
ent al</w>
Vis h
销售 额</w>
选 取</w>
评 审</w>
扑 克</w>
差 不多</w>
呻 吟</w>
他 会</w>
门 户</w>
大 自然</w>
变 动</w>
紧急 情况</w>
哥斯达 黎加</w>
阿尔及 利亚</w>
s ide</w>
Ber lin</w>
私 隐</w>
自助 式</w>
婴 儿
冬 天</w>
24 4
后 裔</w>
f av
议 定书</w>
ut ion</w>
Cour t</w>
不 知
2. 8</w>
课 题</w>
ant e</w>
74 V
考 验</w>
放大 器</w>
圣 彼得堡</w>
ft ware</w>
C ab
文 献</w>
拖拉 机</w>
护 士</w>
净 化</w>
w ik
过 时</w>
欢 乐</w>
4 00
耐 心</w>
武 装
佛 教徒</w>
H on
中 部</w>
批发 商</w>
M T
X ML</w>
路由 器</w>
置 信</w>
平 时</w>
最 终
生态 系统</w>
此 后</w>
承 包
为 期</w>
D im
H al
捐 赠</w>
e h
发 邮件</w>
人 人</w>
k o</w>
x videos</w>
I J</w>
D etails</w>
高 中</w>
这 才</w>
特 殊
同 行</w>
ER P</w>
无 力</w>
书 报摊</w>
Sh op</w>
秒 钟</w>
天 主教</w>
el y</w>
每 人</w>
射 击</w>
RF ID</w>
树 木</w>
Tab leau</w>
真 寺</w>
清 真寺</w>
外交 部</w>
Inst ant</w>
篇 文章</w>
一致 性</w>
风 光</w>
打 发</w>
oth er</w>
end er</w>
这 点</w>
挣 扎</w>
射 精</w>
值 得
Camp ing</w>
战 役</w>
右 边</w>
叫 做</w>
H all</w>
i v</w>
公交 车</w>
仓 储</w>
二 月</w>
c ard</w>
遗 憾</w>
I t</w>
C i
起 居室</w>
不 让</w>
6 00
外 币</w>
amp le</w>
谈 话</w>
拉 圭</w>
灰 色</w>
ig ner</w>
基础 架构</w>
入 境</w>
ID E</w>
价 比</w>
测 器</w>
把 手</w>
o ff
B L
个 别</w>
小 孩</w>
光 明</w>
见 面</w>
il ity</w>
D B</w>
性 价比</w>
快 照</w>
孟 买</w>
L um
宽 带</w>
t ion</w>
ah ot
CD E</w>
A K
肚 子</w>
功 耗</w>
残 疾
婚 姻
说 服</w>
O T
分 校</w>
星期 一</w>
反 对
精 心</w>
添加 剂</w>
好 莱坞</w>
M I</w>
座 椅</w>
马卡 娜</w>
构 造</w>
IC P</w>
立 大学</w>
置 于</w>
洗衣 房</w>
am p</w>
违 约</w>
很 长</w>
塞 维
举 措</w>
T it
J on
深 深</w>
最 长</w>
反 正</w>
白 天</w>
ch er</w>
观 测</w>
相 关
星期 六</w>
原 创</w>
f u
K l
衰 退</w>
著作 权</w>
处 在</w>
法 老</w>
Col lege</w>
服务 中心</w>
m al
Vi ew
D omain</w>
疲 劳</w>
Bo x</w>
格 鲁
F L</w>
蒙 特</w>
缺 点</w>
检 查
极 限</w>
B ridge</w>
职业 生涯</w>
固 件</w>
it or</w>
农 业
赞 美</w>
有 机
客 栈</w>
两 天</w>
it h
G P</w>
伯 爵</w>
tim e</w>
董 事长</w>
致 电</w>
奇 妙</w>
震 惊</w>
监 督
新 建</w>
吉 尔</w>
反 应
Aut o
皮 书</w>
m i</w>
公 义</w>
日 语</w>
个 性</w>
指 挥</w>
宣 称</w>
J ac
10 9</w>
责 任
行 驶</w>
花 板</w>
数据 处理</w>
勇 气</w>
关键 字</w>
一 副</w>
3. 2</w>
言 之</w>
行 走</w>
送 花</w>
声 誉</w>
壮 丽</w>
节 奏</w>
一 大
50727. 36
邮 件
过 敏</w>
m en</w>
z e</w>
t re
走 廊</w>
管 制</w>
Real ty</w>
适 用性</w>
再生 能源</w>
i f</w>
ov er
镜 子</w>
Eu ro
P ER
快 要</w>
基 亚</w>
金融 机构</w>
殖民 地</w>
厦 门</w>
确 定性</w>
玛 利亚</w>
最大 化</w>
奉 献</w>
项目 管理</w>
中文 版</w>
大 气</w>
体 重</w>
少 女</w>
公 认</w>
一 所</w>
思 议</w>
亚 伦</w>
骄 傲</w>
而 来</w>
栖 息
灾 害</w>
第一 位</w>
武 装</w>
远 处</w>
g en
W il
鸡 蛋</w>
栖息 地</w>
支 派</w>
意大利 语</w>
av el
斯 加</w>
某 一</w>
巩 固</w>
后 悔</w>
变 形</w>
雇 佣</w>
英 镑</w>
身 后</w>
手 淫</w>
卡斯 尔</w>
Har b
f a</w>
补 贴</w>
脖 子</w>
幅 度</w>
s ub
肩 膀</w>
新 约</w>
安 娜</w>
塞维 利亚</w>
不可 思议</w>
顶 尖</w>
快 感</w>
祈 求</w>
Y O
里 昂</w>
ot a</w>
E E</w>
美联 储</w>
q i</w>
ag g
Er ror</w>
之 路</w>
aug ht
Inform ation</w>
正 确性</w>
h er
12 6</w>
维 克</w>
我 来</w>
W rit
莱 德</w>
夫 斯</w>
慢 性</w>
失 业</w>
声 音
大 学
固 定
春 天</w>
剂 量</w>
乳 头</w>
i que</w>
消 灭</w>
J O
硬 币</w>
接 收
巴 尔
发 言
制 裁</w>
on y</w>
ap e</w>
映 射</w>
受 理</w>
反 复</w>
丝 袜</w>
北 方</w>
M AR
光 伏</w>
东 盟</w>
b ook</w>
AB CDE</w>
配 送</w>
ac y</w>
F GH
c m</w>
医疗 保健</w>
FGH IJ</w>
迫 使</w>
火 山</w>
多元 化</w>
高 级
研究 员</w>
注 释</w>
放 开</w>
阴 影</w>
变 为</w>
b s</w>
M ess
K am
Bro ok
揭 示</w>
天 地</w>
K a
奴 隶</w>
女 郎</w>
七 条</w>
Expl or
火 焰</w>
感 应</w>
声音 文件</w>
家 园</w>
B B
enn a</w>
前所 未有</w>
清 迈</w>
Hig h</w>
21 st</w>
最 新
无 可
大 多</w>
D or
红 外</w>
输 送
服 从</w>
器 官</w>
产品 描述</w>
Bro ker
聚 焦</w>
几 种</w>
P ass
B en</w>
鉴 定</w>
之 所以</w>
多种 多样</w>
华 尔
加 拉</w>
Jav a
短 暂</w>
N G</w>
免 疫
分 离
视 野</w>
篮 球</w>
果 然</w>
福 特</w>
存储 空间</w>
卡 罗
不好 意思</w>
ist ics</w>
过 境</w>
种 族
基 座</w>
M all</w>
遇 见</w>
固 体</w>
Broker age</w>
约 会</w>
等 到</w>
在 乎</w>
卸 载</w>
工 坊</w>
奶 酪</w>
vers ion</w>
青 睐</w>
职 能</w>
新 年</w>
左 边</w>
E A</w>
助 手</w>
ri es</w>
排 列</w>
调 出</w>
特 权</w>
固 醇</w>
ai a</w>
8. 2</w>
第三 个</w>
截 至</w>
冲 浪</w>
争 论</w>
ap s</w>
2 20</w>
Sil icon
E X</w>
5 6
全 都</w>
一下 子</w>
L D
2 SC
h u</w>
Mar ina</w>
破 产</w>
普 京</w>
国 民
东 南亚</w>
if orn
A A</w>
透明 度</w>
明 书</w>
Cal le</w>
水 中</w>
2. 7</w>
乌 兹
R C</w>
8 .0</w>
有 益</w>
let t</w>
Syst ems</w>
Tim e</w>
D em
波 特</w>
残疾 人</w>
交 互
星 球</w>
触 摸
此 前</w>
数 以
搅 拌</w>
i u</w>
未 知</w>
T ou
首 相</w>
通 风</w>
乌兹 别
利 马</w>
阿 布
向 下</w>
0 6
施 行</w>
安 息
view space</w>
稍 后</w>
六 个</w>
在 世界
在世界 上</w>
4 50</w>
长 老</w>
防 火
我 爱
M C</w>
白 皮书</w>
导 师</w>
一 笑</w>
p ack
ict ionary</w>
西 西
pr ot
搬 运</w>
不 妨</w>
J ames</w>
手 臂</w>
企 图</w>
er ia</w>
更 正</w>
日常 生活</w>
无 关</w>
拣 选</w>
各 大</w>
制 备</w>
调 查
T ER
R ich
At mel</w>
5 7
格 拉</w>
无 须</w>
口 中</w>
sh ow
G am
射 线</w>
控制 台</w>
O f</w>
那 边</w>
怜 悯</w>
器 材</w>
an n</w>
U r
诱 惑</w>
聊 天
K u
咨询 服务</w>
冰 岛</w>
拿 出</w>
多 人</w>
Franc isco</w>
Cl ass
75 .0</w>
4. 5</w>
尽 力</w>
Mas ter
Cor p</w>
借 着</w>
信 托</w>
监 护
尼 拉</w>
威 廉</w>
制 冷</w>
b ar
Win 32</w>
证 件</w>
活 动
12 3</w>
拘 留</w>
v al
T ok
饲 料</w>
欺 骗</w>
解 除</w>
德 克
听 从</w>
en e</w>
难 题</w>
我 必</w>
au l</w>
安息 日</w>
敬 畏</w>
云 端</w>
量 身</w>
天 内</w>
原 文</w>
不 信</w>
i or</w>
em ail</w>
Vis it</w>
Re v
孩 儿</w>
复杂 性</w>
诽 谤</w>
矢 量</w>
业 内</w>
Vish ay</w>
N ot</w>
重 置</w>
维 斯</w>
海 水</w>
ann a</w>
Log o</w>
身份 验证</w>
肝 炎</w>
热 闹</w>
字 体</w>
w ar
阿 里</w>
拉 尔</w>
一 级</w>
bur gh</w>
那 位</w>
去 处</w>
2 40</w>
不 利</w>
t ain</w>
es p
Mar k</w>
13 .
迪 士
起 居</w>
德 斯</w>
探 头</w>
彩 票</w>
园 林</w>
s et</w>
D el</w>
微 信</w>
切 削</w>
T ower</w>
SO L
组 和</w>
口 袋</w>
工作 者</w>
雕 刻</w>
邻 近</w>
水 晶</w>
吉 尔
偶 尔</w>
v o
ot s</w>
迪士 尼</w>
独 奏</w>
bour ne</w>
代 谢</w>
Phot os</w>
O PC</w>
Cal iforn
质 疑</w>
尔 多
回 头</w>
L or
通 胀</w>
满意 度</w>
每 位</w>
出 错</w>
喜 乐</w>
S um
指 控</w>
fer ence</w>
设 在</w>
圣 母</w>
伯 格</w>
u id</w>
ay s
繁 华</w>
忍 受</w>
建筑 师</w>
天 花板</w>
p l</w>
2. 6</w>
分 布
不 由
A th
真 空
各 个
精 准</w>
D R</w>
不 如</w>
赦 免</w>
ik a</w>
继 电器</w>
包装 机</w>
b on</w>
那 不
时 代
Product s</w>
温度 传感器</w>
引 人
丧 失</w>
pl ay
几内 亚</w>
产品 组合</w>
特 别
技术 人员</w>
L S</w>
辈 子</w>
服务 公司</w>
批 发</w>
C ost
小 企业</w>
ri l</w>
Pe ace</w>
编 译</w>
直 流</w>
洗 澡</w>
标 志
大 国</w>
深 处</w>
毫无 疑问</w>
海 鲜</w>
洛 克</w>
K M</w>
挑 战
世界 遗产</w>
触 发</w>
g ermany</w>
N u
柴 油</w>
抵 押</w>
一 章</w>
缘 故</w>
ir o</w>
g n
Dub ai</w>
on ia</w>
Compon ents</w>
山 上</w>
西 藏</w>
Lin k
At l
印 第
佛罗里 达州</w>
亲 密</w>
一 口</w>
H ew
z h</w>
PL C</w>
试 用</w>
概 况</w>
十 五
充满 活力</w>
ad d
素 质</w>
夏 威
关 上</w>
信 贷</w>
仇 敌</w>
Mar ri
D ictionary</w>
17 0</w>
一 番</w>
应 付</w>
充 电器</w>
s ol
F ri
显 微
市 镇</w>
加 盟</w>
Mic ha
英文 翻译</w>
V IP</w>
照 着</w>
售 后
售后 服务</w>
CE O</w>
激 发</w>
伸 出</w>
有 个</w>
if y</w>
as ter</w>
D F
支持 者</w>
A qu
sk i</w>
石 油
出 差</w>
ai d</w>
流 动性</w>
并 于</w>
dev elop
L CD</w>
送 货</w>
线 程</w>
娱乐 场</w>
车 库</w>
本 地
地 下
克 里斯
皇 后</w>
克 朗</w>
V A</w>
氧 气</w>
放 大</w>
支 架</w>
随 意</w>
移 动
一 辆车</w>
LA N</w>
轻 易</w>
Silicon ix</w>
我爱 你</w>
十 一月</w>
下 跌</w>
编 制</w>
海 洋
改 为</w>
恐怖 主义</w>
埃 塞
众 议院</w>
仅 为</w>
14 .
on s
贫 穷</w>
罗 媚</w>
应用 领域</w>
S USE</w>
首 个</w>
料 理</w>
圣 殿</w>
升 机</w>
代 尔</w>
amp ton</w>
多样 化</w>
等 离子</w>
玛 丽
崛 起</w>
分 歧</w>
U B
PC B</w>
修 理</w>
亚 美
诫 命</w>
维 夫</w>
A F
诺 贝尔
集 团
Mar ia</w>
山 谷</w>
aw a</w>
测 定</w>
冰 淇
k n
g en</w>
Wor k
电 路
默 示</w>
描 绘</w>
出版 物</w>
乙 烯</w>
1 40
德 堡</w>
主 办</w>
Dat en</w>
私 有</w>
外 出</w>
or ge</w>
热 线</w>
拨 打</w>
摄影 师</w>
发 明
答 复</w>
w r
字 典</w>
eb ar</w>
19 70</w>
那不 勒斯</w>
突 尼斯</w>
罗 纳</w>
Nor d
b ar</w>
诊 所</w>
关键 词</w>
b et
无 意</w>
麦克 风</w>
辉 煌</w>
很 赞</w>
学 士学位</w>
Ol iv
生 殖
ul t</w>
M T</w>
Br and
务 必</w>
Fire fox</w>
波 多
失 踪</w>
Car r
研究 生</w>
封 闭</w>
G o</w>
8. 4</w>
生 于</w>
双 眼</w>
for t</w>
租 金</w>
一切都 是</w>
Guest house</w>
医疗 器械</w>
萨斯 州</w>
tr ans
s it
m et
提 示
P as
桌 上</w>
Manag ement</w>
基 准</w>
便 利
A ust
Bl u
之 际</w>
R S
K o
黑 山</w>
不 应</w>
h r
曼 哈
备 件</w>
传 动</w>
u k</w>
S W
发 动</w>
交 谈</w>
不 负</w>
ud io</w>
看 上去</w>
联合 会</w>
联 赛</w>
某 人</w>
时 机</w>
功能 强大</w>
不 必要</w>
vide o</w>
P ublic</w>
AR T</w>
请 勿</w>
寻 常</w>
网络 安全</w>
北京 市</w>
ut ions</w>
K ap
苦 难</w>
正 当</w>
显微 镜</w>
安东 尼奥</w>
传 达</w>
Pack ard</w>
布 兰
十 字</w>
一次 性</w>
Def ault</w>
动 器</w>
板 块</w>
亚 当</w>
12 8</w>
性 格</w>
w ell</w>
G allery</w>
B 2
房 车</w>
化 剂</w>
收 拾</w>
必 思</w>
端 子</w>
硬 质
大 人</w>
p y</w>
观 设计</w>
现 今</w>
所 得
老 虎
大 胆</w>
N ice</w>
浴 池</w>
Californ ia</w>
黑 人</w>
ch ar
art er</w>
i as</w>
ers on
SS L</w>
戛 纳</w>
很 小</w>
单人 间</w>
公共 汽车</w>
Su per</w>
1 10
水 域</w>
一 脸</w>
相 等</w>
主管 部门</w>
Par ad
奥尔 良</w>
世界 杯</w>
Gir l</w>
间 谍</w>
差 别</w>
自由 软件</w>
硬质 合金</w>
园 区</w>
传 染</w>
i ft</w>
心 脏
头 脑</w>
g o
at o</w>
解 放</w>
课 堂</w>
恰 当</w>
i us</w>
i str
Hew lett</w>
高 分辨率</w>
语 气</w>
可 惜</w>
y c
l ab
Pr inc
9 4
证 券
救 援</w>
wor d</w>
ar k</w>
数 组</w>
出 行</w>
本 哈
多 名</w>
黎 各</w>
波多 黎各</w>
气 息</w>
s ales</w>
L D</w>
国 籍</w>
四 年</w>
铸 造</w>
起 初</w>
电 力
大 哥</w>
公共 交通</w>
马 丁</w>
sh ipping</w>
领 取</w>
激 素</w>
U L</w>
Explor er</w>
B C
卖 家</w>
S Y
保 守</w>
防火 墙</w>
长 期
视 窗</w>
吉 亚</w>
中 期</w>
N C</w>
非 凡</w>
服务 台</w>
好 奇</w>
p le</w>
漫 步</w>
L eg
笔记 本</w>
卡 片</w>
Cent ro</w>
间 隔</w>
肯 尼亚</w>
布鲁 克</w>
哥 本哈
原 有</w>
难以 置信</w>
oo m
X en
悔 改</w>
奥 克兰</w>
审 批</w>
钢 铁</w>
房 门</w>
获 奖</w>
富 士
好 友</w>
主 导</w>
bl og
备 用</w>
o y</w>
竞 选</w>
波 斯</w>
反 抗</w>
St and
罕 见</w>
加 剧</w>
绝 缘</w>
系统 管理</w>
真 实
汽 油</w>
开发 区</w>
坦 克</w>
纹 理</w>
婴儿 床</w>
到 处</w>
七 个</w>
此 项</w>
有 意</w>
四 季</w>
冰淇 淋</w>
uk et</w>
is m</w>
用 以</w>
光 盘</w>
一 站
Sh are</w>
Prec ision</w>
街 头</w>
宜 必思</w>
如 归</w>
h o</w>
特拉 维夫</w>
s yst
表 单</w>
山 区</w>
a e</w>
J as
献 给</w>
加 大</w>
酒店 设施</w>
中 间
经济 型</w>
捷克 语</w>
j i
S oph
50727.54 20</w>
依 旧</w>
g re
水 上
合 伙</w>
cont act</w>
D I</w>
B ag
飞 行
野 生</w>
提 问</w>
t ure</w>
I F</w>
按 钮
品 店</w>
老虎 机</w>
按 着</w>
上 班</w>
Comm un
共和 党</w>
Un it</w>
赎 罪</w>
蒙 古</w>
精 心
得 知</w>
平 民</w>
ri d</w>
P aul
20 9</w>
香 格里
Ed ge</w>
硕 士</w>
无 人
寺 庙</w>
并 购</w>
原 型</w>
传 奇</w>
三 月</w>
y d
常 驻</w>
b o</w>
G ames</w>
洪 水</w>
运 送</w>
艾滋 病</w>
古 典</w>
保 修</w>
人 气</w>
Down town</w>
至 如归</w>
捕 捉</w>
宾 至如归</w>
十 个</w>
丰 盛</w>
I R</w>
停 机</w>
乐 器</w>
eg r
Ang el</w>
车 型</w>
一 日</w>
err a</w>
得 益于</w>
传 染
不 及</w>
执 照</w>
买 卖</w>
Phot o</w>
P R</w>
l et</w>
截 止</w>
调 解</w>
权 柄</w>
免 除</w>
C H</w>
部 落</w>
轿 车</w>
君 王</w>
原 子</w>
汪 洋</w>
旧 约</w>
gir l</w>
J os
章 程</w>
待 遇</w>
宾 客</w>
B or
哥伦 比亚
任 期</w>
R SS</w>
高 新
扩 展
Ph uket</w>
服务 员</w>
出 发
会员 资料</w>
普 吉</w>
in al</w>
d am</w>
十二 月</w>
削 弱</w>
认 同</w>
bi z</w>
az z
行政 区
聊天 室</w>
恩 斯</w>
信 誉</w>
派 对</w>
书 亚</w>
Ap ache</w>
词 汇</w>
M ar</w>
表达 式</w>
电 源
不 当</w>
st at
软件 开发</w>
收 藏
卡 尔
ol is</w>
话 说</w>
延 续</w>
塔 林</w>
个人 身份</w>
科 学院</w>
N av
语 言
D W
力 士</w>
起 重
纽约 市</w>
H ou
el a</w>
烦 恼</w>
l d
F u
夜 生活</w>
原 谅</w>
露 营</w>
选 用</w>
少 量</w>
is a</w>
检 察
境 外</w>
P B
约翰 福音</w>
睡 着</w>
毫 不
放 下</w>
坟 墓</w>
Bl ack</w>
1 30
西 雅
之 为</w>
专利 申请</w>
Ad v
198 5</w>
es h
Serv ices</w>
长 大</w>
SM 320
H LM
星期 五</w>
韦 斯特</w>
圣 徒</w>
sid ebar</w>
M iam
触摸 屏</w>
律师 费</w>
il ent</w>
af e</w>
Y od
谴 责</w>
水 泥</w>
按钮 图标</w>
品 牌
登 记
克 林</w>
oun d
Val ley</w>
苏 维
log o</w>
P VC</w>
Met ro</w>
芭 堤
芭堤 雅</w>
科 伦
确 信</w>
润 滑</w>
兰 人</w>
几 下</w>
广 州市</w>
逗 留</w>
一 时间</w>
普 拉
教 室</w>
教 义</w>
亮 点</w>
河 内</w>
标 赛</w>
全 力</w>
角 色
把 握</w>
开 奖</w>
Arch ives</w>
老 年人</w>
锦 标赛</w>
移 植</w>
抵 抗</w>
CA M</w>
滨 海</w>
月 亮</w>
德 罗</w>
二 人</w>
eg a</w>
大 选</w>
内 战</w>
狮 子</w>
局 面</w>
发 现
c am
A NE
码 器</w>
p ut</w>
本 土</w>
科 夫</w>
总 和</w>
宏 伟</w>
传 媒</w>
法 人</w>
冻 结</w>
9 .0</w>
热带 风暴</w>
数百 家</w>
墙 上</w>
不 受</w>
D i</w>
B os
马 利亚</w>
组 织
葡萄 园</w>
维 尔
西 安</w>
折 叠
下 一代</w>
ev a</w>
Ed in
超 链接</w>
穷 人</w>
偶 然</w>
th er
5 8
马其 顿</w>
绝 大多数</w>
研究 院</w>
游 戏
无 人</w>
T i
非 营
入 门</w>
简 历</w>
我 司</w>
叔 叔</w>
op en</w>
HLM P</w>
F le
As i
初 期</w>
F amily</w>
群 集</w>
更 具</w>
Ph il
看 待</w>
特 兰
导 弹</w>
胰 岛
子 座</w>
何 处</w>
H PE</w>
澳 门
旅行 社</w>
Mel bourne</w>
二 世</w>
op le</w>
k g</w>
is son</w>
74V HCT
7 6
讲 师</w>
街 上</w>
就 业
8. 1</w>
展 出</w>
送 器</w>
数据 分析</w>
伊 丽
两 张</w>
Conver ter</w>
198 7</w>
逮 捕</w>
逃 离</w>
记 录
言 论</w>
某 种
商 家</w>
r us</w>
失 效</w>
免 疫</w>
专 员</w>
Down load</w>
模 糊</w>
螺 栓</w>
竞争 对手</w>
湖 泊</w>
实 质</w>
周 五</w>
市 民</w>
os p
o on</w>
fav icon</w>
d etails</w>
Micha el</w>
安 装
哥本哈 根</w>
ut t
C yp
非 正式</w>
L aur
女 生</w>
违 背</w>
折 磨</w>
均 衡</w>
取 出</w>
警 方</w>
角色 扮演</w>
仲裁 员</w>
三 天</w>
毛 里
机械 网</w>
利 息</w>
经纪 人</w>
tit le</w>
闪 存</w>
金 色</w>
国 立</w>
H ub</w>
G S</w>
Distr ict</w>
换 句
后 期</w>
M e</w>
概 率</w>
开 玩笑</w>
商务 区</w>
监护 人</w>
er c
Ag ilent</w>
影 院</w>
碰 到</w>
疏 忽</w>
R uss
人 道
邻 居</w>
救 恩</w>
S C</w>
直 线</w>
收 件
保险 公司</w>
局 长</w>
国 有
St ad
S P</w>
F OR
关 节</w>
g ar
商标 局</w>
p art
B R</w>
警 报</w>
电 风扇</w>
洗 礼</w>
写 入</w>
10 3</w>
瑞 拉</w>
奥斯 陆</w>
典 礼</w>
Yod ot</w>
荣 幸</w>
新 款</w>
排 放
另 行
汇 编</w>
in y
c c
合 意</w>
五 金</w>
利 兹</w>
第 一步</w>
伊丽 莎
7 00
执 法</w>
伦 堡</w>
临 近</w>
O K</w>
家 用</w>
Edin burgh</w>
拉 姆</w>
城 里</w>
id er</w>
庄 园</w>
功 能性</w>
一 遍</w>
言 语</w>
V o
B ack</w>
起重 机</w>
肌 肤</w>
线 上</w>
星期 日</w>
审 理</w>
首 领</w>
新 泽
操 纵</w>
反 向</w>
k en</w>
O EM</w>
It em</w>
量 化</w>
el o</w>
视 角</w>
标志 性</w>
成 年</w>
fr ont</w>
Cast le</w>
ur ch</w>
普 顿</w>
指 责</w>
复合 材料</w>
SM5 54
沙 龙</w>
N ext</w>
Miam i</w>
M ember</w>
数据 管理</w>
托 马斯</w>
g a</w>
看 不到</w>
m ot
益 处</w>
海 港</w>
委 会</w>
B ah
物 理
保 管</w>
Su n</w>
缩 小</w>
变 送器</w>
新 德里</w>
实 习</w>
更 快</w>
政 府
E n</w>
车 轮</w>
果 汁</w>
刑 事
L ine</w>
田 歌</w>
法 令</w>
us h
存 档</w>
er to</w>
c urr
Flor ence</w>
Fed eral</w>
而 易
点 儿</w>
L ight</w>
抽 奖</w>
w ard</w>
l ife</w>
k ar
破 坏
皇 宫</w>
天 文
绝 不</w>
异 议</w>
淳 风</w>
无线 电</w>
西雅 图</w>
戏 剧</w>
颖 明</w>
强 烈
干 涉</w>
卡 路
集 装
弗 吉
股 市</w>
兰 经</w>
资 产阶级</w>
纸 张</w>
法 郎</w>
亚 语</w>
b ook
Swe et</w>
静 电</w>
可 达</w>
八 条</w>
unt u</w>
扫 罗</w>
大 阪</w>
有 何</w>
敬 拜</w>
in form
M otel</w>
起 誓</w>
现 出</w>
古 迹</w>
sv g</w>
8. 8</w>
sk aya</w>
周 一</w>
str a</w>
ch in
释 出</w>
必 将</w>
仇 恨</w>
g et
g am
水族 箱</w>
必 不可
底 层</w>
广 阔</w>
冷 静</w>
C all
曼哈 顿</w>
us er</w>
t op
M ach
进 制</w>
可 选</w>
卡路 里</w>
or f</w>
ag ue</w>
T y
革 命
商 用</w>
en h
Ch ic
接 机</w>
作 战</w>
c s</w>
ak er</w>
F or</w>
ahot els</w>
比 率</w>
情 报</w>
进 度</w>
胶 囊</w>
GB P</w>
高 校</w>
转 速</w>
发 布
Wat er
H A</w>
遗 传</w>
f ree</w>
Spr ing
J R</w>
198 6</w>
詹 姆斯</w>
Rou te</w>
H K</w>
C P</w>
面 料</w>
约 旦</w>
H E
称 之为</w>
紫 外线</w>
抽 插</w>
同 情</w>
ann er</w>
非 政府</w>
雨 晨</w>
裸 体</w>
能 耗</w>
渗 透</w>
发 性</w>
P aul</w>
Marri ott</w>
门 外</w>
生物 学</w>
响 起</w>
enc es</w>
U b
约 书亚</w>
上 诉</w>
朝 鲜
敏 感
因 本</w>
Tun es</w>
N et</w>
包 围</w>
体育 馆</w>
光 灯</w>
血 压</w>
格鲁 吉亚</w>
困 境</w>
新 窗口</w>
n ess</w>
F R
这 部</w>
色 调</w>
各 位</w>
单 元
网 格</w>
气 压</w>
怎么 回事</w>
T emp
B ul
空 白</w>
年 初</w>
可 为</w>
j o</w>
环 绕</w>
三 次</w>
阴 户</w>
持 有人</w>
Gir ls</w>
10 7</w>
追 溯</w>
接 到</w>
报告 员</w>
只 见</w>
加 尔</w>
Kor ea</w>
Cont rol</w>
B ay
核 实</w>
换句 话说</w>
所罗 门</w>
尼日 利亚</w>
M ist
着 手</w>
不 去</w>
En t
若 干</w>
皇 冠</w>
蜘 蛛</w>
杀 害</w>
ri o</w>
珍 贵</w>
害 羞</w>
友 谊</w>
一 趟</w>
Cit y
Asi ahotels</w>
评 为</w>
目 前
目前 为止</w>
ro b
票 务</w>
娱乐 城</w>
仲裁 庭</w>
Y our</w>
Con s
许可 权</w>
f il
Res earch</w>
P A
K iss</w>
射 频</w>
u le</w>
L U
m ing</w>
M en
设 法</w>
潮 流</w>
如 欲</w>
同 等</w>
H ills</w>
Ad d
音 频
送 给</w>
文化 遗产</w>
患 有</w>
多 夫</w>
干 细胞</w>
宝 座</w>
t ags</w>
ick r</w>
精 油</w>
气 动</w>
c d</w>
W iki</w>
Dev ice</w>
两 间</w>
it sa</w>
pd f</w>
重新 启动</w>
批 量</w>
s b
ant s</w>
紧 缩</w>
m g</w>
知 名
六 条</w>
累 积</w>
贵 族</w>
培 训
AR T
H app
Ch ro
安全 措施</w>
信 件</w>
与 否</w>
一站 式</w>
l ike</w>
口 味</w>
一 世</w>
Tub er</w>
7. 8</w>
10 8</w>
这 样
错 误
升 降
不 确定性</w>
c e
固 态</w>
单 身</w>
行政区 划</w>
特 种</w>
对 性</w>
伴 侣</w>
hel p</w>
al th</w>
Ap pl
泄 露</w>
mar t</w>
ew ay</w>
B ig</w>
周 日</w>
华 人</w>
S ource</w>
斯 拉夫</w>
剑 桥</w>
er b
ash x</w>
H B
st one</w>
康 宁</w>
这 时候</w>
货币 政策</w>
范 畴</w>
格 尔</w>
控 器</w>
偶 像</w>
i Tunes</w>
PS D</w>
C ube</w>
捕 鱼</w>
坚 决</w>
y an</w>
v d</w>
WOR KS</w>
Bas ler</w>
机 型</w>
双 重</w>
m ov
Prof ess
G S
五 十</w>
for ce</w>
T our
C ard</w>
起 点</w>
p s
j adeite</w>
上 限</w>
sex y</w>
ou l</w>
安 纳
G O
预 防
选 手</w>
安 置</w>
ear s</w>
钢 管</w>
不同 于</w>
ex e</w>
P res
F ox</w>
植 物园</w>
揭 露</w>
废 物</w>
波斯 尼亚</w>
委 内
1 N
资 质</w>
自治 区</w>
必不可 少</w>
号 线</w>
第五 十
当 下</w>
Or land
Alex and
开 采</w>
MP 4</w>
4. 1</w>
脆 弱</w>
现 已</w>
保 安</w>
香格里 拉</w>
覆 盖
注 销</w>
毒 品</w>
明 确
头 部</w>
帝 国
好 多</w>
交通 工具</w>
互 联</w>
co in</w>
P ac
M and
神 话</w>
手 套</w>
O ct
K al
随 便</w>
等 候</w>
描 写</w>
分 解</w>
保险 人</w>
ag a</w>
4 7
节 省
源 自</w>
游 人</w>
服 饰</w>
文 稿</w>
广 东省</w>
真 诚</w>
废 除</w>
V ee
西 州</w>
ter s</w>
est e</w>
em ent
R M
线 圈</w>
布 什</w>
太 太</w>
D o
5. 1</w>
绝 望</w>
流 感</w>
所 属</w>
毕业 生</w>
88 8</w>
胰岛 素</w>
当 初</w>
后 台</w>
p ic</w>
调 研</w>
独 有</w>
极 具</w>
哈 利</w>
前 沿</w>
丢 弃</w>
紫 色</w>
Au str
厌 恶</w>
夜 总会</w>
外 观设计</w>
出发 点</w>
W ash
4. 2</w>
小 小
困 扰</w>
n et
10 4</w>
户 外
Rad isson</w>
战 士</w>
ay l
C u
随 即</w>
航 运</w>
织 物</w>
服 用</w>
一 行</w>
P K
遵 从</w>
耶 利
特 兰</w>
投 影</w>
共产 主义</w>
5 2
解 开</w>
已 过期</w>
淫 秽</w>
I AN
高等 教育</w>
电影 节</w>
注 射</w>
想 不到</w>
W ild
粘 贴</w>
第 九
水 分</w>
时 所</w>
方 便
L ot
留 学</w>
电 车</w>
利 比亚</w>
resp ond</w>
K it
拆 卸</w>
箱 地址</w>
确 立</w>
圣 保罗</w>
Prem ium</w>
搅 拌
最 有</w>
二 战</w>
20 1</w>
表 中</w>
第二 次世界大战</w>
不 太
ect ed</w>
来 讲</w>
一 来</w>
Zh eng</w>
申 报</w>
Vee am</w>
Car e
家 政</w>
占 有</w>
模 样</w>
一 时</w>
高尔夫 球</w>
卡塔 尔</w>
In n
Ge org
B an
帐 篷</w>
Orland o</w>
明 文
三 分之一</w>
Brow se</w>
工 序</w>
S o</w>
10 6</w>
最 优</w>
let ter</w>
Will i
严 肃</w>
s im
H en
铝 合金</w>
格兰 德</w>
少 数
保证 金</w>
P op</w>
B ent
198 4</w>
itt le</w>
另行 通知</w>
乌兹别 克斯坦</w>
ro v
AS S</w>
诺 斯</w>
亿 元</w>
海 边</w>
惊 叹</w>
小 蚂蚁</w>
con f
标 的</w>
交 响
不 出</w>
5 .0</w>
电视 台</w>
滚 动</w>
布 雷</w>
出 国</w>
pl ay</w>
c an
首 饰</w>
碰 撞</w>
建 材</w>
布 尔
名 人</w>
十 三</w>
仿 造</w>
in j
bo ard</w>
6 8
尴 尬</w>
of f</w>
帽 子</w>
右 手</w>
u el</w>
sh i</w>
et er</w>
Art ec</w>
联合国 教科文组织</w>
十 大</w>
ind a</w>
Nov ember</w>
邮 箱地址</w>
h and
诗 歌</w>
排放 量</w>
两 名</w>
税 率</w>
周边 地区</w>
亚美 尼亚</w>
中 医</w>
phot os</w>
ki t</w>
指 针</w>
指 示
Al t
AT A</w>
生殖 器</w>
华盛 顿
U R</w>
前 后</w>
列 祖</w>
tim eline</w>
马 赛</w>
还 好</w>
希 尔
第 五</w>
电 网</w>
映 像</w>
报 复</w>
托 盘</w>
市 内</w>
声 器</w>
变 压器</w>
修 正
I v
更 长</w>
司 法
in f
Gu angzhou</w>
霍 尔</w>
装 载</w>
火 箭</w>
无法 控制</w>
ell er</w>
运输 商</w>
放 射
多 米
ang o</w>
贸易 组织</w>
方 形</w>
负 面</w>
感 知</w>
启 发</w>
树 林</w>
发现 自己</w>
at t</w>
he d</w>
P P</w>
圆 锥</w>
命 令
re t
装 水</w>
顿 时</w>
总 之</w>
扭 矩</w>
剥 夺</w>
I o
Dig ital</w>
Br it
力 度</w>
丝 毫</w>
Di am
春 季</w>
迪 斯
利 用
L LC</w>
百 年</w>
夫 妻</w>
东 亚</w>
Bar cel
电动 工具</w>
撤 回</w>
余 额</w>
报 酬</w>
和 平
化 石</w>
两 国
7. 6</w>
委内 瑞拉</w>
y y</w>
T ick
Gr and
SOL ID
控制 面板</w>
纪念 品</w>
男 朋友</w>
K ut
三 大</w>
行政 部门</w>
m eta</w>
Qu een</w>
艺术 品</w>
指 明</w>
观 察
演 奏</w>
快 速
an ch</w>
Ind ust
混 合
友 善</w>
cl ass</w>
自行 决定</w>
科 研</w>
滑 动</w>
明文 规定</w>
就 让</w>
V el
1 EMFTR</w>
领 先
vent ion</w>
ber t</w>
And re
讲 究</w>
普 及</w>
Al ice
P ET</w>
西 斯</w>
中 将</w>
骚 扰</w>
雕 塑</w>
严 格
o is</w>
c i</w>
应 急</w>
商业 区</w>
方 程</w>
ont e</w>
阿拉伯 语</w>
赚 取</w>
店 铺</w>
分 支
g e
约 束
格 里</w>
标 机</w>
愉 悦</w>
布 朗</w>
国 度</w>
en a
润滑 油</w>
or der</w>
手 机
备 有</w>
迪 克</w>
低 温</w>
ib a</w>
We i
来 临</w>
救 主</w>
世 间</w>
紧 凑
紧凑 型</w>
矿 业</w>
Stat us</w>
Cr u
展 览
光 源</w>
SOLID WORKS</w>
非 排</w>
河 畔</w>
深 化</w>
s u</w>
无 奈</w>
Pet er</w>
A st
探 险</w>
哈 拉</w>
分支 机构</w>
B D
精 细</w>
恶意 软件</w>
升 高</w>
ar k
Ma j
5 9
较 为</w>
致 命</w>
漫 长</w>
车 载</w>
租 人</w>
德 罗
常 务
下 称</w>
in ity</w>
D IN</w>
微 妙</w>
说 明书</w>
M es
12 2</w>
新 奥尔良</w>
分布 式</w>
As ia</w>
院 校</w>
灭 绝</w>
布里斯 班</w>
Youn g</w>
2 10</w>
转 动</w>
瓶 装水</w>
Jap an</w>
面 部</w>
难 受</w>
盟 友</w>
St ay</w>
螺 纹</w>
克 逊</w>
R io</w>
1 15</w>
好 事</w>
苏维 埃</w>
挺 不错</w>
吉 他</w>
Sp ace</w>
抛 光</w>
客 轮</w>
受 益
V ER
乐 观</w>
2 D</w>
学 术
误 差</w>
ac o</w>
渡 口</w>
淋 浴
天 天</w>
大 城市</w>
酷 刑</w>
注意 事项</w>
19 60</w>
轮 机</w>
埃塞 俄
ch inese</w>
居 住
uck y</w>
相 对
P ack</w>
普 通
est o</w>
利 物
ad em
Java Script</w>
纳 税</w>
气 旋</w>
圣 安东尼奥</w>
后 代</w>
粉 红色</w>
布 莱
尔多 瓦</w>
a ine</w>
魔 法</w>
刀 片</w>
王 朝</w>
极 了</w>
山 景</w>
不 肯</w>
ai g
游 乐
发 掘</w>
遗 址</w>
空气 质量</w>
抱 怨</w>
一 类</w>
P E
Jo hn
轻 微</w>
第六 十
超 快</w>
一点 点</w>
一 楼</w>
P ed
证 人</w>
布 拉</w>
u age</w>
et h</w>
ect or</w>
管 如此</w>
尽 管如此</w>
ou d
ch at</w>
b ps</w>
米 亚</w>
捆 绑</w>
劳 力士</w>
全 能</w>
Mer c
演 变</w>
15 .
宽 松</w>
商业 中心</w>
车 子</w>
古 兰经</w>
利物 浦</w>
伊 特</w>
at ica</w>
Cur ve</w>
利 士</w>
Chic ago</w>
数 额</w>
So ftware</w>
罢 工</w>
夏威 夷</w>
T h</w>
le g
16 .
创造 性</w>
万 军</w>
瓦 多</w>
专 为</w>
L at
船 只</w>
款 人</w>
大 能</w>
受 损</w>
供 选择</w>
语 种</w>
市 政
尊 严</w>
V E</w>
日 报</w>
惯 例</w>
Com fort</w>
C er
掌 控</w>
中央 银行</w>
疲 惫</w>
捍 卫</w>
人 子</w>
为 准</w>
情 愿</w>
P en
遵 行</w>
救 济</w>
奠 定</w>
复 活
亲 吻</w>
交换 机</w>
all s</w>
D oc
F P
Vi enna</w>
CM S</w>
幻 灯
先 后</w>
10 00
为 己
1 A</w>
嘿 嘿</w>
为己 有</w>
中 午</w>
g ing</w>
Q C</w>
数 码
国 防</w>
从 此</w>
ak i</w>
巴 里</w>
国 防
关 怀</w>
H A
西 门
斯 图
心 梅</w>
之 家</w>
T ar
阿布 扎
环境 保护</w>
l ive</w>
IC E</w>
第一 天</w>
会 为</w>
不 上</w>
ON E</w>
转 发</w>
比 尔</w>
伍 德</w>
轮 廓</w>
巴拿 马</w>
it z</w>
应 予</w>
小小 的</w>
Ac cess</w>
亚太 地区</w>
主 持
周 六</w>
D a
捷克 共和国</w>
h ar
T ree</w>
2. 9</w>
新 疆</w>
in v
d oc
Inst it
大 奶</w>
卡 塔</w>
纳 米</w>
F erry
重 生</w>
妥 协</w>
198 2</w>
聚 餐</w>
老 城区</w>
世界 银行</w>
详细 资料</w>
幻灯 片</w>
征 收</w>
年 纪</w>
Ul itsa</w>
液 晶</w>
法 轮
普 罗
收 回</w>
京 群岛</w>
ip s</w>
眼 光</w>
ur ity</w>
的 是</w>
阵 线</w>
谎 言</w>
血 糖</w>
懂 得</w>
包 容</w>
Br un
游 行</w>
局 部</w>
第三 次</w>
倾 斜</w>
这 使</w>
组 建</w>
沙 特</w>
沉 浸</w>
中心 地段</w>
M R
5. 5</w>
非 洲
ag on</w>
棕 榈</w>
战 胜</w>
T H</w>
降 低成本</w>
创 世</w>
H ire</w>
12 1</w>
眼 泪</w>
开 头</w>
w an</w>
F T</w>
走 上</w>
弗 兰
塑 造</w>
th er</w>
R h
4. 6</w>
斯 岛</w>
希 尔</w>
好 象</w>
Op en</w>
67 13
玉 米</w>
天 候</w>
单 纯</w>
跨 越</w>
不 便</w>
min i</w>
U T</w>
阿布扎 比</w>
超 值</w>
所 知</w>
录 音</w>
佩 戴</w>
优 质
Cir cu
整 间</w>
威尔 士</w>
体 会</w>
W M
采 矿</w>
花园 酒店</w>
电路 板</w>
点 点头</w>
外 套</w>
不 禁</w>
az za</w>
F A</w>
伊丽莎 白</w>
昨 晚</w>
埃塞俄 比亚</w>
发 器</w>
t el</w>
ell i</w>
Ferry TO</w>
so l</w>
Sk y</w>
Re al</w>
微 生物</w>
萨尔 瓦多</w>
帕 特
只 想</w>
万 名</w>
eg o</w>
b ids</w>
b ai
MO V</w>
Char les</w>
维 拉</w>
据 为己有</w>
Ex change</w>
折 叠</w>
专 家
bt n</w>
全 天候</w>
1 18</w>
针 对性</w>
浑 身</w>
执 政</w>
恐 怕</w>
孟 加拉
空 军</w>
屋 里</w>
好 不好</w>
c al
电子 科技</w>
Cost a</w>
消 防
本 月</w>
无 党派</w>
L P</w>
13 5</w>
占 用</w>
ux e</w>
ev er
Por to</w>
规 律</w>
布 斯</w>
两 大</w>
A y
草 案</w>
探 测</w>
抱 住</w>
巴 士
副 作用</w>
全 天</w>
仪 表
子 里</w>
停车 位</w>
L if
Dec ember</w>
所在 区域</w>
运 人</w>
d ing</w>
GL D</w>
忠 诚</w>
火 灾</w>
果 子</w>
失 业
Ap t</w>
T am
1 14</w>
直 升机</w>
电 气
北 约</w>
CO 2</w>
大 壮</w>
仅 限</w>
Dou ble</w>
Ch o
热 点</w>
潜 水
之 类</w>
U PS</w>
G ri
期 货</w>
W ood
Cap e</w>
纳 米
看 作</w>
热 爱</w>
小 孩子</w>
r h
Tr ain</w>
Sil ver</w>
Il l
B S</w>
马 太
领 事
搜 集</w>
ro w</w>
非营 利</w>
脸 色</w>
站 楼</w>
图 形
oc i
int age</w>
c t</w>
ab l
航 站楼</w>
晾 衣架</w>
Wi en</w>
Wash ington</w>
海 峡</w>
弥 补</w>
n i</w>
i en
施 加</w>
or n</w>
c ap
U V</w>
P le
D et
纺 织品</w>
学 到</w>
多 边</w>
AN D
祖 先</w>
瑞 士
罪 行</w>
握 住</w>
布罗 夫
每 种</w>
世 俗</w>
pro ject</w>
E as
Dan i
马太 福音</w>
珺 梅</w>
控 股</w>
处 女</w>
玻 利
漫 画</w>
收 缩</w>
弗 朗
威 士
雨 量</w>
责 令</w>
杜 布罗夫
杜布罗夫 尼克</w>
机械 设备</w>
圣诞 老人</w>
L and
Fr ank
Bud ap
集 群</w>
重 型</w>
pl at
mon d</w>
纽 卡斯尔</w>
提 案</w>
可 供</w>
Stud ios</w>
I c
19 00</w>
纳 尔</w>
樟 宜</w>
僵 尸</w>
曝 光</w>
D ong
西 海岸</w>
程 式</w>
取得 成功</w>
附 有</w>
气 味</w>
if ier</w>
洗 手
利 特</w>
食 用</w>
计算 器</w>
波 器</w>
ec hn
Am ber</w>
怪 物</w>
T a
字 段</w>
上 周</w>
h ig
承包 商</w>
不 动</w>
领事 馆</w>
焊 机</w>
提示 信息</w>
大 力</w>
不 论
p H</w>
i Book
D es</w>
Anal yt
骑 士</w>
资 深</w>
拥 抱</w>
康 复</w>
马 尼拉</w>
金融 市场</w>
这 条</w>
灌 装</w>
as p</w>
L as
盒 子</w>
爱 德
未 曾</w>
Writ ing</w>
A ST
198 3</w>
最终 用户</w>
商 会</w>
m p
加 尔
决 赛</w>
ogr aph
9. 2</w>
喷 涂</w>
发 货</w>
冷 冻</w>
低 头</w>
2 50
197 9</w>
膳 食</w>
林 斯</w>
星期 二</w>
N i
F eb
Aug ust</w>
稍 微</w>
祭 坛</w>
孔 子</w>
如 云</w>
决策 者</w>
W A</w>
路 由</w>
极 高</w>
im a</w>
AC T</w>
科 西
特 勒</w>
合法 性</w>
f ac
海 姆</w>
参 照</w>
b us
脂 肪
洞 察</w>
神 迹</w>
款 式</w>
不 远</w>
ar ch
传 输
Profess ional</w>
Ub untu</w>
月 球</w>
Sam s
连 续
美 式</w>
女 孩儿</w>
r ue</w>
7. 5</w>
比 喻</w>
s ir</w>
Io T</w>
G T</w>
B at
载 荷</w>
石 材</w>
灵 顿</w>
数据 传输</w>
医 治</w>
利 尔</w>
L i</w>
鼻 子</w>
注 定</w>
光 滑</w>
侧 面</w>
erm an</w>
c ity</w>
虐 待</w>
拿 到</w>
on e
X videos</w>
Wat ch</w>
Stand ard</w>
阅 读
笔 记</w>
终 结</w>
时代 广场</w>
U C</w>
风 力</w>
潮 湿</w>
清 新</w>
友 们</w>
以 内</w>
j ava</w>
车 身</w>
机 电</w>
威 特</w>
升降 机</w>
Coll ection</w>
获 益</w>
连 线</w>
最 少</w>
客 观</w>
免 得</w>
仅 限于</w>
w ill</w>
M ass
F X</w>
行 动
网 关</w>
Cyp rus</w>
20 EP</w>
波 利斯</w>
ev e</w>
Des igner</w>
19 0</w>
顺 从</w>
监督 管理</w>
动 荡</w>
un e</w>
R oc
Bell a
1 G
R us
饥 饿</w>
Budap est</w>
针 灸</w>
ur t</w>
S CH
R A</w>
Gol den</w>
统 称</w>
惧 怕</w>
录 像</w>
冶 金</w>
写 下</w>
bl og</w>
B old</w>
集装 箱</w>
西 北</w>
外 邦</w>
亚 麻</w>
T er
8. 6</w>
始 于</w>
冲 动</w>
i ii</w>
Sc and
8 9
里 程
s ec
L os</w>
里 奇</w>
巴 拉</w>
W o
牙 科</w>
新 娘</w>
差 遣</w>
模拟 器</w>
格拉 纳</w>
会 晤</w>
p ress</w>
EN T</w>
日 内</w>
瓜 德罗
74 AC
3 20</w>
高 管</w>
身份 证</w>
耐 磨</w>
i z</w>
老 化</w>
现 行</w>
特 网</w>
博 士学位</w>
出 生
G h
App s</w>
机械 制造</w>
l oc
加勒比 海</w>
香 水</w>
电子 邮箱</w>
恶 人</w>
ri e</w>
og a</w>
F RE
龟 头</w>
脚 步</w>
朝 着</w>
首 要</w>
佣 金</w>
沉 重</w>
六 郎</w>
人 来</w>
东 北</w>
不可 避免</w>
Cl ient</w>
A rea</w>
辩 护</w>
精心 设计</w>
数 控</w>
散 布</w>
折叠 床</w>
强 有力</w>
可 信</w>
er ce</w>
el e</w>
M ur
For ce</w>
研 磨</w>
巴 特</w>
契 约</w>
u an
Sou th
元 前</w>
T N
P os
P M
出 口
随 时
聆 听</w>
拉 美</w>
5 12</w>
重 大
网 上
微 控制器</w>
好 客</w>
Sch ool</w>
M ay
马 里奥</w>
随 地</w>
消费 品</w>
开 幕</w>
你 家</w>
亚 特兰
C ant
Gre at</w>
1 12</w>
羔 羊</w>
维 奇</w>
慈 爱</w>
喜 好</w>
HK D</w>
Gol f</w>
酒 馆</w>
航 天
自 觉</w>
神 情</w>
产品 设计</w>
产 物</w>
Re ad</w>
火 星</w>
法 利
a z</w>
Mart in</w>
Del uxe</w>
基金 组织</w>
T o
Im ages</w>
Feb ru
随 之</w>
理工 学院</w>
注 目</w>
每 当</w>
当 地
婚姻 状况</w>
典 范</w>
蚀 性</w>
N AS</w>
统 治
So f
Ge orge</w>
商务 旅行</w>
转 过</w>
周 岁</w>
主 题
In s
陌 生</w>
纷 纷</w>
油 墨</w>
师 父</w>
中 小企业</w>
wor ks</w>
Cr yst
炸 弹</w>
更 佳</w>
女 朋友</w>
台 北</w>
兴 起</w>
D P</w>
16 8</w>
注 塑</w>
专 卖
k e
恢 复
一 千
at re</w>
车 上</w>
周 到</w>
古 董</w>
ept ion</w>
给 定</w>
站 立</w>
公 元前</w>
造 型</w>
尸 体</w>
地 为</w>
ail and</w>
Distr ito</w>
逾 越
逾越 节</w>
转换 成</w>
计 数</w>
Wu Zheng</w>
Wei qi</w>
P ay</w>
溶 液</w>
临 床
K L
露 天</w>
惊 奇</w>
展 望</w>
墨西哥 城</w>
产品 目录</w>
p os
ol o</w>
h as</w>
1 15
Un ion</w>
母 语</w>
所得 税</w>
ul a</w>
TC1303 B</w>
Cir c
进 攻</w>
投影 机</w>
平 行</w>
干 燥
常 人</w>
y b
od es</w>
Sol utions</w>
扬 声器</w>
St ep
D M</w>
阿 尔</w>
连 同</w>
简 易</w>
电子 产品</w>
复活 节</w>
i ya</w>
H ello</w>
Febru ary</w>
就 此</w>
会 者</w>
ion e</w>
迪 尔</w>
情 人</w>
周 知</w>
i Dat
H um
捐 款</w>
五 金
J MP</w>
D ol
郊 区</w>
佛罗里 达</w>
为 首</w>
业务 流程</w>
d o
插 头</w>
差 点</w>
事 业
S ept
看 似</w>
度假 胜地</w>
Des k
Ser ies</w>
R 2</w>
高 水平</w>
秋 季</w>
手 提
G E
心 理学</w>
工作 站</w>
医 师</w>
亦 可</w>
T op
C B</w>
高新 技术</w>
帮 忙</w>
双 床</w>
中 欧</w>
P ent
通 票</w>
规 性</w>
溶 剂</w>
推 行</w>
I O
Cat al
试 试</w>
发 放</w>
Q Q</w>
变 暖</w>
会计 师</w>
M IN
13 8</w>
强 力</w>
一 批</w>
end s</w>
X X</w>
N V
达 尔</w>
推 送</w>
德 国人</w>
Stat istics</w>
增 值</w>
L ev
骑 马</w>
各 级</w>
CA N</w>
边 疆
种 种</w>
极 佳</w>
工艺 品</w>
com ments</w>
c hen</w>
Fl at</w>
替 代
晓 得</w>
加 泰
6 50</w>
无论 如何</w>
Su kh
IM F</w>
Am ster
醒 来</w>
M ex
B ank</w>
A h
短 缺</w>
横 幅</w>
战 场</w>
原 子
交互 式</w>
Inform atica</w>
以 致</w>
Bent ley</w>
风险 管理</w>
万 物</w>
l at
EM F</w>
饮 用水</w>
Link ed
臀 部</w>
处 置</w>
国际 标准</w>
人 节</w>
ar io</w>
Log in</w>
E spa</w>
阶 层</w>
牲 畜</w>
普 岛</w>
注册 表</w>
摇 滚
ph p
Parad ise</w>
M oo</w>
运动 会</w>
罗 伯特</w>
尼 克
安 特
不 二</w>
下 车</w>
U K</w>
Lis bon</w>
边疆 区</w>
要 说</w>
Fr ont</w>
F irst</w>
um ent</w>
浙 江
b is</w>
线 索</w>
电 池
治 愈</w>
毛里 求
7 9
2 30</w>
配 对</w>
按 键</w>
对 付</w>
B our
震 动</w>
汇 总</w>
日 记</w>
音乐 厅</w>
都 拉斯</w>
比 雷
恶 魔</w>
应 有</w>
商务 会议</w>
吸 烟
南 大学</w>
Wol f
3 74
箭 头</w>
无 权</w>
J adeite</w>
派 遣</w>
公 顷</w>
SD K</w>
R ot
维 罗纳</w>
破坏 性</w>
多 地</w>
t o
Atl ant
递 送</w>
迄 今
帆 船</w>
基 因
国际 货币
也 门</w>
Sol id
Moun tain</w>
视频 文件</w>
污 水</w>
比雷 埃
欧 陆</w>
地 形</w>
人 力</w>
争 端</w>
p at
comp any</w>
ad y
R T
B ol
否 是</w>
医 学
会 堂</w>
比雷埃 夫斯</w>
搬 家</w>
扭 曲</w>
厄 瓜
IE C</w>
韩 华</w>
改 正</w>
PR O</w>
纳 税
根 源</w>
是 否是</w>
境 界</w>
卫 普</w>
众 所
d own</w>
我 该</w>
安特 卫普</w>
T own
赛 亚</w>
背 包</w>
电影 院</w>
桑 雨晨</w>
数百 万</w>
图 像
SM320 CC
SM320CC 6713
Con vention</w>
数 十
住 处</w>
一 员</w>
U s</w>
托 人</w>
O ri
Electr onic</w>
降 雨量</w>
Jac kie</w>
航 道</w>
毛里求 斯</w>
梦 幻
挑战 性</w>
尽 头</w>
天 主
Sh er
1 16</w>
锅 炉</w>
考 古</w>
德 国
大 学生</w>
不 止</w>
Amster dam</w>
格 林</w>
经纪 商</w>
清 醒</w>
普 拉</w>
单元 格</w>
帕尔 马</w>
初 级</w>
众所 周知</w>
F ound</w>
3 G</w>
哭 泣</w>
A b</w>
合 规性</w>
Tr u
项 链</w>
终 端
水 器</w>
P I</w>
Bl vd</w>
职 工</w>
操 控</w>
19 45</w>
愚 蠢</w>
富士 通</w>
d own
随时 随地</w>
无 产阶级</w>
发言 人</w>
Ch ang
u ary</w>
Ital y</w>
12 7</w>
行业 标准</w>
生 育</w>
混 合物</w>
段 落</w>
ill er</w>
C NY</w>
示 范</w>
it ies</w>
N BA</w>
J ean</w>
1 13</w>
山 地</w>
封 面</w>
加泰 罗
东 莞</w>
格 拉斯</w>
元 首</w>
sh an</w>
at ing</w>
D ur
B U
197 8</w>
肉 类</w>
气 球</w>
外 形</w>
条 码</w>
增 添</w>
主 角</w>
olog y</w>
终 极</w>
T ools</w>
T ak
莫 尔</w>
星期 四</w>
制 订</w>
亲 人</w>
两 条</w>
ri b
螺 旋</w>
肺 癌</w>
缓 缓</w>
行 榜</w>
病 毒
混 淆</w>
厄瓜 多尔</w>
严 重
d a
柴 油
杰 克逊</w>
张 力</w>
初 始
h er</w>
越 是</w>
纳 德</w>
兄 弟
if ic</w>
Wel come</w>
N ik
A E
枕 头</w>
教 学
客户 关系</w>
b ank</w>
院 长</w>
焦 虑</w>
核 心
排 行榜</w>
按 住</w>
行政 区</w>
曲 面</w>
天 井</w>
ex t
科伦 坡</w>
生活 状况</w>
幼 儿</w>
修 行</w>
m er
Sex y
Mic ro</w>
神 怡</w>
瓜德罗 普岛</w>
多 元</w>
争 战</w>
Sm art
高 度
秋 天</w>
日 光
拜 访</w>
希尔 顿
神 学</w>
外交 政策</w>
存储 卡</w>
E ss
玛丽 亚</w>
加 工
会 长</w>
r en
on de</w>
金 沙</w>
梦幻 般</w>
年 级</w>
颜 料</w>
计 划
纽 伦堡</w>
流 行
旷 神怡</w>
改 动</w>
十 八
前 方</w>
严 苛</w>
h an
管理 者</w>
甚 么</w>
深 受</w>
持续 时间</w>
心 旷神怡</w>
尼 尔</w>
交 往</w>
U p
P ages</w>
M M
默 认
集团 公司</w>
六 个月</w>
h ib
IN A</w>
污 染
汇 集</w>
S V
遥 远</w>
约束 力</w>
gir ls</w>
Se oul</w>
S om
阿 利</w>
m ob
Squ ir
14 1</w>
强制 性</w>
围 栏</w>
龙 头</w>
食 谱</w>
胳 膊</w>
笑 了
减 小</w>
主持 人</w>
at ure</w>
河 南</w>
普 林
右 键</w>
不 觉</w>
p m</w>
l ov
视频 格式</w>
结 局</w>
8. 5</w>
0 EMFTR</w>
难 度</w>
擅 自</w>
如 说</w>
减 速</w>
p ro</w>
k ax</w>
堕 落</w>
半 个</w>
b ong
St at</w>
双人 房</w>
Par k
9 2
水 准</w>
在此 期间</w>
n ode</w>
M ov
矿 物</w>
推 翻</w>
希尔顿 酒店</w>
伯 利亚</w>
伊 利
人口 数量</w>
武 汉</w>
明 治</w>
旅 友们</w>
v it</w>
et c</w>
Tim es</w>
西门 子</w>
德克 萨斯州</w>
Cro w
Apart am
股 东
图 集</w>
卡 斯特</w>
巴塞 尔</w>
l ove</w>
S R
I Q
流 氓</w>
公 用
Amer ica</w>
百 度</w>
控 件</w>
AP P</w>
期 刊</w>
明 年</w>
和 解</w>
Sept ember</w>
RA R</w>
L yn
J W</w>
现 金
杀 毒</w>
心 思</w>
塞 内
受 众</w>
农 产品</w>
中 共</w>
K O
缔约 方</w>
挤 压</w>
Tw o</w>
移 转</w>
科 罗
游乐 场</w>
商 网</w>
P T</w>
探 测器</w>
吉尔 吉
便 会</w>
请 单击</w>
网 球场</w>
人 道</w>
f un
阳 具</w>
遗 漏</w>
滋 味</w>
拉 多</w>
尼 古
13 3</w>
成 效</w>
大 屠杀</w>
hu a</w>
curr ent</w>
G u</w>
D ep
这 类</w>
软 管</w>
时 会</w>
抗 体</w>
传 道</w>
St an
N E</w>
据 说</w>
平均 气温</w>
大 宗</w>
坎 昆</w>
喷 泉</w>
分 销商</w>
Pal m</w>
B2 B</w>
重 复
贴 士</w>
肉 身</w>
电磁 阀</w>
富 裕</w>
子 宫</w>
通货 膨胀</w>
硕 士学位</w>
珊 珊</w>
法 文</w>
哈 马</w>
催 化剂</w>
b ab
R id
能 效</w>
拉 伸</w>
热 处理</w>
t w
inform ation</w>
称 作</w>
消 毒</w>
刑 事</w>
Willi am</w>
革 新</w>
指 纹</w>
a Kiss</w>
V an</w>
Mo z
Mas ter</w>
而易 见</w>
密 性</w>
三 十</w>
news list</w>
man n</w>
Ent ity</w>
Coun ty</w>
型 材</w>
oo p</w>
Th ailand</w>
一 贯</w>
er ation</w>
L ong</w>
自 我
显 而易见</w>
南 美洲</w>
内 能</w>
万 吨</w>
on i</w>
d u
Tok yo</w>
最 小
平 稳</w>
塞内 加尔</w>
国际货币 基金组织</w>
入 学</w>
信息 安全</w>
ir a
Pro cess
遏 制</w>
行 为
牙 买
创造 力</w>
共 享
ne ed</w>
D yn
苹 果
工 人
em a</w>
K A
立 方
期 内</w>
弗 尔</w>
宾 夕
安 徽</w>
塑 胶</w>
V S</w>
步 伐</w>
厨 师</w>
卢 比</w>
全 家</w>
短 途
气 爽</w>
日 程</w>
指 挥
否 定</w>
动 手</w>
数 学家</w>
酒 厂</w>
跳 至</w>
绑 定</w>
Mar ie</w>
Gard ens</w>
Cas e</w>
龙 舌
龙舌 兰</w>
最 低
工作 效率</w>
宾夕 法
嫉 妒</w>
呼 吸
卡 内
内 地</w>
T M
I NE
F O</w>
语 句</w>
终 身</w>
斯托 克</w>
增 值
不论 是</w>
P te</w>
停 下来</w>
w at
Priv ate</w>
Em ma
电子 邮件
开 拓</w>
吃 惊</w>
九 龙</w>
f f</w>
篮 子</w>
情 人节</w>
Le e</w>
装 有</w>
衬 衫</w>
得 分</w>
形 容</w>
RA ID</w>
Cont rol
自 慰</w>
打 标机</w>
学 习
水 泵</w>
商 学院</w>
交 流
ch an
卡 罗</w>
上 下文</w>
S ab
J e
里 尼</w>
棕 色</w>
宴 会</w>
伯 明
一 栋</w>
i er
bur y</w>
老 实</w>
功 效</w>
m ont
K ath
顶 层</w>
刊 载</w>
一 手</w>
E ver
牙买 加</w>
步 入</w>
增 大</w>
min istr
c c</w>
K at
7. 1</w>
I B</w>
1 19</w>
总 量</w>
婚 介</w>
奥林匹 克</w>
做 饭</w>
if ic
2 32</w>
AN A</w>
神 清
神清 气爽</w>
滚 子</w>
平 原</w>
字 幕</w>
好 消息</w>
4 K</w>
索菲 特</w>
惜 媛</w>
命令 行</w>
二 百
Amaz on</w>
冲 洗</w>
从 头
b le
B P</w>
退 货</w>
熊 猫</w>
助 力</w>
前 列
出 自</w>
乃 至</w>
不 已</w>
Tr avel</w>
迎 来</w>
用 人
法利 赛</w>
情 侣</w>
干 事</w>
ec k
V E
水 下</w>
拉 特</w>
应 变</w>
多 彩</w>
s ex</w>
d en
输送 机</w>
美 观</w>
登 上</w>
橄榄 油</w>
大 赛</w>
同 伴</w>
Analyt ics</w>
路易 斯</w>
贬 值</w>
螺 杆</w>
注 视</w>
接 吻</w>
安 大
乔 治
ent e</w>
Wat er</w>
忠 实</w>
尼 茨</w>
f s</w>
Soc ial</w>
Sal v
S en
C AR
推 开</w>
手 续费</w>
以 至于</w>
世界 级</w>
ob ox</w>
薛 诺</w>
徽 章</w>
制 约</w>
不 知道</w>
T T</w>
Cap ital</w>
9 11</w>
跑 步</w>
盼 望</w>
本 条</w>
产品 开发</w>
um ber</w>
rig ht
19 50</w>
自 治</w>
无法 访问</w>
再 度</w>
燃 气</w>
接 纳</w>
可 调</w>
一 夜</w>
d ong</w>
翻 译
希伯 来</w>
因 特网</w>
嘴 巴</w>
估 算</w>
会 面</w>
W HO
税 务
用人 单位</w>
发生 器</w>
col ombia</w>
S ong</w>
S ens
T og
5 30
派 生</w>
整 洁</w>
教 士</w>
坎 特</w>
七 年</w>
s k</w>
O w
陆 地</w>
爱 人</w>
外 界</w>
um vit</w>
Qu int
谷 物</w>
试 探</w>
众 生</w>
vi ous</w>
Vide os</w>
Pr aha</w>
面 试</w>
解决 办法</w>
星 星</w>
前 端</w>
or t
iBook ed</w>
雕 像</w>
被 动</w>
欧洲 央行</w>
斯塔 德</w>
高 地</w>
os a</w>
增值 税</w>
各 人</w>
Vis ual</w>
Harb our</w>
迄今 为止</w>
苛 刻</w>
脚 下</w>
增 进</w>
修 建</w>
何 况</w>
乌 拉圭</w>
骑 术</w>
销 毁</w>
递 交</w>
选 框</w>
磨 机</w>
无 锡</w>
产品 线</w>
Oc ean</w>
沮 丧</w>
风 情</w>
进 口
赫 尔</w>
心 态</w>
公 开
he d
Con do</w>
丽 筠</w>
两 家</w>
si Website</w>
pro list</w>
he ad</w>
Ac siWebsite</w>
经 常
伯明 翰</w>
服务 设施</w>
安 提
复 制
喝 酒</w>
二 次</w>
书 写</w>
em ar</w>
c ams</w>
D T</w>
C ott
闪 烁</w>
也 好</w>
一 轮</w>
s er</w>
Vict or
Pu erto</w>
D ER</w>
鸟 类</w>
简 短</w>
iv al</w>
W TO</w>
Aut om
A A
音 响</w>
生 日
时 性</w>
总 共</w>
ch ina</w>
结构 性</w>
梵 蒂
w al
头 来</w>
B ri
气 质</w>
当 日</w>
尔 克</w>
协 同</w>
致 使</w>
ays ia</w>
L ag
钱 包</w>
电 动机</w>
支 柱</w>
列 为</w>
st en</w>
ar n</w>
Sex y</w>
K rist
阿 德
亚 太</w>
一 键</w>
f ul</w>
账 单</w>
看 过</w>
化 工
N AS
自 杀</w>
必 定</w>
6 000</w>
198 1</w>
确 认
素 食</w>
仪 器
Cour ty
跨 国
拉 开</w>
冷 战</w>
债 权人</w>
p ur</w>
加 纳</w>
qu ery</w>
Chro me</w>
疱 疹</w>
Ma x
蓝 宝石</w>
犯 罪
淋浴 间</w>
法轮 功</w>
欢 喜</w>
多 余</w>
召 唤</w>
ust om
re t</w>
l or
门 窗</w>
跨 境</w>
白 颖明</w>
上 学</w>
es c
选 出</w>
蓝 线</w>
羞 辱</w>
上 线</w>
软 弱</w>
自 驾车</w>
现 实
法 兰</w>
服务 业</w>
s p</w>
边 上</w>
赞 助
补 救
老 城</w>
硬 木</w>
新闻 稿</w>
卡内 基</w>
克鲁 斯</w>
不 清</w>
ro x</w>
Hist ory</w>
薪 酬</w>
微 波</w>
徒 步</w>
分 之
art icle</w>
i w
W H
M D</w>
C ore</w>
纳 斯</w>
劳 工</w>
剧 情</w>
Temp le</w>
N H</w>
B BC</w>
银 河</w>
举 动</w>
妨 碍</w>
d ates</w>
I ST
金 砖</w>
一 侧</w>
K ail
Arch ive</w>
确 度</w>
电子 设备</w>
人 能</w>
po int</w>
跳 过</w>
新 能源</w>
光 芒</w>
合 资</w>
占 地</w>
l im
T ags</w>
速 器</w>
良 心</w>
恩 赐</w>
决 定性</w>
Sukh umvit</w>
香 料</w>
百分 之
沃尔 沃</w>
对 外
跨 国</w>
用 地</w>
浴 盆</w>
优 秀
用 车</w>
特 许</w>
杠 杆</w>
加利福 尼亚</w>
佛 山市</w>
Hou ston</w>
D a</w>
C R</w>
9. 4</w>
高 专</w>
综合 性</w>
值得 注意</w>
令人 兴奋</w>
亨 利</w>
ans om
3. 4</w>
补救 措施</w>
j e</w>
ing ham</w>
2 80
腐 蚀性</w>
尔 西</w>
口 腔</w>
做 些</w>
为 本</w>
一 度</w>
enz hen</w>
Af ee</w>
航空 航天</w>
完 毕</w>
勇 敢</w>
上 门</w>
P AC
抵 制</w>
j an</w>
Mc Afee</w>
5. 2</w>
饼 干</w>
追 究</w>
水上 运动</w>
分析 师</w>
sh ip</w>
p o</w>
Auto CAD</w>
停 用</w>
D j
A er
4. 3</w>
切 斯特</w>
s a
ou ld</w>
l u
iz ed</w>
i ous</w>
Wh it
AR Y</w>
工程 学</w>
低 压</w>
会 上</w>
ult ure</w>
Sal es
SP A</w>
里程 碑</w>
法 国
Liv ing</w>
视 线</w>
is o</w>
V intage</w>
背 叛</w>
老 挝</w>
流 通</w>
多 重</w>
力 气</w>
d el
16 5</w>
阁 楼</w>
瑞 典
烟 草</w>
方 可</w>
幼 儿
五 条</w>
19 75</w>
索 取</w>
汇 款</w>
Z one</w>
197 2</w>
手 稿</w>
he im</w>
ard o</w>
J ack
Fr an</w>
Barcel ona</w>
平方 公里</w>
以 免</w>
am od
画 家</w>
之 道</w>
不 太</w>
E K</w>
孤 独</w>
v an</w>
et y</w>
领 受</w>
礼 貌</w>
灭 亡</w>
日 前</w>
困 惑</w>
Activ ity</w>
磋 商</w>
为 重要</w>
m it
Sp e
S ign
Ch iang</w>
AP K</w>
阴 谋</w>
岁 月</w>
or i</w>
el s
d em
ST PS
Ch urch</w>
裙 子</w>
皮 带</w>
特 有</w>
嘲 笑</w>
o z</w>
ansom ware</w>
Lou is</w>
EM C</w>
196 8</w>
长 久</w>
矿 石</w>
爵 士
棕 榈
先 锋</w>
Vict oria</w>
Tr avel
巴 巴</w>
发生 变化</w>
中国 共产党</w>
m edia</w>
bel ow</w>
IS A</w>
AS H</w>
队 长</w>
星 系</w>
文件 格式</w>
始 终
里 程</w>
物 理学</w>
抽 出</w>
安 息</w>
att le</w>
发 射
珍 珠</w>
受 过</w>
勉 强</w>
m g
m ag
铁 艺
喷 射</w>
史 密
书面 通知</w>
B T</w>
板 材</w>
务 实</w>
GP U</w>
肤 色</w>
智 力</w>
失业 率</w>
sup port</w>
r ates</w>
Re co
表 示
d et
诱 人</w>
支 配</w>
惩 罚
商业 用途</w>
CA T</w>
缺 失</w>
变 换</w>
易 用</w>
介 入</w>
Br a
12 4</w>
洗手 间</w>
层 楼</w>
修正 案</w>
erg y</w>
Sa int
R u
C ut
抛 弃</w>
以 为
Z ul
S ev
P ic
197 6</w>
配 偶</w>
此 等</w>
mark et</w>
l td</w>
Limas sol</w>
灰 尘</w>
没 错</w>
本地 化</w>
使 本</w>
W ifi</w>
M ak
K ir
EC U</w>
C air
布 加勒
埃 尔
合法 权益</w>
分 组</w>
亵 渎</w>
er ald</w>
M ult
AN G
20 30</w>
相 关联</w>
拟 合</w>
布加勒 斯特</w>
公 元</w>
陪 同</w>
核 准</w>
展 厅</w>
喷 雾
C K
B et
维 修
显 明</w>
D H
莱 纳</w>
离 子
油 漆</w>
推 移</w>
招 呼</w>
存 取</w>
分 成</w>
兴 业</w>
V ac
骑 行</w>
迪 斯科</w>
哈 尔
全 额</w>
互 联
EU N</w>
镜 像</w>
适 应
潜 能</w>
极 度</w>
位 数</w>
ro ot</w>
这 片</w>
李 大壮</w>
带 上</w>
备 注</w>
A t</w>
豁 免</w>
管理 层</w>
柔 性</w>
时 装</w>
政治 家</w>
厨 具</w>
不 像</w>
c n
D ays</w>
y ears</w>
and y</w>
I ON
Conn ect</w>
0 2
立 式</w>
一 词</w>
on ly</w>
ic y</w>
J u
微 小</w>
同 年</w>
产 出</w>
Co at</w>
AN G</w>
除 去</w>
暹 粒</w>
十二 条</w>
ipp on</w>
落 后</w>
狭 窄</w>
纳税 人</w>
演 唱
急 忙</w>
F rom</w>
陷 阱</w>
邮 政
洲 际</w>
格 勒
机 密</w>
扣 除</w>
可 编程</w>
B all
顺 服</w>
Hor iz
过 分</w>
洞 穴</w>
疑 惑</w>
林 肯</w>
有 过</w>
s em
Qu ery</w>
惩罚 性</w>
v ir
v en
TC P</w>
贬 毁</w>
贝 斯特</w>
自然 资源</w>
巴士 站</w>
危 地
a ux</w>
K in
Ch ap
树 立</w>
健 康
F el
Cl ar
B T
As px</w>
调 节
t or</w>
O ST</w>
重 申</w>
费 城</w>
糖 果</w>
大 象</w>
发 给</w>
p a</w>
T u
12 9</w>
伤 心</w>
令人 惊叹</w>
F I
转 子</w>
灵 敏
查 尔斯</w>
动 员</w>
一 节</w>
s er
ro s</w>
g ood
c es</w>
6 3
邻 国</w>
ob er</w>
err e</w>
S at
For m
CO R
跟 前</w>
背 部</w>
瑟 夫</w>
复 选框</w>
Paul o</w>
O F
饰 品</w>
柔 和</w>
交易 平台</w>
R ome</w>
马 达
普 尔</w>
H aw
美国 政府</w>
生命 科学</w>
损 耗</w>
pl ace</w>
g mail</w>
Ch i
AS T</w>
6. 1</w>
极 好</w>
大 地</w>
哎 呀</w>
假 定</w>
S G</w>
F ood</w>
女 神</w>
发电 机组</w>
Br and</w>
通 告</w>
N ap
手 柄</w>
俄 亥
et ta</w>
30 1</w>
城 墙</w>
合 一</w>
叶 子</w>
W A
U N</w>
CON T
雷 达</w>
ar ia</w>
B ern
B ad
Aust in</w>
野 外</w>
表 演
请 问</w>
服务 器
发 觉</w>
H yp
Courty ard</w>
高 强度</w>
间 断</w>
纽约 州</w>
市政 厅</w>
宣传 册</w>
生产 厂家</w>
特 岛</w>
底 下</w>
好 看</w>
制 冷
in it
门 户
激 进</w>
枢 纽</w>
客 气</w>
商务 网</w>
一 头</w>
oo t</w>
R ansomware</w>
Inf obox</w>
非常 简单</w>
阿尔 卑
迈 克尔</w>
羊 毛</w>
宣 讲</w>
及 本</w>
南 斯拉夫</w>
切 实</w>
templ ates</w>
e p</w>
Tit le</w>
The atre</w>
群 交</w>
同 盟</w>
一 辈子</w>
G at
社 团</w>
硬 化</w>
比 索</w>
歇 尔</w>
升 降</w>
一 小
Dre am</w>
误 解</w>
收件 人</w>
好 久</w>
1 B</w>
马达 加
逃 避</w>
容 忍</w>
197 3</w>
18 .
甲 板</w>
不 列
遗 迹</w>
新泽 西州</w>
ing er</w>
S eb
CB D</w>
20 8
虚拟 现实</w>
商 贸</w>
免费 软件</w>
不 着</w>
oo m</w>
Pi azza</w>
P ep
Act ive</w>
高 雅</w>
衣 室</w>
列 国</w>
Eur o</w>
转 账</w>
参 议院</w>
Str at
P G</w>
MA X</w>
短 时间</w>
澳门 国际机场</w>
所 选</w>
R ock</w>
M ol
5. 3</w>
白 人</w>
游 乐园</w>
孟加拉 国</w>
剧 场</w>
偏 见</w>
S mart</w>
Ill ustr
激光 器</w>
摩 纳
床 边</w>
威 客</w>
马达加 斯加</w>
试 用
或 缺</w>
巴 尔</w>
如 画</w>
专 用
k r</w>
cat egory</w>
Virt ual</w>
TR AN
Bal ear
阵 列</w>
国际 法</w>
Port ug
M ay</w>
仍 旧</w>
Tor ch</w>
Net work</w>
G T
Bu st
百 万
留 给</w>
amod els</w>
涛 哥</w>
楼 宇</w>
创 办</w>
i Cloud</w>
d ot</w>
bong amodels</w>
R ub
都 会</w>
坦 桑
身 处</w>
该 省</w>
开 来</w>
低 利率</w>
T osh
G all
Che ck
挤 出</w>
尔 姆</w>
嘉 宾</w>
Loc ation</w>
鸽 友</w>
痕 迹</w>
永 久性</w>
Q N
M ON
CO MP
插 槽</w>
p ics</w>
苏 尔</w>
绿 茶</w>
病 例</w>
死 去</w>
不列 颠</w>
the y</w>
ill i
E ther
都 灵</w>
州 立大学</w>
天 父</w>
型 肝炎</w>
Sales force</w>
K E
7 50
那 利</w>
西 南</w>
民 国</w>
标 注</w>
Con d
196 9</w>
联 接</w>
礼 拜</w>
外 科</w>
备 受</w>
历 程</w>
万 事
r ic
ec ut
X L</w>
V I</w>
更 衣室</w>
新 年
st re
m 3</w>
ik o</w>
W ay</w>
Min i</w>
安 宁</w>
Sams ung</w>
Fl ickr</w>
3. 6</w>
20 .
记 忆
自 有</w>
约翰 内
约翰内 斯堡</w>
总 干事</w>
光 谱</w>
H R</w>
评 选</w>
恒 星</w>
忍 耐</w>
希腊 语</w>
婚 戒指</w>
Se e</w>
驾驶 员</w>
诚 意</w>
致 力</w>
灵敏 度</w>
未 人</w>
巴塞罗 纳</w>
多 语种</w>
c ar</w>
Super Chan</w>
IC S</w>
银 子</w>
能 为</w>
背 面</w>
卡罗 来
wh at</w>
um n</w>
相 处</w>
海 豚</w>
栅 极</w>
Inv est
奥 秘</w>
ot to</w>
P RE
N Y
C afe</w>
星期 三</w>
将 近</w>
人 行</w>
tr avel</w>
is ka
甜 蜜</w>
来 源于</w>
杏 娟</w>
家 属</w>
女 友</w>
加 那利</w>
AM26 LS
镇 压</w>
通讯 地址</w>
心 得</w>
宪 章</w>
Balear ia</w>
6 9
规 章</w>
奶 油</w>
gro und</w>
b est</w>
M FM</w>
7. 2</w>
称 重</w>
总 体
erm ar</w>
Oper a</w>
Em erald</w>
遥 控</w>
负 面
盖 特</w>
极 致</w>
景 象</w>
y f
Back pack
经 纪</w>
引人 注目</w>
养 老
Goo d</w>
Gal ax
CM OS</w>
19 49</w>
演唱 会</w>
创 新型</w>
s h</w>
ed a</w>
N ippon</w>
C I</w>
那 州</w>
舒 心</w>
生 病</w>
倡 导</w>
m em
l es
ct ion</w>
at on</w>
Spring Hill</w>
Art icle</w>
设 想</w>
培 育</w>
偿 还</w>
P O</w>
F DA</w>
En ermar</w>
达 拉斯</w>
十 年代</w>
高 频</w>
日 益
政 变</w>
u es</w>
ens ion</w>
b ec
训 练
徒 步
图 纸</w>
一 笔</w>
Per f
17 5</w>
鞋 子</w>
那 一刻</w>
索 尼</w>
教 宗</w>
招 生</w>
巴 林</w>
土 著</w>
二 十年</w>
一 身</w>
粉 丝</w>
示 录</w>
师 范
双 边</w>
一 幅</w>
Europ e</w>
D in
25 00</w>
缩 写</w>
开 罗</w>
密 集</w>
军 人</w>
以 南</w>
D un
D all
196 7</w>
陆 军</w>
球 迷</w>
天 才</w>
代 数</w>
不可 或缺</w>
in at
Stad ium</w>
祝 贺</w>
存储 器</w>
存 活</w>
Austr alia</w>
Au th
A K</w>
1 100</w>
酸 盐</w>
线 缆</w>
爱德 华</w>
未 成年人</w>
支 票</w>
招 标</w>
定 量</w>
参 赛</w>
加 里</w>
High way</w>
Ang ular</w>
金 发
散 发</w>
l a
H osp
生 人</w>
旅 途</w>
共同 体</w>
Cl ass</w>
插 图</w>
初 学者</w>
不 开</w>
d at
30 53</w>
1 17</w>
格 斯</w>
时 常</w>
念 头</w>
可 追溯</w>
N V</w>
Im age</w>
IT E</w>
IK A</w>
英文 版</w>
物 件</w>
欲 了解</w>
卢 卡斯</w>
伊 斯</w>
一般 来说</w>
af os</w>
K ey</w>
食品 安全</w>
摩 尔</w>
t or
re d
lab el</w>
15 5</w>
遗 传
操 管</w>
宣 道</w>
e ur</w>
S ON</w>
A 1</w>
3. 7</w>
沿 海</w>
并 用</w>
多米 尼
c as
车 队</w>
校 友</w>
快捷 酒店</w>
s il</w>
这 笔</w>
榜 样</w>
例 证</w>
件 事</w>
遥 控器</w>
艺术 作品</w>
看 不见</w>
句 子</w>
ev er</w>
货 架</w>
发 作</w>
s ource</w>
浙江 省</w>
H U
赞 赏</w>
天 数</w>
借 口</w>
任 职</w>
一 步
P ok
A n</w>
25 6</w>
淋 巴
无 知</w>
大 王</w>
历史 记录</w>
便利 店</w>
IF S</w>
赞助 商</w>
奥林匹 克
铁艺 门</w>
远 足</w>
坦桑 尼亚</w>
口 号</w>
上 市
P afos</w>
P AR
C el
5 50</w>
奶 奶</w>
塑 胶
国 旗</w>
亲 切</w>
T om</w>
L an
膨 胀
消 化</w>
海 岸
上市 公司</w>
blog ging</w>
Al ere</w>
过 多</w>
费 尔
危地 马拉</w>
与 会者</w>
p h</w>
质 性</w>
美 的</w>
管辖 区</w>
活 性
方便 快捷</w>
性 命</w>
徒步 旅行</w>
台 式</w>
务 人</w>
丹 吉尔</w>
s ee</w>
Desk top</w>
来 回</w>
拖 车</w>
塞 斯</w>
min s</w>
S ER
IT Y</w>
Cr yp
B I</w>
马 尔</w>
穿 梭</w>
思 科</w>
A X</w>
18 8</w>
登 机</w>
广播 电台</w>
ch i</w>
逃 脱</w>
获 胜</w>
I l</w>
首 位</w>
身 为</w>
胸 前</w>
第一 款</w>
禁 令</w>
海 域</w>
无 辜</w>
p le
锡 安</w>
产 权
y z
V an
科 威特</w>
波 长</w>
敦 促</w>
度 计</w>
国家 博物馆</w>
PC I</w>
Circu its</w>
斯普 利特</w>
收 割</w>
l ib
Mex ico</w>
茨 堡</w>
启 示录</w>
P ot
关 系
倾 听</w>
y e
mon t</w>
l ang</w>
萨 尔</w>
相互 作用</w>
灯 具</w>
明确 规定</w>
斯 卡
情 节</w>
延 误</w>
ISO 9001</w>
Deb ian</w>
皮 埃尔</w>
六 年</w>
讲 解</w>
西班 牙
汽车 行业</w>
l rh
at s
Rob ert</w>
G ate</w>
Financ ial</w>
退 回</w>
老 大</w>
爱 心</w>
有 罪</w>
内 阁</w>
lrh ru</w>
Show ing</w>
SI N</w>
歌 剧</w>
商业 性</w>
初始 化</w>
J S</w>
F us
罪 犯</w>
网络 营销</w>
离 心
煤 炭</w>
法 则</w>
g ame</w>
ed uc
E p
装 潢</w>
股 票
月 底</w>
最高 法院</w>
ron is</w>
表 面
涡 轮</w>
法 定
Roo ms</w>
Oct ober</w>
首 爾</w>
还 给</w>
细 分</w>
温 州</w>
悲 伤</w>
三 人</w>
Sh enzhen</w>
G ab
A w
该 死</w>
e er</w>
4. 4</w>
1 0.
社会 保障</w>
大 臣</w>
m ic
Mil an</w>
Ex t
Av ira</w>
谈 谈</w>
索 斯</w>
o e</w>
H DM
F err
随 者</w>
身 材</w>
D J</w>
结 果
沙 咀</w>
富 特</w>
商业 秘密</w>
一 封</w>
8. 3</w>
8 7
50727. 3053</w>
拉 德</w>
小 巧</w>
人道 主义</w>
R un
IV E</w>
For t</w>
Fl ow</w>
D al
科 研
清 晰
模 仿</w>
摇滚 乐</w>
喷 嘴</w>
卡 特</w>
20 5</w>
贝 里</w>
纽约 时报</w>
本 周</w>
南 省</w>
保 守
Qu ality</w>
ai re</w>
H P
Flor ida</w>
照 相机</w>
克 林
V B</w>
Limas ol</w>
L ab</w>
静 静
远 镜</w>
极 管</w>
望 远镜</w>
古典 文学</w>
关 节
php BB</w>
om o</w>
P op
6. 5</w>
高 峰</w>
民族 主义</w>
Cre ek</w>
温 水</w>
教 皇</w>
尖 沙咀</w>
IN TER
B D</w>
趴 在</w>
资 料
继 承
T rop
E ri
途 中</w>
线 条</w>
纳 粹</w>
意 识
id o</w>
h ad</w>
er p
TC1 304</w>
Pr int</w>
C od
贝 拉</w>
电脑 系统</w>
刚 果
ed er
M an</w>
改 革
or d</w>
197 7</w>
16 00</w>
阿 曼</w>
不 道德</w>
6 .0</w>
外 长</w>
坚 信</w>
pe ople</w>
9. 00</w>
197 4</w>
种 植
州 长</w>
复 古</w>
潜水 员</w>
分 手</w>
b as
Ac ronis</w>
马 萨
蝴 蝶</w>
概 要</w>
斯 卡拉</w>
幼儿 园</w>
R ent
M att
40 1</w>
常务 委员会</w>
省 份</w>
法 利</w>
名 词</w>
二 十</w>
f irst</w>
L ak
15 7</w>
13 9</w>
连 结</w>
沿 岸</w>
新闻 网</w>
家庭 成员</w>
复 印
公 安
str asse</w>
at m
Mod ern</w>
30319.34 280</w>
14 9</w>
贝尔 法
贝尔法 斯特</w>
斯 托</w>
另 一边</w>
T ER</w>
Dall as</w>
这 边</w>
球 轴承</w>
德 累
列 举</w>
M ail</w>
限 定</w>
比 如说</w>
不 怕</w>
申请 书</w>
丫 头</w>
Con c
B ut
得 罪</w>
同 比</w>
反 过来</w>
ath er</w>
Tosh iba</w>
N P</w>
连 忙</w>
花 朵</w>
庇 护</w>
克 隆</w>
O v
50727.54 85</w>
德累 斯顿</w>
强 奸</w>
塞 舌
电 镀</w>
残 酷</w>
明 明</w>
截 图</w>
y u</w>
ab a</w>
F ol
F AR
马克 思
Nor th
蜡 烛</w>
屁 眼</w>
在 外</w>
两 只</w>
起 义</w>
维 护
纯 度</w>
日 出</w>
承 运人</w>
两 侧</w>
要 约</w>
点 数</w>
深 深
摩纳 哥</w>
寒 冷</w>
备 案</w>
pr ice</w>
ij a</w>
f er</w>
bai du</w>
F ab
Ad ministr
AR D</w>
大 都会</w>
压 力
S or
C y
旅游 业</w>
乳 腺癌</w>
ul es</w>
玻利 维亚</w>
存 有</w>
哈 哈</w>
an ese</w>
MP EG</w>
读 书</w>
耶利 米</w>
化学 物质</w>
FA Q</w>
首 府</w>
拍 卖
性 高潮</w>
卢 西亚</w>
公用 事业</w>
一 顿</w>
R ay
奶 子</w>
伦 理</w>
C os
讲 道</w>
机 芯</w>
教 区</w>
仪表 板</w>
世 代</w>
解 读</w>
溯 到</w>
Care ers</w>
这 款</w>
行 了</w>
萨 拉
菜 单
当 场</w>
就 行了</w>
中 东
ans as</w>
P OR
殊 荣</w>
最 棒</w>
Galax y</w>
餐 具</w>
证 码</w>
粉 碎</w>
无 聊</w>
长 远</w>
室内 设计</w>
gro up</w>
Tog gle</w>
马 车</w>
留 学生</w>
大 致</w>
SS D</w>
医疗 保险</w>
不 该</w>
一 旁</w>
u z
ph a</w>
list ing</w>
Lot us</w>
50727.54 91</w>
3 30</w>
约 瑟夫</w>
塞舌 尔</w>
可 不</w>
Pre vious</w>
门 前</w>
避 开</w>
反对 派</w>
x i</w>
Mat rox</w>
9. 5</w>
金 字
悲 剧</w>
l l</w>
R ock
An t</w>
防 范</w>
矿 山</w>
敏 捷</w>
下 注</w>
ste in</w>
阻 力</w>
死 人</w>
台 上</w>
勇 士</w>
P in
C av
Be ans</w>
陌 生人</w>
走 到</w>
磁 场</w>
电动 汽车</w>
猜 测</w>
学 士</w>
同 期</w>
分 泌</w>
两 倍</w>
Zul u
共享 资源</w>
i res</w>
耦 合</w>
人 权
serv ices</w>
Spec ial</w>
H un
Ad vent
当地 人</w>
床 垫</w>
el le
ag ing</w>
舰 队</w>
指 望</w>
戴 尔</w>
屋 子</w>
增 多</w>
可 应</w>
协 调
亚特兰 大</w>
不 动
b b</w>
A Z
2 12</w>
称 呼</w>
拿 破
吉尔吉 斯
切 断</w>
米 勒</w>
塔 尔
加泰罗 尼亚</w>
n ot
h ours</w>
撞 击</w>
按 下</w>
巧 妙</w>
工业 化</w>
岭 南大学</w>
罢 了</w>
无 所
找 回</w>
对 策</w>
9. 1</w>
1 B
难 过</w>
蜂 蜜</w>
碎 片</w>
坚 实</w>
亚 利
rol l</w>
e TM</w>
索 尔</w>
琴 海</w>
格 尔
抵 御</w>
小 伙
发 酵</w>
克 索</w>
or ies</w>
197 1</w>
资 质
解 锁</w>
用 到</w>
Wor ld
20 6</w>
甲 状
献 上</w>
sp ec
o a</w>
Part y</w>
L IM
文 书</w>
地 向</w>
压 制</w>
关 切</w>
co ur
黑 塞
限 内</w>
拼 图</w>
十 八</w>
三 章</w>
Saint e</w>
结 尾</w>
真实 性</w>
比 重</w>
应 立即</w>
域 网</w>
召 集</w>
南 美</w>
买 到</w>
营 运</w>
爱 琴海</w>
意识 形态</w>
思 路</w>
全国 人民
克里 斯</w>
s r
Scand lines</w>
Instit ute</w>
简 洁</w>
住 宅
传 到</w>
str uc
cont ent
20 2</w>
需 求
阅读 器</w>
获 利</w>
第 纳尔</w>
猴 子</w>
E g
汤 姆</w>
实 践
军 官</w>
关 爱</w>
信 号
中央 公园</w>
g es</w>
生 理</w>
牛 津</w>
接收 器</w>
填 补</w>
偏 差</w>
Sou l</w>
M un
陈 倩</w>
身 影</w>
4 80</w>
荧 光</w>
正 当
上 架</w>
O ak
8 3
适用 於</w>
综合 征</w>
统治 者</w>
残 障</w>
文 艺
休 斯顿</w>
TH 16
SK F</w>
H ear
Gu ide</w>
Br is
Ath ens</w>
立 体
拿破 仑</w>
导 轨</w>
发布 会</w>
剧 烈</w>
之 夜</w>
HDM I</w>
集 会</w>
监 禁</w>
期 限内</w>
战 斗
地 被</w>
马尔 马</w>
音 量</w>
建设 性</w>
NE W</w>
19 46</w>
隔 绝</w>
身 体
绘 图</w>
真 心</w>
牛 仔
几 秒钟</w>
上 载</w>
c ase</w>
长 达</w>
斯 诺</w>
对 称</w>
负 债</w>
以 赛</w>
R U
间 隙</w>
通 向</w>
寄 存
储 存
中 型</w>
ec e</w>
d om</w>
U p</w>
可 行
云 南</w>
iv a</w>
est ia</w>
内 设</w>
R ect
陈 曦</w>
理工 大学</w>
手 下</w>
保 管
一 惊</w>
T ol
P ub
动 力学</w>
佳 肴</w>
Diam ond</w>
管 家</w>
同 类</w>
IS L
196 4</w>
14 5</w>
短 语</w>
梅 尔</w>
小 区</w>
作 王</w>
两 项</w>
四 川</w>
受益 人</w>
at ic</w>
BA UN
顶 端</w>
采取 相应</w>
逃 跑</w>
缓 冲
流 入</w>
擅 长</w>
史密 斯</w>
主 导
c rip
B it</w>
Am ber
频 器</w>
阴 蒂</w>
金字 塔</w>
工作 日</w>
空气 污染</w>
有 望</w>
十 四</w>
驱 逐</w>
保 證</w>
N g
马尔 代
明 珠</w>
控制 室</w>
Moun t</w>
Ma h
IE S</w>
次 日</w>
二 零
ut er</w>
re d</w>
V ers
G ermany</w>
BAUN AT</w>
卢 布</w>
二 极管</w>
u g</w>
J er
Hol ly
需 时</w>
连 通</w>
相关 性</w>
木 屋</w>
反 感</w>
ustr y</w>
PL US</w>
14 4</w>
道 歉</w>
全 局</w>
uc h</w>
2 60</w>
面 粉</w>
金 边</w>
脑 海</w>
美 术</w>
珊 瑚</w>
片 刻</w>
深深 地</w>
在 意</w>
体育 运动</w>
主 轴</w>
专业 化</w>
Shop ping</w>
ER S</w>
A X
贝 克</w>
留 下来</w>
回 路</w>
周 前</w>
十 分
二十 世纪</w>
主 板</w>
um e</w>
par k</w>
erson al</w>
飞行 员</w>
坐 标</w>
不 易</w>
u al
Pr ice</w>
金发 女郎</w>
老 鼠</w>
拍 照</w>
小伙 子</w>
亚利 桑
下 属</w>
O d
N ick
胆 固醇</w>
缔 结</w>
e f</w>
ad es</w>
E B</w>
搭 载</w>
孤 立</w>
二 进制</w>
ian a
Sk y
S K</w>
联邦 政府</w>
繁 多</w>
粹 主义</w>
政 客</w>
山 顶</w>
50 1</w>
进 出</w>
迎 合</w>
负面 影响</w>
提 出
抗 拒</w>
所 能</w>
大 全</w>
美 容
柜 台</w>
松 开</w>
小 型
堡 垒</w>
不由 得</w>
Pl an
For t
F ish
手 持</w>
发 育</w>
W ith</w>
D MO
9. 6</w>
普 森</w>
受 不了</w>
内 衣</w>
相 匹配</w>
此 种</w>
助 您</w>
二 元</w>
电 量</w>
明 尼
平 线</w>
一 双</w>
秉 承</w>
控制 权</w>
县 级</w>
ub a</w>
白 宫</w>
毁 坏</w>
Sh ift</w>
SI M</w>
Green light</w>
F 1</w>
C F</w>
香 蕉</w>
特 立
步 行
发送 至</w>
Sec urity</w>
N aught
HO ME</w>
AD I</w>
质量 保证</w>
管理 软件</w>
密 歇
假 装</w>
DMO Z</w>
Ass oci
13 2</w>
追 溯到</w>
斯 大
挑 逗</w>
器 皿</w>
吸烟 区</w>
原 油</w>
LE X
而 言之</w>
杀 人</w>
学 历</w>
功 夫</w>
低 功耗</w>
马尔代 夫</w>
震 撼</w>
适 宜</w>
生产 工艺</w>
泉 水</w>
水 池</w>
庆 典</w>
密切 合作</w>
4 3
穿 戴</w>
促 成</w>
代表 性</w>
搜 到</w>
另 行</w>
卫 浴</w>
q l</w>
靠 着</w>
电子 游戏</w>
洗 涤</w>
凯 恩斯</w>
全 程</w>
re y</w>
m us
13 1</w>
道 格拉斯</w>
心 意</w>
发展 趋势</w>
制 剂</w>
划 算</w>
下 游</w>
Int egr
销 会</w>
玛 格
十 足</w>
二 楼</w>
专 门
or ial</w>
a con</w>
Power ed</w>
拉 链</w>
在 场</w>
Hel en</w>
私 下</w>
礼 服</w>
海 岛</w>
更 名</w>
得 不到</w>
彰 显</w>
展 销会</w>
再 见</w>
丛 林</w>
不 算</w>
Bas ic</w>
研 制</w>
搜 罗</w>
带 动</w>
固 化</w>
品 味</w>
Terr ace</w>
奖 者</w>
ann el</w>
F ull</w>
1 18
相 邻</w>
殖 民</w>
欺 负</w>
减 缓</w>
八 个</w>
严 厉</w>
post s</w>
P un
Oliv e
A U</w>
颁 布</w>
走 过</w>
散 热</w>
外 表</w>
ar in</w>
Tick et</w>
茸 茸</w>
第 一家</w>
毛 茸茸</w>
信 靠</w>
w rit
t ou
b an</w>
犹太 教</w>
清 算</w>
流 出</w>
密 码
利用 率</w>
R od
12 5
R ac
Mark ham</w>
M ENT
Al ice</w>
资 企业</w>
线 图</w>
立 法
杂 货
禁 食</w>
回 馈</w>
str o</w>
j query</w>
exper t</w>
A Q
30319.34 209</w>
离 去</w>
接 种</w>
k r
WHO IS</w>
纪念 馆</w>
中 是</w>
l ess</w>
b it
Kail estia</w>
黑塞 哥
知 晓</w>
招 待
图 画</w>
参 展</w>
us a</w>
men u</w>
en os</w>
Pac ific</w>
M ai</w>
C K</w>
查 理</w>
撒 母</w>
得 意</w>
巴 伐
圣 地</w>
哈 瓦
可 不是</w>
克 利
O k
AM26 LV
额 定</w>
称 号</w>
点 燃</w>
推 特</w>
市 政</w>
安装 程序</w>
地 域</w>
发行 商</w>
一 想</w>
ma x</w>
3 A</w>
缩 放</w>
科学 技术</w>
海 拔</w>
欧洲 人</w>
杯 子</w>
展 商</w>
均 值</w>
使 人</w>
人 身</w>
v Sphere</w>
74 HCT
经常 性</w>
尔 森</w>
主题 公园</w>
Zulu Trade</w>
P age
简 报</w>
壁 画</w>
if f</w>
P ASS</w>
锻 铁</w>
聘 请</w>
基 尔</w>
众 不同</w>
Financ ial
洗 发
有 毒</w>
昆 虫</w>
对 比
好 吃</w>
与 众不同</w>
b ie
E con
选择 性</w>
文 物</w>
文 森</w>
支 付
J enn
鱼 类</w>
领先 地位</w>
营业 时间</w>
智能 化</w>
卵 石</w>
ar o</w>
G U
5. 00</w>
24 9</w>
14 6</w>
福 祉</w>
电 容</w>
热 电
永 不</w>
数 学
放 缓</w>
推 迟</w>
底 座</w>
基 尼</w>
回 避</w>
乌 干
n ers</w>
ire ct</w>
辖 区</w>
诺 富特</w>
表 决</w>
粘 度</w>
申请 表</w>
字 节</w>
en o</w>
P av
F al
草 原</w>
睡 衣</w>
格 拉斯
垄 断</w>
Str ing</w>
Med ia
M O</w>
高 山</w>
怀 中</w>
带 走</w>
W ang</w>
Mon ica
Com ment</w>
Ch al
足 球
概 不
崭 新</w>
定 会</w>
il y
Reg ister</w>
Bu ild</w>
黑塞哥 维
黑塞哥维 那</w>
新 生</w>
D est
Br anch</w>
积极 参与</w>
服务 质量</w>
扩 充</w>
信息 系统</w>
中 性</w>
ow ers</w>
合 肥</w>
包装 材料</w>
u de</w>
R D</w>
萧 条</w>
爵 士</w>
器 具</w>
压 迫</w>
书面 形式</w>
i h
L IN
J al
远 东</w>
休 闲
Seb ast
购 买
概不 负责</w>
普 里</w>
悬 挂</w>
参 加
万 民</w>
syst em</w>
ira 96</w>
as a</w>
Pr ague</w>
Bag ira96</w>
196 2</w>
19 48</w>
西 伯利亚</w>
竞 技
立 马</w>
毒 素</w>
勃 起</w>
兄 们</w>
ib is</w>
ian e</w>
Sup port</w>
Jan uary</w>
Hy att</w>
限 期</w>
车 门</w>
植 物
新 生
弟 兄们</w>
布 列
优质 服务</w>
Ex ecut
近 乎</w>
珊 瑚
格兰 富</w>
实 话</w>
人 造</w>
lin s</w>
b ai</w>
园 艺</w>
北 欧</w>
创新 性</w>
光 泽</w>
p an
S IM
讽 刺</w>
蒙特 利尔</w>
灯 泡</w>
湖 北</w>
开 通</w>
占 地
便 携</w>
sh are</w>
Net Beans</w>
毫 不</w>
担 当</w>
定 时</w>
un der</w>
M ap
Fre e
路 加
耳 鸣</w>
男 友</w>
善 良</w>
公 会</w>
p t</w>
RF EM</w>
N ero</w>
玛格 丽
林 笑</w>
其 后</w>
公 务
以 下
了 不起</w>
j obs</w>
超 大</w>
第一 次世界大战</w>
正 教</w>
歌 词</w>
忘 录</w>
双 向</w>
交响 乐团</w>
举 办
R ights</w>
13 4</w>
继 续
备 忘录</w>
下 体</w>
三 星级</w>
聚 合</w>
矿 物质</w>
弗 里
传 承</w>
Mus ic</w>
B ot</w>
Ar ts</w>
递 给</w>
维 度</w>
用 手</w>
技术 创新</w>
得 主</w>
周 刊</w>
升 值</w>
f ol
IC T</w>
Dim ai
Col or
领导 力</w>
路加 福音</w>
起 始</w>
肥 胖</w>
德 文</w>
化 妆</w>
u ri
TA S</w>
R ap
A F</w>
西 欧</w>
草 药</w>
养 殖</w>
ti um</w>
t ube</w>
i o
19 40</w>
滤 波器</w>
s n
Sal es</w>
1 0.0</w>
贵 宾</w>
火 热</w>
布 勒</w>
Prem ier</w>
黄金 海岸</w>
萨尔 茨堡</w>
水 面</w>
惠 普</w>
叶 片</w>
w iki</w>
O rig
蔓 延</w>
膝 盖</w>
社 交
确认 信</w>
大 祭司</w>
咨询 台</w>
一点 儿</w>
u o</w>
20 x
行 李
接触 式</w>
哪 怕</w>
供 货</w>
丝 绸
m ir
MC 14
Arg ent
贸易 协定</w>
负 债
纳 州</w>
纤 维
洗 净</w>
河 北</w>
本 科</w>
就业 机会</w>
专卖 店</w>
Kut ila</w>
Ko h</w>
ID IA</w>
Exper t</w>
运 算</w>
累 计</w>
第二 章</w>
民 事</w>
敲 门</w>
打 扮</w>
常 州</w>
中 为</w>
s al
Qu art
阿 波罗</w>
谦 卑</w>
编 码器</w>
弱 点</w>
党 人</w>
之 物</w>
e 1</w>
ant ing</w>
U t
O L
螺 丝</w>
拒 绝
劳动 合同</w>
om s</w>
WM V</w>
Tou ch</w>
S ports</w>
M 93
马萨 诸
表 彰</w>
洛 夫</w>
污染 物</w>
im e</w>
b a
Wiki pedia</w>
泰 勒</w>
安全 更新</w>
ou ris</w>
f ri
申 根</w>
共同 努力</w>
中 小型</w>
V ila</w>
Al p
我 用</w>
加 州
世 贸
d n
Web Sphere</w>
2 40
19 20</w>
骆 驼</w>
试 着</w>
税 费</w>
成 形</w>
跳 到</w>
新 世界</w>
投 放</w>
十 九</w>
hu i</w>
eb l
S wit
Mark eting</w>
He atm
An ne</w>
9. 3</w>
短途 游</w>
族 群</w>
托 雷斯</w>
心 想</w>
娃 娃</w>
危 险
con s
c ent</w>
SP ACE</w>
196 5</w>
前 者</w>
E le
分 级</w>
ans on</w>
4 85</w>
脂肪 酸</w>
摩 尔多瓦</w>
ev in</w>
Te am</w>
S M</w>
流 失</w>
没 关系</w>
汉 普顿</w>
某种 程度</w>
末 日</w>
日光 浴</w>
威斯 康
t ionary</w>
k y</w>
cont rol</w>
NV IDIA</w>
资源 管理</w>
自然 灾害</w>
约 旦
求 婚</w>
数 十年</w>
中 立</w>
V 1
S L</w>
Qu e
精 灵</w>
税 款</w>
平 常</w>
安 心</w>
互 利</w>
j ust</w>
防 爆</w>
镶 嵌</w>
选 购</w>
转 到</w>
赞 同</w>
年 内</w>
双 边
不 带</w>
烟 雾</w>
校 正</w>
实用 新型</w>
it er</w>
病 房</w>
优先 级</w>
k ey
Un ity</w>
P L</w>
监 视
中 非</w>
int ing</w>
g er
音乐 节</w>
对比 度</w>
利 沃
m ac
e Financial
eFinancial Careers</w>
b erry</w>
T B</w>
白 金</w>
斯 敦</w>
山 雀</w>
外汇 交易</w>
Lang uage</w>
LM 25
H ong
Char l
0 3
衣 物</w>
群 组</w>
无 尽</w>
好 人</w>
人 性</w>
is k</w>
天 体</w>
凭 证</w>
不 在乎</w>
f in
Salv ador</w>
Pat ong</w>
风险 投资</w>
这 套</w>
私 营
杜 塞尔
战 队</w>
亲 近</w>
Z e
L ong
F av
5. 6</w>
素 食
橙 色</w>
合 同
解 脱</w>
机 动
封 信</w>
安 哥
厂 房</w>
om a</w>
过 身</w>
水 处理</w>
多 巴
严 峻</w>
ur i</w>
re ad</w>
anc ed</w>
S ant</w>
没 想</w>
氏 度</w>
文 凭</w>
必 使</w>
人 文</w>
p riv
西 门</w>
氢 气</w>
民 事
残 留</w>
桌 面
心脏 病</w>
出 资</w>
减 弱</w>
m as</w>
Vent ouris</w>
M ong
Aven ida</w>
饱 和</w>
路 口</w>
格拉斯 哥</w>
实 在
出 卖</w>
丝绸 之路</w>
不 对</w>
m eg
L ist
诗 人</w>
宏 观
保 全</w>
Rad io</w>
R O</w>
Hear t</w>
B UR
队 列</w>
节省 时间</w>
爵士 乐</w>
坚 硬</w>
区 内</w>
亮 相</w>
下 滑</w>
g ar</w>
S R</w>
R ol
通 用
落 地</w>
绝 不会</w>
索 马里</w>
海 盗</w>
普 鲁
免疫 系统</w>
y ou
6 2
词 语</w>
联 大</w>
剧 本</w>
间 距</w>
钢 结构</w>
现 任</w>
塑 性</w>
偷 偷</w>
低 下
us h</w>
M it
ew s</w>
小 贴士</w>
会 幕</w>
f a
X Videos</w>
耳 边</w>
战 后</w>
威 力</w>
些 时候</w>
R ail
L ittle</w>
马拉 加</w>
发 型</w>
H IV</w>
测试 仪</w>
成 本
哈 利
iDat e
12 8
颁 奖
影 子</w>
利 乐</w>
Heatm aps</w>
F R</w>
Cryst al</w>
面 孔</w>
运 气</w>
背 上</w>
昆 山</w>
小 龙</w>
Cor t
Conn ect
第一 百
平 滑</w>
四 种</w>
受 苦</w>
Moz illa</w>
Exc eption</w>
C a
问 候</w>
金属 制品</w>
罗 拉</w>
尘 器</w>
夹 克</w>
哈瓦 那</w>
全球 通</w>
不 合理</w>
h ai
Lav ender</w>
蒸 汽
细 胞
消 防</w>
推 车</w>
拓 扑</w>
多 多</w>
哈 佛
y ang</w>
an ch
麦 克</w>
从 来
世 纪
达 尔
诗 篇</w>
脸 颊</w>
经 费</w>
杰 克</w>
新 几内亚</w>
四 大</w>
u ria</w>
conf ig</w>
Ad d</w>
海岸 线</w>
Will is</w>
T est
尖 端</w>
少 于</w>
哥 德堡</w>
元 器件</w>
b ig</w>
Euro f
14 8</w>
辞 职</w>
美 人</w>
猛 地</w>
欧 美</w>
亚 那</w>
y l</w>
ers face</w>
S any
魔 术</w>
里 岛</w>
普 遍
总 裁
取得 联系</w>
itt en</w>
竞技 场</w>
沈 阳</w>
气 流</w>
总裁 兼</w>
家 电</w>
动 漫</w>
v ids</w>
Q 1</w>
根 基</w>
天 生</w>
史 蒂
qu es</w>
o z
顺 着</w>
缆 车</w>
签 发</w>
科 斯</w>
一 新</w>
Vis ion</w>
K ink
E sc
萨 格勒
萨格勒 布</w>
苏 梅
托 运</w>
刊 物</w>
中国 人民
ri al</w>
U pd
Sm ith</w>
F ir
App art
稳 定
历史 博物馆</w>
Ol sen</w>
Jon es</w>
CN C</w>
驳 回</w>
销 量</w>
为 例</w>
we et
ind er</w>
W yn
4 G</w>
00 2</w>
横 向</w>
机 舱</w>
晶 体</w>
十 亿</w>
停 滞</w>
h ot</w>
er ial</w>
em ap</w>
清 晨</w>
总 统
工具 包</w>
w a</w>
al och
N am
K ol
26 4</w>
验 证码</w>
预 见</w>
罗马 帝国</w>
杜塞尔 多夫</w>
国家 图书馆</w>
唱 片</w>
伤 口</w>
亚 洲
ip h
茶 水</w>
腹 部</w>
爷 爷</w>
并 行</w>
尼 卡</w>
安大 略
p a
Direct X</w>
20 4</w>
红 葡萄酒</w>
搭 建</w>
君 主</w>
m A</w>
F un</w>
Dre am
B ot
0x 800
肥 料</w>
称 赞</w>
把 门</w>
技术 参数</w>
圣 人</w>
ur n
3 40</w>
造 就</w>
脾 气</w>
硅 胶</w>
时 器</w>
ig e</w>
d ec
里 尔</w>
民 粹主义</w>
p res
m or
erry s</w>
c i
b ane</w>
T D
Class ic</w>
18 00</w>
表 述</w>
物 主</w>
浮 动</w>
大 妈</w>
U M</w>
Mon aco</w>
斯 堪
我 主</w>
l en
c at</w>
环 绕
手 掌</w>
幕 式</w>
前 任</w>
A fr
迷 惑</w>
股 份
石 化</w>
压 机</w>
传 教</w>
从来 不</w>
196 1</w>
传 给</w>
er ie</w>
熟 练</w>
很 漂亮</w>
TH E</w>
Eurof errys</w>
50727. 42
区 域
再 现</w>
本 能</w>
无人 机</w>
感 官</w>
叫 醒</w>
利 未人</w>
Ic ec
贯 穿</w>
特 大</w>
V ar
长期 以来</w>
载 体</w>
条 文</w>
心 跳</w>
安 防</w>
型 机</w>
囊 肿</w>
为 人
T our</w>
Car t</w>
那 条</w>
纸 板</w>
笑 话</w>
演 讲
刚 好</w>
om en</w>
eng er</w>
M I
源 码</w>
声 响</w>
圣 节</w>
香 味</w>
转 过身</w>
赐 福</w>
苏梅 岛</w>
灿 烂</w>
如 意</w>
唱 歌</w>
不 足以</w>
y i</w>
es a</w>
Spr ing</w>
钢 材</w>
第 七</w>
热 情
满 脸</w>
比 克</w>
从 不</w>
不 明</w>
s g</w>
prot ected</w>
c p
ab y</w>
R a
安哥 拉</w>
s qu
Rus aloch
R og
调 度</w>
自由 化</w>
私 密</w>
相 符</w>
排 出</w>
Wor k</w>
肯 尼
武装 冲突</w>
大 事</w>
前 身</w>
ch ain</w>
J ump</w>
EN G</w>
3 d</w>
重 力</w>
第 六</w>
常 识</w>
X 射线</w>
记 卡</w>
祖 父</w>
无 误</w>
您 服务</w>
希伯 来
为 您服务</w>
T an
终 生</w>
显 卡</w>
改 编</w>
关节 炎</w>
s and
ill o</w>
H R
美 达</w>
张 开</w>
山 羊</w>
h l</w>
P D</w>
闭 上
船 长</w>
福 斯</w>
法 式</w>
氮 气</w>
杀 手</w>
感 恩</w>
离 弃</w>
处 分</w>
一 幕</w>
pro v
d d
M ul
留 意</w>
界 限</w>
校 区</w>
万 亿美元</w>
ep h</w>
IC A</w>
Gen eva</w>
10 000</w>
得 多</w>
宝 血</w>
嫁 给</w>
亲 属</w>
t echn
down load</w>
要 点</w>
萨 摩
滑 雪
拇 指</w>
另一 方</w>
上 床</w>
i ous
b in</w>
Rusaloch kax</w>
D o</w>
Commun ity</w>
归 于</w>
p ri
ot al</w>
Lis a
AB S</w>
尼亚 语</w>
吉尔吉斯 斯坦</w>
反 射
十 六
分 类
ed back</w>
as ure</w>
as k
签 字</w>
固 有</w>
公 益</w>
st art</w>
ha us</w>
G et
C ar</w>
1 K</w>
是 非</w>
h of</w>
W ell
素 材</w>
条 形
扩展 性</w>
市场 需求</w>
b an
H aven</w>
Bab y</w>
19 39</w>
正 规</w>
国有 企业</w>
l ook
U P</w>
没 收</w>
借 记卡</w>
计算机 科学</w>
脱 衣
翅 膀</w>
直 流
淡 水</w>
布鲁 克林</w>
孙 子</w>
后 退</w>
几 家</w>
ain s</w>
TA G</w>
C art
Bit coin</w>
重 启</w>
市场 份额</w>
居 留</w>
孕 妇</w>
喀 什</w>
刚 性</w>
仅 供</w>
l og</w>
R ua</w>
金 发</w>
类 产品</w>
数 步</w>
效 能</w>
排 气</w>
总 督</w>
很 近</w>
塔 尼</w>
r d</w>
西西 里岛</w>
最新 消息</w>
新 品</w>
以 至</w>
m and
F alls</w>
C ass
Bris bane</w>
Be aut
特立 尼
散 热器</w>
慷 慨</w>
前 期</w>
exper ience</w>
贵 方</w>
热电 偶</w>
泊 车</w>
歌 手</w>
急 性</w>
可 疑</w>
冰 川</w>
IT ED</w>
19 30</w>
追 随者</w>
特 里</w>
新闻 资讯</w>
供 水</w>
ast ic</w>
可 变</w>
万 圣节</w>
ung sten</w>
l an</w>
T ir
文本 框</w>
塔 拉</w>
it er
il y</w>
雨 林</w>
阿 拉</w>
定 居</w>
奔 驰</w>
埋 葬</w>
s aid</w>
ern ame</w>
Process or</w>
Icec at</w>
13 7</w>
看 护</w>
照 样</w>
毫 克</w>
必 要性</w>
左 翼</w>
art h</w>
J ord
7. 4</w>
邻 里</w>
式 各样</w>
哥 林</w>
各 式各样</w>
卫 队</w>
下 拉
IF I</w>
C are</w>
萨 德</w>
电子 书</w>
珠 海</w>
公 差</w>
东 方
st ation</w>
hand ler</w>
Mag ento</w>
18 5</w>
江 苏
壮 大</w>
剪 贴
光 照</w>
Power Point</w>
On e
A O
骨 头</w>
起 草</w>
截 面</w>
委 任</w>
多 斯</w>
l ia</w>
IL LE</w>
8 40
闪 电</w>
快 点</w>
当 成</w>
制 止</w>
内 有</w>
公 鸡</w>
何 等</w>
iv er</w>
P ap
Deb bie
法 属
比 萨</w>
有 点儿</w>
开 创</w>
十 五</w>
主 办
一 阵
Debbie Olsen</w>
闪 光</w>
文本 文件</w>
意 料</w>
怎 能</w>
巴勒 斯坦
Point s</w>
者 说</w>
科 视</w>
套 间</w>
外 滩</w>
伯 恩</w>
中 介</w>
pl us</w>
I st
破 解</w>
横 跨</w>
前 款</w>
侵 入</w>
亚 地区</w>
不 能
g h
el and</w>
Q B</w>
L L
Al tium</w>
麻 将</w>
ir d</w>
音乐 家</w>
秘书 处</w>
磁 性</w>
猎 人</w>
打 包</w>
峰 值</w>
客 车</w>
Ap ril</w>
wor ds</w>
n m</w>
hib ition</w>
需求 量</w>
战略 性</w>
囚 犯</w>
Mat af</w>
K A</w>
IS H</w>
Fl oor</w>
Ed ition</w>
B ella</w>
美 方</w>
登 入</w>
Q IQ
QIQ IG
16 0
神 色</w>
法 行为</w>
抵 消</w>
忧 虑</w>
占地 面积</w>
不 良
product s</w>
oun ge</w>
Olive Thomas</w>
City PASS</w>
高 密度</w>
矩 形</w>
泪 水</w>
新年 快乐</w>
从头 开始</w>
Execut ive</w>
艰 巨</w>
结构 化</w>
瞻 性</w>
尺 度</w>
半 天</w>
串 行</w>
w an
S le
N ar
L es
Ge Force</w>
标 识
巴 哈马</w>
佳 能</w>
l ad
Jess ica
特 人</w>
浓 缩</w>
指 导
伊利 诺
ol ines</w>
本 着</w>
意 向</w>
出 门</w>
乌干 达</w>
ig r
ab ility</w>
Comm erce</w>
造 物主</w>
赞 成</w>
摆 在</w>
尔 尼</w>
姿 态</w>
前 瞻性</w>
从 小</w>
一 届</w>
Men u</w>
Backpack ers</w>
霍 夫</w>
行 货</w>
示 威</w>
病 因</w>
提 取
伪 造</w>
交通 线</w>
m ak
E qu
鼓 舞</w>
网 可</w>
民主 共和国</w>
掩 盖</w>
或 者说</w>
好 玩</w>
le an
Sim ul
阳 光
网 有</w>
简 约</w>
短 裤</w>
海 运</w>
割 礼</w>
分 子
s ki
p Ab</w>
B ER
飞 船</w>
算 了</w>
热 烈</w>
安德 烈</w>
位 一体</w>
p ay
es h</w>
Hot el
Dimai olines</w>
C ann
而 生</w>
海 底</w>
地下 室</w>
传 统
不 下</w>
下 身</w>
st ud
is es</w>
ed s</w>
M r</w>
高 标准</w>
箱 子</w>
柠 檬
佛 陀</w>
低 气压</w>
g ood</w>
Rect ifier</w>
铣 削</w>
特殊 要求</w>
焚 烧</w>
敞 开</w>
放 过</w>
急 剧</w>
宣 扬</w>
伯 利兹</w>
w s</w>
B and
超 级
结 晶</w>
笑了 笑</w>
家 乡</w>
安大略 省</w>
凌 战</w>
a a</w>
Reco very</w>
7 3
6 66</w>
结 成</w>
清 空</w>
商标 法</w>
合 成
d it</w>
c ore</w>
B SD</w>
虔 诚</w>
短 短</w>
复杂 度</w>
加 达</w>
减 排</w>
享 誉</w>
RO N
Mag ic</w>
Bu kit</w>
发 病</w>
历史 性</w>
不 在</w>
sh ell</w>
gl obal</w>
采取 措施</w>
通 报</w>
开 展
共 计</w>
入 场</w>
u d</w>
et o</w>
Gr aph
高 昂</w>
那 日</w>
聚 氨
点 播</w>
天 赋</w>
ian ce</w>
es ia</w>
and a
W at</w>
P il
L ind
来 访</w>
星 人</w>
巨 人</w>
实在 在</w>
实 实在在</w>
处 女
十二 个</w>
d riv
b ack
ap art
视 力</w>
虹 桥</w>
各个 方面</w>
发 售</w>
Sit e
测 仪</w>
江苏 省</w>
下 令</w>
J in
13 6</w>
陪 伴</w>
胜 过</w>
眼 看</w>
界 定</w>
台 阶</w>
m ade</w>
饥 荒</w>
韧 性</w>
评 定</w>
生 动</w>
旅游 指南</w>
手 势</w>
事 后</w>
al d
T ib
MB T</w>
M AN
观 者</w>
蓬 勃
色 谱</w>
生产 能力</w>
印刷 机</w>
g u</w>
G a
Christ ie</w>
挪 亚</w>
拆 除</w>
小 曦</w>
am i</w>
Plat form</w>
魔 力</w>
维尔 京群岛</w>
结 核
绑 架</w>
珊瑚 礁</w>
格林 纳
杂 质</w>
新 颖</w>
圆 满</w>
制 表</w>
分 会</w>
上 角</w>
bl ack
稳 固</w>
私 募</w>
撕 裂</w>
意 味</w>
情 欲</w>
恐 龙</w>
复制 到</w>
优先 权</w>
post ed</w>
on es</w>
St y
Appl ication</w>
衣 裙</w>
卡 尔顿</w>
uk e</w>
en ch</w>
Sany o</w>
C over</w>
9 000</w>
4 A</w>
这 人</w>
脱衣 舞</w>
斯大 林</w>
拼 命</w>
圭 亚那</w>
LA S</w>
K evin</w>
Bro ad
王 宫</w>
日 式</w>
布 雷
定 位
作 出
专家 组</w>
一 共</w>
e as
Dani el</w>
赶 快</w>
王 后</w>
或 作</w>
奥斯 汀</w>
失 所</w>
义 人</w>
m aster</w>
e in</w>
Ma p</w>
L I
K m</w>
J o</w>
这 么
清 洗
悬 崖</w>
工作 坊</w>
加 深</w>
Sel ena
B od
诺 诺</w>
离 失所</w>
理 智</w>
珍 惜</w>
海 尔斯</w>
流 离失所</w>
沙 拉</w>
未 满</w>
三角 形</w>
W ar</w>
R IE
D ell</w>
Ad ri
道 尔</w>
狂 热</w>
死 亡
本 性</w>
所 值</w>
导 线</w>
or es</w>
Inter sil</w>
Ac adem
维 塔</w>
晚 宴</w>
全 包
他 州</w>
丰 富
z y</w>
3 10</w>
0x800 700
房 型</w>
存储 设备</w>
奖 赏</w>
博 格</w>
port al</w>
l ong</w>
G A
D ual</w>
顺 便</w>
瓶 子</w>
淘 汰</w>
有 神</w>
加 热器</w>
人 街</w>
s et
K G</w>
Cott age</w>
特别 行政区</w>
湿 润</w>
地 平线</w>
ar a
IR A</w>
铁 塔</w>
一 枚</w>
一 向</w>
s es</w>
es k</w>
AR M</w>
负债 表</w>
服 装
接 地</w>
同 一时间</w>
伦 斯</w>
um i</w>
t ic</w>
d SPACE</w>
Shop ify</w>
采 样</w>
近 日</w>
过 敏
撒 哈拉</w>
八 年</w>
ess ion</w>
O ther</w>
B us</w>
编 程
大 笑</w>
出 台</w>
以 东</w>
Cont in
Con f
聚氨 酯</w>
网 不对</w>
特 质</w>
湖 南</w>
太阳 系</w>
事业 部</w>
高 原</w>
法 拉
希 茨</w>
奥 古
土耳 其
印 花</w>
创 业
身份 证件</w>
第一 条</w>
瑞 享</w>
多 层</w>
f ix</w>
e iro</w>
对 齐</w>
p i
mont h</w>
4. 8</w>
编 译
加 沙</w>
刑 罚</w>
三 位一体</w>
s ome</w>
ill y</w>
al so</w>
IN R</w>
问 问</w>
博 览</w>
一般 性</w>
ur o</w>
B eta</w>
过 剩</w>
绕 过</w>
监 事会</w>
水 量</w>
巴 登</w>
不 用
ib ody</w>
c it
T s
E UR
D ro</w>
防 火</w>
超 所值</w>
蓬勃 发展</w>
物 超所值</w>
南 京
加利 利</w>
共 和</w>
v e
ch ing</w>
限 额</w>
耗 材</w>
窗 格</w>
游 轮</w>
日 光</w>
ar n
S ak
Master card</w>
变 频器</w>
光 荣</w>
Sem icon</w>
N ow</w>
B ug
组织 者</w>
斯 拉</w>
尔 多</w>
宽 容</w>
wik tionary</w>
or ts</w>
b us</w>
Jun e</w>
15 1</w>
注 塑
最小 化</w>
尔 曼</w>
名 录</w>
三 位</w>
N eder
D ir
B g</w>
13 00</w>
门户 网站</w>
赢 取</w>
致 辞</w>
复 审</w>
出 具</w>
修 补</w>
中 向</w>
ou gh</w>
N ak
Br az
17 3</w>
迪 亚</w>
达 到
计 时</w>
菲 利
目 睹</w>
橄榄 球</w>
撒 旦</w>
sch e</w>
s aw</w>
on ne</w>
anc er</w>
O D
H ASH</w>
F ro
论 者</w>
罗 夫</w>
届 时</w>
十 六</w>
之 人</w>
不 足
万 个</w>
s oc
K ell
职 权</w>
小 麦</w>
塔 吉
公 示</w>
传 动
the ir</w>
f oot
ann a
X Y
P ict
AN T</w>
补 充
束 缚</w>
咒 诅</w>
j Query</w>
8 000</w>
电视 节目</w>
此 事</w>
打 动</w>
弥 赛亚</w>
塔尔 图</w>
Est ate</w>
6. 3</w>
纯 洁</w>
稳 健</w>
托 尔</w>
云 彩</w>
世 卫</w>
el yn
装 机</w>
周 期
二 级</w>
act ive</w>
Fle x
D oll
14 7</w>
题 目</w>
紧 邻</w>
精 品店</w>
斯 基
亚 伯</w>
r gen</w>
iv ity</w>
hed ral</w>
LIM ITED</w>
黑 文</w>
老 年</w>
水 资源</w>
情 报
帐 幕</w>
it ical</w>
坚 强</w>
商 机</w>
伸 出手</w>
b ridge</w>
ST ER
速 递</w>
全 民</w>
hr s</w>
LO G
Ar ena</w>
餐 点</w>
说不 出</w>
蒸 发</w>
女 孩子</w>
可 乐</w>
卡塔 尼亚</w>
健 全</w>
主 宰</w>
plat z</w>
ash ion</w>
He alth</w>
E 4</w>
镜 片</w>
浦 东</w>
李 克
文艺 复兴</w>
实 用性</w>
tr l</w>
P att
沐 浴</w>
德 意志</w>
m ach
Y a
责 备</w>
羊 群</w>
祖 国</w>
油 画</w>
或 电子邮件</w>
慈 悲</w>
年 龄
市场 经济</w>
喜 来
互 连</w>
不 远处</w>
Exper ience</w>
诠 释</w>
着 色</w>
指 甲</w>
拉 丁</w>
地 质</w>
低下 头</w>
t i</w>
re al</w>
青 春</w>
荷 载</w>
必 定会</w>
Col umn</w>
选 配</w>
试用 版</w>
神 庙</w>
直 觉</w>
旺 达</w>
当 代
三 人行</w>
丁 岛</w>
Mar co</w>
K E</w>
A J
14 00</w>
陆 淳风</w>
达 卡</w>
游戏 机</w>
深 入
巴布 亚
国际 性</w>
利 勇</w>
b re
Sel ect</w>
B in
股东 大会</w>
离 岸</w>
投 票
恳 求</w>
塔 尔</w>
喜来 登</w>
勃 勃</w>
加 入
w ind
Su d
Hon ey</w>
面 团</w>
第一 件</w>
信 使</w>
交通 运输</w>
r am
h al
量 子</w>
辱 骂</w>
读 数</w>
玛格丽 特</w>
活 塞</w>
格 雷
机 箱</w>
升 起</w>
公 民
不 间断</w>
s ur</w>
bu t</w>
金 刚
烧 结</w>
气 泡</w>
比 起</w>
楼 下</w>
慈 善
四 分之一</w>
哥伦 布</w>
R M</w>
Ch amp
轮 椅</w>
资质 等级</w>
草 坪</w>
草 地</w>
涉 嫌</w>
流 畅</w>
既 有</w>
对 接</w>
不 快</w>
t ing</w>
Gr an
Bra un</w>
知识 产权
提取 物</w>
不 敢
v ol
ild ren</w>
S ob
逆 转</w>
环绕 着</w>
数 个</w>
摇 摇头</w>
克拉 科夫</w>
ex p
M Y
风景 如画</w>
洛 克
控 股
抢 先</w>
oun t</w>
d ays</w>
Qu ick
大 叫</w>
圣 彼得</w>
r ary</w>
it age</w>
W ight
L y
19 6</w>
. 2</w>
费 尔</w>
法 治</w>
提 醒
排 斥</w>
唯 有</w>
势 头</w>
停 下</w>
七 章</w>
in to</w>
华尔 街</w>
十 一</w>
创 设</w>
雷 诺</w>
帝国 主义</w>
AM26 C
那 亚</w>
蓝 光</w>
结核 病</w>
武 力</w>
微 博</w>
巴布亚 新几内亚</w>
侮 辱</w>
St one</w>
Rom a</w>
Por n
正 直</w>
德 州</w>
异 性</w>
家 居
全 地</w>
伦 敦
ww w
SA N</w>
蒂 诺</w>
福 建</w>
用 法</w>
提醒 您</w>
勋 章</w>
亏 损</w>
T el</w>
笔 者</w>
百 货
海 地</w>
有 序</w>
接 管</w>
拥 挤</w>
听 取</w>
il i
h om
ell in</w>
Vent ures</w>
V it
MC 74VHCT
Cl ose</w>
集 市</w>
过 失</w>
编 织</w>
废 水</w>
安 市</w>
头 顶</w>
动 式</w>
D U
诉 讼
立 体</w>
科西 嘉</w>
破 裂</w>
热 那亚</w>
步行 街</w>
彩 虹</w>
录 像
师范 大学</w>
crip tion</w>
Wight link</w>
R eb
H ad
19 18</w>
补 丁</w>
磁 盘
浸 泡</w>
会 众</w>
价值 链</w>
N I
项 下</w>
胶 带</w>
新生 儿</w>
希 特勒</w>
喉 咙</w>
发 挥
北 极</w>
不 成</w>
N an
美 属</w>
洗发 水</w>
服务 费</w>
发 怒</w>
单 机</w>
半 数</w>
ubl in</w>
d ate</w>
Tw in</w>
Jap anese</w>
量 计</w>
计 数
英 国人</w>
摆 动</w>
战 术</w>
开发 新</w>
另一 只</w>
Reserv ed</w>
P IN</w>
Mu ang</w>
HT C</w>
科 医生</w>
快 餐</w>
埃 德
哲 学家</w>
ang er</w>
B ill</w>
追 随</w>
肯尼 迪</w>
文件 类型</w>
收 看</w>
外 星人</w>
听 众</w>
以 法</w>
bl ow
H over
研究 者</w>
抗 生素</w>
哈佛 大学</w>
中 产阶级</w>
re at</w>
af ik
Port al</w>
Perf ect</w>
6. 2</w>
诈 骗</w>
舒适 性</w>
瑞 格</w>
林 业</w>
整 套</w>
快捷 方式</w>
外 人</w>
充 当</w>
ap i</w>
Net App</w>
2 70</w>
采 纳</w>
贪 婪</w>
生产 者</w>
复印 件</w>
可 谓</w>
ic ations</w>
Squir ter</w>
Miss Squirter</w>
Mar ch</w>
Cat hedral</w>
1 74
尼克 松</w>
夫 斯基</w>
圣 父</w>
卢 旺达</w>
剪 切</w>
54 F
碳 酸
th ere</w>
it i</w>
S id
L ounge</w>
Cro ss</w>
方 舟</w>
新 鲜
堵 塞</w>
地 道</w>
圣 子</w>
俪 虹</w>
东 路</w>
不 及
T ian
Pro ject
科学 研究</w>
d z
SI G
F est
纪 录
竭 诚</w>
李克 强</w>
接 过</w>
w ater</w>
Re public</w>
An tal
放 电</w>
手 持
十二 章</w>
传染 性</w>
不 服</w>
p i</w>
on n
n ica</w>
ec ore</w>
S us
认 出</w>
恒 定</w>
可 执行
inst all
g a
O G
耗 时</w>
直 拨</w>
申 诉</w>
格 局</w>
斯 维尔</w>
大 区</w>
制 服</w>
sel ect</w>
afik ken</w>
空 间
睁 开
特 丹</w>
津 巴布
最 受</w>
文件 名</w>
不 来</w>
O s
配 料</w>
肾 脏</w>
生物 科技</w>
安 迅</w>
am iller</w>
U A</w>
黄 油</w>
透 镜</w>
跨国 公司</w>
第三 章</w>
电视 机</w>
狩 猎</w>
爱 抚</w>
展 位</w>
历史 学家</w>
I d
超 声</w>
记 念</w>
投影 仪</w>
前 行</w>
一 门</w>
l im</w>
For um</w>
. 1</w>
预 付</w>
起 床</w>
行 人</w>
纯 净</w>
电 容器</w>
理 查
一 十</w>
一 九
Ale x</w>
连 衣裙</w>
紧 接着</w>
科 纳</w>
席 位</w>
t esto</w>
P T
DM 74
C trl</w>
雅 加达</w>
表 现
更 少</w>
招 募</w>
必 有</w>
右 翼</w>
包 容性</w>
q l
in y</w>
196 6</w>
纪录 片</w>
海 中</w>
变 态</w>
Linked In</w>
Ch ang</w>
19 59</w>
莱 茵</w>
生日 快乐</w>
牛仔 裤</w>
栏 目</w>
回 收
Web cam</w>
So ft</w>
G art
革命 性</w>
水 管</w>
条 纹</w>
大 山雀</w>
反 击</w>
写 信</w>
ff er
M K
LM 2
L en
Inf inity</w>
B M
电 线</w>
左 手</w>
不 顾</w>
he l</w>
7 77</w>
米 拉</w>
水 质</w>
最 合适</w>
挽 救</w>
孙 利勇</w>
大 麻</w>
夏 令
场 面</w>
卡 通</w>
不动 产</w>
R at
Hover travel</w>
神 是</w>
实 质性</w>
不 准</w>
j iang</w>
j ess
3. 8</w>
贫 困
稀 有</w>
气 象
机 架</w>
张 大</w>
实 相</w>
定 罪</w>
art s</w>
ac a</w>
诅 咒</w>
著 名
本 页</w>
四 十</w>
ig o</w>
NE R</w>
E x</w>
19 2</w>
谋 杀</w>
程序 员</w>
挑 剔</w>
发 泄</w>
前 途</w>
信 道</w>
Nor d</w>
19 41</w>
16 1</w>
红十字 会</w>
津巴布 韦</w>
新 区</w>
少数 民族</w>
Univers al</w>
Sit ecore</w>
F TP</w>
7. 3</w>
20 3</w>
自助 餐</w>
征 税</w>
几 周</w>
保持 联系</w>
东 北
上 将</w>
ep t</w>
Pub lis
小 心
双 子座</w>
克林 顿</w>
ol a
Saf ari</w>
Ro ch
P ul
鹿 特丹</w>
特 斯</w>
消 极</w>
整 修</w>
救 助</w>
一 览</w>
y u
tr o</w>
the se</w>
郁 症</w>
辛 苦</w>
海 牙</w>
没 法</w>
承 租人</w>
幕 后</w>
大 幅度</w>
外 来</w>
双 层</w>
军 用</w>
内 饰</w>
之 窗</w>
T at
Man s
J i
Dom in
C in
粒 度</w>
开 辟</w>
学 费</w>
大 会
伸 缩</w>
万 怡</w>
Eng ine
风 采</w>
第 九</w>
礼 堂</w>
汇 报</w>
晚 期</w>
定 理</w>
动 脉</w>
判 定</w>
冗 余</w>
债 务人</w>
m ill
i era</w>
Zh ong
Play a</w>
19 20x
磨 削</w>
失 落</w>
上 衣</w>
n ik</w>
T em
Int ell
迦 勒</w>
越 野</w>
纳 维亚</w>
上 级</w>
p endant</w>
Stor age</w>
尽 全力</w>
小 狗</w>
唐 人街</w>
企业 级</w>
人 格</w>
q q</w>
计数 器</w>
梵蒂 冈</w>
审 视</w>
妥 善</w>
在 一起</w>
会 社</w>
以 弗
s av
em on</w>
Mir ana</w>
Car ol
Back up</w>
香 槟</w>
拉 恩</w>
东 海</w>
世界 领先</w>
TC1303 C</w>
EM S</w>
ANE S</w>
耐 磨
格 勒</w>
数 千
扩 建</w>
布 罗</w>
w ick</w>
K y
G C</w>
自然 保护区</w>
绵 羊</w>
细 致</w>
柱 子</w>
构 成
几 分</w>
不用 说</w>
fac ebook</w>
ant ibody</w>
agg ed</w>
甜 点</w>
喂 养</w>
后 方</w>
三 明治</w>
那 次</w>
解 体</w>
简 要</w>
瑕 疵</w>
提 高效率</w>
地 缘</w>
做 成</w>
专 线</w>
uc e</w>
Sexy Mirana</w>
Mic hel
King dom</w>
K un
足 迹</w>
约翰 逊</w>
克 利</w>
佩 斯卡拉</w>
erv iew</w>
W IFI</w>
RIE TI</w>
H i</w>
7 .0</w>
搅拌 机</w>
手 腕</w>
怀 特</w>
人 身
pl an
n am</w>
m il
f urt</w>
ell ow</w>
ag n
长 沙</w>
跌 倒</w>
联合国 大会</w>
墨 水</w>
中央 商务区</w>
M 2</w>
邮政 编码</w>
车 手</w>
视 讯</w>
窃 取</w>
监视 器</w>
深 远</w>
拉 姆斯</w>
图 库</w>
口 处</w>
功 于</w>
倒 入</w>
iz h
cl ose</w>
blow job</w>
H 4
Blog This</w>
6. 4</w>
被 告</w>
第十 二
第 八</w>
童 年</w>
手持 式</w>
头 痛</w>
咖啡 店</w>
一 一</w>
est ay</w>
A x
解放 阵线</w>
肛 交</w>
耐 用性</w>
电 商</w>
每 秒</w>
叙 述</w>
供应 量</w>
QIQIG allery</w>
Adv anced</w>
精 华</w>
发挥 作用</w>
s om
com pl
Mad rid</w>
D ublin</w>
软件 测试</w>
请 点</w>
恶 心</w>
大 都市</w>
包 机</w>
内 向</w>
上 半年</w>
y an
ot h</w>
B und
首 都
红 蜘蛛</w>
盛 名</w>
普 兰</w>
房 费</w>
四 处</w>
半 径</w>
不 由</w>
g ate</w>
ab i</w>
J ay
跟 进</w>
机械 工程</w>
得 胜</w>
归 功于</w>
年 满</w>
巨 型</w>
宵 禁</w>
外 围</w>
tr a
n ak
Ste f
逆 变
编译 器</w>
热 泵</w>
农 用</w>
偏 离</w>
传 教士</w>
e ira</w>
ash i</w>
Ri ad</w>
心 爱</w>
布列 塔尼</w>
伺 服</w>
j ord
SM554 5
B ai
196 3</w>
19 58</w>
打 扰</w>
多种 语言</w>
S ite</w>
N eg
L illi
行 者</w>
缓 冲</w>
绿 洲</w>
相 片</w>
白 云
打 死</w>
尼 斯
印度 洋</w>
利 昂</w>
准 许</w>
n ote</w>
co w</w>
H C</w>
Circ le</w>
7 000</w>
标识 符</w>
博 会</w>
住宅 区</w>
Hel p</w>
H anting</w>
19 17</w>
游 乐</w>
来 不及</w>
卡 特
书 中</w>
W IKA</w>
Lilli Car
LilliCar ati</w>
骨 骼</w>
选 票</w>
资 金
苍 白</w>
特 里亚</w>
梅 里</w>
恐 慌</w>
布 林
al th
19 56</w>
00 7</w>
跟 鞋</w>
经济 区</w>
相 遇</w>
澄 清</w>
检察 院</w>
代表 处</w>
东 正教</w>
U T
风景 优美</w>
越 发</w>
礼 仪</w>
数据 源</w>
弗吉 尼亚州</w>
大 峡谷</w>
向 着</w>
动 画
不 自
p os</w>
l as</w>
S ig
需 在</w>
终 点</w>
往 前</w>
之 心</w>
LS E</w>
K on
97 20</w>
0 9
高 跟鞋</w>
集 体
连 云
购 网</w>
波 浪</w>
插 进</w>
名 誉
umb ai</w>
Mod el</w>
Control ler</w>
B E</w>
8. 7</w>
裁 判</w>
蒂 斯</w>
奋 斗</w>
内 部
防 治</w>
访 者</w>
肠 道</w>
纪念 日</w>
氨 基
木 头</w>
替代 品</w>
到 位</w>
做 过</w>
s v</w>
oy age</w>
茨 茅斯</w>
政府 部门</w>
克 里</w>
d on</w>
Res p
Gat eway</w>
智能 卡</w>
介 意</w>
h on
f u</w>
Se attle</w>
跳 跃</w>
经 贸</w>
方 向
勘 探</w>
从 那
一 小</w>
W 0
T W
B ank
朴 茨茅斯</w>
广 西</w>
国 立大学</w>
参加 者</w>
动 摇</w>
per ty</w>
l os</w>
l ang
e au</w>
b al
Amber Willis</w>
赛 克</w>
月 玲</w>
宏观 经济</w>
医 药
公 国</w>
p k
ed y</w>
X I</w>
N ina
社 群</w>
怎 样
应用 软件</w>
合 剂</w>
保 人</w>
人 要</w>
TE CH
淫 荡</w>
氧化 物</w>
时 髦</w>
分之 二</w>
个 案</w>
s ites</w>
an a
M ec
L ucky</w>
FP GA</w>
Brow n</w>
额 度</w>
牢 固</w>
学 期</w>
卫 者</w>
v ed</w>
n ow</w>
TE L</w>
AV E</w>
通 行</w>
通 信
G L</w>
F it
路 灯</w>
有 事</w>
反 病毒</w>
伯 尔尼</w>
中 美</w>
东 南</w>
sh op
os s</w>
l am
TE C</w>
Ol ym
H ua</w>
C X
高 脚</w>
应 由</w>
基 石</w>
分离 式</w>
Sear ch
0x800700 02</w>
鉴 赏
环 保
柴油 机</w>
打 败</w>
惬 意</w>
开 户</w>
富 人</w>
发 症</w>
到 访</w>
公 牛</w>
免 于</w>
m ent
ig a</w>
h am
c a
F ut
E U</w>
Com mon
起 伏</w>
尤 为</w>
t ag</w>
l iv
ir i</w>
外 国
V erm
通 知
短 片</w>
看 电视</w>
有 意思</w>
克 森</w>
会 厅</w>
丰富 多彩</w>
v ot
tr y
er ator</w>
黑 白</w>
路 边</w>
该 市</w>
蟹 座</w>
狮 子座</w>
承 载</w>
巨 蟹座</w>
res erv
ou th</w>
Re ed</w>
16 6</w>
1 17
食 材</w>
羊 羔</w>
弗 雷
多巴 哥</w>
印第 安纳
人 有</w>
we i</w>
w er
the mes</w>
ich e</w>
27 4</w>
19 57</w>
波尔 多</w>
机动 车</w>
丹 佛</w>
az ine</w>
OR E</w>
Mot ion</w>
Grand e</w>
G ER</w>
30 2</w>
18 3</w>
逆变 器</w>
船 员</w>
糕 点</w>
斯堪 的
头 衔</w>
吸 附</w>
卡 萨
华 欣</w>
刑事 责任</w>
五 分钟</w>
一 瞬间</w>
Mus lim</w>
Kink y
阿 斯顿</w>
谱 仪</w>
委 屈</w>
天 安
Se al
M umbai</w>
评 率</w>
摇 滚</w>
好 评率</w>
基督 城</w>
各 州</w>
公 投</w>
产品 编号</w>
东 海岸</w>
世界 报</w>
ai g</w>
TP P</w>
24 5</w>
诺 基亚</w>
被 盗</w>
福 门</w>
盛 大</w>
换 算</w>
就 绪</w>
国 有</w>
反应 堆</w>
ef al
Pro gr
Lo ft</w>
黎 明</w>
酒 庄</w>
那 人</w>
葡 京</w>
美国 国会</w>
管 控</w>
旅 店</w>
斯堪的 纳维亚</w>
怎样 才能</w>
Solid Works</w>
Hen ry</w>
Georg ia</w>
C ert</w>
领 地</w>
繁 殖</w>
家 乐</w>
安 道尔</w>
in os</w>
che ster</w>
Den ver</w>
鲜 明</w>
电 磁</w>
数码 相机</w>
开 端</w>
可 视</w>
发 自</w>
一 是</w>
l ay
V 3</w>
Rom ania</w>
Pan or
L ite</w>
觉 醒</w>
联 想</w>
率 先</w>
保管 箱</w>
位 移</w>
云 中</w>
our n
ar e
漫 游</w>
流 量计</w>
废 弃</w>
基 辅</w>
但 斯克</w>
临床 试验</w>
ug h</w>
as ter
Or ch
Mot or</w>
寂 寞</w>
x in
k u</w>
高 等</w>
际 线</w>
闭上 眼睛</w>
并 发症</w>
天 际线</w>
19 55</w>
长 途
终端 用户</w>
私 营</w>
未 以</w>
律 例</w>
强烈 建议</w>
内 斯</w>
养老 金</w>
s z
ot ec
en za</w>
K an
IS E</w>
19 54</w>
资 讯
立体 声</w>
着 急</w>
灌 溉</w>
格 但斯克</w>
我 家</w>
全 会</w>
乒 乓
ant ic</w>
Jul y</w>
Div a</w>
Al pha</w>
额 头</w>
顺 畅</w>
门 店</w>
越 南
沃 斯</w>
按 时</w>
定 律</w>
亚 书</w>
九 章</w>
Ev a</w>
AT M</w>
AS E</w>
19 47</w>
黄金 价格</w>
钟 表</w>
翁 俪虹</w>
牛 顿</w>
小 船</w>
医 学院</w>
一 倍</w>
re c
14 2</w>
轨 迹</w>
补 救</w>
罗 兰</w>
结 帐</w>
石 墨</w>
就 餐</w>
导 电</w>
塞 拉
在此 之前</w>
加 特</w>
J es
面 向
被 捕</w>
相关 者</w>
正 文</w>
大 床</w>
r ay</w>
Mil ano</w>
Le on
L INE</w>
随 身
赛 道</w>
色 情
罗 波
无 处
宫 颈
千 克</w>
出 任</w>
re view</w>
p ubl
anc es</w>
赤 裸</w>
美 居</w>
碳 水
碳水 化合物</w>
盈 余</w>
圣 者</w>
三 分之二</w>
q 95
q95 208
q95208 55
R I
马 提
越 过</w>
牛 肉</w>
斯 莫尔</w>
开展 业务</w>
尔 群岛</w>
佛 法</w>
t r</w>
造 纸</w>
排 球</w>
四 章</w>
习 俗</w>
中心 区</w>
h ist
PK image</w>
菲 尔
救 世
克 雷
主 席
J uan</w>
74LV TH16
5. 4</w>
2 25</w>
鉴赏 家</w>
这 段</w>
经济 危机</w>
移 民
浦 东
收藏 夹</w>
V iv
Mag n
Al ber
解 散</w>
英 飞
肖 像</w>
窗 外</w>
电 厂</w>
甜 美</w>
热 心</w>
投 降</w>
名 誉</w>
ur n</w>
j am
R aj
P W</w>
英飞 凌</w>
持 有者</w>
太 大</w>
区 块</w>
别 致</w>
S ATA</w>
Ch a
用 量</w>
机 身</w>
断 开</w>
拳 击</w>
增 量</w>
op e</w>
o es</w>
Wh at</w>
L R</w>
Bu t</w>
高 血压</w>
长 得</w>
纪 律</w>
格尔 弗
格尔弗 安
巨 大
加 航</w>
写 信
具体 情况</w>
兑 现</w>
克 达</w>
d ham</w>
V ic
L ex
2 20
至 上</w>
热 烈
想 像</w>
布兰 森</w>
宴 会厅</w>
宏 观</w>
地 步</w>
sh ang
Y U</w>
8. 9</w>
里亚 尔</w>
融 化</w>
翻 修</w>
网 均</w>
棒 球</w>
国际 电
向 量</w>
印度 人</w>
五 十
中 所
芽 庄</w>
盟 委员会</w>
浮 潜</w>
欧 盟委员会</w>
场 馆</w>
在 线
por n</w>
av en
K i
Direct ory</w>
14 3</w>
赛 鸽</w>
株 式
株式 会社</w>
有 史
有史 以来</w>
恋 爱</w>
不知 不觉</w>
res so</w>
q9520855 82</w>
W id
An im
10 80</w>
路 器</w>
说 谎</w>
忘 返</w>
建筑 材料</w>
居 所</w>
SM554 4
PP T</w>
L aw
C res
C anc
默认 值</w>
退 休
自然 环境</w>
电子邮件 发送</w>
残 忍</w>
叫 声</w>
er a
ec k</w>
Virt u</w>
View er</w>
M ID
西 南部</w>
溶 解</w>
海 军
m l
Jal an</w>
Eur ail</w>
造 访</w>
斯基 克达</w>
忏 悔</w>
延 期</w>
太平 洋
任何 一方</w>
p ages</w>
lin gton</w>
er i</w>
Ow ner</w>
Ne ar</w>
非常 容易</w>
金 斯</w>
转 头</w>
羡 慕</w>
干 旱</w>
帕 罗</w>
姑 姑</w>
夹 具</w>
mob ile</w>
le y
J ol
E sp
奥斯 卡</w>
Jos eph</w>
J an</w>
Ital ia</w>
H ampton</w>
数 年</w>
人 体
st amp</w>
骚 乱</w>
见 过</w>
称 义</w>
神 父</w>
海 绵</w>
沉 积</w>
实 物</w>
北 极
努 力
从 业
ov ern
Pro g
H F</w>
B og
菩 萨</w>
更 强</w>
时 装
守 护</w>
ot ype</w>
l it
ent ial</w>
el i</w>
G 20</w>
Direct or</w>
54F CT
50727. 4
金融 中心</w>
过 夜</w>
轴 向</w>
烘 焙</w>
抽 屉</w>
局 限</w>
团 结
G RE
F M
Co ast</w>
阻 挡</w>
连云 港</w>
栏 中</w>
断 路器</w>
Pre st
N PN</w>
L ook
H ab
Ex hibition</w>
连 忘返</w>
猛 然</w>
末 端</w>
星期 天</w>
悉 尼
布 线</w>
可 扩展性</w>
凡 是</w>
5 20
魁 北
音 箱</w>
结 实</w>
来 电</w>
快速 增长</w>
差 价</w>
St ack</w>
红 外线</w>
淫 水</w>
悲 哀</w>
外 语</w>
FAR O</w>
An ti
花 洒</w>
脱 掉</w>
带 入</w>
写信 给</w>
六 色</w>
不 堪</w>
高 大</w>
里 雅
越来 越
经 上</w>
生 子</w>
广 义</w>
内 未以</w>
om an</w>
j m
ial s</w>
as k</w>
3 30
鸽 子</w>
迦 南</w>
若 有</w>
网 膜</w>
死 者</w>
国 泰</w>
分 化</w>
阿拉伯 人</w>
超 高</w>
萨 拉</w>
臣 仆</w>
维 网</w>
棉 花</w>
插 进去</w>
付 给</w>
News List</w>
H AR
预 设</w>
运动 鞋</w>
迈 向</w>
腰 带</w>
检 疫</w>
处 境</w>
吞 吐
变 焦</w>
动 植物</w>
d oor</w>
com b
U 04
L G</w>
D on</w>
Am anda
钢 板</w>
贸易 中心</w>
莫 桑
美 因
监 察</w>
特 伦</w>
汽 车站</w>
奴 役</w>
反 思</w>
低 下</w>
互 惠</w>
万 维网</w>
ter n
M ik
马拉 喀什</w>
难 得</w>
萝 卜</w>
晚 饭</w>
招 商</w>
拉 里</w>
喷 雾</w>
听 听</w>
午 饭</w>
ra ft</w>
ap olis</w>
C W</w>
9 00
非常 高兴</w>
财 物</w>
反 恐</w>
伊利诺 伊
书 签</w>
u ang</w>
a us</w>
Lim a</w>
K it</w>
50727.36 62</w>
长 长
竭 力</w>
电动 车</w>
流 连忘返</w>
洪 都拉斯</w>
文 学
心 血管</w>
小 童</w>
多 瑙
低 廉</w>
efal onia</w>
Super En
H erm
9. 7</w>
饮 用</w>
适 于</w>
这样 的话</w>
环 形</w>
物 权</w>
摄 入</w>
安 科纳</w>
内 陆</w>
之 子</w>
X S</w>
LE R</w>
Ch eng</w>
新 人</w>
扭 转</w>
尖 叫</w>
冥 想</w>
uy i</w>
enc ia</w>
bu l</w>
Sec ret</w>
P B</w>
D ong</w>
语言 选择</w>
脊 柱</w>
签 约</w>
知名 度</w>
疑 虑</w>
服务 平台</w>
床 铺</w>
凭 据</w>
储 物
w ang</w>
im um</w>
Bo ard</w>
雕 刻
变 异</w>
our ces</w>
d orf</w>
at r
al otto</w>
雅 悯</w>
胸 膛</w>
约旦 河</w>
微 米</w>
应 验</w>
多 于</w>
含 税</w>
x t</w>
pro f
ck ing</w>
Vis emar</w>
2 38</w>
隐 瞒</w>
跌 落</w>
油 脂</w>
条形 码</w>
夺 取</w>
回 合</w>
原 先</w>
依 法
so m</w>
N X</w>
Mont e</w>
7. 9</w>
马 赛克</w>
轻 型</w>
行 列</w>
行 传</w>
某 项</w>
当代 艺术</w>
巨 头</w>
堆 栈</w>
一 线</w>
J ose</w>
Gen es
Col umb
阵 营</w>
年 度
巴 赫</w>
奋 进</w>
l o</w>
降 雨</w>
继承 人</w>
数 控
re en</w>
n l</w>
MENT ARY</w>
这样 一来</w>
爱 上</w>
污 秽</w>
无 声</w>
施 洗</w>
弗吉 尼亚</w>
帕特 雷</w>
工程 机械</w>
man ag
Happ y</w>
隶 属于</w>
该 类</w>
言 论
行业 新闻</w>
惊 恐</w>
太 过</w>
博 士
一 年
f ont
SuperEn alotto</w>
El iz
马 可
记录 仪</w>
梦 幻</w>
市 政府</w>
单 人</w>
创 伤</w>
分 隔</w>
书 本</w>
之 力</w>
AS X</w>
高 美</w>
创造 者</w>
刚 果</w>
Y v
自 私</w>
秀 丽</w>
特 瑞
古 城</w>
3. 9</w>
言论 自由</w>
巨 额</w>
天 文学</w>
a S</w>
E B
点 心</w>
淑 仪</w>
抵 触</w>
宫颈 癌</w>
奥 本</w>
发 音</w>
原 则
gr ann
ed it</w>
A H</w>
迫 切</w>
低 声</w>
iz z
Z ip</w>
Pro sp
I bis</w>
CN N</w>
A j
15 6</w>
警 惕</w>
献 祭</w>
特 许
爆 炸
济 南</w>
凭 着</w>
会 场</w>
v i</w>
Emma Braun</w>
C and
15 8</w>
赐 予</w>
计 值</w>
舞 会</w>
田 野</w>
工 学</w>
少 妇</w>
w ould</w>
m str
St yle</w>
Man or</w>
颈 部</w>
这 部分</w>
美 军</w>
突 变</w>
弗 雷德</w>
夫 兰</w>
ond er
n ia</w>
ch es</w>
ch en
Rail way</w>
N ote</w>
AC H</w>
病 变</w>
死亡 率</w>
撒 丁岛</w>
摩 洛</w>
惟 有</w>
十 九
y st</w>
ag u
Tel e
N aut
雅 思</w>
起 飞</w>
莫桑 比克</w>
真空 泵</w>
布 里</w>
对 立</w>
密 集
完 备</w>
坚 挺</w>
参 议员</w>
克里斯 蒂
og o</w>
ex c
at ors</w>
Mar yk
LM 3
Down lo
辨 识</w>
纺 织
移 徙</w>
畅 销</w>
清晰 度</w>
招 揽</w>
司 祭</w>
力 支持</w>
人 去</w>
ant i</w>
S ide</w>
For est</w>
热 水器</w>
炎 症</w>
清洁 剂</w>
手 法</w>
几 点</w>
充分 发挥</w>
m ake</w>
g i</w>
返 还</w>
被 保险人</w>
上 合</w>
iska 99</w>
P F</w>
Maryk iska99</w>
Con g
Bl u</w>
B 1</w>
19 5</w>
蜂 窝</w>
英 亩</w>
猛 烈</w>
源 文件</w>
句 话</w>
原 生</w>
出 境</w>
or ity</w>
oom la</w>
inv est
T 250</w>
Res orts</w>
O x
M ond
野 兽</w>
照 亮</w>
傍 晚</w>
伊 尔</w>
不 容</w>
H ay
En ergy</w>
B ase</w>
AL L</w>
AL L
赫 西</w>
荷 兰语</w>
花 岗
而 行</w>
最 佳
新 手</w>
封 锁</w>
周 四</w>
凯 法利</w>
w el
se o</w>
s ize</w>
金 子</w>
房 间
征 得</w>
受 洗</w>
借 贷</w>
东 南部</w>
P ant
Dyn am
Del ta</w>
3 N
竞 标</w>
物 资</w>
毒 性</w>
实用 程序</w>
击 杀</w>
众 民</w>
b g
Is lands</w>
19 53</w>
阐 明</w>
铸 铁</w>
特 拉斯</w>
液 位</w>
无 损</w>
德 里
山 东省</w>
MA T
测量 仪</w>
最 强</w>
日 游</w>
伺 候</w>
伯 里</w>
中 山</w>
不 解</w>
上 游</w>
m m
ad i</w>
ab out
A ud
A WS</w>
银 色</w>
罗波 安</w>
第四 章</w>
珠 宝
斯特 罗</w>
打 着</w>
平 等
le i</w>
R G
腰 部</w>
胸 罩</w>
耳 环</w>
拖 动</w>
房 里</w>
废 墟</w>
库 塔</w>
大 豆</w>
圣 克鲁斯</w>
军 团</w>
内 里
n er
U B</w>
Im er
EN GL
Del hi</w>
Che min</w>
片 剂</w>
灯 塔</w>
渔 业</w>
头 寸</w>
利 沙</w>
出 入</w>
三 国</w>
q iao</w>
X T</w>
W AV</w>
Illustr ator</w>
H o</w>
19 33</w>
17 0
类 固醇</w>
极 端
或 默示</w>
加勒 比</w>
二零 一</w>
um a</w>
ed ge</w>
Tro jan</w>
P ear
En ter</w>
Cam p</w>
里 士
衰 老</w>
表 上</w>
翻译 成</w>
电子 表格</w>
暴 力
弃 物</w>
城 中</w>
做 事</w>
下拉 菜单</w>
r ick</w>
遗 忘</w>
行 长</w>
真 人</w>
瓦 拉</w>
淹 没</w>
摩 押</w>
全 是</w>
丰 田</w>
两 台</w>
Iv y</w>
Cons ult
Bust y
翻 转</w>
看 守</w>
理 事</w>
涂 抹</w>
度假 区</w>
国家 级</w>
con f</w>
art ic
ah oo</w>
Her itage</w>
F F
隔 壁</w>
识 别
昆 明</w>
废 弃物</w>
冲 压</w>
r uss
Mem ory</w>
缓 和</w>
商 旅</w>
利沃 诺</w>
书 房</w>
n y
it ect
Tex ts</w>
C ustom
菲尔 铁塔</w>
汇 聚</w>
未 成年</w>
未 必</w>
尼 龙</w>
复 议</w>
坐 式</w>
哥伦比亚 特区</w>
v Center</w>
V in
H o
6 99</w>
贝 格</w>
洛 尼亚</w>
侵 蚀</w>
Sw ed
Develop er</w>
B orn
16 2</w>
焊 接机</w>
序 列
塞 州</w>
力 求</w>
Sweet D
K er
B oun
顺 利
诺 德</w>
清 华</w>
海 里</w>
兰 德</w>
体 形</w>
Spr ings</w>
B EL
木 制</w>
文 森
总 局</w>
年 长</w>
售 后</w>
双 击</w>
W a
Vill as</w>
LE S</w>
D D</w>
领 略</w>
多 方面</w>
塔吉 克斯坦</w>
圣马 力
东 北部</w>
与此 有关</w>
上 空</w>
A ff
褐 色</w>
布 洛
xx Helen</w>
Nov a</w>
CO L
Busty xxHelen</w>
职 场</w>
激 动
深 厚</w>
款 待</w>
月 光</w>
夜 里</w>
单 程</w>
创 建
a co
R I</w>
C efalonia</w>
B Y</w>
16 9</w>
理 财</w>
收 据</w>
抗 力</w>
打 断</w>
Ple ase</w>
Fil es</w>
A udio</w>
19 44</w>
15 9</w>
15 3</w>
系统 管理员</w>
推 理</w>
拉 力</w>
托 斯卡
地 球
二 维</w>
b all</w>
as is</w>
醒 过来</w>
筹 备</w>
票 数</w>
球 阀</w>
牧 人</w>
泰 晤
所罗 门
想 象
y 30</w>
Si em</w>
面 具</w>
阿尔 赫西</w>
西 岛</w>
瞩 目</w>
压 抑</w>
中东 地区</w>
ev en</w>
93 80</w>
连续 性</w>
考 量</w>
羯 座</w>
端 的</w>
档 案
巴 德</w>
保护 措施</w>
人 才
不 相同</w>
h k</w>
d t</w>
Sub version</w>
40 8</w>
重 要
质 保</w>
想象 力</w>
库 克</w>
委 托人</w>
台 式
传 感</w>
仁 川</w>
w hen</w>
in x</w>
d y</w>
Term ini</w>
Tai isa</w>
烟 花</w>
微 观</w>
体 系
主 阿</w>
ag en</w>
Veg a</w>
Sil ver
M X</w>
Lib er
阿尔卑 斯
神 鹰</w>
玩 游戏</w>
拔 出</w>
家 用
两 边</w>
O ur</w>
马萨诸 塞州</w>
维 京</w>
眉 头</w>
深 层</w>
斯特 伦</w>
弗 洛
平均 值</w>
刚果 民主共和国</w>
uplo ads</w>
p y
Wyn dham</w>
SN74AHC 245
RO M</w>
罗 斯
派 锐</w>
安 妮</w>
sl ide</w>
Frank furt</w>
D EL
8 50</w>
金刚 石</w>
苏 里
自由 贸易</w>
税务 机关</w>
福 克斯</w>
核 能</w>
无 菌</w>
天 晚上</w>
卖 出</w>
估 计值</w>
fr ame</w>
车 床</w>
衰 竭</w>
杰 作</w>
数据 安全</w>
外 商
基础 知识</w>
剑 桥
冰 冷</w>
ion ing</w>
SG S</w>
晚 间</w>
密封 件</w>
世纪 末</w>
下 巴</w>
e u</w>
N ath
队 员</w>
乐 于</w>
ar th
54 LS
4 20</w>
隔 热</w>
遗 失</w>
绝 缘
小 岛</w>
博 拉</w>
一百 零
h g
K R</w>
首 款</w>
迪 西</w>
氨基 酸</w>
巴 拉圭</w>
宝 马</w>
内 华
vo id</w>
Brook s</w>
论 点</w>
股份 公司</w>
拿 单</w>
报 率</w>
打 字</w>
子 弹</w>
增 益</w>
七 天</w>
l ik
4 1
2 35</w>
问 题
财政 部</w>
生产 流程</w>
救世 主</w>
悄 悄
心 率</w>
开 关
小 穴</w>
宽 恕</w>
参 展商</w>
加勒比 地区</w>
别 名</w>
初 次</w>
停 产</w>
b ed
重 现</w>
质量 标准</w>
构 想</w>
堪 称</w>
即 刻</w>
为 业</w>
专 区</w>
p ict
S in
R E</w>
Hom estay</w>
Hist or
A m</w>
19 36</w>
逼 迫</w>
现 存</w>
波 利
朝 向</w>
二 者</w>
乘 车</w>
w ifi</w>
AST M</w>
视 网膜</w>
恰 恰</w>
动 力
s y
Y S
J ust
ENGL ISH</w>
Br uss
AN SI</w>
访 谈</w>
落 入</w>
空 缺</w>
法拉 利</w>
持续 增长</w>
威斯 汀</w>
多 哈</w>
喝 咖啡</w>
前 线</w>
公 用</w>
先 驱</w>
五 颜
一小 部分</w>
r ad
U E</w>
F C
7. 7</w>
6 01</w>
3 80</w>
高级 专员</w>
金 牌</w>
罗 河</w>
理 发
水 槽</w>
所 处</w>
五颜 六色</w>
mod el</w>
R Y</w>
K im
G I</w>
颁奖 典礼</w>
邮 报</w>
追 赶</w>
车 厢</w>
结 交</w>
托斯卡 纳</w>
惠 灵顿</w>
开 幕式</w>
尼 加拉
小 鸟</w>
保 姆</w>
亲 节</w>
r at
fu Amber</w>
Syn fuAmber</w>
B ull
6. 8</w>
素食 者</w>
社交 活动</w>
多 台</w>
会 以</w>
争 夺</w>
一 国</w>
Se as
E duc
2 SD
面 对面</w>
轰 炸</w>
富 含</w>
奶 嘴</w>
嘴 角</w>
am o</w>
Re ap</w>
N T</w>
预 测
雨 水</w>
重 塑</w>
而 设</w>
科 目</w>
照 明
此 地</w>
摄 氏度</w>
抽 动</w>
光 束</w>
茹 嫣</w>
百分 点</w>
对 准</w>
修 订
两 周</w>
aw n</w>
ap pl
I g
H end
Gart ner</w>
Far m</w>
Dis ney</w>
3 GP</w>
展览 中心</w>
圣 卢西亚</w>
土 库
三 世</w>
R G</w>
Ad ult</w>
论 会</w>
视 觉
期 满</w>
斯特 拉</w>
改 良</w>
咖啡 壶</w>
依 托</w>
R ST
H i
F oc
Dr ama</w>
19 19</w>
阿 里
让 人</w>
盖 子</w>
找 个</w>
公司 章程</w>
s ur
r ld</w>
elyn Diva</w>
W0 rld</w>
L et
Ka elynDiva</w>
6 40</w>
2 30
齿 轮
量 生产</w>
路 德</w>
负 有</w>
试 点</w>
洞 察
提 请</w>
批 量生产</w>
f iles</w>
br un
Ob aby</w>
M ou
IP S</w>
H4 cking</w>
高 中
辨 别</w>
美 金</w>
机 油</w>
房间 内</w>
SN74AHC U04
Fr ank</w>
高 下</w>
附 录</w>
精 湛</w>
玩 真</w>
检查 和</w>
成 型机</w>
e Bay</w>
all ed</w>
W C</w>
针 织</w>
豪华 轿车</w>
网 路</w>
移 交</w>
水 性</w>
果 实</w>
多 长时间</w>
商业 模式</w>
准 备
体系 结构</w>
e u
comm on</w>
项目 经理</w>
韦 尔</w>
降 解</w>
琳 娜</w>
源 头</w>
午 夜</w>
军 方</w>
w ant</w>
in ia</w>
i ers</w>
Pi erre</w>
M ER
Jord an</w>
F ound
Bal i</w>
16 4</w>
默 默</w>
带 回</w>
向 本</w>
全 面
web cam</w>
n a
ad d</w>
ab eth</w>
R T</w>
Nick y30</w>
ID ATE</w>
阴 唇</w>
钢 筋</w>
费 力</w>
落 地
罗 得
特瑞 堡</w>
录 取</w>
开 销</w>
宗教 信仰</w>
加州 大学</w>
content View</w>
as i</w>
an ne</w>
瓦 纳</w>
澳 元</w>
拦 截</w>
图 片
回 报率</w>
F ield</w>
25 8</w>
19 52</w>
颠 覆</w>
观 赏
江 西</w>
年 会</w>
切 尔西</w>
冒 充</w>
举 起</w>
上 课</w>
Rich ard</w>
P NG</w>
19 9</w>
独 一</w>
杀 戮</w>
指挥 官</w>
抑 郁症</w>
加 德
v ia</w>
r ich</w>
S ign</w>
P ersonal</w>
跑 车</w>
说不 定</w>
获 奖者</w>
满 足
法 国人</w>
戈 斯</w>
彼 拉多</w>
傻 瓜</w>
Dr agon</w>
这 本</w>
规 划
模 组</w>
干 脆</w>
伤 亡</w>
人 中</w>
b ut
Th ree</w>
M M</w>
阿 鲁
煽 动</w>
洞察 力</w>
弗 拉
反 弹</w>
公共 场所</w>
SN AV</w>
4 42
食品 工业</w>
身 旁</w>
敦 士
我 俩</w>
属 灵</w>
家 装</w>
多瑙 河</w>
变 速
代 人</w>
举办 活动</w>
t ech</w>
Z oo</w>
T 1K</w>
M R</w>
18 4</w>
调 制</w>
看 清</w>
测 验</w>
月 初</w>
支 敦士
强 壮</w>
官 僚</w>
卡 拉
列 支敦士
二 个</w>
习 惯
r ot
ant a</w>
and er</w>
O ut</w>
Mill er</w>
Hosp ital</w>
阈 值</w>
警 察
照 射</w>
波 尔</w>
时间 段</w>
佩 德罗</w>
ok e</w>
e qu
Re f
J B</w>
议 案</w>
时 分</w>
排 队</w>
师 傅</w>
尽 量
塞拉 利昂</w>
俄亥 俄
一 晚</w>
Fre d
Fr ont
第一 章</w>
服 侍</w>
忿 怒</w>
南 安
不 说</w>
T ul
Mos cow</w>
John son</w>
预 留</w>
阿 卜
肮 脏</w>
私 有
直 销</w>
电 能</w>
圣马力 诺</w>
不 为</w>
st ory</w>
h ow</w>
Sc ience</w>
迷 失</w>
踏 上</w>
省 钱</w>
植 入</w>
有机 硅</w>
布林 迪西</w>
基 茨</w>
名 片</w>
压缩 空气</w>
任 由</w>
is mo</w>
em ann</w>
b ank
TC1 30
R ight</w>
Com pl
静 音</w>
达 成
耶 夫</w>
管 路</w>
澳大 利亚
游 船</w>
方 言</w>
推 测</w>
cor por
Pent house</w>
Nic ol
F E
饭 菜</w>
阿 布</w>
操作 性</w>
天 津
到 时候</w>
v ar</w>
er g</w>
Mar c
Cru z</w>
订 制</w>
表 盘</w>
现 成</w>
挪 威
城市 化</w>
台式 机</w>
一 回</w>
tim es</w>
ov o</w>
ig ur
Ped ro</w>
P ink</w>
F X
C ache</w>
郑 重</w>
汽车 配件</w>
播放 列表</w>
大 衣</w>
地 去</w>
俱 全</w>
传染 病</w>
钻 戒</w>
躺 椅</w>
歌 唱</w>
更 进一步</w>
m ys
ac es</w>
Z hu
饱 满</w>
降 到</w>
转 载</w>
科 布</w>
消 化
所 要</w>
家 族
以 供</w>
t ri
st ore</w>
ing en</w>
il s</w>
if er</w>
Lov e
Eng ine</w>
院 士</w>
迷 宫</w>
纳米 比亚</w>
构 件</w>
卫生 组织</w>
刀 剑</w>
一 岁</w>
ew ood</w>
1 13
骗 子</w>
迈 出</w>
系统 性</w>
磐 石</w>
率 领</w>
流 媒体</w>
斯蒂 芬</w>
山 丘</w>
多 大</w>
哈尔 滨</w>
r ap
玩 弄</w>
根 管</w>
古 怪</w>
公共 卫生</w>
and roid</w>
M i
CD N</w>
C V
饮 食
酒店 式</w>
软件 应用</w>
萎 缩</w>
纵 向</w>
第二 条</w>
监 管
牛 仔</w>
潘 沁
服 事</w>
想 过</w>
出 血</w>
佛 得
ro se</w>
r ent</w>
q ing</w>
jo y</w>
Th ai</w>
L L</w>
缩 减</w>
源 泉</w>
工业 区</w>
察 觉</w>
十 七</w>
傲 慢</w>
一 跳</w>
il i</w>
g oo
el y
Sher aton</w>
Pol y
CONT ACT</w>
Ann a
8 20</w>
3 16</w>
美 好
座 落</w>
圣 基茨</w>
告 人</w>
呈 现出</w>
又 称</w>
以下 内容</w>
个人 电脑</w>
or o</w>
m ingham</w>
Naught y</w>
G M</w>
Can on</w>
首 脑</w>
首 届</w>
粘 合剂</w>
电 讯</w>
履 行
善 意</w>
合 营</w>
历史 数据</w>
ed ed</w>
雪 白</w>
集成 式</w>
莉 萍</w>
移动 电话</w>
着 头</w>
灌 装机</w>
气 缸</w>
喷 气
党 员</w>
书 上</w>
b od
NS R</w>
Ch ris</w>
15 2</w>
须 知</w>
象 征
说 来</w>
特许 权</w>
水 流</w>
想 一想</w>
回 转</w>
受 到
2 11</w>
螺 母</w>
菲 什</w>
篡 改</w>
漩 涡</w>
洛 赫</w>
泰 尔</w>
油 价</w>
格尔弗安 希</w>
授 课</w>
大 容量</w>
发 起
化 物</w>
id ent</w>
fil ter</w>
b bs</w>
ac i</w>
P H</w>
N TR</w>
L ady</w>
H ow
Christ ian</w>
Br anson</w>
B 2</w>
5. 8</w>
逝 世</w>
赢 家</w>
胸 口</w>
管理 机构</w>
直 布罗
疟 疾</w>
熔 化</w>
整 整</w>
急 需</w>
尔 巴
复 仇</w>
发电 厂</w>
列支敦士 登</w>
保护 主义</w>
九 个</w>
ph oto</w>
h ard</w>
Reg ion</w>
C af</w>
配 额</w>
行动 计划</w>
纹 身</w>
暴 动</w>
思 想
强 势</w>
全 然</w>
下 线</w>
j ie</w>
fre el
L AN
IP v
Cro ss
诺 克</w>
胡 安</w>
美 学</w>
续 订</w>
明 德</w>
发 誓</w>
价 钱</w>
乌 斯</w>
on om
Y e
Sw iss</w>
SM S</w>
Dj ango</w>
Ac c
闭 上</w>
第二 年</w>
短 路</w>
摩 羯座</w>
投 标</w>
往 常</w>
听 话</w>
亲 戚</w>
S CA
ELE MENTARY</w>
B ong
领 事</w>
病 率</w>
现 场
宽 大</w>
壁 垒</w>
城 邑</w>
免 税</w>
依 本</w>
av i</w>
R an
17 6</w>
达成 协议</w>
圣 路易斯</w>
Syn c</w>
Bir mingham</w>
5 10</w>
铸 件</w>
走 近</w>
甲状 腺</w>
显 出</w>
感 应
巡 演</w>
入 口处</w>
克罗地 亚语</w>
X M</w>
Hum an</w>
重 于</w>
败 坏</w>
琥 珀</w>
珀 斯</w>
大 饭店</w>
在 我
五 大</w>
u ch
sp e
T icon
Jack son</w>
Cor n
5 1
红 利</w>
日 文</w>
尼 维斯</w>
奴 隶
吸 入</w>
各种 类型</w>
wh o</w>
russ ia</w>
est one</w>
der oga</w>
bo x
Ticon deroga</w>
J E
H ard
麦 加</w>
解 码</w>
环境 影响</w>
保 温</w>
lim ited</w>
N ight</w>
Mon i</w>
螺 旋
演 化</w>
如 图</w>
奢 侈</w>
奇 异</w>
喧 嚣</w>
周 三</w>
刹 车</w>
公共 服务</w>
不 懈</w>
the m</w>
ro oms</w>
er y
Z AR</w>
L au
Brand y
第一 批</w>
然 不同</w>
普鲁 士</w>
挖 掘
尼加拉 瓜</w>
商 用车</w>
博 洛尼亚</w>
前 列</w>
兔 子</w>
何 塞</w>
ist s</w>
em ma</w>
MA N</w>
I Z
C RE
Braz il</w>
预 知</w>
集成 电路</w>
适应 性</w>
跑 道</w>
泰 式</w>
怒 气</w>
优惠 价格</w>
w ays</w>
f el
Bu enos</w>
17 8</w>
晚 会</w>
数 千</w>
威 廉
吞吐 量</w>
决 不</w>
佛得 角</w>
d s
d ou
a ud
Quint a</w>
J ur
J ew
AR E</w>
难 性</w>
诺 夫</w>
琼 斯</w>
投资 银行</w>
山 林</w>
多 位</w>
半 球</w>
ik a
av ar</w>
链 条</w>
立 约</w>
石 英</w>
盛 会</w>
寄 宿</w>
史 塔</w>
发 热</w>
一 经</w>
v oyage</w>
d ale</w>
F ont
黑 兰</w>
椭 圆形</w>
有 种</w>
既 往</w>
新 版</w>
打 量</w>
对外 开放</w>
娱乐 中心</w>
圣 托</w>
各 式</w>
th an</w>
Di ego</w>
Cent ury</w>
20 8</w>
赫尔辛 堡</w>
冒 险
r ak
book s</w>
av er
W all
Met a</w>
HB M</w>
2 28</w>
祖 母</w>
碳 纤维</w>
滑 块</w>
棘 手</w>
机 动</w>
上 佳</w>
en b
em i</w>
Victor ia
SA R</w>
G ur
日益 增长</w>
德 黑兰</w>
德 勒</w>
展 示
几 十
一 号</w>
Sil icon</w>
S ample</w>
Inv est</w>
54FCT 374
计 入</w>
混 蛋</w>
不 容
上 层</w>
wr ite</w>
e um</w>
an bul</w>
a ote</w>
J um
C TR
题 为</w>
适用 范围</w>
西 亚
羊 座</w>
牛 津
户外 活动</w>
平均 价</w>
好 了</w>
好 了
受 限</w>
使用 费</w>
下 半
w ere</w>
i ere</w>
Water front</w>
W IL
Trans l
Tr ader</w>
Pet it</w>
Kh al
2 90</w>
通 行
蒙 德</w>
报 导</w>
巴 兰</w>
居 家</w>
参考 资料</w>
使 该</w>
优 于</w>
Ch annel</w>
Brandy White</w>
16 7</w>
黑 夜</w>
重 重</w>
砍 伐</w>
液 压
忠 诚
局 域网</w>
供 参考</w>
今 年
in n</w>
Upd ate</w>
Kinky Moni</w>
长长 的</w>
金 牛
窍 门</w>
教科 书</w>
攻 略</w>
或 非</w>
d eb
R uyi</w>
Es aote</w>
Argent ina</w>
近 距离</w>
被 子</w>
组 分</w>
瓶 座</w>
大 洋
入 选</w>
三 名</w>
ing o</w>
V IE
N ai
N a
Fr ench</w>
AL E</w>
2 EMFTR</w>
第一 百</w>
白 葡萄酒</w>
白 羊座</w>
毛 泽
引 脚</w>
安全 可靠</w>
不及 待</w>
三角 洲</w>
ro m
h att
Col or</w>
B N
10 80
道 德
美因 河</w>
犹 他州</w>
双 臂</w>
健康 状况</w>
Loc al
D O</w>
装 载
自然 风光</w>
联 络
洛 特</w>
概 括</w>
扶 手</w>
反 光</w>
一 圈</w>
T Y
Sp ain</w>
Sl ov
IR F
Bar b
首 批</w>
霍 尔姆</w>
贵 金属</w>
脑 子</w>
数字 式</w>
别 说</w>
z er</w>
n d</w>
ent ry</w>
Br ampton</w>
19 8</w>
落 下</w>
白 兰
波 特兰</w>
果 树</w>
弗 雷</w>
尼古 拉</w>
以 利</w>
T otal</w>
T V
金 正
歉 意</w>
出 借</w>
g it</w>
X I
ST E
S v
K LSE</w>
Antal aha</w>
3 C</w>
首 歌</w>
重 命名</w>
胡 克</w>
经 合
经合 组织</w>
特 雷
放 进</w>
哈 佛</w>
合 金
博 伊</w>
zh u</w>
T able</w>
E b
Bar co</w>
高 高
礼 品店</w>
忠诚 度</w>
录 名</w>
康 斯坦
寡 妇</w>
存 入</w>
奴 仆</w>
奥林匹克 运动会</w>
基 利</w>
图 象</w>
合 器</w>
前列 腺癌</w>
冷 藏</w>
信 箱</w>
w en
ish i</w>
Ar c
香 气</w>
静 脉</w>
银 行业</w>
诺 威</w>
自由 主义</w>
结 识</w>
斯图 加特</w>
批 判</w>
平 坦</w>
圈 子</w>
sel f</w>
pro file</w>
inter est</w>
N ast
Gr ade</w>
触 及</w>
社会 科学</w>
本 届</w>
开 合</w>
展 品</w>
塑料 制品</w>
交易 商</w>
p ass
c ast
Lib rary</w>
H T</w>
25 .
20 7</w>
首 选项</w>
西 贡</w>
波利 尼西亚</w>
接 线</w>
兴 建</w>
债 权</w>
修 剪</w>
三 菱</w>
ograph y</w>
k ins</w>
V all
Prov inc
C X</w>
2 A</w>
马克思 主义</w>
郑 州</w>
肢 体</w>
灾 难性</w>
急 促</w>
大会 常务委员会</w>
勒 姆</w>
俄亥俄 州</w>
代表 大会常务委员会</w>
为人 知</w>
in in</w>
S pl
N FC</w>
F a
C om</w>
金 币</w>
输 出
茨 基</w>
紧 固件</w>
矿 产</w>
治 疗
大 功率</w>
八 章</w>
佛 山</w>
Y u
T ang
JP EG</w>
H angzhou</w>
10 50</w>
问 答</w>
银行 卡</w>
突 破
指示 灯</w>
宠 物
学 业</w>
娱乐 场所</w>
奥 尔</w>
一 百</w>
er ror</w>
N OR
Gre ece</w>
香港 特别行政区</w>
首 家</w>
重新 安装</w>
谜 题</w>
私营 部门</w>
浪 潮</w>
极 力</w>
克 制</w>
h ow
R IS
P ur
L ay
Cour se</w>
达尔 文</w>
控股 公司</w>
才 华</w>
干 部</w>
小 时候</w>
商 量</w>
创 性</w>
丹 东</w>
Kar l
In change</w>
F P</w>
Ch r
B ang</w>
重 叠</w>
邮 轮</w>
说 实话</w>
许 茹
细 微</w>
摘 录</w>
商业 利益</w>
凯 尔
内 衣
不敢 相信</w>
mal aysia</w>
L TE</w>
D AT
B ish
Ab b
AC SI</w>
钻 石
绝 大部分</w>
瓦 尔
王 毅</w>
村 民</w>
对 照</w>
几 率</w>
决 权</w>
im ate</w>
d h
M AC
Born hol
韩 语</w>
错误 信息</w>
许茹 卿</w>
管 材</w>
直布罗 陀</w>
本 网</w>
总 站</w>
帕 尼</w>
学 生
三 十年</w>
ip e</w>
EF I</w>
金牛 座</w>
追 加</w>
来 时</w>
无处 不在</w>
斯 布鲁克</w>
天 蝎
国 土</w>
保 卫</w>
wal k</w>
a use</w>
Matt he
Electr o</w>
通知 书</w>
谅 解</w>
装 入</w>
耐 高温</w>
理查 德</w>
王 室</w>
氧化 剂</w>
扫 除</w>
布 隆
上 所述</w>
y er</w>
So l</w>
QN AP</w>
P LA
I H
CA H</w>
格 外</w>
接 待
心 事</w>
六 十</w>
educ ation
Imer ese</w>
F our</w>
露 萍</w>
第四 次</w>
当 今
异 象</w>
ro p</w>
nak om
Son os</w>
F Q
Comp uter</w>
野 心</w>
费 率</w>
胡 淑仪</w>
聚 乙烯</w>
物 业
楼 上</w>
何 莉萍</w>
f al
ain ing</w>
2 G</w>
贝尔 格
贝尔格 莱德</w>
计 费</w>
紧 迫</w>
捍 卫者</w>
恐怖 分子</w>
应 答</w>
工人 阶级</w>
嘱 咐</w>
凸 显</w>
你 别</w>
中 旬</w>
不 理</w>
wiki voyage</w>
com ment</w>
T pl</w>
S et</w>
D am
Bornhol mstr
金 士顿</w>
规 矩</w>
归 类</w>
开发 工具</w>
巴 利
y ang
t yp
cent er</w>
ac at</w>
U k
K enn
H e</w>
F F</w>
EU NTR</w>
Bornholmstr afikken</w>
AQ I</w>
视 听</w>
德 班</w>
平均 价格</w>
天蝎 座</w>
可行 性</w>
凯尔 特人</w>
信息 中心</w>
y uan</w>
y ing</w>
V AC</w>
Mec can
G or
G it</w>
D F</w>
A 2</w>
4. 7</w>
钻 孔</w>
躲 避</w>
审 判
k W</w>
es co</w>
Reg ency</w>
Jul ia
Fin n
阮 梅</w>
要 死</w>
菲 尔</w>
正 宗</w>
摩 根</w>
推 力</w>
一 到</w>
ud ad</w>
音 响
釜 山</w>
较 长</w>
美 发</w>
男 生</w>
反 驳</w>
l ed</w>
e ff
d it
B ond
家用 电器</w>
商务 部</w>
单 点</w>
光 标</w>
D P
Che n</w>
19 1</w>
预防 措施</w>
罗得 岛</w>
经 受</w>
着 陆</w>
定 做</w>
大 批</w>
外 贸</w>
地 方
不太 可能</w>
一 首</w>
l ar
P ool</w>
M ig
锻 炼
这 块</w>
构 思</w>
朝 阳</w>
床 头</w>
尼 察</w>
处女 座</w>
低 估</w>
z er
um ent
ebl onde</w>
Pr aia</w>
MC 10
K ur
Fr an
BE ST</w>
Al y
退 化</w>
调 器</w>
粗 糙</w>
无 忧</w>
投 入
大洋 洲</w>
图像 处理</w>
优秀 品质</w>
V ect
J et</w>
神 殿</w>
燃 料
届 满</w>
出 式</w>
乒乓 球</w>
s or</w>
if a</w>
RST AB</w>
PAC K</w>
A ires</w>
30 3</w>
18 9</w>
秤 座</w>
油 气</w>
斯 勒</w>
彻 底
天 秤座</w>
加 密
三 人间</w>
templ ate</w>
s am
h over</w>
Nic eblonde</w>
M eg
K EC</w>
J am
驾驶 室</w>
预防 性</w>
重复 性</w>
曼 联</w>
代 号</w>
专 心</w>
nakom st
Ma ison</w>
M ix
J ard
D h
B ost
雄 厚</w>
西 北
萨斯 城</w>
研究 成果</w>
玩 儿</w>
橄 榄</w>
检 修</w>
时 才</w>
布 里奇</w>
局 限于</w>
堪 萨斯城</w>
it ary</w>
TS I</w>
H .
Al t</w>
36 9</w>
舒 缓</w>
筛 查</w>
润滑 剂</w>
卡罗来 纳州</w>
光 辉</w>
保险 费</w>
hot els</w>
ch eng
ST K
19 37</w>
验 收</w>
货 品</w>
示 意</w>
猩 猩</w>
搬 迁</w>
心 头</w>
同 胞</w>
南 路</w>
刻 录</w>
世界 卫生组织</w>
一 架</w>
Sim ple</w>
N TF
F E</w>
Cast ell</w>
CS A</w>
详 情
班 次</w>
掀 起</w>
戏 剧
对 冲</w>
冯 某</w>
全 职</w>
Shar ma</w>
K le
Im p
Er r
范 例</w>
的 里雅
最 美</w>
撒 谎</w>
戴 斯</w>
并 会</w>
哈 斯</w>
哈 尔</w>
前 走</w>
est a</w>
N ag
独立 性</w>
潘沁 风</w>
欧 式</w>
尾 巴</w>
哈 里
中 环</w>
上 演</w>
uc ci</w>
Pol ar</w>
PC T</w>
O t
E F</w>
青 铜</w>
野 蛮</w>
选 型</w>
满 都</w>
棋 牌</w>
往 后</w>
哀 求</w>
加德 满都</w>
ol ution</w>
P ad
H ail
额 定
长 距离</w>
让 步</w>
游 玩</w>
比 较
搂 住</w>
恩 惠</w>
南 北</w>
制冷 剂</w>
分 层</w>
str a
赌 注</w>
联系 电话</w>
派 出</w>
必 要
外商 投资</w>
变速 箱</w>
im m
anc a</w>
Mac Book</w>
Indust rial</w>
G MT</w>
Econ om
E AS
相 比
的里雅 斯特</w>
无 情</w>
打 折</w>
台 湾
关键 因素</w>
eg y</w>
anc o</w>
Wolf ram</w>
B ig
Angel es</w>
阿 什</w>
表 带</w>
涡 轮机</w>
此 举</w>
席 会议</w>
偷 看</w>
r t
iz er</w>
S eg
N I</w>
19 42</w>
评 论
触 控</w>
蜜 月</w>
第五 章</w>
犯 下</w>
北 海
仁 慈</w>
业务 部门</w>
c le
V inc
Tr aff
T 1</w>
Ste el</w>
G ang
静 下来</w>
火 车票</w>
次 于</w>
志 愿</w>
对 着</w>
低 收入</w>
伏 特
书 店</w>
一 动</w>
us education
M U
阳 市</w>
锦 江</w>
野 餐</w>
装载 机</w>
染 色
外汇 市场</w>
wh ich</w>
inn y</w>
Pro mot
L ayl
麦 迪
始 建</w>
奥 尼亚</w>
亲 眼
l ow</w>
iss ion</w>
cl ub</w>
art a</w>
W ood</w>
Sim pl
R ON</w>
N a</w>
镀 膜</w>
西 路</w>
花岗 岩</w>
聘 用</w>
海 尔</w>
染 料</w>
把 头</w>
应 俱全</w>
尽 职</w>
友 好
全 美</w>
下 班</w>
一 应俱全</w>
o j
L T</w>
An avar</w>
迫 不及待</w>
画 布</w>
有 钱</w>
宇 航
合 众
借 此</w>
不 管
otec nica</w>
B ak
铸 币</w>
蓝 图</w>
萨 克</w>
激动 人心</w>
名 胜</w>
印第 安
之 王</w>
ack er</w>
ST ER</w>
19 3</w>
违 法行为</w>
睁 开</w>
淀 粉</w>
弗兰 克</w>
中央 政府</w>
业 力</w>
v 3</w>
th ro
St ock
O ver
Dis k</w>
饶 恕</w>
根本 上</w>
柠 檬</w>
彼 勒</w>
希 西</w>
存 者</w>
契 机</w>
减 税</w>
假 冒</w>
从 根本上</w>
ian s</w>
h app
Vir g
EM I</w>
Do S</w>
A sk
说 唱</w>
装 作</w>
大 家庭</w>
多米尼 加
国际电 联</w>
兽 医</w>
t it</w>
erc ial</w>
d ie</w>
be acon</w>
H I</w>
C oc
B ast
赞 誉</w>
蒙 古
萨摩 亚</w>
尼 罗河</w>
公 平
使 劲</w>
z ip</w>
ter n</w>
c z
aa 66</w>
Str ada</w>
Layl aa66</w>
DF DS</w>
25 6
2 N
迈 进</w>
经 贸
宜 人</w>
伊利诺伊 州</w>
Soph ia
ST AR</w>
L ic
H ow</w>
B G
A il
A br
0 24</w>
瞿 霞</w>
热 性</w>
曼 斯坦</w>
提 倡</w>
土库 曼斯坦</w>
关 押</w>
中 毒</w>
z ona</w>
useducation portal</w>
Jay mes</w>
DI Y</w>
A sp
转 化
真 神</w>
居 民
密集 型</w>
名 声</w>
加 索</w>
凌 晨</w>
ig er</w>
bus iness</w>
anc ing</w>
Super ior</w>
Fus ion</w>
链 路</w>
病 情</w>
更 深</w>
成 套</w>
成 份</w>
哪 种</w>
单 曲</w>
体 力</w>
一 书</w>
vot ers</w>
en ing</w>
em an</w>
Tour ist</w>
G AR
Al ba</w>
阿卜 杜
遵 照</w>
评 测</w>
胡 说</w>
纳 特</w>
展 台</w>
唐 纳德</w>
可 信赖</w>
动 作
其 他
先 是</w>
侵 略</w>
一 瓶</w>
d le</w>
Val ve</w>
Cair ns</w>
C a</w>
18 1</w>
00 8</w>
附加 值</w>
美 利
特立尼 达
法律 效力</w>
推 销</w>
愈 合</w>
心 疼</w>
伺 服
sh ire</w>
ill aKiss</w>
Sob ra</w>
Man hatt
高 贵</w>
长 官</w>
牧 场</w>
浮 现</w>
整 数</w>
媒体 文件</w>
冷 水</w>
re g</w>
h air</w>
G ul
19 38</w>
17 4</w>
萃 取</w>
羞 耻</w>
美 地</w>
精 简</w>
精 确度</w>
牛津 大学</w>
时 空</w>
振 兴</w>
思 思</w>
崇 高</w>
CS I</w>
结 婚戒指</w>
理 所
液 化</w>
流 血</w>
法兰 西</w>
时 起</w>
拿 来</w>
废 料</w>
尼斯 人</w>
安 达
大 专</w>
多米尼加 共和国</w>
共 赢</w>
万 能</w>
b ott
W r
高 出</w>
耐磨 性</w>
登 录名</w>
暗 暗</w>
悄 悄</w>
大 米</w>
农 药</w>
借 款</w>
代 码
act ion</w>
P od
Cor ner</w>
色 素</w>
检 视</w>
妓 女</w>
基因 组</w>
内 存
乳 制品</w>
买 入</w>
op p
end ed</w>
I AL</w>
Carr era</w>
A W
0 10</w>
铺 盖</w>
遗 嘱</w>
这 栋</w>
监 事</w>
牧 羊
基 莫</w>
印 记</w>
us ed</w>
St ri
O asis</w>
重 重
录像 机</w>
坏 事</w>
北 美洲</w>
UR E</w>
T ayl
N ay
M G</w>
CA P</w>
黄 铜</w>
重 写</w>
汉 庭</w>
树 枝</w>
动 向</w>
公 子</w>
em ents</w>
Mar in
D ist
A s</w>
面 貌</w>
运 通</w>
盗 窃</w>
圣 乔治</w>
合众 国</w>
匆 匆</w>
ast as
ach i</w>
Mor a</w>
IN T</w>
30 5</w>
3 EMFTR</w>
耗 尽</w>
炎 热</w>
正 法</w>
擦 拭</w>
招 待</w>
大 洲</w>
卡特 彼勒</w>
sh a</w>
news info</w>
V il
V ie
K T
获得 最佳</w>
羞 愧</w>
特 克斯</w>
果 说</w>
巴 克</w>
审 计
如 果说</w>
出 名</w>
一 端</w>
z t
oc co</w>
ant age</w>
L Y
Kap ell
金 香</w>
谨 守</w>
自 称</w>
网络 管理</w>
登 山</w>
文 案</w>
德 里克</w>
信 标</w>
不由 自主</w>
an th
Re port</w>
Meccan otecnica</w>
Ch er
调 解
裂 缝</w>
空 闲</w>
揭 开</w>
c d
200 00</w>
鼓 掌</w>
飞 快</w>
赶 上</w>
西班牙 文</w>
行为 准则</w>
科 孚
瞄 准</w>
演讲 者</w>
数 最多</w>
口 岸</w>
万 象</w>
w u</w>
w est</w>
War saw</w>
W AN</w>
P V
配 电</w>
调 制
盲 目</w>
可 口</w>
专利 法</w>
w ap
p art</w>
and o</w>
Ti ff
Med ical</w>
Manhatt an</w>
C AN
郁 金香</w>
贴 身</w>
诚 然</w>
看 不
水 瓶座</w>
小 天</w>
城 门</w>
同 性</w>
史 诗</w>
一 艘</w>
ult ural</w>
ill ar</w>
al og
Pr ince</w>
2 15</w>
马克 思</w>
用 心</w>
投 递</w>
扭 动</w>
性 能
性 欲</w>
安 倍</w>
喘 息</w>
九 州</w>
d om
Trans russia</w>
Page Service</w>
J ad
J CB</w>
Graph ics</w>
进 军</w>
只 得</w>
原则 上</w>
AM E</w>
非 线性</w>
苹果 公司</w>
艰 苦</w>
科孚 岛</w>
提 琴</w>
戈 尔</w>
关 联
三 相</w>
t est</w>
he ster</w>
bo y</w>
PD M</w>
M93 C
L O</w>
19 04</w>
重 心</w>
身 于</w>
试 剂</w>
笑 声</w>
矿 泉水</w>
溢 出</w>
日 渐</w>
放射 性</w>
击 中</w>
信 条</w>
et t</w>
aw ay</w>
Rel ations</w>
I re
Down line</w>
C res</w>
雷 尔</w>
钓 鱼
访问 控制</w>
老 虎</w>
木 星</w>
星 际</w>
文 莱</w>
开 花</w>
尽 享</w>
妊 娠</w>
公 安</w>
传 入</w>
仰 望</w>
交 叉
不 定</w>
不 久
一 抹</w>
ist ic</w>
h anna</w>
ect ions</w>
P el
In ner</w>
Be e</w>
独 木
构成 犯罪</w>
增 加
华 美达</w>
价格 指数</w>
不 至于</w>
K ind
Ist anbul</w>
AD C</w>
耐 久性</w>
扫 罗
布洛 涅</w>
哺 乳
动 物
以弗 所</w>
以 较</w>
介 于</w>
丙 烯
ock et</w>
ist ant</w>
ff er</w>
ann i</w>
Seal ines</w>
S ong
LA B</w>
H L</w>
At t
15 4</w>
菲利 普</w>
弹 出式</w>
婴 孩</w>
口 水</w>
加 里
分 明</w>
人 性化</w>
中 以</w>
Patt aya</w>
麦 子</w>
纳 卡</w>
掩 饰</w>
南安 普敦</w>
化 器</w>
ine on</w>
ash a</w>
TN 3</w>
R ay</w>
Q R</w>
N O</w>
J oomla</w>
E co
Driv er</w>
Dep art
Bu il
3 34
胶 粘
而 后</w>
沉 思</w>
梦 妍</w>
大 片</w>
各 界</w>
台 球</w>
击 打</w>
Y ai</w>
R ain
O g
Mess age</w>
L ix
L ec
IN FO</w>
D C
Com ments</w>
Cas h</w>
Andre w</w>
邮 局</w>
工作 温度</w>
出 游</w>
z r
v in</w>
top ic</w>
G ig
Be ach
6. 7</w>
路 易</w>
超 薄</w>
格兰 迪</w>
朝鲜 半岛</w>
拉 斐</w>
工程 设计</w>
坏 蛋</w>
商品 名称</w>
分 辨</w>
仅 如此</w>
人 类
乖 乖</w>
世贸 组织</w>
专利 权人</w>
ed o</w>
W MA</w>
SI L
Or d
Lav rio</w>
Ind ustry</w>
F ire</w>
Cl ick
B ath</w>
3 50
胶 东</w>
广 州
信 服</w>
以 防</w>
pol itical</w>
ock er</w>
le x
is cher</w>
避 孕
文 华</w>
收 支</w>
并 非
夸 张</w>
地 问</w>
凯 悦</w>
丽 思</w>
两 座</w>
专 人</w>
MB A</w>
G RO
误 会</w>
规 范
营业 额</w>
编程 语言</w>
废 气</w>
并不 需要</w>
山 坡</w>
守 则</w>
分 部</w>
信 函</w>
供 暖</w>
wh ere</w>
soc ial</w>
be aut
S et
5 G</w>
风 能</w>
降 落</w>
酌 情</w>
胖 子</w>
河 边</w>
抖 动</w>
承 包</w>
帕 克</w>
奥 运</w>
其 余
其余 部分</w>
b anner</w>
Play Station</w>
B and</w>
5. 7</w>
18 7</w>
香 烟</w>
此 页</w>
教 派</w>
威 尼斯人</w>
品牌 网</w>
分 给</w>
出 租人</w>
兄弟 姐妹</w>
倚 靠</w>
伊 古</w>
Ty ler</w>
TT T</w>
Rich mond</w>
G od</w>
鲨 鱼</w>
静静 地</w>
这 一
特 利</w>
排 水</w>
库 尔
寄存 处</w>
因 斯布鲁克</w>
uk u</w>
s an</w>
ot te</w>
ia Rose</w>
cu z</w>
Y ang</w>
Sur face</w>
S 3</w>
L ight
Fest ival</w>
Dub rov
C ay
Administr ator</w>
1 12
观 光
而 异</w>
监 会</w>
瓶 颈</w>
版 块</w>
火 花</w>
海 事</w>
挖掘 机</w>
布 吉</w>
就 读</w>
寄 居</w>
休 斯敦</w>
Inf ineon</w>
Host al</w>
Call iaRose</w>
17 9</w>
麦迪 逊</w>
陈 列</w>
逾 期</w>
端 到</w>
指 派</w>
强 硬</w>
底 特
序列 号</w>
工程 技术</w>
切 尔</w>
事 工</w>
Sophia acat</w>
Ret reat</w>
Nina Jaymes</w>
Dat e</w>
19 51</w>
14 001</w>
福 音
爱 因
爱因 斯坦</w>
国 集团</w>
信息 化</w>
n aught
e G
Victoria Reed</w>
SN CM</w>
R ab
GH T</w>
隐 蔽</w>
维 萨</w>
橡 胶
必 备</w>
德 尔
宾夕法 尼亚州</w>
多 尼亚</w>
喇 嘛</w>
写 字
严 谨</w>
三 倍</w>
e j
Vide o
Un ix</w>
L IG
AM26C 32
车 里</w>
温度 计</w>
大西 洋
仅 次于</w>
亚利桑 那州</w>
pre fix</w>
ian z</w>
est ic</w>
ell s</w>
Ind iana</w>
F ox
20 50</w>
达 斯</w>
老 头</w>
相比 之下</w>
特立尼达 和
特立尼达和 多巴哥</w>
牛 排</w>
每 隔</w>
来 信</w>
开 会</w>
幸 存者</w>
口 语</w>
半 夜</w>
前 去</w>
初 创</w>
T ins
Point e</w>
Part ners</w>
Ether CAT</w>
Ch at
蔡 杏娟</w>
综合 症</w>
病毒 感染</w>
理 疗</w>
好 几个</w>
凝 胶</w>
亲 身</w>
乘 船</w>
一 并</w>
um s</w>
ous ada</w>
Sh ip</w>
S i</w>
P GP</w>
IP A</w>
En d
2 16</w>
蓄 电池</w>
经济 效益</w>
秘 诀</w>
无 视</w>
变 性</w>
人民 检察院</w>
亚 哈</w>
丹 佛
r are</w>
com mod
00 9</w>
进 料</w>
胚 胎</w>
知识 库</w>
田 地</w>
圆 柱</w>
北 爱尔兰</w>
共 振</w>
p ara</w>
esp resso</w>
dz yy</w>
Y ellow</w>
TC1303 A</w>
S B</w>
K en
认 罪</w>
罗 尔</w>
注册 资本</w>
摩托 罗拉</w>
指示 器</w>
拉 多
手提 电脑</w>
怎 麼</w>
底特 律</w>
广告 牌</w>
幽 默</w>
年 里</w>
小 声</w>
国际 博览</w>
亦 然</w>
tr e</w>
er st
bl ond
W P</w>
Camp s</w>
转 基因</w>
茶 具</w>
第一 季度</w>
申请 者</w>
球 磨机</w>
池 塘</w>
数据 包</w>
收 录</w>
建筑 设计</w>
寿 保险</w>
喜 剧</w>
人 寿保险</w>
不 仅如此</w>
ab ase</w>
Rad eon</w>
13 8
防 静电</w>
熨 板</w>
测 绘</w>
格 雷</w>
新 城</w>
床 上
平 房</w>
寺 院</w>
完 好</w>
复 原</w>
作 品
stre et</w>
W N
UN IX</w>
K as
起 重</w>
说 起</w>
获得 成功</w>
活 在</w>
撤 退</w>
巴伐 利亚</w>
工艺 流程</w>
小 女孩</w>
叶 派</w>
re m
is c
Vel oc
Mist ress</w>
Le ading</w>
Ev ans</w>
19 27</w>
跳 动</w>
真 不知道</w>
消 磨</w>
教育 部</w>
支付 宝</w>
影 城</w>
失 误</w>
二 是</w>
t ar
l t</w>
W an
S ON
L am
I AC</w>
For m</w>
Car b
13 9
福音 书</w>
潜 艇</w>
每 一</w>
树 上</w>
征 求</w>
婊 子</w>
大 气
周 二</w>
再 试</w>
俯 伏</w>
ang a</w>
Son y</w>
鲁 斯</w>
高 手</w>
迄 今</w>
联合国 安理会</w>
红 酒</w>
立方 米</w>
看 得
深 感</w>
标 本</w>
巴 拉克</w>
Ven ice</w>
Shar ing</w>
金 银</w>
量 级</w>
过 热</w>
独木 舟</w>
液 态</w>
海 平面</w>
受 人</w>
公共 部门</w>
ch o</w>
Reserv e</w>
Ire land</w>
Di odes</w>
长 途</w>
西 拉</w>
被 告人</w>
点 钟</w>
滚 筒</w>
斐 济</w>
恐 吓</w>
年度 报告</w>
圣 神</w>
列 宁</w>
不 限</w>
i ent
隐 含</w>
通行 证</w>
轉 移</w>
解 调器</w>
解 密</w>
温 莎</w>
流 向</w>
整 天</w>
扳 手</w>
手 术
宁 愿</w>
头 盔</w>
单 方面</w>
q u</w>
Sup ply</w>
Sec ure</w>
E ag
Alexand er</w>
面 子</w>
计算机 系统</w>
维 和</w>
线 或</w>
纳 克索</w>
糊 糊</w>
流 器</w>
掌 权</w>
抑 郁</w>
夹 紧</w>
准 时</w>
不 舍</w>
b ass
H ang</w>
部 长
精 通</w>
巴 斯蒂
天主 教徒</w>
保 健
一 再</w>
Indust ries</w>
H all
Advent ure</w>
6. 6</w>
17 1</w>
莱 特</w>
纸 牌</w>
真 想</w>
畅 游</w>
有 色
天文 台</w>
大 利</w>
售 货
t ain
ma in
k Hz</w>
You tube</w>
TO P</w>
TECH NO
Man chester</w>
论 述</w>
消 耗
泰晤 士
民 用</w>
改 装</w>
所 指</w>
商业 银行</w>
亚太 区</w>
ood le</w>
el ing</w>
Sm y
马拉 松</w>
雅 高</w>
草 莓</w>
着 眼
气 象</w>
每 台</w>
晶 体
千 万
养 老</w>
st ate</w>
s yn
Lyn n</w>
Ad am</w>
25 1</w>
闪 光灯</w>
诺贝尔 奖</w>
装 饰
犹 如</w>
整 齐</w>
数据 类型</w>
摇 摆</w>
战斗 机</w>
哈 马斯</w>
书 信</w>
ec n</w>
T est</w>
Naut as</w>
Ind ian
Gi ov
那 好</w>
索 沃</w>
深 情</w>
核 电站</w>
报 应</w>
情 调</w>
善 于</w>
参 观者</w>
准 入</w>
D DoS</w>
Cent r
B ib
税 法</w>
本 科
新闻 动态</w>
斯 亚
很 久
多 边
什 叶派</w>
一个 多</w>
up s</w>
k or</w>
id es</w>
ell es</w>
C V</w>
B N</w>
着 力</w>
拉斯 堡</w>
工作 台</w>
喷雾 机</w>
办公 楼</w>
充 实</w>
一百 一十</w>
m et</w>
ki r
iz a</w>
V or
Bost on</w>
Al ma
麻 省
音频 文件</w>
起 价</w>
荒 谬</w>
舞 桐</w>
白 鲸</w>
疫 情</w>
污 垢</w>
机械 厂</w>
床上 用品</w>
嫌 疑
威 克</w>
太阳 镜</w>
填 料</w>
基督 山</w>
Wi ed
W W
Stan ley</w>
S ites</w>
12 10
萧 然</w>
有 误</w>
应 为</w>
塔 利亚</w>
中 途</w>
严 禁</w>
不 含税</w>
n o
hig h</w>
c ia</w>
Quart ier</w>
Pro vis
Em p
Con st
Con ference</w>
C U
Bl ock</w>
Ag e</w>
长 子</w>
航 海</w>
管理 工具</w>
玩 耍</w>
整 体
工作 量</w>
吓 了
吓了 一跳</w>
卧 式</w>
之 声</w>
一 堆</w>
Tins lei</w>
MC U</w>
G an
Eliz abeth</w>
Cho col
Ag ent</w>
海 德堡</w>
沃 纳</w>
民 间
敏感 性</w>
工作 日内</w>
尼亚 加拉</w>
sk ar</w>
T sv
FRE E</w>
19 14</w>
难 怪</w>
省 级</w>
很 强</w>
尽 早</w>
地 那</w>
吉 斯</w>
ro ad</w>
e v</w>
V as
Pass word</w>
Jessica Honey</w>
GD PR</w>
钢 铁
迭 代</w>
营 位</w>
激 起</w>
开 立</w>
干燥 机</w>
工作 岗位</w>
处 决</w>
吉 利</w>
创建 者</w>
乳 交</w>
co s</w>
频 谱</w>
远 程
脸 红</w>
情 境</w>
待 售</w>
安东 尼</w>
受 限制</w>
去 掉</w>
东 京
kn ow</w>
ail y</w>
Sp ac
Sc ott</w>
SI ST
Dis cuz</w>
起 步</w>
获得 者</w>
研究 生
灭 菌</w>
拉 文
塞 特</w>
出 厂</w>
减 慢</w>
一 期</w>
is se</w>
i as
Tal k</w>
Sh a
B Z
3 DL
麦 地那</w>
行 情</w>
耗 费</w>
政治 宣传</w>
惊 慌</w>
已 婚</w>
y ear</w>
st art
Park way</w>
高 级别</w>
除 掉</w>
阿尔 法</w>
铁 路
豪 斯</w>
结果 显示</w>
理所 当然</w>
正 确
木 工</w>
方 块</w>
接 通</w>
成 全</w>
总 有</w>
嫣 儿</w>
大 幅
切 片</w>
事实 证明</w>
之 战</w>
七 日</w>
str ap</w>
k im
col or</w>
高 可用性</w>
问 卷</w>
落 到</w>
肥 皂</w>
罗 迪克</w>
粗 俗</w>
独 裁
斯特 拉斯堡</w>
当 着</w>
巴利 阿里</w>
坚 固
坚固 耐用</w>
回 过</w>
克里 姆
上 车</w>
t v</w>
b i</w>
Te am
J ack</w>
长 发</w>
银 河
诺 卡</w>
精 益</w>
按 揭</w>
急 救</w>
分 散
储物 柜</w>
五 百</w>
不 规则</w>
ka Ivy</w>
ic i</w>
b ase</w>
S ale</w>
Ri hanna</w>
N B
Mand arin</w>
Eri kaIvy</w>
19 35</w>
默 克尔</w>
钟 楼</w>
街 日报</w>
粉 尘</w>
科 索沃</w>
玻璃 瓶</w>
玷 污</w>
清 澈</w>
棒 了</w>
极 少</w>
明 媚</w>
撒 拉</w>
意 想不到</w>
小 手</w>
太 棒了</w>
华尔 街日报</w>
上 天</w>
t witter</w>
i ed
Vi ale</w>
P G
Matthe w</w>
Mar y</w>
M93C 46</w>
C iv
配 饰</w>
脱 欧</w>
美 人
泽 尔</w>
数 次</w>
密 尔顿</w>
呼 唤</w>
互 信</w>
m x</w>
ly n</w>
con n
LE X</w>
D er
D W</w>
BI OS</w>
A AC</w>
97 90</w>
没 用</w>
摄 像</w>
当 做</w>
弗朗 西斯</w>
发起 人</w>
出版 商</w>
五 章</w>
av ia</w>
19 23</w>
电视 剧</w>
理 论
现 货</w>
渗 透
摆 放</w>
径 向</w>
人 若</w>
in um</w>
ai t</w>
ac count</w>
S ax
L and</w>
Cre ative</w>
飞 镖</w>
阿里 巴巴</w>
转 为</w>
第三 天</w>
燃 烧
智 库</w>
拉 着</w>
执行 器</w>
执 业</w>
奢 侈
信 奉</w>
传 真
w in
s on
c m
长 城</w>
肝 病</w>
罗 塞斯</w>
缺 口</w>
忘 了</w>
工商 行政</w>
国际 公约</w>
别 忘了</w>
保 湿</w>
一 家人</w>
U TC</w>
Lix uria</w>
逼 真</w>
缓冲 区</w>
精 子</w>
粉 色</w>
没 能</w>
汉 诺威</w>
母 亲节</w>
方 差</w>
投 射</w>
心 愿</w>
工 地</w>
右 上角</w>
剥 削</w>
停 放</w>
住 宿
一 对
ed oll
Re ader</w>
Or der</w>
D Y
茶 叶</w>
自 带</w>
湖 城</w>
母 公司</w>
李 刚</w>
曼 群岛</w>
扩展 名</w>
开 曼群岛</w>
巴 黎
套 票</w>
奈 斯</w>
多种 不同</w>
事 奉</w>
之 情</w>
qu est
30 6</w>
羞 涩</w>
热 塑性</w>
清 水</w>
总 的
塞 纳</w>
了 个</w>
rop olis</w>
Sm all</w>
Sc an</w>
N ad
I f</w>
Ar ab
00 3</w>
过 高</w>
舌 尖</w>
致 敬</w>
皮 肤
无 烟</w>
威 猛</w>
奢侈 品</w>
大 方</w>
余 下</w>
互 换</w>
上 部</w>
fun ction</w>
el and
b b
SweetD iane</w>
Hail ey
要 紧</w>
瑞士 法郎</w>
波 形</w>
之 用</w>
主导 地位</w>
p erson</w>
bu g</w>
am ento</w>
NTF S</w>
Monica Monaco</w>
Indian apolis</w>
Bu y</w>
辛 普森</w>
礼 遇</w>
知 悉</w>
知 不知道</w>
总 计</w>
开 拓
工业 生产</w>
内 涵</w>
其 所</w>
lin ux</w>
l bb</w>
cour se</w>
S W</w>
I ER</w>
De i</w>
长 廊</w>
滑 板</w>
洋 葱</w>
拱 门</w>
怀 着</w>
就 职</w>
吉 布
h l
edoll lbb</w>
TECHNO LOG
Cut edolllbb</w>
译 员</w>
被 称作</w>
纸 质</w>
电池 板</w>
欧洲 联盟</w>
木 马</w>
吸 尘器</w>
古 屋</w>
勾 引</w>
创 下</w>
几 句</w>
伯 利
中 奖</w>
ro ss</w>
Fed ora</w>
郁 郁
遮 盖</w>
祝 您</w>
石 灰
林 宫</w>
挑 衅</w>
怀 抱</w>
影 音</w>
弗 里</w>
完全 免费</w>
国 界</w>
厌 倦</w>
乳 液</w>
y ing
ay ne</w>
N umber</w>
N ike</w>
L I</w>
Cap it
离 合器</w>
拍卖 会</w>
实 证</w>
商业 化</w>
分 段</w>
之 光</w>
世 博会</w>
ep s</w>
al b
L it
C L</w>
Bud get</w>
Academ y</w>
2. 11</w>
预 估</w>
陶 瓷
辣 椒</w>
活 物</w>
回 国</w>
is hed</w>
Ul tra</w>
Sa aS</w>
S ent
R aff
Prot otype</w>
Pet tit
Lab s</w>
领导 层</w>
脱 发</w>
翼 翼</w>
早 些时候</w>
换 取</w>
手机 号码</w>
建 国</w>
巡 回
层 级</w>
客户 群</w>
太 好了</w>
埃 蒂
同 于</w>
v es</w>
h um
VIE W</w>
Sp ectr
OT W</w>
Merc ure</w>
L F
Dev ille</w>
锻 造</w>
特 写</w>
海 地区</w>
水 力</w>
圣 约翰</w>
加拿 大人</w>
从 未
亚 州</w>
e Mora</w>
Pettit eMora</w>
Lum ia</w>
18 2</w>
非常 感谢</w>
雷 岛</w>
调 戏</w>
系统 集成</w>
巴 西
定 量
媒体 报道</w>
女 童</w>
千 万名</w>
剑桥 大学</w>
克 拉克</w>
估 值</w>
O P</w>
Jenn ifer</w>
Invest ment</w>
Harb or</w>
F ul
27 2</w>
计 量
解 雇</w>
若 要</w>
背 影</w>
置 疑</w>
绳 子</w>
短 期内</w>
版 面</w>
淬 火</w>
栽 培</w>
据 此</w>
异 化</w>
在我 看来</w>
发 病率</w>
办 事</w>
优 德</w>
丹 麦
view s</w>
est er</w>
M ai
19 7</w>
零 食</w>
限 值</w>
银河 系</w>
葬 礼</w>
玫 瑰
才 行</w>
娜 娜</w>
埃 拉</w>
发 表
停 住</w>
以 使</w>
k on
JO 3</w>
C EL
Bel o</w>
B ad</w>
5 20</w>
气 管</w>
条 规</w>
文森 特</w>
工 匠</w>
大大 的</w>
圣 多
动 静</w>
丽 丝</w>
丁 尼</w>
oc r
eb r
SG D</w>
Fre der
赛 尔</w>
联合 王国</w>
投 产</w>
帝 都</w>
处 以</w>
别 无
传 导</w>
ev ent</w>
O F</w>
N F
Int im</w>
G MP</w>
Color ado</w>
Boun ty
BO X</w>
An na</w>
随 从</w>
转 变成</w>
赔 偿
生 物质</w>
毛泽 东</w>
新 郎</w>
小心 翼翼</w>
s ign
o h</w>
V W
PO W
Mon ica</w>
Mach ine</w>
Bounty b</w>
阿拉 斯加</w>
适 时</w>
社会 保险</w>
狐 狸</w>
投资 人</w>
工 况</w>
天文 学家</w>
外汇 储备</w>
凉 爽</w>
iv er
M 74HCT
B L</w>
Ari zona</w>
9 50</w>
19 29</w>
阻 抗</w>
葱 葱</w>
网 点</w>
沃 特</w>
标 牌</w>
标 明</w>
手 链</w>
北 省</w>
全 部
儿 媳</w>
人 选</w>
ud a</w>
o er</w>
et i</w>
Un der
E t
Br ad
Bel le</w>
Alma Castell</w>
2 17</w>
选 件</w>
迟 疑</w>
西 省</w>
美 孚</w>
瘟 疫</w>
定 居
好了 吗</w>
塔 楼</w>
名誉 权</w>
wor k
d B</w>
comm un
Tr ading</w>
Stor m</w>
R g</w>
Le ica</w>
预 警</w>
详情 请</w>
原 件</w>
加 重</w>
万 国</w>
一 如
Sav ers</w>
Mod ule</w>
L Y</w>
Cam era</w>
锣 湾</w>
铜 锣湾</w>
美 國</w>
恋 者</w>
多 德</w>
住 民</w>
亚 诺</w>
fer ences</w>
You th</w>
Su zhou</w>
ON G</w>
Nat ure</w>
HP V</w>
Gu ang
B ell</w>
17 2</w>
艾 伦</w>
罪 过</w>
海 啸</w>
水 龙头</w>
水 电</w>
摩 天
拉文 纳</w>
截 然不同</w>
当今 世界</w>
山 庄</w>
增 速</w>
利 润
n av</w>
TR AD
E TAS</w>
AM26LV 31
25 5</w>
角 度
要 塞</w>
红 十字</w>
时 限</w>
手 枪</w>
奖 章</w>
天 性</w>
夏 日</w>
几 位</w>
丑 闻</w>
w ar</w>
sp r
s ys
Al bert</w>
19 43</w>
能源 消耗</w>
符合 条件</w>
普 勒</w>
出 众</w>
与 会</w>
m ult
e ir
Smy ril</w>
里 加</w>
路易 斯
诉 您</w>
记 者
触 点</w>
落地 窗</w>
稀 释</w>
疲 软</w>
圆 顶</w>
哈 里</w>
告 诉您</w>
兼 职</w>
传 送
二十 一</w>
s uc
ic ed</w>
h ost
Tsv et</w>
SE C</w>
Om n
I I
Col lins</w>
AT ION</w>
40 3</w>
香 草</w>
雕刻 机</w>
轻 柔</w>
结 账</w>
碱 性</w>
每 分钟</w>
射 手
天 文</w>
名 古屋</w>
不 合</w>
一如 既往</w>
s c</w>
W ild</w>
N ev
边 框</w>
纽 斯</w>
社 区
患 上</w>
布 料</w>
实 地</w>
同性 恋者</w>
博 雅</w>
决 不会</w>
于 本</w>
product list</w>
m it</w>
af f</w>
Y ud
N espresso</w>
C rist
A Z</w>
陆 续</w>
盟 国</w>
玻璃 纤维</w>
爵 夫人</w>
注塑 机</w>
末 期</w>
最大 值</w>
星 空</w>
数 位</w>
微 弱</w>
尼 索斯</w>
尔 逊</w>
单 板</w>
劳 德</w>
不 吃</w>
uc i</w>
ot ic</w>
doc ument</w>
Mor occo</w>
B oo
风 速</w>
鉴 别</w>
王 星</w>
沿 途</w>
例 行
ond a</w>
min imum</w>
b en
Ja co
B an</w>
酸 性</w>
袋 子</w>
螺 钉</w>
藏 品</w>
移民 局</w>
消 息
标 示</w>
我 怕</w>
射手 座</w>
卫 城</w>
i ary</w>
asc ar</w>
Term inal</w>
P it
P ig
O st
没 见</w>
减 速
传 单</w>
al ev
R aw
Cl oud
皇 室</w>
人民 广场</w>
T all
Sing le</w>
Ham burg</w>
香 肠</w>
顶 峰</w>
霸 屏</w>
胡 同</w>
硅 谷</w>
甲 方</w>
洛 神</w>
按 摩
我 父</w>
意 志
大 帝</w>
协调 员</w>
半 小时</w>
出 产</w>
军 刀</w>
in cl
if ul</w>
RE S</w>
Point Savers</w>
Kapell skar</w>
I CA
G ey
Ed ward</w>
Afr ica</w>
预 料</w>
闪 存
酿 造</w>
轻 点</w>
胶粘 剂</w>
第六 章</w>
用 语</w>
特 效</w>
淡 淡
提 振</w>
抽 取</w>
宽 阔</w>
原 产地</w>
千 计</w>
公 报</w>
万事 达卡</w>
一 指</w>
ul ts</w>
t on
o ft</w>
f ind</w>
Si erra</w>
STER N</w>
R av
J iang
Gab ri
F r</w>
F ashion</w>
B J
门 槛</w>
路 线图</w>
竣 工</w>
拖 延</w>
患 难</w>
态 势</w>
快捷 键</w>
并不 一定</w>
化 疗</w>
Ste el
Err or
11 50</w>
芳 香</w>
耐 特</w>
移动 式</w>
杨 过</w>
心脏 地带</w>
复 式</w>
在 生活
原 样</w>
公 交</w>
互 补</w>
一整 套</w>
stat ic</w>
O S
No ire</w>
Laur aKiss</w>
K R
9. 8</w>
逆 向</w>
读 卡
说 好</w>
证券 交易所</w>
社会 福利</w>
悠 闲</w>
引 诱</w>
年 限</w>
中 路</w>
不 设</w>
不 一会儿</w>
i ff
T agged</w>
Rub y</w>
Holly wood</w>
马 恩
酸 奶</w>
象 限</w>
解 码器</w>
结 石</w>
晋 升</w>
数以 千计</w>
处 方</w>
声 望</w>
增 强
吸 吮</w>
危 及</w>
前 夕</w>
上 个月</w>
SI YU</w>
Par t</w>
Nor ton</w>
An n</w>
98 4</w>
马 路</w>
牛 皮
欢 呼</w>
多 前</w>
墨西哥 湾</w>
体 操</w>
交 代</w>
上 前</w>
m el
SER V
24 7</w>
高 分子</w>
美 德</w>
综 述</w>
约 克</w>
福 尔</w>
特 罗</w>
北 海</w>
兰 花</w>
丝 网</w>
不断 扩大</w>
一 站</w>
n at
le e</w>
am el
Mad ag
Act ion</w>
18 50</w>
重 返</w>
赞 扬</w>
蘑 菇</w>
等 同于</w>
第二 届</w>
框 中</w>
太平洋 地区</w>
医 用</w>
三 层</w>
pr int
h is</w>
ez ia</w>
Th an
S ql
F 5</w>
Ap art</w>
迫 切
肩 上</w>
纠 缠</w>
端 点</w>
研究生 院</w>
未 经
布 里
小 小</w>
奥古 斯
佩 里</w>
不 小</w>
tr ack</w>
how t
goo gle</w>
K w
Bon net</w>
B org
19 4</w>
郁郁 葱葱</w>
老 爸</w>
神 像</w>
神 人</w>
畏 惧</w>
机 车</w>
技术 开发</w>
坚 持
充 气</w>
一 脚</w>
view ed</w>
st ock</w>
n es
Tayl or</w>
TS 3
Mar ine</w>
9. 9</w>
07 07</w>
金融 时报</w>
民 营</w>
最 先</w>
故 乡</w>
宝 藏</w>
国防 部</w>
做 梦</w>
ol d
m ess
e ase</w>
d j
d ig
chan el</w>
Wied emann</w>
G os
F AT</w>
74 F
25 2</w>
赶 到</w>
深 知</w>
橱 柜</w>
无 上</w>
居住 地</w>
传 授</w>
ill on</w>
马尔 迪</w>
静 止</w>
阴 部</w>
身 高</w>
西 格
磁 带</w>
影 视</w>
国务 卿</w>
哪 有</w>
可 见
丧 生</w>
ur s
Roc hester</w>
Ro HS</w>
Gr an</w>
Fac t
阶 梯</w>
越 高</w>
资料 库</w>
调节 器</w>
诱 使</w>
绿 地</w>
没 人</w>
服务 项目</w>
授 权
强 行</w>
位 居</w>
亲 手</w>
两 件</w>
丘 拉</w>
w y</w>
R GB</w>
Qu ad
OO L</w>
NE 4</w>
Cl ement
Bi hl</w>
高 风险</w>
紧 张
突破 性</w>
科罗 拉多
正 要</w>
格 丁尼</w>
抵 挡</w>
打 开门</w>
患 病</w>
得 克
售 出</w>
充 斥</w>
T N</w>
Horiz onte</w>
Con su
罗 斯托克</w>
穿 透</w>
空 运</w>
电 阻
清洗 机</w>
更 能</w>
平 衡
喊 叫</w>
即 用</w>
副 教授</w>
公 署</w>
M ia
L ip
Autom ation</w>
Ar du
19 34</w>
1 1.
进 化
这 台</w>
眼 底</w>
烧 毁</w>
日 间</w>
拉 巴</w>
卡 人</w>
作 证</w>
一个 个</w>
foot er</w>
En d</w>
6 10</w>
该 页</w>
耶 卡</w>
粗 暴</w>
米 歇尔</w>
相 位</w>
法 学</w>
比 利</w>
动 量</w>
公务 员</w>
丹 尼尔</w>
不久 前</w>
一对 一</w>
ss a</w>
Sam ui</w>
ST A</w>
R P</w>
R NA</w>
Madag ascar</w>
K um
Jan eiro</w>
陈 设</w>
阿尔 贝</w>
转 而</w>
解 释
营 企业</w>
索 偿</w>
着眼 于</w>
特 种
教 材</w>
扰 乱</w>
平 米</w>
天 后</w>
围 巾</w>
商标 权</w>
哈 德</w>
丰 厚</w>
S AM
M ile</w>
L ew
Dubrov nik</w>
Angel ina
50727. 49
0 20</w>
脱 水</w>
睁开 眼睛</w>
步 进</w>
森 林
广 大
受 访者</w>
两 层</w>
t at
LM2 39
B h
7 20</w>
赠 送</w>
波 兰语</w>
探 险
抓 取</w>
声 卡</w>
k k
ar is</w>
ang el
WE STERN</w>
L ad
E G
Consu elo</w>
Ang kor</w>
马 里兰
脑 子里</w>
漂 流</w>
卡 梅
优 选</w>
ek t</w>
In corpor
5 S</w>
18 6</w>
沙 子</w>
恒 温</w>
循 环
实 施
入 点</w>
以 西</w>
之 初</w>
丙 烯</w>
ph i</w>
fl ash</w>
Town house</w>
Goo d
C W
AN Y</w>
5 80</w>
5 50
颗 粒
阿 斯</w>
跟 上</w>
调制 解调器</w>
相对 论</w>
沃 特
氨 酸</w>
有 害
旅游 局</w>
工业 用</w>
存储 系统</w>
可 控</w>
e h</w>
Ya ST</w>
IE EE</w>
Du omo</w>
Cres cent</w>
Angelina 0707</w>
钻 头</w>
邮件 地址</w>
追 逐</w>
过 往</w>
评 判</w>
补充 剂</w>
肯 塔
服 役</w>
对 焦</w>
地 质
凯 科</w>
ir t</w>
c ms</w>
at ible</w>
霎 哈
陈 代谢</w>
金 刚</w>
裸 裸</w>
无 罪</w>
新 陈代谢</w>
撤 离</w>
归 还</w>
巴拿 马
已 然</w>
大 有</w>
从 没</w>
一 日游</w>
T IM
RA W</w>
L ap
IC ON</w>
5 12
24 3</w>
逃 走</w>
贴 近</w>
象 棋</w>
白 银</w>
版 税</w>
法律 顾问</w>
数据 挖掘</w>
振 动器</w>
打 仗</w>
奖 赛</w>
再 有</w>
t ab
play er</w>
is i</w>
co u
St eve</w>
Nord son</w>
M W</w>
He ad</w>
Fin ance</w>
F RS</w>
闪 过</w>
铂 金</w>
要 不是</w>
罗斯 福</w>
相 爱</w>
率 高</w>
最 坏</w>
户 口</w>
威士 忌</w>
可 观</w>
原 装</w>
j ah
Incorpor ated</w>
预 算
霎哈 嘉</w>
赤 裸裸</w>
种族 主义</w>
火 山
溶 胶</w>
检 测仪</w>
机 电
圣 何塞</w>
利亚 州</w>
cr yp
ass o</w>
Media Wiki</w>
M aps</w>
IS M</w>
迈 尼察</w>
转 入</w>
灾 祸</w>
更 糟</w>
张 家
帕 拉</w>
太阳 城</w>
基 材</w>
国 债</w>
ri t</w>
it y
en burg</w>
eg na</w>
S ah
B AR
2 36</w>
这 天</w>
越 大</w>
艾滋 病毒</w>
筹 码</w>
盗 链</w>
盐 湖城</w>
急 速</w>
商业 活动</w>
合法 利益</w>
千 兆</w>
三 百</w>
一 条
k in</w>
c y
St ory</w>
MO SF
花 旗
胶 原
来 得
旁 白</w>
捷 性</w>
巴 力</w>
奖 品</w>
培 拉</w>
华盛顿 州</w>
加 油</w>
ox ic
ep er</w>
Gu ard</w>
Comm ercial</w>
西 式</w>
比 基尼</w>
核 查</w>
多 点</w>
反应 器</w>
南 瓜</w>
出 价</w>
ra w</w>
Spec ial
Sk in</w>
SI L</w>
S ac
Hailey Haven</w>
Con tr
Canc un</w>
Ben ch
B r</w>
阿 德</w>
过 渡
路 面</w>
询 价</w>
警 示</w>
花园 里</w>
老 汇</w>
红 新
最低 工资</w>
技术 性</w>
想 念</w>
归 属</w>
底 盘</w>
十 分钟</w>
体育 中心</w>
m o
B il
酒 杯</w>
移 到</w>
有 素</w>
族 人</w>
土 木
呼 喊</w>
刻 画</w>
z e
w ang
lean er</w>
ack s</w>
W ed
PW R</w>
O K
G om
Engine ering</w>
Bella Consuelo</w>
50727.36 68</w>
语 义</w>
蜜 蜂</w>
移 居</w>
泽 斯</w>
棕榈 树</w>
墓 地</w>
司 令</w>
占 有
升 天</w>
M ike</w>
C up</w>
C ulture</w>
防 病毒</w>
选 为</w>
这 回</w>
老 式</w>
百 老汇</w>
洽 谈</w>
波 恩</w>
此 人</w>
正 经</w>
幽 灵</w>
已 久</w>
如 一</w>
匆 忙</w>
他 俩</w>
trans l
n ext</w>
au to</w>
R o</w>
12 50</w>
非 商业</w>
阿尔卑斯 山</w>
进 球</w>
角度 看</w>
覆盖 范围</w>
莱 格</w>
瑟 琳</w>
所 立</w>
庄 严</w>
如 上所述</w>
全 系列</w>
wel come</w>
w all</w>
pro gr
Phil ipp
PB F</w>
过 载</w>
绝 对
组 合
粮 食
污 水处理</w>
欧 亚</w>
感 冒</w>
恼 怒</w>
天 下
大 奖赛</w>
培训 中心</w>
地 表</w>
因 该</w>
之 神</w>
s y</w>
ob le</w>
F IN
DM 05
D AC
音 效</w>
臭 氧</w>
泽 卡</w>
挂 钩</w>
布 赖</w>
如 此
前 缀</w>
借 鉴</w>
war ecn</w>
tr ue</w>
st ances</w>
oun install
ouninstall mal
ouninstallmal warecn</w>
howt ouninstallmalwarecn</w>
ar f</w>
SU N</w>
K itten</w>
G overn
阿 萨德</w>
阿 伯
调 控</w>
蒸 气</w>
胜 者</w>
尖 锐</w>
安 塔利亚</w>
天安 门
呼 召</w>
司 令
剥 离</w>
他 来</w>
ust om</w>
m id
ion a</w>
Yud ix</w>
V ILLE</w>
E PA</w>
Carl os</w>
Ardu ino</w>
疏 漏</w>
抗 氧化剂</w>
工 商</w>
加 仑</w>
保 龄
iv o</w>
bet 365</w>
ady S</w>
M Y</w>
L una</w>
B ever
3DL adyS</w>
规 避</w>
罗 德</w>
祖 宗</w>
换 热器</w>
应 允</w>
定 期
变 体</w>
克里姆 林宫</w>
佐 泽卡</w>
下 手</w>
n t
h m</w>
des igner</w>
Y ear</w>
M IL
Che ck</w>
3. 00</w>
25 3</w>
雅 虎</w>
锻炼 身体</w>
达 姆</w>
赏 赐</w>
衰 落</w>
蝙 蝠</w>
红 海</w>
更 多地</w>
晃 动</w>
家族 企业</w>
伪 装</w>
以 理</w>
it ing</w>
ar ning</w>
O M</w>
Art ic
马 州</w>
附 着</w>
里 多尼亚</w>
那 根</w>
选 举
读卡 器</w>
蠕 虫</w>
经济 衰退</w>
磁 铁</w>
着 迷</w>
法国 巴黎</w>
宗 族</w>
喀 里多尼亚</w>
取 向</w>
加 速度</w>
传 出</w>
k l
au th
R ai</w>
Lar avel</w>
DM74 LS
201 60
桌 面上</w>
染 色</w>
开 办</w>
固定 资产</w>
原 始
ver t
h d
as er</w>
Sud este</w>
O ff</w>
Dat a
零售 业</w>
过 头</w>
总 公司</w>
劳 务</w>
Sim ps
Kh ao</w>
Fair field</w>
Dest iny
证 监会</w>
自 负</w>
昵 称</w>
感 染
忍 者</w>
心 底</w>
实 习
my Deville</w>
mark eting</w>
k ill
T 恤</w>
P interest</w>
K ill
INTER PACK</w>
C z
C og
Bund es
Am myDeville</w>
Aly son</w>
著 称</w>
胡 子</w>
紧 密
玩 乐</w>
帝国 大厦</w>
原 住民</w>
ph one</w>
b ed</w>
IF T</w>
Had oop</w>
D AV
Bo x
钟 嫣儿</w>
身 穿</w>
文 斯</w>
操作 者</w>
性 行为</w>
怒 火</w>
平均 水平</w>
六 合
ot strap</w>
bu ilding</w>
M bps</w>
Ind on
Error Pages</w>
2 22</w>
脸 部</w>
纳 粹
着 重</w>
牛 犊</w>
本 田</w>
无 穷
施 雅</w>
怪 异</w>
干 吗</w>
安 逸</w>
图 中</w>
发明 专利</w>
互 通</w>
per t
book ing</w>
Bal tic</w>
葡萄 糖</w>
美 洲
米 尼</w>
第三 条</w>
海 南</w>
根本 原因</w>
标 配</w>
昆 士
拥 有者</w>
完全 符合</w>
埃 斯</w>
哮 喘</w>
分离 器</w>
举 例
k y
el ectr
D UC
这 名</w>
过 量</w>
训练 有素</w>
裂 纹</w>
芬 兰语</w>
糊 涂</w>
甲 壳
田 纳
热情 好客</w>
浴 场</w>
水 瓶</w>
新 教</w>
播 出</w>
外 资</w>
吮 吸</w>
全国 性</w>
丝 绸</w>
上 瘾</w>
iss a</w>
if any</w>
S HO
News Details</w>
K ent
马 特</w>
闪 闪
费 拉</w>
说 些</w>
舍 姆</w>
股 价</w>
演 说</w>
愚 昧</w>
冷 漠</w>
人 事</w>
亚 速
inat ifany</w>
fl y</w>
en berg</w>
black hours</w>
ari ant</w>
BI M</w>
Alb inatifany</w>
轻 声</w>
菜单 中
菜单中 选择</w>
等 离子
第 一种</w>
看 一看</w>
地 笑</w>
在 世</w>
国际 米兰</w>
光 学
会议 记录</w>
l ot</w>
c are</w>
W ine</w>
T yp
NAS A</w>
H RC</w>
B AL
24 1</w>
0 80
龄 化</w>
风 雨</w>
认 真
税 收
称 颂</w>
溶 性</w>
深 信</w>
恭 喜</w>
套 管</w>
多 万</w>
产品 类别</w>
交 替</w>
临 沂</w>
im o</w>
Sweet ie
SN74AHC 86
D up
金融 体系</w>
重复 使用</w>
起 名叫</w>
竟 是</w>
瑞 斯</w>
拨 款</w>
或 令</w>
履 约</w>
学 说</w>
商 界</w>
凯 瑟琳</w>
他 于</w>
re st
pro ject
mic ro
W onder
Tr as
PW M</w>
AJ AX</w>
马 略
虚 伪</w>
营业 执照</w>
票 据</w>
求 职
施 工
摆 渡</w>
掏 出</w>
伯利 恒</w>
Sweetie Alyson</w>
0 10
高 素质</w>
这 有</w>
近 在
译 本</w>
血 腥</w>
胶原 蛋白</w>
相 似
深 夜</w>
橡 树</w>
攻 打</w>
撤 出</w>
总 面积</w>
心 目</w>
凸 轮</w>
仅 供参考</w>
互联 网
y es</w>
v an
j av
Tur bo</w>
S ize</w>
Russ ia</w>
H ANA</w>
Europ ean</w>
神经 网络</w>
社会 党</w>
物业 管理</w>
机 上</w>
展览 馆</w>
娱乐 区</w>
奥 斯</w>
夫 长</w>
可 憎</w>
交 道</w>
we ix
ur l</w>
s ing
oot h</w>
R im
L up
Gro ve</w>
迪斯 尼</w>
荣 光</w>
等离子 体</w>
生 生</w>
二 年</w>
中 风</w>
中 东欧</w>
cl us
St ars</w>
L ig
Atlant is</w>
74 HC
阿 勒
莅 临</w>
污 泥</w>
水 箱</w>
文 士</w>
否 决</w>
借 款人</w>
产品 规格</w>
h n</w>
f i</w>
Sh ell</w>
N W</w>
Disco very</w>
青 蛙</w>
豪 宅</w>
管理 工作</w>
死 后</w>
椰 子</w>
来 往</w>
收 益
探 访</w>
希腊 人</w>
大西洋 城</w>
夏令 营</w>
埃蒂 线</w>
国 主义</w>
出 机</w>
g an</w>
c arter</w>
IN G
520 px</w>
24 .
19 32</w>
17 7</w>
1210 px</w>
限 性</w>
寄 送</w>
二 手
S ic
R ail</w>
Opt im
转 折
路易斯 安
诺 曼
访 华</w>
自然 人</w>
脱 落</w>
精 密
的 士</w>
演 绎</w>
活 泼</w>
法 索</w>
法 学院</w>
斯 卡</w>
快 步</w>
布 什
可 可</w>
全 人类</w>
al t
OO O</w>
O H</w>
De ad</w>
郑 露萍</w>
老 龄化</w>
特 式</w>
标准 件</w>
广播 电视</w>
尼 派</w>
学 年</w>
好 奇
公共 利益</w>
七 十</w>
x ml</w>
on gt
n r
m any</w>
in er</w>
ch a</w>
ag ne</w>
Youn g
Wal k</w>
Registr y</w>
N az
Bot an
2 24</w>
0 n
问题 解答</w>
酱 油</w>
脸 庞</w>
特 意</w>
朝 阳
室 温</w>
好奇 心</w>
南 通</w>
依 次</w>
价 位</w>
人 造
mod al</w>
ie u</w>
and om</w>
an z
Th erm
S und
R ich</w>
G UI</w>
Ash ley
这 般</w>
视 作</w>
能 以</w>
州 立</w>
奥 利
奇 特</w>
壮 汉</w>
凝 聚</w>
un ch</w>
ro lin
ch ang
at ia</w>
I IS</w>
G IF</w>
限 时</w>
适 量</w>
署 名</w>
无 用</w>
康斯坦 丁</w>
大 殿</w>
在生活 中</w>
博 恩
准 确度</w>
入 睡</w>
储存 室</w>
临 时
y a
il ia</w>
erp illar</w>
develop er</w>
bu ild</w>
S ai
I e</w>
预 热</w>
雄 心
运 维</w>
调 味
胜 任</w>
有 利
排 版</w>
完 工</w>
堪 培拉</w>
垃圾 桶</w>
四 围</w>
售货 机</w>
发射 器</w>
加 速器</w>
其 为</w>
中 美洲</w>
d irect
ar ium</w>
anj ing</w>
Tr us
Nov otel</w>
N IS
El l
Can al</w>
立 面</w>
用 处</w>
来得 及</w>
普 利
方 面
广播 公司</w>
巴 巴
告 别</w>
出 路</w>
偏 远</w>
偏 移</w>
侦 测</w>
个 世纪</w>
por no</w>
c ond
Sty les</w>
Russ ian</w>
Cat erpillar</w>
CA R</w>
铣 刀</w>
送 往</w>
花 香</w>
海洋 生物</w>
时 应</w>
希 洪</w>
卫生 部</w>
利 性</w>
兄弟 会</w>
伸 展</w>
优 胜</w>
p al
j ing</w>
ed om</w>
Product List</w>
Integr ated</w>
那 地</w>
粉 末
移 位</w>
石 膏</w>
清 凉</w>
时 时</w>
布 满</w>
工商 管理</w>
子 系统</w>
俄 勒
伸 进</w>
rolin ija</w>
X i</w>
V DA</w>
Sum mer</w>
Jad rolinija</w>
IT T</w>
Gr ill</w>
E arth</w>
Cong ress</w>
C ag
邀 请
解放 军</w>
荒 凉</w>
茨 瓦纳</w>
瑞典 语</w>
玛 利</w>
爆 破</w>
收 发器</w>
客 会</w>
国家 元首</w>
喷气 机</w>
卡 利亚
卡利亚 里</w>
侍 奉</w>
作 工</w>
亿 人</w>
ri an</w>
j u</w>
Sub way</w>
P ico</w>
H S
Fel ix</w>
EN G
36 6</w>
3 B</w>
跪 下</w>
节 假日</w>
网 仅</w>
租 借</w>
百万 计</w>
汉 姆</w>
旧 城区</w>
年 纪念</w>
哈利 波</w>
例行 程序</w>
何 若</w>
tre me</w>
oxic ill
an im
Wh ats
P ing
NS RE4</w>
Mess enger</w>
K C</w>
Bo b</w>
2 75</w>
看 为</w>
热 能</w>
波 音</w>
机械 手</w>
总 算</w>
国家 标准</w>
制 定
出 身</w>
全国人民 代表大会常务委员会</w>
pl an</w>
Mem orial</w>
Mag azine</w>
MA S</w>
M X
HK IAC</w>
Gey lang</w>
C ad
Amanda Alice</w>
颇 为</w>
新 浪</w>
怨 恨</w>
德 利</w>
天安门 广场</w>
令人 厌恶</w>
不可 抗力</w>
n es</w>
ens or
U X</w>
N Z
G F</w>
CE T</w>
C ell
Broad way</w>
Aug ust
18 0
1 EMF</w>
载 入</w>
点 焊机</w>
浸 信
有 效率</w>
旗 舰</w>
商务 活动</w>
双 面</w>
十 四
中 式</w>
uck land</w>
g or
ec o</w>
Har r
Fe at
ART INFO</w>
19 28</w>
马 威</w>
风 筝</w>
转折 点</w>
纪 元</w>
电源 线</w>
烹 制</w>
始终 如一</w>
合 资企业</w>
发行 版</w>
剪贴 画</w>
军事 行动</w>
交 战</w>
ing d
bl ack</w>
Por no</w>
Mon key</w>
C Y
雷 克
逊 尼派</w>
荒 野</w>
腓 特
简 而言之</w>
盆 地</w>
清 器</w>
法 罗
德 曼</w>
巴勒 莫</w>
小 姑娘</w>
两 点</w>
tou ch</w>
V al</w>
Su gar</w>
Jur ong</w>
IR L
A ur
西格 玛</w>
自 已</w>
细 心</w>
第六 条</w>
离 散</w>
演 习</w>
太 小</w>
呼 求</w>
功 率
sc ape</w>
pr int</w>
p al</w>
ou l
c y</w>
Swed en</w>
Post er</w>
M 1</w>
FO R</w>
聚 力</w>
特 色
汉 密尔顿</w>
来 得</w>
屋 内</w>
察 看</w>
家 门</w>
审 阅</w>
土木 工程</w>
信 度</w>
中央 委员会</w>
不 向</w>
es ign</w>
bro w
ar row</w>
T ier</w>
Simps on
P ow
O C</w>
Ne u
Gol den
酿 酒</w>
芭 东</w>
维 诺</w>
看 成</w>
泻 湖</w>
依 其</w>
i et</w>
hist ory</w>
S CSI</w>
Not es</w>
IM A</w>
Corpor ate</w>
Associ ation</w>
Ar k
A ub
99 00</w>
陈 梦妍</w>
聚 酯</w>
编 修</w>
百 慕
瑞 克</w>
火 狐</w>
槟 城</w>
换 言之</w>
拆 毁</w>
主 说</w>
so ftware</w>
l ast</w>
San to</w>
MOSF ET</w>
B IN
3 80
2 10
19 31</w>
1 st</w>
鲜 艳</w>
逃 生</w>
莫 斯</w>
联 手</w>
经济 性</w>
福 州</w>
盖 茨</w>
用 例</w>
润滑 脂</w>
庆 市</w>
天主 教会</w>
公安 机关</w>
公 关</w>
俄 国人</w>
会 展</w>
ab oo</w>
J ud
进 取</w>
这 城</w>
简 体</w>
现金 流</w>
波 德</w>
所 生</w>
恰 好</w>
巴尔 的
小 规模</w>
咖啡 豆</w>
作 曲
上 半
j an
Fl ower</w>
F AN
Ci udad</w>
辖 市</w>
生 化</w>
水 泥
残 余</w>
无 花
控制 技术</w>
批 评
店 里</w>
奴隶 制</w>
城市 规划</w>
临 界</w>
per ial</w>
Tol iary</w>
N ode</w>
N avigation</w>
L az
I G</w>
Ed itor</w>
C ri
B eck
里 拉</w>
近 来</w>
法罗 群岛</w>
曲 目</w>
族 长</w>
断 裂</w>
尼 尔森</w>
密 西西
图 层</w>
刻 意</w>
p in</w>
on se</w>
n am
l ab</w>
SCH OOL</w>
O L</w>
Ja oer</w>
B ill
25 7</w>
预测 性</w>
至 此</w>
脱 机</w>
离 不开</w>
神 所</w>
滤 清器</w>
比 里亚</w>
大 革命</w>
哥 特式</w>
可 笑</w>
不 曾</w>
aw ang</w>
R ach
N AT
L Q</w>
F lex</w>
Exp o</w>
阿伯 丁</w>
觉 知</w>
温度 控制</w>
法 典</w>
时 要</w>
戴 恩</w>
忠 心</w>
广 岛</w>
哥 大</w>
三 日</w>
wor th</w>
远 见</w>
走 来</w>
蚊 子</w>
艾 哈
耶 鲁</w>
绿 化</w>
巴勒斯坦 人</w>
小 径</w>
基 克</w>
及 熨板</w>
六 章</w>
人民 党</w>
ri k</w>
l an
T D</w>
Simpson N</w>
P ont
Lisa SimpsonN</w>
BT B
Ar ch</w>
Activ e
30319.34 274</w>
2 21</w>
马 桶</w>
马 格里
雪 茄</w>
获 知</w>
缤 纷</w>
盘 子</w>
欲 火</w>
扶 持</w>
我 們</w>
弱 势</w>
各个 领域</w>
口 感</w>
口 令</w>
华盛顿 邮报</w>
u u</w>
stra at</w>
s en
naught y
f eng</w>
co l</w>
ch eng</w>
S am</w>
RA L</w>
Mig uel</w>
J ourn
C ath
B rid
Ask aig</w>
顾 虑</w>
青 春
避 难
虚 构</w>
菲 斯</w>
自 来
胞 胎</w>
老 子</w>
社会 化</w>
时 事</w>
敲 门
数据 文件</w>
插 花</w>
拉 尼</w>
恐怖 袭击</w>
屏 障</w>
W ire</w>
Vers ion</w>
V GA</w>
R ic
Pr ic
Pe ople</w>
Arch itect
飞 鸟</w>
近 几
轻 便</w>
起 源于</w>
财 经</w>
自动 更新</w>
略 微</w>
温 德
流 程
柯 林斯</w>
招 牌</w>
房 主</w>
农 作物</w>
关 机</w>
人 以</w>
中 美
it as</w>
col l
Pr at
Fav or
D OS</w>
B TA
闪 亮</w>
胡 椒</w>
瓦 斯</w>
来 宾</w>
指 纹
手 边</w>
伊 朗
交 所</w>
sh ar
enz o</w>
Z H
Pro perty</w>
Prec ious
K om
19 25</w>
附 上</w>
身 下</w>
甘 心</w>
比 锡</w>
格 达</w>
有 助</w>
接触 器</w>
恶 性
微 调</w>
年 末</w>
六合 彩</w>
个人 化</w>
n s
j u
L itt
G od
顶 点</w>
这 下</w>
贯 彻</w>
纽 黑文</w>
示 威
持 卡人</w>
必 达</w>
寝 具</w>
哈 德
取得 胜利</w>
几 何
低 音</w>
专 题
不 以</w>
st and
m ar</w>
in gt
im edia</w>
d oc</w>
R ica</w>
Mal aysia</w>
M 3</w>
L att
H EL
Car d
17 00</w>
闪 耀</w>
艾 尔
纲 领</w>
粉 红</w>
私 人
溃 疡</w>
沿 线</w>
新 兴
希 律</w>
婴 幼儿</w>
名 牌</w>
吉布 提</w>
各 不相同</w>
分 行</w>
再 也
w a
n umber</w>
T OR
Sn ap
H in</w>
G ed
CD 4
贵 重</w>
芭 蕾
禁 忌</w>
直 辖市</w>
少 许</w>
女 性
处理 厂</w>
垫 圈</w>
号 楼</w>
几 岁</w>
共和 国
人 称</w>
Tec h
P om
B omb
11 17
银行 家</w>
药 店</w>
福 克
益 智</w>
流 传</w>
次 要</w>
果 酱</w>
景 区</w>
无 害</w>
数 分钟</w>
心理 学家</w>
定 单</w>
列 宁
三 项</w>
v on</w>
sk o</w>
new show</w>
fol io</w>
Jess ie</w>
Conn or</w>
Bruss els</w>
B right
29 8</w>
24 4</w>
防 腐
重 试</w>
补 助</w>
脚 步
脚步 声</w>
维 京群岛</w>
物 价</w>
漏 斗</w>
标 定</w>
新加 坡
建筑 业</w>
平 价</w>
尼 基</w>
君 士
动作 游戏</w>
什 维克</w>
产业 链</w>
乙 肝</w>
不知 所
下 图</w>
as p
ann y</w>
ac ter
Se ag
非 法
誉 为</w>
胸 脯</w>
联 轴
纸 浆</w>
竭 尽全力</w>
收 割机</w>
捉 住</w>
尘 土</w>
圣诞 树</w>
因 于</w>
史 上</w>
受 托人</w>
十五 日</w>
制 动器</w>
中 级</w>
Tai pe
TRAN SIST
Soc i
Sim on</w>
SP S</w>
S ult
K ER</w>
A uckland</w>
5 92</w>
高 举</w>
虚 弱</w>
腓特 烈</w>
木 板</w>
智 选</w>
培训 班</w>
嘉 理
us es</w>
on iss
S ell
Re f</w>
Provis ioning</w>
Precious Ail
PreciousAil yn</w>
P ir
P ass</w>
Local ita</w>
Khal ifa</w>
赎 回</w>
罗 姆
杂货 店</w>
星 座</w>
拉 线</w>
坚 果</w>
东 区</w>
k s
is ing</w>
ap h</w>
Sc ala</w>
O ber
黄 昏</w>
马格里 布</w>
莱 比锡</w>
核 算</w>
早 点</w>
挤 出机</w>
感 到
总的 来说</w>
局 限性</w>
不 佳</w>
一 战</w>
p ing
p ast</w>
n an</w>
el son</w>
bl ock</w>
Y an
Nay ra
ED I</w>
E OS</w>
门 市</w>
金 莲</w>
美 分</w>
热 衷
淡淡 的</w>
密歇 根</w>
完全 相同</w>
君士 坦
乙 醇</w>
k at
f amily</w>
ch an</w>
ab ad</w>
Wil son</w>
Post s</w>
Or ange</w>
Dou gl
Bel gi
8. 00</w>
驱 车</w>
锂 电池</w>
轻 质</w>
糖 浆</w>
湿 地</w>
承 办</w>
德克 萨斯</w>
学 校
历 经</w>
作曲 家</w>
x naughty
xnaughty girls</w>
u ally</w>
as te</w>
Pro cess</w>
Kam illaKiss</w>
Au to</w>
7 01</w>
0 31</w>
财政 政策</w>
诺 贝尔</w>
线 材</w>
生 存
独 裁</w>
标 的
极 低</w>
本 章</w>
投 机</w>
彗 星</w>
国民 经济</w>
吟 声</w>
争 辩</w>
vir on
ure d</w>
s un</w>
jah ong</w>
K il
Gr en
Gr ac
FL V</w>
E ric</w>
马 士
进 一步
进一步 提高</w>
身体 健康</w>
踏 板</w>
沙 丘</w>
横 渡</w>
杀 菌</w>
旺 斯</w>
或 据</w>
巴巴 多斯</w>
场 上</w>
传 记</w>
专 项</w>
一 幢</w>
Tub e
R af
Ph ra</w>
M ill</w>
H ud
FS X</w>
50 5</w>
2 23</w>
19 05</w>
雄 伟</w>
长 滩</w>
重 金属</w>
股 息</w>
疼 爱</w>
界 线</w>
生 殖</w>
牙 医</w>
熟 知</w>
汤 匙</w>
日 用品</w>
打 了个</w>
平 凡</w>
合作 社</w>
叹 息</w>
个 字符</w>
os sa</w>
news details</w>
Sp y
Rent als</w>
Nayra Muslim</w>
Ar m
19 26</w>
胎 儿</w>
理 应</w>
王 位</w>
牢 记</w>
格林 豪</w>
所 致</w>
工业 园</w>
叠 加</w>
利 益
f ull</w>
S z
Deut sch
25 9</w>
西 尔</w>
第一 年</w>
权 势</w>
时 不时</w>
方面 面</w>
方 方面面</w>
市场 调研</w>
客户 机</w>
参 谋
净 值</w>
依法 追究</w>
余 地</w>
互 相
上 台</w>
Wild s</w>
Ov erview</w>
O 2</w>
AG E</w>
音乐 学院</w>
闻 名
贝 巴</w>
调 和</w>
笑 笑</w>
正 则
正则 表达式</w>
普 查</w>
斯 泰
抵 押
国 产</w>
动 态
不可 分割</w>
ut a</w>
right s</w>
end o</w>
be i</w>
W oo
Sun set</w>
P y
Met rop
AM P</w>
AD M
A E</w>
4 10</w>
觉 悟</w>
行业 协会</w>
行 销</w>
数 月</w>
拒绝 接受</w>
展 馆</w>
寄 生
厄 立
冷却 系统</w>
休息 厅</w>
人民 共和国
交 存</w>
中 来</w>
两 腿</w>
上 时</w>
x ia
is al
ip se</w>
iana Bonnet</w>
e za</w>
cl ick</w>
ad min
XX X
Sol id</w>
M IC
Luc ianaBonnet</w>
IM O</w>
F ish</w>
AD A</w>
6 30</w>
3 500</w>
26 .
难 看</w>
贿 赂</w>
调 动</w>
真 菌</w>
招待 所</w>
所 造</w>
总 书记</w>
十 分之一</w>
减 免</w>
具 特色</w>
上 文</w>
us s</w>
W it
Selena Marie</w>
K im</w>
Ch ina
4 40</w>
4 30</w>
防 护
赞 比亚</w>
订 货</w>
装 卸</w>
笑 意</w>
捂 住</w>
悲 惨</w>
并不 知道</w>
厄立 特里亚</w>
n ey
ion es</w>
Verm eer</w>
IS P</w>
6 20</w>
2 37</w>
迪 瓦</w>
相 继</w>
犯 人</w>
流 速</w>
提出 申请</w>
彭 特兰</w>
底 线</w>
对 流</w>
嫌疑 人</w>
哈 特</w>
亚速 尔群岛</w>
il ian
g s</w>
T owers</w>
P OS</w>
L ing
钻 探</w>
筵 席</w>
竞争 者</w>
池 畔</w>
标的 物</w>
摄影 机</w>
成 圣</w>
失 衡</w>
基 站</w>
另 类</w>
参 赛
募 集</w>
公共 政策</w>
中华 人民共和国
s um
ic ial</w>
ear ch
Mans ion</w>
0 1
随身 携带</w>
铃 声</w>
身 分</w>
设计 者</w>
计 时器</w>
英 式</w>
神 在</w>
看 重</w>
猜 想</w>
星 光</w>
奥 迪</w>
大 屏幕</w>
塔 纳</w>
分 量</w>
出 声</w>
写 成</w>
全 体
入 量</w>
仪器 设备</w>
人体 工学</w>
t el
Rid ge</w>
Princ ess</w>
N L</w>
M en</w>
Han oi</w>
H ai
E 3</w>
Dou ble
D K</w>
28 8</w>
里 头</w>
角 落
袜 子</w>
舞 厅</w>
缝 纫
玛 拿
模 具
新 华
安德 鲁</w>
安 德</w>
圆 柱
十九 世纪</w>
以 北</w>
中 山
n on</w>
ag r
W is
No v</w>
16 9
魁北 克</w>
铅 笔</w>
社会 民主党</w>
斯亚 贝巴</w>
市场 推广</w>
天津 市</w>
医疗 机构</w>
休 假</w>
人 次</w>
亚 人</w>
不知所 措</w>
go ing</w>
Tr ad
Reb ec
R ivers
J os</w>
Des k</w>
26 5</w>
19 12</w>
装 扮</w>
管 线</w>
盖 思</w>
毕 马威</w>
拜 占
意 念</w>
并非 如此</w>
利 比里亚</w>
光 头</w>
两 款</w>
x y</w>
und s</w>
ire d</w>
Z E</w>
T av
Dir ty
Bl ond
4. 9</w>
顶 楼</w>
雅 典
酵 母</w>
职 人员</w>
新 喀里多尼亚</w>
敌 对</w>
放 着</w>
打 交道</w>
强烈 推荐</w>
巩 强</w>
小 游戏</w>
家 务</w>
审 慎</w>
塔 利
取 悦</w>
卢 兹</w>
作 弊</w>
会 籍</w>
亚 德</w>
ow a</w>
X er
O T</w>
D N</w>
Custom er</w>
B F</w>
Auth ority</w>
零 配件</w>
诺 瓦</w>
观察 员</w>
树 叶</w>
有害 物质</w>
政治 权利</w>
抚 养</w>
克里 米亚</w>
交 在</w>
p uss
Sc rip
Portug al</w>
L un
Destiny Wilds</w>
需 品</w>
里 德</w>
配 销</w>
自动 售货机</w>
经济 社会</w>
的 斯亚贝巴</w>
热衷 于</w>
渥 太
始终 保持</w>
大 學</w>
塔利 班</w>
公 证</w>
产 值</w>
亚 的斯亚贝巴</w>
ut h</w>
t ool</w>
op t
k f
an al
Qu ay</w>
Qu ant
Por sche</w>
P up
Miss iss
M V
L B</w>
Gol d
Al ys
5 40</w>
黑 洞</w>
陕 西</w>
设计 方案</w>
芬 兰人</w>
节 约
盟 军</w>
构 筑</w>
拔 出来</w>
慈善 机构</w>
小 腹</w>
声 学</w>
图 卢兹</w>
博 茨瓦纳</w>
分 娩</w>
内 蒙古</w>
一 丝
t s
st ad
S ard
K K</w>
高 涨</w>
阅 览</w>
货 运
议 论</w>
统计 分析</w>
组 中</w>
等 国</w>
竞 技</w>
电子 元件</w>
数以 百万计</w>
布兰 卡</w>
呕 吐</w>
只 用</w>
em b
L ow</w>
L om
Cas c
CD S</w>
50 2</w>
高 可靠性</w>
阿尔 伯特</w>
辨 认</w>
车 削</w>
稍 稍</w>
父 神</w>
火 炬</w>
派 别</w>
欧洲 议会</w>
控 告</w>
捷克 斯洛伐克</w>
拉 发</w>
培 养
卫生 保健</w>
切 尼</w>
d b
M F</w>
L ady
B Y
Apartam ento</w>
腹 泻</w>
翠 翠</w>
瘫 痪</w>
用户 组</w>
检 讨</w>
新 政府</w>
效 率高</w>
托 斯</w>
变 迁</w>
北 路</w>
体 面</w>
仿 古</w>
人 机
p ay</w>
N ex
H it
Cle ar
B ild</w>
麦 隆</w>
麦 芽</w>
论 证</w>
斯 汀</w>
护 者</w>
多 向</w>
亲 王</w>
亚 述
ur ance</w>
ud i</w>
es as</w>
Y u</w>
N R
Master Card</w>
Ital ian
Indon esia</w>
Gl ob
C isco</w>
防 御
这 节</w>
调查 结果</w>
表 壳</w>
王 府
武装 部队</w>
根本 性</w>
收 获
安全 感</w>
变 色</w>
制定 者</w>
关 注
伊 犁</w>
万 格</w>
inj iang</w>
in ation</w>
Serv iced</w>
Ro m</w>
Open Stack</w>
Mid town</w>
I s</w>
EN D
CH INA</w>
AD E</w>
98 10</w>
4 u</w>
高度 重视</w>
障 碍
闸 门</w>
镀 金</w>
量 子
起 动</w>
质量 体系</w>
表演 艺术</w>
空 格</w>
明尼 苏
急 于</w>
帕尔 马斯</w>
定 为</w>
圣 佩德罗</w>
三 间</w>
azz o</w>
S ense</w>
IT S</w>
H ai</w>
C able</w>
诺曼 底</w>
管理 程序</w>
第三 位</w>
泰 铢</w>
橡 木</w>
机 体</w>
建筑 面积</w>
富 翁</w>
实习 生</w>
国际 局</w>
叛 乱</w>
十 多年</w>
t est
he t
Tr av
P U</w>
Cant on
3 25</w>
阿 兰</w>
贷 款人</w>
语 文</w>
西 区</w>
电 位</w>
昏 迷</w>
既 定</w>
拳 头</w>
拉 泽斯</w>
微 一笑</w>
工业 园区</w>
女 装</w>
奥 利</w>
坚 守</w>
冯 母</w>
meg an
m s
fl ow</w>
end a</w>
ar ea</w>
St r</w>
H ER
CL AR
2 13</w>
钻石 戒指</w>
表 征</w>
绅 士</w>
第二 种</w>
电 信
燃料 电池</w>
民 生</w>
方 格</w>
新 南
并 入</w>
卷 入</w>
化 身</w>
包 厢</w>
信息 港</w>
伽 利
亲 热</w>
不 通</w>
万 平方米</w>
x u
uk ul
j un
Sav antic</w>
B O</w>
3 75</w>
隐 患</w>
道 夫</w>
造 出</w>
迁 徙</w>
落 在</w>
第七 章</w>
猪 肉</w>
烹 调</w>
汲 取</w>
江 南</w>
时 尚
无 耻</w>
斯塔 万格</w>
拆 分</w>
微 微一笑</w>
平 安
家庭 经营</w>
奉 行</w>
固定 式</w>
南 极</w>
写 出</w>
保 密性</w>
人 行
ap se</w>
act or</w>
H ur
Giov anni</w>
F it</w>
En joy</w>
饱 受</w>
藏 室</w>
牵 引</w>
炫 耀</w>
敌 意</w>
换 成</w>
成 交</w>
悖 逆</w>
家 门口</w>
奶 粉</w>
奥尔 森</w>
四 十年</w>
品 位</w>
co ul
ap t
Vo IP</w>
Rivers ide</w>
Lov ely
IP C</w>
De ath</w>
Amaz 0n
Amaz0n ka</w>
1920x 1080</w>
门 铃</w>
药 房</w>
流程 图</w>
暑 期</w>
所 受</w>
孟 加拉</w>
外 包</w>
基 列</w>
回收 站</w>
即 时
os h</w>
T eb
Sy m
S uc
Pat rick</w>
MA IL</w>
G TX</w>
购买 力</w>
第四 条</w>
淡 水
拨 号</w>
奥林匹 亚</w>
St e</w>
N F</w>
N D</w>
M is
H ack</w>
Fin land</w>
ES A</w>
AN CE</w>
高 亮</w>
瞎 子</w>
用户 手册</w>
水 源</w>
板 卡</w>
庄 睿</w>
咳 嗽</w>
卵 巢
先 决
信息 管理</w>
东 南
一 览
s port</w>
megan e1</w>
in ews</w>
he m</w>
V v
T ool</w>
Sof ia</w>
Rem ote</w>
Pri m
P ad</w>
Nord este</w>
F D</w>
者 之间</w>
砍 刀</w>
犯 了
摇 晃</w>
德 福</w>
弹 性
宏 大</w>
况 且</w>
全国人民 代表大会</w>
专业 技能</w>
不自 禁</w>
ib r
A 4</w>
36 0
19 15</w>
随 附</w>
闲 适</w>
那 有</w>
硅 橡胶</w>
常 态</w>
小 吃
富 兰
宾 斯基</w>
发 到</w>
前 一天</w>
下 意识</w>
一 万
end orf</w>
U K
ST RE
Maj estic</w>
AU TO
责任 感</w>
藐 视</w>
莱 尔</w>
苏 珊</w>
联轴 器</w>
罗 德
版权 保护</w>
滋 润</w>
森 州</w>
放 映</w>
改革 开放</w>
录 音
度 量</w>
工业 革命</w>
基 板</w>
保持 一致</w>
什 幺</w>
之 名</w>
j in</w>
ic o
W ise</w>
Us er
SC H</w>
S ix</w>
E E
Ba an</w>
3 70</w>
走 势</w>
词 句</w>
网 友</w>
统计 学</w>
第一 台</w>
移 至</w>
机 柜</w>
攀 登</w>
撒 上</w>
振 奋</w>
承 运</w>
所 长</w>
其 间</w>
以 求</w>
ou ssa</w>
n os</w>
n ea</w>
am oxicill
S UN
Pep py</w>
L im</w>
Bella Peppy</w>
AM IRA</w>
9 25</w>
践 踏</w>
试 样</w>
维 特</w>
癌 细胞</w>
烘 烤</w>
核 电</w>
新 宿</w>
屈 服</w>
回 想</w>
售 价</w>
冠 冕</w>
先决 条件</w>
交换 器</w>
in us</w>
ab as</w>
Vir us</w>
BUR G</w>
硫 酸
沥 青</w>
汉 斯</w>
斯科 特</w>
掌 管</w>
拉 诺</w>
品 酒</w>
加 固</w>
争 斗</w>
不 耐
or ig
mir and
arch iv</w>
ag ari</w>
V IN
Rat ch
特 产</w>
海 浪</w>
洛 桑</w>
显 着</w>
抽 出来</w>
屋 子里</w>
堆 叠</w>
圆 满
嘉理 盖思</w>
wat ch</w>
int ed</w>
iel le</w>
a udio</w>
UC 18
Prosp ekt</w>
Found ation</w>
Des ert</w>
AM26LS 31
阿 雷
考 核</w>
第十 三条</w>
稳 步</w>
海 量</w>
曼 帝国</w>
敏感 数据</w>
拉 迪
年龄 段</w>
容 许</w>
奥斯 曼帝国</w>
四 川
哥伦比亚 大学</w>
六 西格玛</w>
公司 总部</w>
r ac
mys ql</w>
Son ia</w>
Se a
Mon ey</w>
Jo b</w>
6. 9</w>
12 6
里 根</w>
配 给</w>
避难 所</w>
西 奥</w>
滑雪 场</w>
涂 覆</w>
时 区</w>
接 受
总 能</w>
思 索</w>
忧 愁</w>
帕 劳</w>
导 性</w>
困 苦</w>
中 所</w>
v ed
n g
mirand amiller</w>
ath an</w>
P er</w>
M OS</w>
K ai
F ern
D HC
C ind
19 22</w>
19 21</w>
马 哈</w>
饮食 习惯</w>
软 化</w>
诗 丽
第一 届</w>
深 刻
收益 率</w>
推 向</w>
拉 比</w>
屡 获</w>
导 航
导 率</w>
家 禽</w>
售 票
同 业</w>
j in
e jo</w>
di ffer
SA T</w>
Ren esas</w>
阻 塞</w>
阳光 明媚</w>
退休 金</w>
让 你
皈 依</w>
电子 市场</w>
法属 波利尼西亚</w>
富兰 克林</w>
埃 菲尔铁塔</w>
喀 麦隆</w>
号 召</w>
变 频</w>
午 茶</w>
加 元</w>
w p</w>
is ab
br and
SE T</w>
M am
H. 264</w>
C G</w>
AS F</w>
AP A</w>
酰 胺</w>
自然 科学</w>
涂 鸦</w>
沈 珊珊</w>
权 威
收 起</w>
披 萨</w>
关键 作用</w>
保 有</w>
两 端</w>
x kar
xkar alev
xkaralev ax</w>
wh ite</w>
p ower</w>
it a
id el
enz e</w>
d iv
al ina</w>
V ik
S IP</w>
R PG</w>
D J
B J</w>
Amer ic
神经 系统</w>
电 荷</w>
班 级</w>
流 明</w>
时 效</w>
帝 汶</w>
取 回</w>
光 亮</w>
会 员国</w>
乙 型肝炎</w>
ys is</w>
inst all</w>
be en</w>
Ne ed</w>
Fe edback</w>
40 2</w>
高 峰
隐 形
陈 生</w>
这 要</w>
转 机</w>
被 选为</w>
蒙 顿</w>
梅 瑟</w>
普罗 旺斯</w>
惊 醒</w>
博 尔
为 一体</w>
两 类</w>
一 团</w>
t able</w>
m ill</w>
ij i</w>
con c
Work space</w>
UR I</w>
Simpl ified</w>
S H</w>
N anjing</w>
Happ y
F CC</w>
1 R</w>
身 躯</w>
角落 里</w>
湖 景</w>
油 田</w>
摄 入量</w>
大 熊猫</w>
分 拣</w>
共 建</w>
举 例</w>
丽 莎</w>
下 午茶</w>
uc ks</w>
PRO DUC
CD 40
99 30</w>
26 3</w>
陈 平</w>
问 责</w>
这 为</w>
超 强</w>
蕾 丝</w>
生 平</w>
概 不</w>
智能 家居</w>
差 异化</w>
堆 积</w>
和 尚</w>
台 风</w>
先 令</w>
乳 胶</w>
三 级</w>
show topic</w>
aj a</w>
E cl
静 静</w>
随 机
花 钱</w>
第三 届</w>
短 短
流 产</w>
气 溶胶</w>
未 获</w>
普通 人</w>
数据 流</w>
屈 一指</w>
尼 克斯</w>
多 佛</w>
协 同
凯 宾斯基</w>
内衣 裤</w>
兼 具</w>
ri er</w>
UB ER</w>
News Detail</w>
Mark ets</w>
Bundes archiv</w>
4 60</w>
首 屈一指</w>
自然 界</w>
耻 辱</w>
耐 腐蚀</w>
科罗拉多 州</w>
私有 化</w>
电 器
班 加
点 胶</w>
波 哥大</w>
探 针</w>
小 男孩</w>
密歇 根
外 籍</w>
受 邀</w>
千 禧</w>
凯 旋</w>
信用 证</w>
义 乌</w>
中 子</w>
不 利于</w>
ha 699</w>
che ck
W LAN</w>
Trus ha699</w>
Pro men
Gu ard
4 76</w>
萨 洛
第二 百</w>
社会 学</w>
礼 拜
染色 体</w>
普 通话</w>
彩 色
峡 湾</w>
啤 酒厂</w>
口 径</w>
冲 击
共同 利益</w>
x in</w>
it ions</w>
Orig inal</w>
J ane</w>
E lis
马恩 岛</w>
隆 卿</w>
罗 宾
窒 息</w>
空 虚</w>
省 长</w>
求 职</w>
本 体</w>
布 基
富 豪</w>
圣马 可</w>
圣 胡安</w>
国 庆
回 忆
周 年纪念</w>
创 作者</w>
出 头</w>
再 用</w>
从业 人员</w>
亚 比
ef f</w>
SS H</w>
Ev e</w>
CD 54
Ar th
442 80</w>
38 44280</w>
马士 革</w>
转 录</w>
航 班
胡 萝卜</w>
星 辰</w>
开 机</w>
尿 液</w>
大 马士革</w>
写 明</w>
例 行</w>
争 吵</w>
主 观</w>
y on</w>
orn y</w>
l ic
V I
Tras med
Sk inos</w>
SM D</w>
Q inin</w>
IT H</w>
D irect</w>
Contin ental</w>
37 3</w>
3 10
2 100</w>
遗传 学</w>
譬 如</w>
精 机</w>
特 制</w>
有 意识</w>
执 着</w>
康 明
希 舍姆</w>
巴尔的 摩</w>
大 面积</w>
土 地
但 愿</w>
伯 纳
事 态</w>
ud o</w>
t ek</w>
SD I</w>
G IC</w>
Elect ric</w>
DS P</w>
Connect ivity</w>
60 9</w>
19 10</w>
男 女
概 念
无 助</w>
收获 机</w>
基 层</w>
动 词</w>
修 饰</w>
两 岸</w>
p ool</w>
c ion</w>
az ione</w>
Tom Tom</w>
Th al
Carb ide</w>
A ID
40 5</w>
赛 马
记 号</w>
舆 论</w>
考 古
科 特
神 学院</w>
滑 水</w>
流 域</w>
无 所谓</w>
捕 鱼
埃德 蒙顿</w>
双 胞胎</w>
九 年</w>
不 朽</w>
or k
au d</w>
Val id
Shar e
Out door</w>
米 尔
普 斯</w>
旅游 胜地</w>
建 立
安提 瓜</w>
地 里</w>
几 时</w>
ep age</w>
Z ur
L IN</w>
Int ent</w>
Ha us</w>
西 北部</w>
涌 入</w>
沙 尔</w>
每 股</w>
检 测器</w>
杰 斯</w>
易 用性</w>
方 说</w>
批 次</w>
声 道</w>
卡 洛斯</w>
传 扬</w>
专门 从事</w>
L AND</w>
G en</w>
El va</w>
Clement i</w>
6 N
50727.54 66</w>
金 矿</w>
要 不然</w>
甲 米</w>
玛 雅</w>
独 具</w>
温 德</w>
比 方说</w>
格林纳 达</w>
富 士</w>
完 后</w>
奇 事</w>
台 面</w>
可 悲</w>
世界 贸易组织</w>
av ing</w>
Sh y</w>
Ma il
M urr
M ent
H at
D an</w>
Cont act
Ac ropolis</w>
自来 水</w>
科西 嘉
破 损</w>
椰 子
强 国</w>
大大 提高</w>
夏 洛特</w>
境 地</w>
圣 战</w>
亮 光</w>
tat ian
oll ow</w>
ec a</w>
e ong
all a</w>
T ool
E co</w>
3 33</w>
马 斯
领 悟</w>
长 江</w>
逼 近</w>
赔 率</w>
美容 院</w>
美 味
组 译</w>
瓦 特</w>
版本 号</w>
清 爽</w>
方向 盘</w>
所罗门 群岛</w>
发 车</w>
d ep
U F
SN74ACT 245
J AP
Intell ig
霉 菌</w>
阵 容</w>
超 时</w>
米 洛斯</w>
科 克</w>
相 近</w>
浴 巾</w>
泰 姬
收 费
探 究</w>
快 车</w>
必 需品</w>
尼 布
博恩 霍尔</w>
博 利</w>
[...]
