#version: 0.2
t h
i n
a n
th e</w>
e r
t i
r e
t e
o n
e n
a r
an d</w>
o r
o u
o n</w>
o f</w>
in g</w>
t o</w>
r o
i t
a l
i n</w>
e s</w>
e r</w>
o r</w>
s t
i c
i s</w>
e d</w>
a c
e s
i l
a t
a ti
q u
o m
a s
o s
a p
a l</w>
a t</w>
i s
e l
e c
a n</w>
o t
a s</w>
u r
p l
u s
o l
r i
o u</w>
ati on</w>
a g
p ro
a m
y ou</w>
f or</w>
v e</w>
te d</w>
a b
qu ot
quot ;</w>
& quot;</w>
en t</w>
d e
d i
l o
t s</w>
c h
w h
s i
c on
e n</w>
ou r</w>
l e</w>
n o
ap os
l y</w>
& apos
i t</w>
it h</w>
a d
l i
u n
th at</w>
t r
w ith</w>
s h
v i
c om
er s</w>
u c
&apos ;
l e
ar e</w>
m a
e t</w>
c e</w>
e x
f or
re s
g h
ti on</w>
te r</w>
it y</w>
on s</w>
p er
e t
e m
u l
o o
v er
h a
al l</w>
ou n
th is</w>
i r
h o
t er
ro m</w>
b e</w>
i m
t a
f rom</w>
f f
y our</w>
at e</w>
a y</w>
th e
a r</w>
n e
no t</w>
p or
o w
o p
b y</w>
w or
an y</w>
ag e</w>
b u
er e</w>
w as</w>
h e</w>
s u
&apos; s</w>
er v
c l
th er</w>
b e
C h
ou t</w>
m ent</w>
r a
es s</w>
s e
p ar
ab le</w>
h i
a v
I n
d e</w>
ic e</w>
m o
d uc
il l</w>
p e
ur e</w>
an t</w>
d s</w>
in g
m e</w>
st r
c o
ti c
w e</w>
l d</w>
c an</w>
2 0
te s</w>
or e</w>
ha ve</w>
ou r
on e</w>
h e
in e</w>
an g
d ing</w>
for m
w ill</w>
gh t</w>
it e</w>
k e</w>
k ing</w>
u m
a i
re qu
s o</w>
c i
w e
te n
on al</w>
s erv
te l</w>
s p
l a
es t</w>
i g
us e</w>
a d</w>
u t
v er</w>
ac c
en ts</w>
m e
an ce</w>
t h</w>
d o
a y
n i
g i
t o
p r
en t
u s</w>
o ther</w>
g r
ti ons</w>
re c
s e</w>
c h</w>
as e</w>
e st
bu t</w>
te l
re e</w>
ati ons</w>
am e</w>
m ore</w>
w i
a ted</w>
e v
d o</w>
& #
ar d</w>
d er</w>
a il
e w</w>
o ff
i c</w>
h as</w>
h is</w>
f ac
i f</w>
s te
s t</w>
ti es</w>
it s</w>
a f
ic es</w>
H o
c re
d is
i es</w>
e l</w>
m in
p os
om e</w>
ic h</w>
pl e</w>
con t
U R
ou ld</w>
al ly</w>
form ation</w>
es ted</w>
pro duc
e p
com p
an d
oun d</w>
es s
on g</w>
g h</w>
S t
re s</w>
re d</w>
in ter
i r</w>
s o
en ce</w>
u p
re n
ec t</w>
e ar
f er
requ ested</w>
i d
wh ich</w>
the y</w>
m ar
as t</w>
ti me</w>
i z
wh at</w>
20 1
lo w
r ou
ho w</w>
h er</w>
t y</w>
uc h</w>
es e</w>
il e</w>
t ing</w>
k s</w>
v is
UR L</w>
d es
g e</w>
us t</w>
r y</w>
pro vi
&# 9
lo c
s el
ar y</w>
d er
u e</w>
f e
p h
d ed</w>
por t
ab out</w>
por t</w>
p res
u b
am p
b o
Ho tel</w>
an s
pl e
s ite</w>
in formation</w>
f in
as s
os t</w>
o g
no w</w>
al so</w>
il ity</w>
cl u
u p</w>
the ir</w>
or s</w>
o m</w>
si on</w>
com m
C on
al l
f i
t u
ou s</w>
l is
g o
th ere</w>
t w
b er</w>
tel s</w>
m an
wh en</w>
p re
A n
u st
k e
ver y</w>
v el
sh e</w>
m s</w>
m y</w>
i p
ing s</w>
em ent</w>
ati onal</w>
o c
Ch in
0 0</w>
s y
av ail
g u
w ay</w>
oo d</w>
in clu
ac e</w>
ic al</w>
os e</w>
a in
b le</w>
a m</w>
a u
ow n</w>
k et</w>
s uch</w>
s ec
P ro
n o</w>
ac h</w>
p o
&apos; t</w>
ac h
i a</w>
wi th
wor k</w>
T he</w>
t ur
o b
ne w</w>
ma y</w>
ac k</w>
ad e</w>
ri v
u m</w>
or y</w>
en er
y p
1 9
in d
a in</w>
f ir
o d</w>
ro om</w>
o s</w>
R e
w el
U ni
il l
a re
ay s</w>
al s</w>
c oun
b r
ang e</w>
b oo
k ed</w>
an c
m at
at ing</w>
e d
ha d</w>
ec i
en ti
C om
f u
at a</w>
l ine</w>
is e</w>
ma p</w>
d ay</w>
g re
ab ility</w>
en g
ai d</w>
h el
vi ew</w>
ho tels</w>
w s</w>
&apos ;</w>
ti ve</w>
su p
en c
m on
t ri
c ol
ap pl
ten t</w>
s ol
im port
ow n
the m</w>
on ly</w>
ag es</w>
sy ste
amp ;</w>
& amp;</w>
ac t</w>
b ec
th ese</w>
ta il
wh o</w>
f r
ol og
a tes</w>
i ties</w>
en d</w>
ple ase</w>
lo o
be en</w>
m il
hi m</w>
I N
per s
m ost</w>
th er
f l
i l</w>
. co
a te
c ri
us ed</w>
import ant</w>
ri ght</w>
in to</w>
o ple</w>
E n
g et</w>
ic ation</w>
k i
f t</w>
o w</w>
f ree</w>
is t</w>
th rou
d el
pro c
de tail
n ing</w>
.co m</w>
se e</w>
P ar
w ere</w>
us in
o ver</w>
e i
Chin a</w>
ar i
ter n
u d
a k
par t
s aid</w>
A r
S erv
avail able</w>
as p
ol d</w>
i on</w>
te c
i d</w>
ig n</w>
di a</w>
tr ans
c er
pl i
th en</w>
ho tel</w>
ac k
su b
el l
th ing</w>
serv ices</w>
1 2
w a
d ata</w>
li ke</w>
en d
en tr
per i
m ents</w>
pe ople</w>
数 据
s ti
serv ice</w>
er i
数据 表</w>
te m
al ity</w>
th an</w>
P age</w>
0 .
res p
fu l</w>
m any</w>
sh all</w>
de vel
l and</w>
wor ld</w>
D at
est s</w>
j o
p ol
usin ess</w>
A l
b et
m i
c ur
o f
en s
he et</w>
sp eci
st s</w>
3 ;</w>
&#9 3;</w>
te ch
f ound</w>
olog y</w>
as heet</w>
detail s</w>
Dat asheet</w>
A N
S h
v es</w>
1 ;</w>
&#9 1;</w>
asp x</w>
j ust</w>
ic k</w>
fer ry</w>
t yp
W i
f ul
v en
fir st</w>
an s</w>
l in
ar t</w>
af ter</w>
M ar
s ur
u res</w>
w ould</w>
ti c</w>
our s</w>
s ome</w>
t ure</w>
lo w</w>
ti m
s c
n ed</w>
. .</w>
E x
f ol
v al
. aspx</w>
oo l</w>
V i
om s</w>
v ing</w>
搜 索</w>
a ir
wh ere</w>
详 细
ro w
inclu ding</w>
详细 搜索</w>
devel op
S p
b el
on g
b i
f e</w>
throu gh</w>
k m</w>
for m</w>
wel l</w>
W e
ma ke</w>
w ant</w>
b as
d on</w>
boo k</w>
U S
e ach</w>
m an</w>
res s</w>
n ec
ow er</w>
20 0
h ere</w>
ta in
off ers</w>
syste m</w>
p s</w>
t ly</w>
ch ange</w>
l ar
c ust
g ener
tech n
k now</w>
ic i
l ess</w>
com e</w>
o per
d es</w>
t or</w>
for e</w>
M an
ti on
u t</w>
a st
y e
di rec
G od</w>
provi de</w>
e ff
a use</w>
di ff
1 0
gh ts</w>
. ..</w>
m er
al e</w>
mo d
ear s</w>
1 0</w>
ci al</w>
o re
b est</w>
str uc
ap ter</w>
c or
L i
In tern
g o</w>
v ed</w>
S up
ta in</w>
el ec
l es</w>
b usiness</w>
wor king</w>
p ri
F r
l l</w>
ati ve</w>
ri es</w>
d ec
E R
R es
b site</w>
m is
u al</w>
l ec
G u
tw o</w>
cont in
re g
u str
t le</w>
n ame</w>
e qu
ou t
hi gh
g e
Uni ted</w>
il y</w>
p ub
a th
in v
c ar
p ass
resp on
oun t</w>
or der</w>
Ch apter</w>
A d
b ack</w>
ch o
y ears</w>
b re
lo ad</w>
en ter</w>
ou se</w>
cust om
r e</w>
f un
S ta
D i
tr y</w>
i p</w>
produc ts</w>
te n</w>
ec h
j ect</w>
a ff
tic ket</w>
u ro
m em
h ours</w>
li c</w>
ar t
cont ro
requ i
f ile</w>
as s</w>
ai r</w>
pr ice</w>
fe at
p age</w>
P r
t al
com pl
ver s
c ap
b l
p ur
si ble</w>
ic s</w>
v e
ro oms</w>
S how</w>
no w
acc ess</w>
ou s
tic s</w>
with out</w>
e ws</w>
t ;</w>
e as
n um
sh ould</w>
b ot
pro per
s a
vi r
an ts</w>
ic ro
t e</w>
bu il
ev en</w>
ul ar</w>
ch ar
con di
inter n
tr av
g ood</w>
par t</w>
om e
c oo
m ade</w>
T h
ac ti
ur ing</w>
ne ed</w>
fin d</w>
on line</w>
O R
an n
pl o
si g
E uro
us ing</w>
T r
serv er</w>
con tent</w>
de n</w>
w ar
y ing</w>
T H
ta ke</w>
r is
we en</w>
f il
E N
c ar</w>
ad v
ic ations</w>
in k</w>
an g</w>
il ities</w>
d r
s et</w>
in t</w>
ex p
at or</w>
R o
A c
li fe</w>
e -
tw are</w>
F er
T I
h ome</w>
ti onal</w>
n ess</w>
bet ween</w>
own load</w>
com mod
d re
g t;</w>
& gt;</w>
sh ow</w>
vi de
re gi
hel p</w>
diff er
f ri
si de</w>
with in</w>
an t
e f
un der</w>
hi gh</w>
ot e</w>
ep t</w>
y s
s ame</w>
ex peri
P h
wh ile</w>
typ e</w>
do es</w>
W or
pl ace</w>
S e
p er</w>
cur ren
an ds</w>
sel f</w>
I s
ut e</w>
er ing</w>
h ol
is h</w>
t re
c ity</w>
bec ause</w>
En g
a i</w>
a ut
mat eri
un der
c ould</w>
pro tec
et y</w>
t on</w>
are a</w>
w r
tr a
be fore</w>
c le
on -
di d</w>
ma in
ap p
12 4
S u
di st
produc t</w>
on om
is h
cri p
m ust</w>
te st</w>
ac commod
ul t</w>
g an
ag ement</w>
N o
f am
s m
124 ;</w>
&# 124;</w>
vis it</w>
ch il
u fac
A R
w ays</w>
tic al</w>
n er</w>
Sup pli
o ver
comp any</w>
ex c
m ach
s k
lis h</w>
M a
fol low
g g
ec ted</w>
L T
el y</w>
ac y</w>
sh ip</w>
o p</w>
le v
re ad
it al</w>
in d</w>
R E
p riv
r u
d ge</w>
at h</w>
T M
c our
or t</w>
f a
so f
N ew</w>
0 0
I T
ad d
loc ated</w>
th ose</w>
ma il</w>
l ed</w>
th ou
ar d
b er
ki pe
t ro
ec ts</w>
s in
iz ed</w>
st or
D e
Serv ice</w>
O N
qu ality</w>
to p</w>
u tion</w>
p ower</w>
ic a</w>
re f
ne ar</w>
fac e</w>
1 .
ou th</w>
and ard</w>
an y
ch ec
gu ests</w>
z e</w>
e p</w>
a vi
in st
p e</w>
th ir
O N</w>
g ra
re la
Q u
M o
n et
D es
v ari
s ome
p ing</w>
m ul
wa ter</w>
un i
num ber</w>
contin u
S y
2 0</w>
al i
re l
in es</w>
el s</w>
d y</w>
Sta tes</w>
s pe
avail ability</w>
acc ount</w>
d own</w>
go ver
at ure</w>
di t</w>
lo b
equ ip
ye ar</w>
C l
contro l</w>
m it
et ing</w>
f ur
ec onom
re ad</w>
ri bu
r an
develop ment</w>
ur ity</w>
V er
ap art
Suppli er</w>
ustr y</w>
cont act</w>
C O</w>
qu es
gre at</w>
off er</w>
5 0</w>
proc ess</w>
iz ation</w>
p ut</w>
v en</w>
on d</w>
do or</w>
P l
in cre
ro s
pos i
er ed</w>
des ign</w>
ir e</w>
3 0
st ing</w>
f y</w>
or d
T ech
con nec
we bsite</w>
fi ed</w>
a way</w>
c es</w>
bot h</w>
comm un
tr ac
a ur
del i
h um
ex am
ke ts</w>
m et
proper ty</w>
A p
g y</w>
w al
ad di
k now
sup port</w>
feat ures</w>
de p
D ownload</w>
con s
LT D</w>
L t
Intern ational</w>
su m
I S
de v
l ic
b ur
e very</w>
pers onal</w>
C o</w>
mil es</w>
N or
ati s
an k</w>
vi ews</w>
au th
t able</w>
vers ity</w>
ma in</w>
Com p
i e
ic y</w>
qu e</w>
bas ed</w>
Tech n
i de
c ul
M A
g ation</w>
G re
t ors</w>
le g
le ad
3 0</w>
ph ot
b ed</w>
um ents</w>
en s</w>
differ ent</w>
so ci
por ts</w>
c op
par tic
ap pro
re si
techn ology</w>
C an
et e</w>
U S</w>
e y
s cre
m uch</w>
oo m</w>
ar ound</w>
per form
Chin ese</w>
go ing</w>
p ed</w>
z h
T V</w>
s af
le t</w>
en ter
si a</w>
L e
sof tware</w>
b ro
li ght</w>
l ong</w>
st ay</w>
b le
part ment</w>
fac ilities</w>
s ure</w>
ear ch</w>
O R</w>
l it
P ol
ch ang
am es</w>
im ages</w>
st ar
H e
le ar
pl y</w>
C ol
accommod ation</w>
l ing</w>
1 8
N E
st ra
en jo
be ing</w>
An d</w>
C ity</w>
tri es</w>
2 4
des ig
C o
W h
si ve</w>
gover n
experi ence</w>
C entr
wor d</w>
p op
par ty</w>
I C
2 .
d uring</w>
tr on
loo k</w>
s er
ow s</w>
pl ac
str ic
ne e
mar ket</w>
an al
re as
it ing</w>
ad a</w>
or i
1 5</w>
ag ree</w>
en se</w>
re li
er y</w>
ri ve</w>
vir on
A S
or d</w>
apart ment</w>
R oom</w>
ec tion</w>
aut om
pr ices</w>
c an
ful ly</w>
th ink</w>
do m</w>
cre ate</w>
f ast</w>
u tes</w>
coun try</w>
a k</w>
1 2</w>
a z
ex t</w>
pro f
c u
s w
y -
follow ing</w>
c li
ang u
d om
ent al</w>
ti s
E D</w>
im pro
k ies</w>
c entr
cl ick</w>
re st
Lt d</w>
produc tion</w>
or gan
se ar
G er
T er
coun tries</w>
gr ap
f ic
vi d
k es</w>
A ir
A mer
y er</w>
c r
A g
it ch
lis h
pro m
R i
s on</w>
Eng lish</w>
enc y</w>
B l
intern ational</w>
gr ou
con si
lob al</w>
h er
n s</w>
M icro
O r
st ud
pl ay</w>
in e
d am
B o
1 1</w>
pub lic</w>
la w</w>
enc es</w>
e w
M on
as h
si ons</w>
ans w
proc ess
ri ghts</w>
h ouse</w>
dre n</w>
g l
us er</w>
ic k
F ree</w>
si m
M e
G r
on t</w>
le ft</w>
coo kies</w>
sec urity</w>
l ab
kipe dia</w>
H ol
a ve</w>
rec ei
e ver
in i
F e
fun c
iz e</w>
f ication</w>
ag ain</w>
n e</w>
loc ation</w>
ol s</w>
R O
pl ay
min i
Uni versity</w>
me as
Wi kipedia</w>
add ress</w>
e y</w>
1 5
d ates</w>
be g
p i
ind ustry</w>
f ic</w>
ati on
curren t</w>
in f
eng er</w>
wh y</w>
d ays</w>
ar ds</w>
cl os
h app
sti ll</w>
net work</w>
4 .
is m</w>
Pro duc
oo k</w>
con f
appl ication</w>
d ic
f low
st an
b ility</w>
s ch
us ers</w>
v ol
s ay</w>
st ory</w>
res h</w>
i ve</w>
de m
si tes</w>
a red</w>
en viron
ati c</w>
al ways</w>
il i
s uc
wh e
c all
1 6
l d
pres s</w>
l ast</w>
d ate</w>
at ur
man agement</w>
v ity</w>
ur y</w>
thir d</w>
ke y</w>
u tions</w>
J ap
th ree</w>
ch e
us e
b ath
c as
bo dy</w>
E S</w>
re et</w>
lar ge</w>
In formation</w>
mach ine</w>
ain st</w>
B e
n ext</w>
L a
comp an
ma j
s al
min utes</w>
at t
at s</w>
S o
g row
b en
an other</w>
in ing</w>
provi des</w>
vel y</w>
r ange</w>
st ate</w>
gi ve</w>
Serv ices</w>
our ce</w>
pr in
sear ch</w>
x i
A C
ag ainst</w>
al th</w>
I tal
h ar
J es
he ad</w>
Ver sion</w>
af f</w>
lev el</w>
ho we
d ro
howe ver</w>
in te
rela ted</w>
h our</w>
d ra
st aff</w>
em plo
T o
chil dren</w>
tim es</w>
C or
2 1</w>
ther e
1 9</w>
ter min
c e
ap pe
u re
L I
F i</w>
Techn ology</w>
sin ce</w>
loo king</w>
C ar
w in
b ers</w>
f ore
Fr ance</w>
scre en</w>
ent ly</w>
requi red</w>
h and</w>
O F</w>
ever y
pro ject</w>
w om
s it
re al</w>
chec k</w>
of f</w>
te x
w at
J o
&apos; re</w>
read y</w>
C H
P e
A T
l os
ag o</w>
inclu de</w>
pro ble
is su
P er
de l</w>
phot os</w>
our ces</w>
th ings</w>
no v
am s</w>
ful l</w>
di o</w>
l angu
perform ance</w>
201 6</w>
me di
B r
re duc
R us
mul ti
cl ose</w>
w an
es si
ufac tur
acc ept</w>
priv ate</w>
in ation</w>
u r</w>
cl us
tic le</w>
Fer ries</w>
exam ple</w>
vis ion</w>
op en</w>
P riv
c a
Air port</w>
Jes us</w>
1 8</w>
F or
fr ont</w>
tur n</w>
sm all</w>
w are</w>
provi ded</w>
ni ght</w>
A s
ust ri
re co
t ers</w>
19 9
to o</w>
P or
F or</w>
compl ete</w>
0 00</w>
i ght</w>
lit tle</w>
c ase</w>
a h</w>
f lo
pur pos
D is
res t</w>
fi el
con cer
TH E</w>
bo ard</w>
ul ts</w>
or ding</w>
c ame</w>
custom ers</w>
ter ms</w>
ros s</w>
t -
condi tions</w>
ap er</w>
loc al</w>
ques tions</w>
2 5</w>
pos sible</w>
pass enger</w>
St andard</w>
em ents</w>
st ar</w>
equip ment</w>
m en
ch i
s et
lis t</w>
w ard</w>
auth or
str ation</w>
syste ms</w>
do c
li on</w>
u x
e k</w>
lo ve</w>
at ors</w>
ag re
enjo y</w>
appl ications</w>
O p
pers on</w>
te e</w>
y s</w>
I n</w>
f ew</w>
G rou
T ra
resi d
b lo
B y</w>
ac e
lar g
E R</w>
id enti
fam ily</w>
te am</w>
Ro ad</w>
st and</w>
com ple
al low
el l</w>
vide os</w>
n on-
dist ribu
vis i
s ed</w>
m un
Euro pe
m it</w>
fer ence</w>
T ex
c ent
mis sion</w>
er n</w>
atis tics</w>
po in
us es</w>
oun d
1 6</w>
i an</w>
compan ies</w>
tu al</w>
ec tive</w>
inter ests</w>
S ite</w>
A b
g lobal</w>
n ers</w>
u g
. j
so ft</w>
as ter</w>
T R
as ked</w>
ex pl
4 0
p a
in di
materi al</w>
res erv
po int</w>
n avi
2 4</w>
li ve</w>
in a</w>
rest aur
h os
w ent</w>
w ise</w>
str uments</w>
F l
no ti
v o
th ers</w>
vide o</w>
1 3
is ter</w>
o ve</w>
inv est
de st
p g</w>
en ds</w>
wi de</w>
s er</w>
Comp any</w>
H i
B ar
D ev
In n</w>
A partment</w>
m ing</w>
f av
em ber</w>
s es</w>
stric t</w>
f o
mo der
n or
thou gh</w>
N ational</w>
an gh
up on</w>
cour se</w>
anc es</w>
f ood</w>
l ong
C enter</w>
Europe an</w>
as si
ac tion</w>
com for
Can ada</w>
f ut
Vi de
a ter</w>
ic on
re mo
S ec
as ed</w>
1 4</w>
ar ly</w>
m en</w>
k en</w>
acc ording</w>
ic an</w>
bec ome</w>
d rive</w>
7 4
ac i
custom er</w>
suc c
B i
s ing
cho ose</w>
bet ter</w>
to day</w>
Par k</w>
acc ur
ate g
Intern et</w>
u ter</w>
In d
maj or</w>
wor ks</w>
Grou p</w>
wor k
materi als</w>
e ver</w>
elec tron
th em
We b</w>
la test</w>
re pres
op en
1 3</w>
gr ound</w>
mat ch</w>
ate ly</w>
S outh</w>
I P</w>
Euro pe</w>
un d
l l
ar s</w>
he art</w>
pr is
bel ow</w>
eas y</w>
speci al</w>
d -
mem ber</w>
ys is</w>
ph one</w>
mar k</w>
ver sion</w>
C O
st atistics</w>
S T
whe ther</w>
T his</w>
te ly</w>
col lec
h and
i de</w>
govern ment</w>
Y ou</w>
com b
am e
posi tion</w>
We bsite</w>
e g
navi gation</w>
Tex as</w>
St reet</w>
H os
b al
n ote</w>
in s</w>
ag ing</w>
r y
eff ici
Sh angh
pl ate</w>
ati c
buil ding</w>
sh op
indi vid
val ue</w>
pl es</w>
ma king</w>
U n
condi tion
e e</w>
Shangh ai</w>
i tes</w>
ab les</w>
ind ows</w>
C oun
an ti
c o</w>
b or
en ding</w>
oun g</w>
fil es</w>
o t</w>
g ar
b ack
A L
b ri
nee ds</w>
L ord</w>
p ay
1 00</w>
grou p</w>
b ar</w>
o ther
Des ign</w>
sit u
h ic
A fr
ne ver</w>
le dge</w>
am ong</w>
tr ade</w>
p ay</w>
O ff
u ally</w>
fut ure</w>
ad ing</w>
hum an</w>
s ing</w>
c al
20 0</w>
sol utions</w>
b an
e mail</w>
vi a</w>
se ver
p ool</w>
1 7
Wor ld</w>
1 4
ener gy</w>
gener ate</w>
&apos; ll</w>
j ects</w>
h y
H ong</w>
I m
crip tion</w>
ne w
M P
h u
est ab
B er
con tain
5 0
trav el</w>
on ce</w>
R ep
Nor th</w>
or ies</w>
n am
ben ef
Ch r
re ally</w>
1 7</w>
Sy ste
A L</w>
B u
an cial</w>
c enter</w>
IN G</w>
li mi
ak fast</w>
anc ed</w>
j ing</w>
Ho tels</w>
know n</w>
bel ie
m us
ar an
p ow
E lec
d ers</w>
per f
bo x</w>
vi ties</w>
wal k</w>
reg ul
8 0</w>
limi ted</w>
y c
di g
H ome</w>
pl an
t ow
bath room</w>
atur al</w>
econom ic</w>
call ed</w>
AN D</w>
grap h
r ate</w>
to ge
ex per
l s</w>
S of
lear n</w>
In struments</w>
as h</w>
min ute</w>
a x
st y
a ther</w>
lish ed</w>
pol icy</w>
ke ep</w>
S an</w>
v in
c ard</w>
toge ther</w>
sti tu
p ack
requi re
sh are</w>
me ans</w>
an a</w>
K ong</w>
W e</w>
respon sible</w>
t ot
A m
ar ticle</w>
e dit</w>
ol e</w>
are as</w>
tem per
S em
E S
gi es</w>
me dia</w>
loo ked</w>
h al
g ame</w>
NE T</w>
P al
other wise</w>
ou d</w>
Con tent</w>
struc tion</w>
s end</w>
mi ght</w>
f re
cho ice</w>
c ir
zh ou</w>
tr ain
fur ther</w>
as k</w>
p ast</w>
ro r</w>
Ital y</w>
langu age</w>
I L
ev ent</w>
comp uter</w>
P o
B al
pol i
ens ure</w>
inst all
tur al</w>
a im
ent ation</w>
EN T
ref resh</w>
me th
on es</w>
ne y</w>
sec ond</w>
ing dom</w>
high -
nec ess
L in
es ti
is ion</w>
some thing</w>
ustri al</w>
A B
A D
throu gh
B each</w>
J u
or ig
A v
ar ing</w>
O n
continu ing</w>
US D</w>
&apos; m</w>
ub lic</w>
t ook</w>
ol o
co ver</w>
tic kets</w>
h old</w>
S ch
res ult</w>
mo b
can not</w>
Ter ms</w>
v al</w>
L oc
sh ip
th s</w>
st art</w>
los s</w>
so cial</w>
Vi ew</w>
F in
ous ly</w>
tra de
gi ven</w>
S ho
h ard</w>
P la
fiel d</w>
ve hic
au ti
re al
moder n</w>
ou ble</w>
M in
S ol
m ess
k eting</w>
201 5</w>
si an</w>
ti l</w>
.j pg</w>
3 .
tex t</w>
ro w</w>
wr it
Micro soft</w>
o thers</w>
sel ect</w>
c are</w>
leg al</w>
m or
im pl
vi ol
le t
si ze</w>
it or</w>
gra m</w>
pro gr
B ei
enti al</w>
N O
se e
. NET</w>
pop ular</w>
acti vities</w>
g et
A gre
ver age</w>
lo t</w>
cer tain</w>
oo ds</w>
B ri
struc ture</w>
L O
ex ten
b row
dev ice</w>
c ou
2 2</w>
stan ding</w>
chang es</w>
Chr ist</w>
res earch</w>
ul es</w>
desig ned</w>
gh t
anal ysis</w>
de f
prof essi
ac hi
N e
M ed
un til</w>
T ai
Y or
con ven
p ic
provi ding</w>
le ase</w>
addi tion</w>
E C
con sum
ti al</w>
ver tis
H ouse</w>
k er</w>
sa w</w>
mo di
, 000</w>
Agre ement</w>
T e
f er</w>
en ted</w>
k ind</w>
lo g</w>
Centr al</w>
res ults</w>
loc k</w>
re views</w>
tri c</w>
Is ra
a p</w>
un g
through out</w>
in nov
tr ue</w>
s ource</w>
ap e</w>
requ est</w>
Bei jing</w>
at ten
ai res</w>
W indows</w>
th y</w>
s av
ad s</w>
im age</w>
prom ise</w>
n et</w>
c ateg
re comm
i ri
TI ON</w>
li g
y et</w>
c el
duc ation</w>
t al</w>
pur ch
li ving</w>
f ail
D r
ey es</w>
V al
Ag ri
d ue</w>
vari ous</w>
i te
er a</w>
6 0</w>
ou gh</w>
pl at
l ands</w>
tur ned</w>
tu res</w>
5 -
ab ove</w>
grow th</w>
24 -
L o
require ments</w>
e ts</w>
St ate</w>
Yor k</w>
a .
sp ace</w>
ren t</w>
hel d</w>
s en
air port</w>
ob s</w>
ar r
ar ti
ra tes</w>
me et</w>
hi story</w>
go t</w>
mob ile</w>
co de</w>
4 0</w>
op tions</w>
aff aires</w>
sel ected</w>
Agri affaires</w>
writ ten</w>
icon duc
OR D</w>
par ties</w>
in al</w>
st ance</w>
im um</w>
larg est</w>
G ener
tel l</w>
t or
be auti
speci fic</w>
S ale</w>
de fin
direc tly</w>
M ore</w>
under stand</w>
saf ety</w>
lo g
sol ution</w>
ul ation</w>
a -
ar m
Y our</w>
us age</w>
fe el</w>
res ources</w>
we b
S ing
mon ey</w>
Jap an</w>
answ ers</w>
ici al</w>
n a</w>
ur ch</w>
I I</w>
Wi -
E m
rou ght</w>
port un
par ts</w>
or g</w>
cl ass</w>
sing le</w>
in ten
pers on
s ci
re view</w>
clus ive</w>
Ger many</w>
bu t
al ready</w>
a w
IN D
E M
protec tion</w>
dep end
necess ary</w>
g le</w>
y m
T O</w>
c us
st andard</w>
M al
belie ve</w>
m ag
an ing</w>
Wi- Fi</w>
ch es</w>
u ary</w>
stor age</w>
pr ise</w>
di d
F il
f oc
Afr ica</w>
com pe
stra te
r ing</w>
im p
fin ancial</w>
comm er
char ac
boo king</w>
lin k</w>
qu i
L ORD</w>
30 3
of ten</w>
wor ds</w>
A M
th re
ish ed</w>
k a</w>
st and
gener al</w>
2 3</w>
c amp
A P
201 4</w>
he alth</w>
com es</w>
sever al</w>
d riv
st re
r ic
man ufactur
b ab
use um</w>
a h
Re gi
qu are</w>
purpos e</w>
c y</w>
cer ti
C as
B el
cor por
f le
s or
ec h</w>
H u
a o</w>
D el
L on
In c</w>
addi tional</w>
t own</w>
exc ell
des k</w>
we b</w>
op portun
R ec
G oo
S al
la ws</w>
ter m</w>
mo del</w>
V ill
Jo h
environ ment</w>
ver ed</w>
trav ell
s ou
ap s</w>
g ir
m ental</w>
3 -
u es</w>
g en
trav el
St ation</w>
K ingdom</w>
tra di
s il
el op
consi der
f it
ad d</w>
ter r
tre at
L A
U N
itch en</w>
ho to</w>
acc ep
for ce</w>
F i
Pol icy</w>
impro ve</w>
H am
B usiness</w>
M at
p an
in o</w>
A sia</w>
n er
inte gr
conven i
Amer ican</w>
temper ature</w>
ill s</w>
D ec
iri t</w>
r un
I N</w>
Sem iconduc
re r</w>
M y</w>
chil d</w>
wh ole</w>
ad mini
thou ght</w>
tem plate</w>
cl es</w>
it ors</w>
in c
Dev elop
d one</w>
comp on
perf ect</w>
dom ain</w>
y right</w>
t ou
u red</w>
b it</w>
S w
P re
t ory</w>
mem bers</w>
li k
op tim
ac ross</w>
beauti ful</w>
le y</w>
tro duc
m om
Con t
contin ue</w>
ren g
c ost</w>
fl u
ag ed</w>
24- hour</w>
2 -
la ter</w>
P H
con tr
z a</w>
c am
K ore
M il
spe ed</w>
on a</w>
me d
ch ed</w>
connec tion</w>
f el
typ es</w>
at -
d en
us h
pass word</w>
t op
ser ies</w>
to ols</w>
Isra el</w>
f our</w>
olo gies</w>
P D
wor ld
ne l</w>
E L
bi g</w>
Sp ain</w>
sub ject</w>
se par
Sof tware</w>
U K</w>
un e</w>
D ata</w>
u n</w>
ufac tu
plac es</w>
F ace
emplo ye
p rec
al ong</w>
it er
ha ving</w>
fac t</w>
t ar
ex tr
s ens
inclu des</w>
pre vi
appl ic
he av
hi bi
et c</w>
s -
y a</w>
in tel
n atural</w>
char ge</w>
com ing</w>
&apos; ve</w>
E ast</w>
i ed</w>
em b
se qu
Com mun
in ed</w>
sal es</w>
S k
V is
is ing</w>
partic ip
as soci
there fore</w>
sig n
Face book</w>
at ter
st reng
chi tec
Lon don</w>
resid ent</w>
B re
low er</w>
B id</w>
d a</w>
comm on</w>
O S</w>
is ed</w>
dig ital</w>
por ted</w>
p en
st u
low est</w>
H e</w>
L a</w>
do ing</w>
g es</w>
T ri
Priv acy</w>
di es</w>
si bility</w>
a u</w>
ac tive</w>
off ering</w>
m l</w>
tot al</w>
201 2</w>
ni fic
did n</w>
vehic le</w>
I D
M ach
ten ing</w>
ob tain</w>
S er
direc t</w>
noti ce</w>
incre ase</w>
Al l</w>
o -
u ti
oc k</w>
y es</w>
7 .
A ustr
pres ent</w>
2 5
m id
s .
d own
c ed</w>
ot s</w>
es sion</w>
t ool</w>
fri end
s li
ch all
st ain
est ing</w>
high er</w>
techn ical</w>
Goo gle</w>
res ol
o il</w>
n ational</w>
T im
lead ing</w>
h or
s ter</w>
ag er</w>
Di rec
un to</w>
R om
inter est</w>
as tic</w>
T o</w>
l ess
Produc ts</w>
sim ple</w>
centr e</w>
individ ual</w>
201 7</w>
re p
m y
w ood</w>
pro gram</w>
im medi
m er</w>
condition ing</w>
2 8</w>
ne ws</w>
C re
ai l</w>
G e
be d
c are
j obs</w>
flo or</w>
ar riv
ic ally</w>
s us
peri od</w>
re turn</w>
reco g
min d</w>
col l
coun t</w>
pos t</w>
ex i
excell ent</w>
2 6</w>
proble m</w>
201 3</w>
con c
in de
k et
pres sure</w>
mil lion</w>
p aper</w>
mit ted</w>
vi l</w>
c all</w>
Man agement</w>
at ory</w>
US A</w>
eng ine
ech an
des cription</w>
ail y</w>
comm it
O c
h ard
aran tee</w>
en ing</w>
f ar</w>
k -
f -
uni que</w>
pr ac
accur ate</w>
cl aim
ru n</w>
ch ing</w>
um p</w>
s ale</w>
T E
y our
Fer ry</w>
id ay</w>
2 7</w>
t a</w>
es p
dam age</w>
recei ve</w>
sup ply</w>
Par is</w>
8 .
m a</w>
Rep ublic</w>
r up
process ing</w>
Syste m</w>
B ud
1 -
wom en</w>
equip ped</w>
A t
ill ing</w>
form s</w>
ul t
l in</w>
ven ue</w>
en sive</w>
T ur
dev ices</w>
fer ries</w>
ven tion</w>
c anc
poli tical</w>
dis play</w>
s mo
ma kes</w>
AN Y</w>
invest ment</w>
Centr e</w>
y ed</w>
vi ew
c able</w>
sh ow
le ast</w>
Tr ans
por ter</w>
J an
professi onal</w>
z ed</w>
ei ther</w>
ach ed</w>
H ar
sp ec
adv ant
no thing</w>
F rom</w>
fore ign</w>
cor rec
mus ic</w>
mon ths</w>
I S</w>
stud ents</w>
hal f</w>
br ing</w>
g er
b ar
y oung</w>
st at
ai m</w>
distribu tion</w>
tel l
C am
g ing</w>
ec e</w>
l -
S te
o d
Semiconduc tor</w>
func tion</w>
t old</w>
ris k</w>
Rus sia</w>
or ing</w>
m in</w>
C A
flow er</w>
p ati
ind ustrial</w>
P resident</w>
regi on</w>
n g</w>
g ed</w>
H TM
j i
W ith</w>
dis cus
3 D</w>
con struction</w>
train ing</w>
oper ation</w>
sty le</w>
sel ves</w>
ma x
pro file</w>
per ation</w>
mat ter</w>
sti t
S S</w>
d le</w>
Res ort</w>
b all</w>
h t
li able</w>
shop ping</w>
re main
ap est</w>
re port</w>
T i
incre as
r ap
str ong</w>
st er
p ul
ain t</w>
inclu ded</w>
ufactu rer</w>
part ners</w>
bre akfast</w>
electron ics</w>
pos ed</w>
reas on</w>
ki p</w>
b il
ay ing</w>
G ar
An g
ame work</w>
ear ly</w>
co sts</w>
ex pres
ry to
ro ad</w>
any thing</w>
P C</w>
conf ig
pro jects</w>
develop ed</w>
at trac
st ate
In ter
ar m</w>
si mil
pre v
restaur ant</w>
en g</w>
deli very</w>
L ine</w>
off ice</w>
m al</w>
succ ess
W est
in troduc
c k</w>
M useum</w>
me eting</w>
4 -
Av g</w>
appl y</w>
ide al</w>
al ia</w>
cop yright</w>
k o
beg an</w>
jo b</w>
m icro
lik ely</w>
5 .
ad vertis
al low</w>
is i
sup pli
O ut
ne i
uc k</w>
ef for
trans fer</w>
We b
R el
19 8
e .
1 ,
v ement</w>
ill ed</w>
tr an
su ff
b it
ti vity</w>
In st
n it
eff ect</w>
acti vity</w>
2 9</w>
ver se</w>
u b</w>
gr ad
am ount</w>
P R
wan ted</w>
s ent</w>
S i
yp e</w>
S am
ho t</w>
at- screen</w>
adv ance</w>
bur g</w>
sch ool</w>
ph ys
Amer ica</w>
in -
p ng</w>
br and</w>
On line</w>
B oo
d u
e an</w>
Sing ap
every thing</w>
partic ular</w>
C ON
6 .
agre ement</w>
ren ch</w>
eas ily</w>
sec tion</w>
M us
d aily</w>
un g</w>
fer red</w>
C al
am a</w>
se em
s ays</w>
st ore</w>
PH P</w>
protec t</w>
hi stor
proper ties</w>
ac tions</w>
con duc
inv ol
M os
3 2</w>
c at
h om
ang zhou</w>
esp eci
ind ic
elec tric</w>
st ation</w>
con fir
c ause</w>
l a</w>
an ese</w>
201 8</w>
ta ken</w>
e ducation</w>
sig nific
T ha
especi ally</w>
b ir
No v
commer cial</w>
me an</w>
O ld</w>
S ep
h on
M i
Vide os</w>
m oun
stit ute</w>
allow s</w>
T w
in s
pl an</w>
w an</w>
saf e</w>
im self</w>
ke ep
am en
ta king</w>
acc ord
L im
an e</w>
W est</w>
A u
vari ety</w>
wh ite</w>
st op</w>
3 1</w>
recog ni
friend ly</w>
H er
pos ted</w>
qu ick
In dia</w>
ec ti
Singap ore</w>
P i
st o
ch em
wom an</w>
a verage</w>
cre dit</w>
rel ation
Gener al</w>
set t
e ve</w>
ren tal</w>
cre ated</w>
B est</w>
su gg
priv acy</w>
comfor table</w>
out door</w>
R est
C D</w>
PD F</w>
S N
atic ally</w>
fri ends</w>
employe es</w>
. wi
fi ve</w>
en ough</w>
commun ity</w>
your self</w>
C ha
to -
H is</w>
ques tion</w>
Y O
compe ti
op tion</w>
6 0
sel ection</w>
S A
d ownload</w>
olog ical</w>
a. org</w>
M r
9 .
k i</w>
I r
eff ective</w>
re lev
st -
m echan
co ff
proble ms</w>
P a
treat ment</w>
plat form</w>
ex change</w>
kipe di
fav or
cle ar</w>
S ci
se ts</w>
speci al
ste el</w>
kipedi a.org</w>
g oods</w>
cir c
j ud
S P
p hoto</w>
enti re</w>
cont ribu
k itchen</w>
lin es</w>
diff ic
trans l
se en</w>
il le</w>
x ed</w>
aff ili
i o</w>
all s</w>
know ledge</w>
or ity</w>
Su ites</w>
sh ort</w>
de ath</w>
g ress</w>
sa ve</w>
exp ected</w>
ach ing</w>
N et
th us</w>
ta x</w>
s mar
cap ac
ra m</w>
T or
Sep tem
buil t</w>
y e</w>
po ten
Pr ice</w>
ste p</w>
pol ic
sur r
z er
buil d</w>
er c
part ments</w>
G ol
is tics</w>
visi ons</w>
al most</w>
out side</w>
Develop ment</w>
nee ded</w>
Septem ber</w>
regi stration</w>
c ent</w>
ex press</w>
se a</w>
immedi ately</w>
col or</w>
F rench</w>
adv anced</w>
cle an</w>
Pr ices</w>
fa ther</w>
Jap anese</w>
Ger man</w>
do w</w>
m m</w>
r a</w>
h ands</w>
ris ti
l er</w>
ux ury</w>
lic ense</w>
sh e
mom ent</w>
te le
J er
Or gan
he al
cap ital</w>
ic o</w>
B ro
HTM L</w>
at er
S M
reli gi
econom y</w>
air s</w>
T em
b ra
su per
ri ed</w>
en h
di an</w>
ad ded</w>
ar ies</w>
A ut
m ot
brow ser</w>
por tion</w>
k new</w>
S c
wel come</w>
an i
relev ant</w>
in j
le vel
pris es</w>
prin ci
ast ern</w>
s le
N ame</w>
S tr
e ase</w>
4. 0.
ing ly</w>
us h</w>
3 5</w>
str y</w>
Ch ar
s s</w>
we e
I D</w>
oun ded</w>
travel ers</w>
detail ed</w>
L E</w>
B ra
flow ers</w>
sur face</w>
n ature</w>
ci l</w>
s l
mar ks</w>
mar keting</w>
g as</w>
t age</w>
sp ir
oun ds</w>
et er
S E
fle xi
an ks</w>
anal y
lab or
it able</w>
H el
d ar
dem and</w>
protec ted</w>
P RO
star ted</w>
Joh n</w>
N ews</w>
sig n</w>
a de
th ous
categ ory</w>
C our
long er</w>
sh op</w>
so on</w>
oper ating</w>
di strict</w>
i ted</w>
c ra
I M
issu es</w>
mo ve</w>
bu y</w>
7 0</w>
he ad
Par ty</w>
sy m
reas on
it ary</w>
4.0. 303
tem p
T a
Rest aur
ev ents</w>
an im
w on
E d
in depend
T ER
G en
u gg
quick ly</w>
Sp eci
w as
ent ary</w>
tradi tional</w>
C ap
se as
ex ist</w>
mon th</w>
bec ame</w>
z z
8 0
stud y</w>
Priv ate</w>
b t</w>
d at
restaur ants</w>
2 6
fer ryto
ten ance</w>
St u
li gh
travell ers</w>
f f</w>
lic ens
orig inal</w>
recei ved</w>
gar den</w>
ot h</w>
h imself</w>
des cri
E X
J i
av o
201 1</w>
l ost</w>
happ y</w>
em er
ag ue</w>
an o</w>
ht ml</w>
simil ar</w>
h ous
.wi kipedia.org</w>
st ered</w>
sc en
de als</w>
tal k</w>
l and
open ed</w>
c ell
U s</w>
ann els</w>
Austr alia</w>
stand ards</w>
Tai wan</w>
mo del
tem por
lis tening</w>
compon ents</w>
c y
I P
Ch risti
ut ting</w>
ag s</w>
reduc e</w>
S to
plac ed</w>
E r
201 0</w>
. S
g ate</w>
sur ance</w>
p tion</w>
feat ure</w>
consi der</w>
E g
gra ted</w>
tu ally</w>
cons ent</w>
ta kes</w>
coff ee</w>
i or</w>
manufactur ing</w>
exi sting</w>
de tec
B as
ou se
bel i
g ames</w>
st an</w>
g ave</w>
f ig
Oc to
ex ec
S S
on ing</w>
cent ury</w>
estab lished</w>
tain ed</w>
progr am
U R</w>
I re
f as
Sh en
j our
ri st
b ia</w>
v ers</w>
Serv er</w>
dis p
Con tro
T M</w>
ni a</w>
m ine</w>
con ver
en ed</w>
T he
Octo ber</w>
R ed</w>
favor ite</w>
. f
it ation</w>
accord ance</w>
ar chitec
w ar</w>
S kip</w>
vis itors</w>
t our</w>
A ug
S il
wa ve</w>
S earch</w>
impl em
m ate</w>
Ire land</w>
mo ther</w>
Wi Fi</w>
ro le</w>
lin ks</w>
star s</w>
I T</w>
b our
le ave</w>
TM s</w>
w on</w>
G l
elec tr
o graph
requi res</w>
S ub
e m</w>
EN T</w>
coo peration</w>
P O
in stitu
ing ton</w>
Cl ub</w>
purch ase</w>
de fa
be ach</w>
A re
ple as
s eri
blo od</w>
fel t</w>
Man ufactur
b rought</w>
ta x
ac ts</w>
J av
ap p</w>
s em
f low</w>
9 0</w>
resp ect</w>
J une</w>
S U
in ning</w>
Cont act</w>
gi c</w>
meth od</w>
ste ps</w>
repres ent
Off ice</w>
ess es</w>
Rus sian</w>
v ill
An al
200 8</w>
he ard</w>
quot e</w>
vin ce</w>
bu s</w>
Ph ot
le ad</w>
par king</w>
L ist</w>
y ment</w>
crip t</w>
M ay</w>
her e
multi ple</w>
et h</w>
f ine</w>
remo ve</w>
st ood</w>
M y
L og
pow er
al though</w>
fol low</w>
4 5</w>
sel f-
coll ect</w>
L ast
s aying</w>
re less</w>
on ed</w>
h ab
pri or</w>
S O
W il
any one</w>
poin ts</w>
ri ver</w>
ati ves</w>
mar kets</w>
dra w
cas es</w>
Ap pl
med ical</w>
e ar</w>
met ers</w>
D A
N o</w>
on y</w>
y n
3 3</w>
par k</w>
er ve</w>
it self</w>
M id
r ation</w>
intern et</w>
g er</w>
li ghts</w>
pre p
S TM
b on</w>
level s</w>
P ri
pay ment</w>
v a</w>
.f m</w>
D ub
Produc t</w>
mess age</w>
win dow</w>
ci ties</w>
Last .fm</w>
capac ity</w>
a king</w>
ut h</w>
3 6
d i</w>
H O
we ight</w>
organ iz
M ag
as er</w>
dist ance</w>
qu ick</w>
T A
autom atically</w>
d ouble</w>
Vide o</w>
effici ency</w>
c ss</w>
st ats</w>
gl ass</w>
er ror</w>
v ic
produc e</w>
ep tion</w>
re ach</w>
en ded</w>
Hos tel</w>
oper ators</w>
s am
tern al</w>
s ound</w>
applic able</w>
k ers</w>
situ ation</w>
- -
C er
Gu est</w>
pr acti
benef its</w>
un less</w>
acc oun
E M</w>
ab ly</w>
U se</w>
I t</w>
s .aspx</w>
Eg yp
Kore a</w>
ur ation</w>
Vill a</w>
ci d
appro pri
icro electronics</w>
STM icroelectronics</w>
S un
A ma
P an
concer ts</w>
p ra
U ser</w>
previ ous</w>
y ers</w>
vo ice</w>
process es</w>
yc le</w>
ac ks</w>
an ia</w>
T O
Z h
o g</w>
un it</w>
H an
cl aim</w>
o ds</w>
al -
fit ness</w>
sk in</w>
li mit
ev ed</w>
ear th</w>
2 7
B ang
u le</w>
hibi tion</w>
re fl
T C
sy n
sec ure</w>
tell ite</w>
por ting</w>
zh en</w>
h ind</w>
ir on</w>
i red</w>
p ages</w>
ra ther</w>
in ations</w>
in ste
ti z
ant a</w>
Fr amework</w>
Ju ly</w>
I f</w>
gu id
wat ch</w>
sim ply</w>
M or
Coun cil</w>
ar ding</w>
Ma p</w>
but ton</w>
techn ologies</w>
centr al</w>
sec on
A G
t our
meas ure
un ch</w>
war ran
polic ies</w>
m al
200 9</w>
Ac c
m os
chall eng
commun ication</w>
an ish</w>
S quare</w>
in king</w>
n or</w>
corpor ate</w>
M ad
Ham ster</w>
b ou
bec om
in side</w>
is s</w>
5 00</w>
author ized</w>
Gr and</w>
stat us</w>
F re
th ank</w>
b on
ig h</w>
oo t</w>
fl at-screen</w>
Sp irit</w>
a ke</w>
S we
admini str
H Y
B ou
gre ater</w>
now ledge</w>
ail ing</w>
pl ant</w>
fail ure</w>
Se a</w>
Mr .</w>
arriv al</w>
19 7
respon sibility</w>
ch urch</w>
acc ess
st e</w>
te sting</w>
max imum</w>
Cor por
inte grated</w>
be hind</w>
tic es</w>
A T</w>
run ning</w>
fri ger
Ph il
for ward</w>
M ac
ab ilities</w>
connec ted</w>
cl oud</w>
st ri
0. 1</w>
M el
l an
deli ver</w>
P en
w all</w>
us ti
poten tial</w>
es tic</w>
fir e</w>
hi c</w>
SN 74
pro mo
f ications</w>
inter ested</w>
issu e</w>
u me</w>
in ner</w>
sh ows</w>
bl ack</w>
f requ
dep ending</w>
u an</w>
sh or
n y</w>
main tenance</w>
ex tre
H C
y al</w>
I F
ha ir</w>
fe es</w>
inf ra
st ant</w>
d y
con trac
La w</w>
ad j
fa ith</w>
AS P
ta il</w>
ex clusive</w>
effici ent</w>
pe ace</w>
dr yer</w>
bas ic</w>
devel op</w>
Dec ember</w>
rec ent</w>
h ouse
cul ture</w>
on board</w>
Ind ustry</w>
M ic
serv ed</w>
do es
c ore</w>
Nov ember</w>
ord in
mon it
G ames</w>
war ds</w>
in ery</w>
de termin
de al</w>
Uni on</w>
V en
ther n</w>
Shen zhen</w>
3 6</w>
A ir</w>
- minute</w>
high ly</w>
ish ing</w>
clos ed</w>
foc us</w>
c lo
S af
L E
ar ising</w>
li f
off ered</w>
purpos es</w>
m ig
extr a</w>
L ED</w>
ass es</w>
er -
E astern</w>
C amp
Ar t</w>
on to</w>
he at</w>
Is land</w>
enter prise</w>
D ay</w>
Are a</w>
re ly</w>
ul ting</w>
sol e</w>
u x</w>
amen ities</w>
Pe ople</w>
d ining</w>
sus p
x Hamster</w>
pr int</w>
2 8
sh ower</w>
ri c</w>
ini ti
contain s</w>
r ules</w>
E con
modi fy</w>
k y</w>
get ting</w>
inste ad</w>
C ust
pub lished</w>
s atis
al one</w>
web sites</w>
M et
Man ufacturer</w>
st ances</w>
we ek</w>
in sp
P lease</w>
et ary</w>
A N</w>
reason able</w>
Wh at</w>
Sch ool</w>
ach es</w>
grou ps</w>
v ac
al ization</w>
ad es</w>
them selves</w>
tain ment</w>
off icial</w>
does n</w>
gir l</w>
charac ter
pers ons</w>
R a
b ase</w>
O f</w>
st on</w>
an k
West ern</w>
ma il
sp o
F un
mor ning</w>
doc uments</w>
ide a</w>
ex porter</w>
situ ated</w>
l am
ap poin
Aug ust</w>
confir m
high est</w>
answ er</w>
ASP .NET</w>
Jan uary</w>
ho pe</w>
comfor t</w>
r on
r ich</w>
F ir
eng th</w>
id ence</w>
V ir
requ ire</w>
U .S
mar y</w>
C a
t un
ci es</w>
bas is</w>
Mar ch</w>
electron ic</w>
tr ain</w>
ag ram</w>
rou tes</w>
t y
fun d</w>
u tive</w>
6 -
imp act</w>
el ing</w>
C ur
i er</w>
collec tion</w>
ex ternal</w>
h a</w>
v ent
relation ship</w>
Ri ghts</w>
pre ci
&apos; d</w>
s we
bor n</w>
fri end</w>
E N</w>
ti ps</w>
pro vision</w>
keep ing</w>
st ers</w>
gre en</w>
up date</w>
ten ts</w>
A pri
e e
F lo
su stain
fam ous</w>
Apri l</w>
ld n</w>
s ense</w>
G i
eff ects</w>
C ENT
g en</w>
il et</w>
pro visions</w>
appropri ate</w>
W AR
us ually</w>
install ation</w>
br ary</w>
p ping</w>
re h
achi eve</w>
I G
pos it</w>
con y</w>
ac tually</w>
cop y</w>
Di strict</w>
A partments</w>
qu ite</w>
ship s</w>
ne ar
succ ess</w>
Elec tron
TI ON
h un
0 1</w>
. Â</w>
es tions</w>
Econ om
op h
regi stered</w>
UR Y</w>
er t</w>
reli able</w>
it ch</w>
er ous</w>
Ab out</w>
HY IP</w>
in flu
n ect</w>
I R
D et
. png</w>
experi ences</w>
S ur
S ou
comp reh
40 4</w>
An sw
O ver
0. 00</w>
H ere</w>
cl assi
ur b
F o
sh own</w>
b ul
Ho w</w>
B ank</w>
for d</w>
B ay</w>
model s</w>
diffic ult</w>
H y
T u
iter ran
opportun ity</w>
curren tly</w>
circ um
beg inning</w>
L u
every one</w>
tain s</w>
phys ical</w>
L is
comple x</w>
ca used</w>
k in
ig n
re m
s ex
cli ents</w>
st one</w>
3 4</w>
Man ager</w>
I B
F ore
th anks</w>
g old</w>
Ch ec
wr iting</w>
meas ures</w>
te a</w>
il and</w>
aci ous</w>
Gar den</w>
Bu il
tr uth</w>
exc ept</w>
su ite</w>
ch ip</w>
B ed</w>
play ed</w>
Med iterran
lear ning</w>
contr act</w>
Tr ade</w>
environ mental</w>
b ad</w>
benef it</w>
wi reless</w>
Com mit
au l</w>
N i
A le
ot ing</w>
H ip
pli ed</w>
at temp
S a
c ros
trade mark</w>
et te</w>
F ac
En ter
gr an
M O
ab ase</w>
Hol y</w>
U p
cour t</w>
CENT URY</w>
hol iday</w>
el se</w>
E l
as es</w>
bu d
anc ing</w>
W ar</w>
b and</w>
T S</w>
B en
Gu angzhou</w>
c k
O l
Ph one</w>
ha m</w>
out put</w>
fl ic
e- mail</w>
D avi
cle aning</w>
lis ted</w>
Pro f
s ession</w>
la w
An dro
3 4
le ge</w>
A V
mem ory</w>
sci enti
sh i
Mediterran ean</w>
re member</w>
di e</w>
mo ved</w>
ll er</w>
mach ines</w>
t on
ri d</w>
ev ol
ol l
reg ister</w>
3 9</w>
Y oung</w>
o k
dis cover</w>
E mail</w>
respon se</w>
oper ations</w>
NO T</w>
defin i
7 5</w>
incre ased</w>
ser ve</w>
val ues</w>
practi ce</w>
gu est</w>
S Q
S ER
O n</w>
IT Y</w>
K ing</w>
ad ap
power ful</w>
em p
Organ ization</w>
Fr anc
i al</w>
separ ate</w>
func tions</w>
yc lo
s un
Answ ers</w>
Re g
No t</w>
progr ams</w>
Sec urity</w>
lec tual</w>
appro ach</w>
b ank</w>
T ic
Su per
resol ution</w>
mil itary</w>
develop ing</w>
St .</w>
tis h</w>
un a</w>
le ar</w>
st age</w>
proc ed
US TR
O ther</w>
atten tion</w>
he ar</w>
Sp anish</w>
d den</w>
V IC
U.S .</w>
pop ulation</w>
O ne</w>
accep ted</w>
O h</w>
V ol
Tha iland</w>
R os
E qu
er ship</w>
S im
sc ale</w>
v el</w>
Con ference</w>
im ming</w>
hel ps</w>
n ice</w>
inter face</w>
main tain</w>
less on</w>
ph ere</w>
grow ing</w>
iz ing</w>
fre e
some one</w>
d ings</w>
c ut</w>
gi ves</w>
engine ering</w>
t ab
ing -
Ch rist
d ress</w>
back ground</w>
organ ization</w>
prev ent</w>
our ce
met res</w>
t ren
g a
gener ation</w>
am ing</w>
h ost</w>
c a</w>
sub mit</w>
some times</w>
US E</w>
dom estic</w>
3 8</w>
innov ation</w>
ch ain</w>
pe dia</w>
ge ts</w>
C L
N ew
M S</w>
Pr in
soci ety</w>
F OR</w>
Fil e
tim ate</w>
dest ination</w>
y l
C D
spe ak</w>
D e</w>
s ailing</w>
autom atic</w>
advant age</w>
C i
de ep</w>
IND USTR
form ed</w>
C ali
ite ms</w>
under standing</w>
emb ly</w>
T el
M ex
au dio</w>
tr ying</w>
ex erc
Commit tee</w>
near by</w>
m ent
Ex press</w>
W S</w>
U N</w>
b a
R A
o es</w>
g ree</w>
world wide</w>
C E
r o</w>
ann oun
P at
F am
Per s
k y
co vered</w>
Bre akfast</w>
b usin
al ing</w>
ic on</w>
Is lands</w>
Bl ack
ain s</w>
G over
R AN
re le
man age</w>
T ype</w>
al tern
li ability</w>
li es</w>
si d
c up
let ter</w>
di ed</w>
consider ed</w>
streng th</w>
m outh</w>
gr ade</w>
si x</w>
re t
th ou</w>
an tly</w>
e f</w>
thir d-
3 7</w>
gu ide</w>
h ur
9 0
oper ator</w>
an ci
S aint</w>
be y
wi fe</w>
op e</w>
ad min</w>
won der
Con di
men u</w>
Ang el
As soci
f all</w>
w ind</w>
j e
in surance</w>
P L
ax d</w>
Bar cel
Davi d</w>
yclo pedia</w>
st op
Gre at</w>
P ress</w>
off ic
D V
associ ated</w>
W al
es ter</w>
5 4
ust ries</w>
W ar
ource .
M ini
es sible</w>
I C</w>
Fe br
val id</w>
advertis ing</w>
re lease</w>
S H
cons is
ob ile</w>
defa ult</w>
S anta</w>
File Hip
F ri
E U</w>
ob j
cal cul
d ou
Su ite</w>
G lobal</w>
W ash
H um
dis ci
al og
T own</w>
Z e
s in</w>
reg arding</w>
IT E</w>
comple tely</w>
S t</w>
b s</w>
met al</w>
fil m</w>
Febr uary</w>
und ry</w>
si mul
independ ent</w>
o v
eng ine</w>
mo de</w>
h ood</w>
b ig
inst all</w>
Por tu
200 7</w>
wel l-
g al</w>
SQ L</w>
M em
li z
long -
ound ation</w>
chang ed</w>
10 0
ac es</w>
Andro id</w>
is tic</w>
w ish</w>
m et</w>
Fe at
plan ning</w>
de ter
H igh</w>
C E</w>
partic ul
ai g
ha vi
Mach ine</w>
b es
er r
to m</w>
ource. axd</w>
A f
re main</w>
B -
p ain
L L
ad er</w>
intel lig
N ow</w>
C y
strate gy</w>
cli mate</w>
Ser ies</w>
infra structure</w>
tr o</w>
Manufactur ers</w>
tr u
Ge or
wr ite</w>
Con vention</w>
tr ack</w>
enc yclopedia</w>
O D
P ower</w>
accommod ations</w>
sa tellite</w>
fin ally</w>
per form</w>
ti tle</w>
P C
set ting</w>
bey ond</w>
re ached</w>
de dic
5 5</w>
- -</w>
correc t</w>
avo id</w>
ad vis
v ation</w>
suppli ers</w>
part ner</w>
R ome</w>
lead ers</w>
ac qu
A venue</w>
dec ision</w>
at ch</w>
o x
Pro c
is s
en able</w>
allow ed</w>
signific ant</w>
Hol land</w>
cer tain
enc ed</w>
n uc
Sci ence</w>
K i
sp acious</w>
c ris
ad ed</w>
con flic
cul tural</w>
et ers</w>
Res ource.axd</w>
um s</w>
4 8</w>
aut y</w>
per man
trans port</w>
compl y</w>
e th
tow ards</w>
M C
hos tels</w>
nit ure</w>
w er</w>
- up</w>
p ass</w>
cam era</w>
In v
Ch urch</w>
su itable</w>
ti que</w>
o l</w>
l ength</w>
In stitute</w>
tr ading</w>
Qu e
itch en
all ery</w>
arti cles</w>
dis cre
ari an</w>
7 0
wr ong</w>
ar a</w>
chem ical</w>
val u
see ing</w>
li ves</w>
m aster</w>
d ly</w>
port ers</w>
regul ations</w>
en su
Barcel ona</w>
A S</w>
B C</w>
sup pl
W E
u ment</w>
ag n
19 6
an nel</w>
tr ust</w>
am ent</w>
le av
Eng ine
id ed</w>
compreh ensive</w>
wh om</w>
in i</w>
ul tural</w>
e vid
l y
Bal tic</w>
dam ages</w>
se x</w>
form er</w>
r ise</w>
tech ni
nei gh
p u
opportun ities</w>
Gu arantee</w>
au gh
ag ents</w>
V ic
gi ving</w>
continu ed</w>
un its</w>
O ur</w>
ul ti
effor ts</w>
T ut
Inst agram</w>
8 -
ord ers</w>
d ry</w>
la u
s .</w>
fer ences</w>
i x</w>
Mar keting</w>
S -
sh ared</w>
produc ed</w>
l ate</w>
ie f</w>
in form</w>
m ir
acc essible</w>
meth ods</w>
is co</w>
enter prises</w>
st ock</w>
shop s</w>
de gree</w>
hi on</w>
e at</w>
pre sid
innov ative</w>
con sequ
B a
ma tely</w>
D em
l uxury</w>
w in</w>
monit oring</w>
Cali for
sub s
tempor ary</w>
Fe der
S hi
sk ills</w>
l led</w>
g ol
view ed</w>
sel l</w>
dedic ated</w>
measure ment</w>
friger ator</w>
affili ates</w>
st a</w>
pack aging</w>
s ports</w>
id es</w>
over all</w>
W in
po .com</w>
be havi
li m
G al
Ad vis
chec k-
bil lion</w>
es h</w>
L e</w>
tion ary</w>
FileHip po.com</w>
sor ry</w>
ki e</w>
ic h
le ts</w>
enc our
com pli
w il
x ing</w>
Pro file</w>
third- party</w>
al u
u als</w>
La ke</w>
B row
S T</w>
recomm end
mo vi
fin al</w>
exper ts</w>
U C
success ful</w>
con nect</w>
al ized</w>
wh ose</w>
appe ar</w>
Pla yer</w>
Gre en</w>
up d
S ha
Fir st</w>
st ates</w>
comm ents</w>
particul arly</w>
o red</w>
che apest</w>
pre t
tou ch</w>
reserv ation</w>
Sp a</w>
intern al</w>
f ying</w>
re -
po st
U D
de mo
compl im
ne g
ch annels</w>
tri p</w>
si ght</w>
pl astic</w>
fu el</w>
Hi m</w>
P RE
in come</w>
play er</w>
claim s</w>
Bri tish</w>
s n
m as</w>
m 2</w>
p aid</w>
tr aff
v ote</w>
B ur
sig ned</w>
fr u
conveni ent</w>
20 00</w>
D en
cre ating</w>
re pe
col labor
n on
Califor nia</w>
b atter
sett ings</w>
c utting</w>
fo ot
del e
g ates</w>
tain ing</w>
accur acy</w>
SER VIC
Ap ple</w>
F OR
9 9</w>
Re al</w>
YO U</w>
pos e</w>
wa it</w>
bal cony</w>
To ilet</w>
ko k</w>
Direc tor</w>
ec t
I A</w>
re ference</w>
de ad</w>
architec ture</w>
W el
k ing
P ass
Ch il
b ound</w>
gu arantee</w>
air -
port ation</w>
4.0.303 19</w>
ess ential</w>
p p
p ped</w>
ang er</w>
I s</w>
be at</w>
ack nowledge</w>
ab led</w>
ob ject</w>
Cust om
Ro yal</w>
p on
re ports</w>
su n</w>
Corpor ation</w>
I AL</w>
fr ing
integr ation</w>
p ip
He alth</w>
st reet</w>
dy nam
ci tiz
ag e
curren cy</w>
J e
R em
Ri ver</w>
O b
p al
organiz ations</w>
fe e</w>
ed ge</w>
b o</w>
L ines</w>
sub si
L ab
down lo
circum stances</w>
go ti
enter ed</w>
consum ption</w>
A TION</w>
C ar</w>
le -
ak er</w>
mess ages</w>
A sian</w>
ad y</w>
i ous</w>
m ol
reserv ations</w>
sw imming</w>
read ing</w>
h am
hos p
fu n</w>
s .com</w>
s quare</w>
f ish</w>
a rest</w>
de posit</w>
F ather</w>
Restaur ant</w>
r ound</w>
ver ing</w>
ide as</w>
th inking</w>
reserv es</w>
f ab
on ic</w>
n ames</w>
Gover n
l aser</w>
mid dle</w>
there of</w>
dec or
ev alu
Pro ject</w>
f resh</w>
Stu dio</w>
sci ence</w>
u g</w>
Bang kok</w>
D om
inf o</w>
L ast</w>
f ill</w>
and ed</w>
J os
Lin ux</w>
sup ported</w>
use ful</w>
u plo
langu ages</w>
ap ers</w>
T our
dest ro
gg er</w>
li qu
Fl ash</w>
ul ture</w>
resi stance</w>
pre par
sec tor</w>
k er
fur n
Speci al</w>
direc tion</w>
3 5
state ment</w>
Egyp t</w>
el ements</w>
- to-
ji ang</w>
s a</w>
s at</w>
D oc
Lim ited</w>
P aci
F ood</w>
Contro l</w>
bl ue</w>
we ar</w>
O EM</w>
bud get</w>
b a</w>
regi onal</w>
reas ons</w>
V eg
Pal ace</w>
dat abase</w>
Ac count</w>
do cu
conc ept</w>
ec ting</w>
U T</w>
de mon
sens or</w>
docu ment</w>
C li
D u
Aut om
nor mal</w>
Co de</w>
g ent
ecti vely</w>
ar bit
C z
MA C</w>
As s
intel lectual</w>
ri gh
3 00</w>
ul a</w>
G ame</w>
E ar
b es</w>
Com mer
1 1
t as
ess or</w>
2 9
fe et</w>
. net</w>
har m
exp an
ad op
T ro
p ath</w>
hard ware</w>
Mex ico</w>
Bra z
d ney</w>
ast le</w>
N ations</w>
terr ace</w>
open ing</w>
pa tent</w>
d on
termin ate</w>
min imum</w>
IS E</w>
tur ns</w>
rec ord</w>
comp ut
ra di
man ner</w>
k no
ar ms</w>
wal king</w>
rem ote</w>
cri min
at tle</w>
si t</w>
bri dge</w>
E state</w>
pres ence</w>
cu is
C R
ne goti
ch ure</w>
p at
cli ent</w>
T re
S ITE</w>
qu es</w>
R et
complim entary</w>
ren ce</w>
Sup port</w>
comp ati
i ons</w>
er e
US B</w>
Me dia</w>
dis ease</w>
it ual</w>
ad or</w>
smo king</w>
smar t</w>
vol ume</w>
ver i
re fund</w>
challeng es</w>
sum mer</w>
pl ays</w>
3 7
Ad d</w>
oun ge</w>
install ed</w>
ic ate</w>
b ath</w>
my self</w>
li ft</w>
n al</w>
WAR RAN
Micro chip</w>
la undry</w>
bre ak</w>
qu ar
Tra vel</w>
F ound</w>
de man
tri bu
200 5</w>
D ouble</w>
F u
Op en</w>
ar ch
sur ve
inde ed</w>
G o
H on
at mos
the e</w>
Paci fic</w>
200 6</w>
we ather</w>
attrac tions</w>
Bo ard</w>
lead er</w>
r i</w>
t om
1, 200</w>
invol ved</w>
S on</w>
Ch at</w>
ail s</w>
A do
reco very</w>
der i
4 2</w>
al ist</w>
prom ote</w>
traff ic</w>
Hi gh
re vol
Chec k</w>
bot tom</w>
col d</w>
pro mis
Loc ation</w>
P aul</w>
ac king</w>
f ing
Tut or</w>
M ot
sm all
m ass
Ber lin</w>
ann ual</w>
Appl ication</w>
vir tual</w>
il ies</w>
B log</w>
Sta r</w>
fac es</w>
Equ ip
histor ical</w>
o grap
3 0.00</w>
4 9</w>
ori al</w>
Res earch</w>
Pro tec
Li ve</w>
Ital ian</w>
jo in</w>
in fring
sh ou
differ ence</w>
Bi ble</w>
gi f</w>
wor ked</w>
pack age</w>
E v
ren ts</w>
posi tive</w>
I E
Ado be</w>
te s
des p
follow ed</w>
Sy dney</w>
M IT
Ind ustrial</w>
en for
ship ping</w>
Commun ity</w>
S um
te ur</w>
sp irit</w>
St ore</w>
th es</w>
mo ving</w>
flo ors</w>
tri ed</w>
K ar
work ers</w>
f al
canc er</w>
C OR
arr ang
z es</w>
un c
. html</w>
ure ly</w>
di am
bal ance</w>
po or</w>
af ter
condi tion</w>
4 1</w>
descri bed</w>
prac tices</w>
k ings</w>
Ma x</w>
F air
show ing</w>
tow ard</w>
al ty</w>
D own
M er
C off
ain ed</w>
P AR
limit ation</w>
defin ed</w>
boo ks</w>
add res
con tain</w>
mo vement</w>
par ti
f our
S E</w>
C P
condition ed</w>
multi -
comb ination</w>
w rought</w>
In tel</w>
C op
in struc
X i
cur red</w>
p et
anti -
ex plo
assi stance</w>
C le
en ables</w>
provi ders</w>
nuc lear</w>
estab lish
pass ed</w>
bre ach</w>
Ber ry</w>
as sets</w>
f illed</w>
ket tle</w>
g res
graph ics</w>
seem ed</w>
dar k</w>
emplo yment</w>
in ess</w>
ati vely</w>
pi ece</w>
r ub
f oot</w>
r ant</w>
Net work</w>
4 4</w>
ch air</w>
b ol
per mission</w>
Vi et
us ted</w>
us ion</w>
ver si
in clusive</w>
P S</w>
commun ications</w>
O per
t ons</w>
fur niture</w>
L -
recommend ations</w>
busin esses</w>
in ks</w>
sup ports</w>
ad o</w>
pro gress</w>
se ven</w>
D ining</w>
us al
sec re
en ge</w>
apart ments</w>
Ad mini
is sions</w>
Over view</w>
vis iting</w>
B ed
A C</w>
own er</w>
star ting</w>
institu tions</w>
id a</w>
S el
cri tical</w>
Syste ms</w>
pic ture</w>
de plo
rel ations</w>
is on</w>
M c
is ation</w>
Ar ticle</w>
enter tainment</w>
to il
bour ne</w>
So cial</w>
sk y</w>
Pers onal</w>
v ille</w>
mi um</w>
L os</w>
qu ali
li mit</w>
go al</w>
De partment</w>
play ing</w>
for th</w>
S team</w>
S pr
R en
cris is</w>
beli ev
hi dden</w>
re turned</w>
cho ols</w>
et ries</w>
For um</w>
si b
Wh en</w>
im ag
Qu ick</w>
ur is
rou te</w>
M ari
Dr .</w>
ro t
C ard</w>
co ol
br an
Re views</w>
chang ing</w>
al ism</w>
M E
C at
ind ustries</w>
auth or</w>
D ig
pur su
conveni ence</w>
g .</w>
Associ ation</w>
al ed</w>
Ex ec
P res
n a
Jer usal
0. 2</w>
ut y</w>
rele ased</w>
Pla za</w>
1 st</w>
ten ce</w>
z one</w>
ferryto .com</w>
rec ently</w>
Coff ee</w>
ograph y</w>
W ater</w>
v oc
Ap p</w>
thous ands</w>
T op</w>
provi der</w>
anc y</w>
G D
sp ring</w>
Jerusal em</w>
Equip ment</w>
certi fic
Mar ket</w>
oo d
Li fe</w>
regi ons</w>
Suppli ers</w>
B ar</w>
num bers</w>
pre -
ess ed</w>
M obile</w>
speci fied</w>
So ci
alog ue</w>
ent ing</w>
g one</w>
U k
b loc
config uration</w>
H il
deli vered</w>
v it
ti s</w>
V ia</w>
Pro per
y le</w>
fe eling</w>
hel p
expl ore</w>
jo int</w>
3 8
la un
c ast</w>
g ain</w>
ot t</w>
form at</w>
Tim e</w>
Wh ite</w>
hum an
Cz ech</w>
C A</w>
gener ally</w>
re stric
fiel ds</w>
discre tion</w>
aran te
appl ied</w>
ta i
Pl at
B ul
commit ted</w>
Bud d
P u
comp ared</w>
deter mine</w>
oun ding</w>
mechan ical</w>
tar get</w>
Black Berry</w>
7 -
S D
comp are</w>
bed room</w>
Pr ague</w>
inv esti
H or
dec ided</w>
rec or
r ace</w>
fac tors</w>
in put</w>
el ine</w>
pro bab
cuis ine</w>
ip p
fe ar</w>
peri or</w>
um n</w>
ri a</w>
for ces</w>
en a</w>
D ating</w>
oc cas
administr ative</w>
ke y
J ud
extre m
flexi ble</w>
ber g</w>
sen si
gr am
S crip
Pro vince</w>
a sts</w>
hos tel</w>
al and</w>
ent y</w>
T R</w>
cel e
seem s</w>
del ete</w>
il s</w>
10 -
ex ac
adv ice</w>
O ri
C oo
seri ous</w>
oc cup
AL L</w>
ma y
Fam ily</w>
tim et
t an
N atural</w>
ti se</w>
sle ep</w>
w est</w>
te sts</w>
o o</w>
camp aig
appoin ted</w>
in ated</w>
k top</w>
5 6</w>
and a</w>
sp a</w>
- based</w>
S en
reg ular</w>
Engine ering</w>
A U
dr ink</w>
4 3</w>
heav en</w>
happ ened</w>
increas ing</w>
Cer ti
it ory</w>
per cent</w>
Sol utions</w>
cor respon
direc ted</w>
Col lege</w>
la y
is ure</w>
c os
IL ITY</w>
L as</w>
el ess</w>
sav ed</w>
adj ust
h aps</w>
4 6</w>
fr ame</w>
Ma c</w>
un likely</w>
D AT
i e</w>
pl us</w>
s low
F ind</w>
f ts</w>
Franc isco</w>
entr y</w>
Sw it
part ure</w>
K o
Cl oud</w>
con tents</w>
W H
prin ting</w>
heal thy</w>
ven ess</w>
it a</w>
0. 0</w>
br ation</w>
di um</w>
rec re
P ow
ma them
st ability</w>
wi d
f it</w>
hu ge</w>
e. g.</w>
be ds</w>
al ize</w>
a ware</w>
doc um
sp a
LO G
bro chure</w>
Bi g</w>
co w</w>
us er
fil ter</w>
Con ver
car ds</w>
d augh
pa rents</w>
mon itor</w>
sh ape</w>
gr ant</w>
pre dic
fl or
vers al</w>
Tri p
c m</w>
Swit zer
Bud apest</w>
9 5</w>
Advis or</w>
J in
func tion
t in
el er
Hum an</w>
sugg estions</w>
k ept</w>
4 7</w>
TC 1
Hol iday</w>
B ab
l ity</w>
implem entation</w>
ac tual</w>
car ry</w>
RE E</w>
en e</w>
k o</w>
fl at</w>
comm and</w>
c ement</w>
bab y</w>
probab ly</w>
E -
Par t
5 8</w>
per haps</w>
di men
ei ght</w>
P ublic</w>
Gre ece</w>
Switzer land</w>
d am</w>
TI ES</w>
P ack
Wash ington</w>
G ir
P os
warran ties</w>
Mal ay
sp ot</w>
ound ings</w>
de al
5 1</w>
electr ical</w>
ann er</w>
Ex porters</w>
ban ks</w>
ky o</w>
D rive</w>
Ze aland</w>
3 2
s y</w>
ed back</w>
en cies</w>
ac ked</w>
atmos phere</w>
dra w</w>
ti n</w>
ar ts</w>
author ity</w>
TH ER</w>
id ity</w>
M om</w>
w ine</w>
trade .com</w>
ic ity</w>
u k</w>
part ner
i -
TE CH
res ulting</w>
B ir
dec isi
compli ance</w>
feat uring</w>
R u
Condi tions</w>
fig ure</w>
confirm ation</w>
Ch e
hom es</w>
is es</w>
l t;</w>
& lt;</w>
surr oundings</w>
o tive</w>
c ell</w>
transl ation</w>
M u
jour ney</w>
en na</w>
2 50</w>
wonder ful</w>
timet ables</w>
B O
t ree</w>
T ow
am i</w>
D ef
war m</w>
pl ants</w>
Bl ue</w>
n ation</w>
s ources</w>
it y
wh ate
oll ar</w>
tai wan
care fully</w>
ri age</w>
taiwan trade.com</w>
ab sol
is land</w>
DV D</w>
cor rup
h r</w>
Min ister</w>
v ul
whate ver</w>
ch ron
D I
driv ing</w>
g ar</w>
exerc ise</w>
Col om
ar ily</w>
res ource</w>
li e</w>
G H
g in</w>
5 2</w>
gi ft</w>
U r
ru le</w>
wor th</w>
toil etries</w>
viol ation</w>
w ash
S C
upd ated</w>
ite m</w>
s ister</w>
c ycle</w>
S I
x x
eas ier</w>
free dom</w>
un for
Pl ace</w>
tru ly</w>
L ic
trans portation</w>
Buil ding</w>
el d</w>
Cour t</w>
b us
individ uals</w>
S pe
con ference</w>
Pe ter</w>
A ra
19 .
i P
W IND
Mat eri
ay a</w>
subsi di
char ges</w>
manufactur ers</w>
s qu
mot or</w>
ast ing</w>
achi ev
un authorized</w>
p ical</w>
pro pri
cell s</w>
B ut</w>
D o
remain s</w>
Elec tric</w>
pl ans</w>
h i</w>
che ap</w>
pub lic
ter ed</w>
a o
on es
pl as
ar i</w>
Govern ment</w>
spir itual</w>
Ar ab
6 5</w>
cons ci
seas on</w>
wee ks</w>
reli ability</w>
An ti
be auty</w>
prec ision</w>
tr a</w>
Ch i
low ers</w>
R ob
Christi an</w>
gran ted</w>
Mil an</w>
am az
agn os
sol d</w>
re ality</w>
C N
WIND O
on ia</w>
D C</w>
el eg
Mel bourne</w>
ra ted</w>
mem ber
H om
Wor d
m el
Ad vertis
nei ther</w>
ten ed</w>
camp site</w>
B ack
m enti
blo g</w>
identi fy</w>
b ing</w>
J ac
En er
pic tures</w>
sh ut
lab or</w>
evid ence</w>
s pl
religi on</w>
L CD</w>
ar ance</w>
hous es</w>
H ard
P OR
pe l</w>
che aper</w>
ac le</w>
der ed</w>
ame ter</w>
WINDO WS</w>
sch ed
offic ers</w>
el im
it age</w>
fol io</w>
s ac
bo y</w>
long- term</w>
min im
car ried</w>
o de</w>
Regi str
E V
b lock</w>
strate gic</w>
Mus ic</w>
Sho wer</w>
uris dic
di vi
ne arest</w>
ligh ting</w>
j a</w>
S m
Par king</w>
Vis a</w>
ul l</w>
appe ared</w>
inter esting</w>
m ed</w>
character istics</w>
grad u
certain ly</w>
sign al</w>
l ation</w>
ym p
5 4</w>
Y ear</w>
C ro
ti le</w>
f em
E ducation</w>
per mitted</w>
e ds</w>
ra in</w>
ne arly</w>
admini stration</w>
Exec utive</w>
n am</w>
Ex hibition</w>
cons ult
on e-
perman ent</w>
dest inations</w>
conflic t</w>
M un
g y
Col lec
f aster</w>
Christ mas</w>
a c</w>
O ce
the ory</w>
cl ass
dis coun
a res</w>
b in
ex port</w>
LI MIT
Ale x
al a</w>
cre ation</w>
pri mary</w>
5 3</w>
K e
Flo rence</w>
D on
B or
re ve
demo cr
TION S</w>
com par
lab els</w>
respon d</w>
L ou
extrem ely</w>
vol tage</w>
IS O</w>
um in
ma r</w>
w ro
le isure</w>
sh aring</w>
ay ed</w>
ki ds</w>
m ut
D O
H D</w>
el ev
stud ent</w>
produc tivity</w>
e ding</w>
main ly</w>
help ful</w>
prac tical</w>
p ain</w>
requ esting</w>
he ating</w>
tu de</w>
p as
M B
S an
it ter</w>
hol ding</w>
al lo
tal king</w>
th i
J P
contain ed</w>
con stitu
t ask</w>
f ounded</w>
Angel es</w>
effor t</w>
Custom er</w>
ob lig
d able</w>
T S
4 8
desig ns</w>
c .</w>
5 9</w>
N A
qui et</w>
ec tor</w>
de partment</w>
ugg age</w>
au di
N um
st able</w>
tic ally</w>
net works</w>
sec urely</w>
Mos cow</w>
govern ments</w>
do ors</w>
air- conditioned</w>
Inv est
answ ered</w>
sustain able</w>
ed itor</w>
inten ded</w>
F A
g s</w>
flexi bility</w>
B ook</w>
rep air</w>
A z
h us
200 4</w>
st ress</w>
T ech</w>
g ment</w>
s mil
p ick</w>
advant ages</w>
str ong
enti ty</w>
me an
e di
L angu
rela x</w>
becom es</w>
Trip Advisor</w>
ro ll</w>
Qu ality</w>
Gr ap
ex tent</w>
dis h
any where</w>
pos ite</w>
log in</w>
L ar
j urisdic
exac tly</w>
comb ined</w>
am bi
te ch</w>
inst ant</w>
S he
ac her</w>
call s</w>
sc ape</w>
agre ed</w>
fam ilies</w>
j u
ici ous</w>
Er ror</w>
num erous</w>
comple ted</w>
prep ared</w>
A s</w>
L uc
ph il
Kore an</w>
ey e</w>
e duc
recomm end</w>
cu r</w>
king .com</w>
Tor onto</w>
So vi
0 2</w>
or g
Uk ra
f ell</w>
0 8</w>
TECH NO
r an</w>
ens es</w>
tur ning</w>
g ro
P ay
im pres
fi xed</w>
loc ations</w>
batter y</w>
f air</w>
tion ally</w>
ate st</w>
author ities</w>
g row</w>
wal ked</w>
go es</w>
C r
sens ors</w>
sav ing</w>
j usti
h es
reduc ed</w>
previ ously</w>
r ati
Se x</w>
Mid dle</w>
T T
off ici
attemp t</w>
Au th
sw itch
lo ved</w>
religi ous</w>
sh ap
G old</w>
con centr
tu b</w>
hol ders</w>
ta g</w>
nam ed</w>
wro te</w>
s burg</w>
is n</w>
stu dies</w>
z y</w>
wa iting</w>
IN TER
larg er</w>
el low</w>
In f
mod ule</w>
qu ari
loo ks</w>
y r
K u
sto red</w>
W IT
pati ents</w>
res erve</w>
ri er</w>
p t
beg in</w>
TECHNO LOG
vent ure</w>
A ustri
4 00</w>
z ing</w>
k il
scienti fic</w>
behavi or</w>
ob tained</w>
B on
influ ence</w>
ENT ER
Bou tique</w>
in cid
vir us</w>
Saf ety</w>
g ri
menti oned</w>
impro ved</w>
comp res
acc eler
ali an</w>
y uan</w>
kin ds</w>
direc tors</w>
cle arly</w>
par am
L ear
on- site</w>
8 8
M B</w>
cust om</w>
ell o</w>
sp read</w>
S ize</w>
Ph u
repres ent</w>
ac he</w>
Electron ics</w>
d eci
c row
fun ds</w>
li er</w>
car s</w>
el ines</w>
ch annel</w>
i on
d or
ag ric
consum er</w>
esti val</w>
0 5</w>
gu arante
in str
L an
pres ented</w>
Braz il</w>
termin ation</w>
me aning</w>
M oun
as sum
distribu te</w>
aff ect</w>
exten sive</w>
en em
li ons</w>
ard ens</w>
play ers</w>
Lt d
clos ure</w>
pro of</w>
i Phone</w>
Ara b</w>
A HC
fac tory</w>
5 7</w>
A th
sh ot</w>
an -
import ance</w>
t led</w>
exper tise</w>
desp ite</w>
f is
chall enge</w>
co -
ch ance</w>
a dem
M ulti
at ures</w>
Q U
f uc
de bt</w>
cap abilities</w>
- time</w>
ol a</w>
sur vi
ki stan</w>
sol ar</w>
oc r
professi on
cou ldn</w>
wi del
in dem
enh ance</w>
Can a
Ear th</w>
Con gress</w>
C -
micro wave</w>
G allery</w>
N an
Mach inery</w>
ess ing</w>
pro j
m es</w>
P ER
ro p
heav y</w>
3 3
check- in</w>
g n
d river</w>
sc ope</w>
meas ure</w>
h an</w>
b ass
m ass</w>
D N
cou ple</w>
ch at</w>
T ower</w>
Econom ic</w>
j pg</w>
ca uses</w>
n ot
hand le</w>
l ack</w>
stain less</w>
l ay</w>
he aring</w>
tour ist</w>
atic s</w>
H all</w>
ES T</w>
secon ds</w>
trans mission</w>
F R
m as
recomm ended</w>
in t
D o</w>
Vi enna</w>
ob jects</w>
Pro gram
ti v
th -
D E
pop ul
ang le</w>
accoun ts</w>
c ab
6 4</w>
B E
um p
Ama teur</w>
MA G
ENTER PR
widel y</w>
SN74 AHC
H air
s or</w>
Mus li
pub l
mass age</w>
ar ity</w>
se ek</w>
ou l</w>
serv ers</w>
tele vision</w>
E s
Se e</w>
To kyo</w>
Cas ino</w>
f light</w>
c ross</w>
thous and</w>
entr ance</w>
stre am</w>
ci vil</w>
7 7
exp ect</w>
st ly</w>
. ...</w>
re place</w>
Hil ton</w>
St or
tele phone</w>
Techn ologies</w>
pleas ant</w>
competi tion</w>
in ion</w>
su perior</w>
Ar ts</w>
es cap
arr ay</w>
Re ad</w>
val ve</w>
Ad v
appe ars</w>
dynam ic</w>
TC1 303
S mar
200 3</w>
ev ening</w>
continu ous</w>
an i</w>
cra ft</w>
si des</w>
p ump</w>
appro xi
Com mission</w>
In tel
experi enced</w>
F lowers</w>
ec es</w>
mo re
lo go</w>
P ort</w>
insp ection</w>
Jav a</w>
w w
ph ones</w>
V M
Sovi et</w>
A -
fas hion</w>
happ en</w>
No .
w ai
Viet nam</w>
h ot
ro b
de b
remo ved</w>
gir ls</w>
fin ished</w>
certi fication</w>
Res erv
P S
ho p</w>
ap ps</w>
ap preci
Out door</w>
sou l</w>
ro be</w>
autom ation</w>
p il
determin ed</w>
Dig ital</w>
th r
et ings</w>
recre ational</w>
i m</w>
b right</w>
ste n</w>
direc ting</w>
bro ad
ag ent</w>
ak es</w>
la h</w>
propri etary</w>
a ks</w>
Re port</w>
n es
her self</w>
ous ness</w>
is sion</w>
approxi mately</w>
compon ent</w>
sp end</w>
I II</w>
s ons</w>
B R
s u</w>
own ed</w>
H and
cor ner</w>
c ing</w>
C ent
Wor d</w>
sw itch</w>
B E</w>
contro lled</w>
C ho
trade marks</w>
WIT H</w>
R ate</w>
x es</w>
li ber
AB ILITY</w>
Boo king.com</w>
dis close</w>
Pr o</w>
Bl ack</w>
ob li
elec tro
qu anti
Ex change</w>
K el
c lock</w>
7 2
hun dre
car bon</w>
pl ates</w>
exam ples</w>
ur al</w>
gr ounds</w>
d u</w>
as ing</w>
hol der</w>
on e
scen e</w>
M A</w>
urb an</w>
com ment</w>
Wor k
ra w</w>
hand ling</w>
issu ed</w>
ref use</w>
princi ple</w>
H ung
X X
6 9</w>
sub sequ
s chools</w>
v enti
fi f
e vil</w>
wa ste</w>
plac ement</w>
se ating</w>
Phu ket</w>
D ar
u a</w>
fi ght</w>
cl ic
bre ak
H a
sit ting</w>
qu e
con struc
av es</w>
G ra
und red</w>
ag on</w>
was n</w>
citiz ens</w>
Veg as</w>
P eter
di agnos
B ath</w>
I MP
D ong
ris ks</w>
Li brary</w>
Protec tion</w>
ro se</w>
Med ical</w>
M ember</w>
g est</w>
exper t</w>
d ol
bl ing</w>
t i</w>
s ly</w>
l uggage</w>
pan el</w>
categ ories</w>
Tim es</w>
re ci
Acc ess</w>
sam ple</w>
in ts</w>
tu be</w>
Bed room</w>
exc ep
clus ion</w>
r ay</w>
low -
we ap
an ning</w>
Word Press</w>
IN G
l es
No .</w>
cir cu
certi fied</w>
M en
6 6</w>
St ud
see m</w>
dro p</w>
Fin ancial</w>
Coun ty</w>
Mos es</w>
g ency</w>
pro p
for ced</w>
ush ed</w>
l ose</w>
3- star</w>
la yer</w>
Dub ai</w>
K en
CO MP
att ack</w>
spe aking</w>
bro ther</w>
conf identi
de em
WARRAN TIES</w>
Ener gy</w>
st ated</w>
D R
Bri dge</w>
K itchen
am ic</w>
In dian</w>
house keeping</w>
ell a</w>
al es</w>
6 8</w>
reg ard</w>
s tic
g a</w>
ex is
Ad dress</w>
elec tion</w>
conduc t</w>
cour ses</w>
Res idence</w>
TECHNOLOG Y</w>
CA D</w>
C ir
sp on
il it
estab lish</w>
bl ed</w>
lit er
E T</w>
L uxury</w>
v ary</w>
loc ality</w>
becom ing</w>
prom p
Hos tels</w>
Pol and</w>
ra id</w>
j i</w>
ati n</w>
g am
of -
W r
fun dam
introduc tion</w>
techni ques</w>
all er
eleg ant</w>
H ill</w>
V E</w>
collec ted</w>
proced ures</w>
pro portion</w>
hundre ds</w>
Fl or
u um</w>
Ind ones
histor ic</w>
up dates</w>
frequ ency</w>
cas h</w>
Gre en
E l</w>
custom ized</w>
Que en</w>
dis played</w>
user name</w>
se at</w>
Ch em
h undred</w>
b et</w>
pi eces</w>
t ance</w>
port folio</w>
in ch</w>
ur o</w>
fi x</w>
0. 3</w>
princi ples</w>
.j s</w>
ali sts</w>
inde x</w>
concer ning</w>
agre ements</w>
C ateg
de ep
Elec tr
fe edback</w>
buil dings</w>
ordin ary</w>
re turns</w>
oper ate</w>
err ors</w>
Ol ymp
hous ing</w>
Malay sia</w>
mer ch
Tr ump</w>
th ouse</w>
w it
M E</w>
announ ced</w>
L ev
9 9
Val ley</w>
Bl u
ade my</w>
ung sten</w>
sh o
gh tly</w>
os pel</w>
mis sions</w>
S lo
A R</w>
S ar
me dic
an ch
4.0.303 19.
Com m
1 50</w>
P op
ori tes</w>
Con s
R am
man aged</w>
.co .
M e</w>
lau gh
af for
t ings</w>
respon ded</w>
ha ir
A t</w>
0. 5</w>
s ort</w>
em o
U p</w>
Ch ang
d ens
Gre ek</w>
no ise</w>
RO M</w>
ass embly</w>
be ar</w>
f uck</w>
vill age</w>
suff ici
hy dro
fal se</w>
Mini stry</w>
Gu ide</w>
S ain
we alth</w>
ra ised</w>
Bel gi
vehic les</w>
sol id</w>
GD P</w>
re ferred</w>
own ers</w>
bu ff
Enter prise</w>
K ey</w>
ph ase</w>
posi tion
noti fy</w>
Po int</w>
in complete</w>
Afr ican</w>
param eters</w>
br ings</w>
Wel come</w>
A k
lin ked</w>
Br it
maj ority</w>
as su
p un
Se oul</w>
te aching</w>
ic ip
inter active</w>
pub lish</w>
d inner</w>
f ant
f all
u ted</w>
ater al</w>
mig ration</w>
Proper ty</w>
w ants</w>
e on</w>
ac ting</w>
t ags</w>
lead ership</w>
F ol
serv ic
ac cid
J ews</w>
st al</w>
Eng land</w>
v s</w>
ga ther
gg ing</w>
meas uring</w>
p es</w>
expres sly</w>
i ble</w>
mo tion</w>
EX PRE
. gif</w>
vul ner
acti v
a wa
ri de</w>
Ar chitec
Ex c
charac ter</w>
Tai wan
t ol
g or
altern ative</w>
dis k</w>
r ating</w>
al ities</w>
mi st
Tur key</w>
in door</w>
oc cur</w>
anim als</w>
s ers</w>
ni fy</w>
st ings</w>
am ed</w>
im plied</w>
pol l
Con nec
P ool</w>
fic ally</w>
compati ble</w>
N ic
fr on
g lob
A ward</w>
ad el
l ing
i res</w>
Loc ated</w>
visi ted</w>
smar t
h ire</w>
ENTERPR ISE</w>
R ail
F F
certific ate</w>
a war
aff ected</w>
serv es</w>
0 9</w>
T un
ab e
ti an</w>
Am ster
dele ted</w>
n one</w>
in fl
presid ent</w>
pos sibility</w>
particip ate</w>
Mo del</w>
af raid</w>
Feder al</w>
n ations</w>
r ul
bur gh</w>
Mad rid</w>
sensi tive</w>
visi ble</w>
f ies</w>
Registr ant</w>
ne ys</w>
f lights</w>
remo val</w>
sp ent</w>
liqu id</w>
0 3</w>
fam ili
ob vi
il a</w>
h ath</w>
es is</w>
P ic
en -
T -
art ers</w>
P E</w>
ep h
ro l
sh ar
man ufacturer</w>
rap id</w>
se as</w>
est ate</w>
ari o</w>
instruc tions</w>
i ds</w>
def end</w>
prep are</w>
our ite</w>
gh ting</w>
ul ous</w>
daugh ter</w>
co l</w>
z i
p ath
9 -
0 7</w>
anci ent</w>
fir m</w>
Tic ket</w>
der ing</w>
appe arance</w>
CL UD
sh an</w>
partner ship</w>
I V</w>
v et
success fully</w>
bro ad</w>
pre ferred</w>
may be</w>
de x</w>
care er</w>
Re view</w>
lis ten</w>
ci a</w>
res ort</w>
m b
sm ile</w>
recogni zed</w>
obli gation</w>
Restaur ants</w>
hus band</w>
Amster dam</w>
p um
uni versity</w>
uc k
li brary</w>
ensu res</w>
decisi ons</w>
man ual</w>
rel ating</w>
in accurate</w>
fru it</w>
blo gger</w>
allow ing</w>
Te am</w>
Hi story</w>
G O
intellig ent</w>
Li ght</w>
fi er</w>
F O
l at
eff ectively</w>
C C
in k
LL C</w>
re new
leav ing</w>
Sal es</w>
she et</w>
Gol f</w>
ir ing</w>
phil os
pi x
stop ped</w>
En viron
l ounge</w>
L Y</w>
ta r</w>
moun tain</w>
Th en</w>
more over</w>
tro pical</w>
Phil ipp
pol y
fe ed</w>
D S</w>
pt oms</w>
bir th</w>
co ck</w>
th ly</w>
as cript</w>
Ac ademy</w>
Gol den</w>
Fin land</w>
0 4</w>
U l
we d
ini tial</w>
te ment</w>
harm less</w>
ir a</w>
10 00</w>
wat er
To ols</w>
8 5</w>
d res
p -
V o
pret ty</w>
ba g</w>
subs cri
H en
8 6
im port</w>
R ue</w>
Re directing</w>
ing ing</w>
contro ller</w>
u i</w>
al d</w>
Dis cover</w>
IN CLUD
pleas ure</w>
tu red</w>
k is
clos et</w>
conf idence</w>
Conver ter</w>
and y</w>
P as
ri x</w>
DA MAG
man ufac
Ne ther
new er</w>
eng ers</w>
Ch ic
ol i
m o</w>
prof it</w>
M an</w>
concer ned</w>
pul led</w>
sav ings</w>
jo y</w>
an der</w>
neg ative</w>
ther mal</w>
9 3
ch ief</w>
pol ice</w>
Ar ti
introduc ed</w>
M ain</w>
ta i</w>
go als</w>
X P</w>
medi um</w>
C ams</w>
Res ources</w>
win ter</w>
B Y</w>
mach inery</w>
speci fically</w>
no tic
sa una</w>
ux e</w>
spo ke</w>
ver sions</w>
b ars</w>
them e</w>
p m</w>
al og</w>
detec tion</w>
gre atest</w>
G ran
id ation</w>
ear lier</w>
C U
Sto ck
8 00</w>
consis tent</w>
Num ber</w>
YO UR</w>
P ur
ten d</w>
OD M</w>
str ugg
Ac t</w>
d ur
consum ers</w>
Peter sburg</w>
comp ens
8 8</w>
M ess
comp il
fac ilit
att or
Ltd .</w>
esti ma
0 6</w>
appro val</w>
cent ur
dra u
200 2</w>
el ement</w>
ref er</w>
impro vement</w>
er o</w>
Advertis ement</w>
jurisdic tion</w>
5 00
Colom bia</w>
dre am</w>
INDUSTR IAL</w>
Dem ocr
tran spa
os en</w>
reduc ing</w>
w indows</w>
ch ester</w>
Ra dio</w>
ev a</w>
h r
t ac
sig ns</w>
deci de</w>
K itchen</w>
cle an
C S
gl ory</w>
typ ical</w>
im g</w>
v ements</w>
invest ors</w>
z e
8 6</w>
Bo x</w>
c am</w>
stra ight</w>
back up</w>
at re</w>
hel l</w>
6 00</w>
u k
C anc
Sho pping</w>
commit ment</w>
mat ters</w>
d ance</w>
competi tive</w>
nor th</w>
LI ED</w>
ic ated</w>
Web Resource.axd</w>
mag ne
sin s</w>
y ang</w>
r ack</w>
te en</w>
S in
pro per</w>
p ast
S et
sof a</w>
z er</w>
G B</w>
z i</w>
Portu gal</w>
travell ing</w>
um b
W om
Th om
t y-
p o</w>
2 2
r ang
EM ENT</w>
B et
ill a</w>
ear ch
E UR</w>
eas es</w>
des ired</w>
end or
op inion</w>
quari um</w>
ir oning</w>
in ate</w>
fin ance</w>
ev ent
ra il
amaz ing</w>
Ch annels</w>
the -
wee k
deri v
F oundation</w>
Nether lands</w>
wid th</w>
Tow els</w>
T ab
ass ist</w>
Pro gram</w>
evol ution</w>
ap y</w>
Oce an</w>
Collec tion</w>
CH IN
dis count</w>
0. 4</w>
real -time</w>
IMP LIED</w>
ac t
AB LE</w>
tas ks</w>
l ying</w>
i gh
hel ping</w>
Cl ick</w>
qu et</w>
gg ed</w>
b un
a head</w>
increas ingly</w>
asp ects</w>
In di
contrac tors</w>
v ast</w>
c al</w>
o ven</w>
dis plays</w>
warran ty</w>
de -
be half</w>
tran si
T E</w>
diam ond</w>
small er</w>
AP I</w>
ac adem
Techn ical</w>
F a
te ach
pr ic
sus pen
Feat ured</w>
or a</w>
me etings</w>
Re frigerator</w>
access ories</w>
Fr ank
ex hibition</w>
fac tor</w>
clo thes</w>
le gi
Swe den</w>
Jav ascript</w>
d den
affor dable</w>
Amer ic
mon y</w>
Tem ple</w>
fi ber</w>
ho sts</w>
des ktop</w>
impro ving</w>
lay out</w>
bes ides</w>
Langu age</w>
ag rap
wel ding</w>
tax i</w>
laun ched</w>
n ation
P ub
B lo
ti t
Tour ism</w>
.co. uk</w>
ar gu
An n
hol ds</w>
autom otive</w>
s port</w>
Anal y
re di
st ro
C .</w>
requ ests</w>
qu ir
Ukra ine</w>
Chil dren</w>
b order</w>
p ig
cl in
ri f
am p</w>
er ings</w>
ir o</w>
to col</w>
se y</w>
desig n
equ al</w>
was her</w>
secre t</w>
d a
Sof a</w>
Ir an</w>
st ands</w>
fac ts</w>
Lin en</w>
X i</w>
Hos tel
inst ance</w>
Di st
s anc
L ing
C lo
R ev
exp ect
re ported</w>
indem nify</w>
subsidi aries</w>
exper im
off ices</w>
i f
J ames</w>
Vill age</w>
si on
fem ale</w>
Tic kets</w>
m i</w>
char ged</w>
ut ri
li ps</w>
coun ter
An im
f are</w>
pro ph
d ang
cr y
Pl ay</w>
br ands</w>
and -
n is</w>
instr ument</w>
s outh</w>
il legal</w>
ol der</w>
con version</w>
R ad
impl ement</w>
re form</w>
201 9</w>
Lo dge</w>
Ex pl
C astle</w>
n ar
C ru
deman ds</w>
LIMIT ED</w>
h it</w>
k ingdom</w>
C ape</w>
K B</w>
Fair child</w>
az ine</w>
Co ast</w>
ac ing</w>
pl om
sub mitted</w>
profession als</w>
versi ties</w>
un able</w>
expan sion</w>
drau lic</w>
main taining</w>
ab road</w>
M aster</w>
F ROM</w>
atter n</w>
c in
tre at</w>
re d
coo kie</w>
INCLUD ING</w>
Pl us</w>
slow ly</w>
rec eption</w>
T Y</w>
tr act</w>
H o</w>
4 5
resp ective</w>
A .</w>
ER S</w>
6 1</w>
autom ated</w>
Taiwan trade</w>
real ize</w>
Cl ass</w>
200 1</w>
or -
bo dies</w>
w ri
D ep
R ol
big gest</w>
R F
Austri a</w>
i ans</w>
Chic ago</w>
r yp
man ager</w>
c au
exten ded</w>
cl asses</w>
K y
la unch</w>
dec line</w>
ad ding</w>
rel ation</w>
L at
tw o-
Fore ign</w>
enjo yed</w>
Sw iss</w>
wel l
D IS
dist inc
ma ker</w>
remain ing</w>
in vi
00 1</w>
li ved</w>
righ te
ret ary</w>
ph arm
Sup er</w>
Ama z
tre es</w>
appro ved</w>
L M
w ire</w>
cr uc
b is</w>
Te a</w>
pay ments</w>
min ing</w>
Tre at
Coun try</w>
collabor ation</w>
Dev ices</w>
ak a</w>
X -
app ed</w>
P P
pay ing</w>
te sti
Tw itter</w>
w illing</w>
L ove</w>
bath rooms</w>
con temporary</w>
G et</w>
proper ly</w>
Mo der
contro ls</w>
l ap
B ack</w>
N ap
vol un
p sy
hel ped</w>
pos sib
4- star</w>
n an</w>
li fe
S ites</w>
C af
s la
ul ty</w>
it u
des ire</w>
6 2</w>
follow s</w>
w all
me at</w>
end ar</w>
classi c</w>
en tic
ch osen</w>
form ing</w>
discus s</w>
deem ed</w>
k illed</w>
F ile</w>
cre ative</w>
fac ing</w>
connec tions</w>
o be
comp act</w>
clu b</w>
N Y</w>
environ ments</w>
achi eved</w>
Hair dryer</w>
Cas a</w>
p apers</w>
k ill</w>
Har b
re tri
ul ate</w>
sup porting</w>
gener ated</w>
the dr
pati ent</w>
S ports</w>
vac uum</w>
P ra
Ti an
Gu ang
9 7
C H</w>
y ou
SERVIC ES</w>
ac ted</w>
6 3</w>
expres sion</w>
e .</w>
P ho
re directed</w>
ong s</w>
foc used</w>
f oundation</w>
serv ing</w>
mar riage</w>
Mar ri
sol ely</w>
e ed</w>
cap it
bi o
A ff
person ally</w>
de ar</w>
new sp
signific antly</w>
att acks</w>
si ghts</w>
driv en</w>
Ro oms</w>
susp end</w>
Det ails</w>
su dden
me ter</w>
in struments</w>
divi ded</w>
M ast
war rant</w>
M ary</w>
w is
Mi ami</w>
l ots</w>
func tional</w>
canc ell
w ing</w>
Admini stration</w>
w oo
ta ste</w>
5 7
trans mitted</w>
con vers
he ight</w>
Dub lin</w>
represent atives</w>
W all</w>
posi tions</w>
R d</w>
st ations</w>
ens uring</w>
clo thing</w>
Prof essi
v an</w>
m aps</w>
av en</w>
see king</w>
Electron ic</w>
n om
Rec o
L V
un true</w>
Ven ice</w>
A D</w>
uti li
St ar
K ey
pu ts</w>
d ong</w>
campaig n</w>
ou l
Ex peri
sudden ly</w>
Ass embly</w>
an te</w>
B an
Ir on</w>
hol y</w>
belie f</w>
sol ve</w>
pow der</w>
am ber</w>
sur pris
sk i</w>
si r</w>
con text</w>
cent ers</w>
se l</w>
Cha ir
vis ual</w>
Ri o</w>
valu able</w>
Rail way</w>
M aps</w>
Ch i</w>
Commer ce</w>
shut tle</w>
y ear
pro te
S I</w>
wh ere
f an</w>
re nov
pro vince</w>
S mo
T L
ci v
y .
con ve
00 0
Reco very</w>
T our</w>
cl ing</w>
ph as
doc tor</w>
sym ptoms</w>
JP G</w>
C u
out standing</w>
i um</w>
lab el</w>
Indones ia</w>
ve get
continu es</w>
t ungsten</w>
sen ior</w>
4 7
ve -
here by</w>
Ar gent
fit ted</w>
uplo ad</w>
dec ades</w>
A si
G o</w>
st a
ur a</w>
reduc tion</w>
c ro
tun ately</w>
increas es</w>
oblig ations</w>
Scrip t
transl ate</w>
te ams</w>
ace u
plat forms</w>
ish es</w>
ag ers</w>
i .
bra in</w>
A M</w>
mod ules</w>
Marri ott</w>
Ar chi
cool ing</w>
am in</w>
dep th</w>
exp ensive</w>
C ab
c ru
bus y</w>
Al lah</w>
in curred</w>
Ed in
6 7
5- minute</w>
vac ation</w>
co vers</w>
di v
gi a</w>
function ality</w>
at tribu
CO M</w>
jo ined</w>
ght seeing</w>
disci ples</w>
stre t
p ure</w>
par agrap
P hoto</w>
gr ants</w>
ub s</w>
l aid</w>
Des ig
tes ted</w>
30 -
emer ging</w>
perform ed</w>
op tical</w>
In dex</w>
ti vely</w>
T C</w>
2 3
us ual</w>
exp and</w>
con stant</w>
e .com</w>
My SQL</w>
iz es</w>
Tha i</w>
Ji ang
W ell
dis h</w>
pro pos
G A</w>
p ace</w>
Pri me</w>
sil ver</w>
trans actions</w>
D ate</w>
Portu gu
qui red</w>
ur ious</w>
d ary</w>
i st
A gr
in ary</w>
ip s</w>
A n</w>
philos oph
los ses</w>
gr ace</w>
b y
mi x
B os
particip ants</w>
li ver</w>
Tu be</w>
li ance</w>
anim al</w>
Su n</w>
su it</w>
ad ers</w>
I V
st atic</w>
movi e</w>
Rom ania</w>
6 7</w>
vis its</w>
ag ency</w>
1. 5</w>
F REE</w>
D UC
mini bar</w>
for get</w>
ot a</w>
claim ed</w>
Edin burgh</w>
9 6</w>
lead s</w>
circu it</w>
a to</w>
c ool</w>
hol e</w>
gre at
smil ed</w>
thedr al</w>
He ating</w>
C ath
hab it
uti liz
recogni ze</w>
bo at</w>
M ain
5 5
here in</w>
top -
flor ist</w>
as p</w>
al le
ul ated</w>
all -
ass et</w>
a e
en abled</w>
sp ective</w>
adap t</w>
reg im
Geor ge</w>
ex it</w>
kno ws</w>
consi sts</w>
sc ore</w>
sh are
M ir
Tra ining</w>
disp ute</w>
suffici ent</w>
D M
d ating</w>
is ol
tor ia</w>
subsequ ent</w>
g age</w>
lo ads</w>
F lower</w>
pre mium</w>
Cana dian</w>
te acher</w>
establish ment</w>
Script Resource.axd</w>
ush ing</w>
fo rest</w>
q i
pl enty</w>
e ous</w>
N on-
Ter min
Regi stration</w>
re fer
em e</w>
or al</w>
identi ty</w>
fav orites</w>
F le
Fac ilities</w>
de tail</w>
ha el</w>
bo t</w>
en ix</w>
cap able</w>
or ation</w>
struc tures</w>
D r</w>
bro ken</w>
sp ending</w>
Y u
str act</w>
E le
h ance</w>
quar ter</w>
expl ain</w>
os ing</w>
speci fications</w>
fr amework</w>
MA TION</w>
F T
y i
let ters</w>
T am
h all</w>
ap art</w>
gu ard</w>
m and
ess ment</w>
beli eved</w>
a is</w>
Loc al</w>
Architec ture</w>
emp ty</w>
Plat form</w>
m u
Philipp ines</w>
dre w</w>
trans action</w>
leg is
fac ility</w>
o k</w>
up grade</w>
tem ple</w>
Hostel world
te -
deriv ative</w>
orig in
er al</w>
ard less</w>
In te
Soci ety</w>
inter rup
hosp it
0 8
S ource</w>
CON T
ch er</w>
arbit r
ro ck</w>
ra ise</w>
prepar ation</w>
B ah
tren ds</w>
T al
F estival</w>
mil lions</w>
er as</w>
F resh</w>
n d</w>
stan tly</w>
em phas
appl ies</w>
il ing</w>
G mb
sh el
fe der
col umn</w>
L ink</w>
C B
Tur k
indic ate</w>
bi an</w>
er to</w>
5 3
A l</w>
dep ends</w>
wash ing</w>
st airs</w>
Dist ribu
2. 0.
magne tic</w>
ex clu
app ing</w>
Se ating</w>
purch ased</w>
9 2</w>
id ly</w>
manufac ture</w>
re voc
Ch ange</w>
member ship</w>
d ollar</w>
ir t</w>
i sts</w>
10 -minute</w>
pe ace
Del i
tre ated</w>
p attern</w>
per c
escap e</w>
be l</w>
econom ies</w>
guid elines</w>
ro ot</w>
mi er</w>
driv es</w>
st ayed</w>
docum entation</w>
ri an</w>
program ming</w>
in corpor
cre d
p et</w>
W ater
vi br
charac ters</w>
bre ad</w>
C are</w>
me ant</w>
d ay
im possible</w>
relation ships</w>
enc ryp
lear ned</w>
ir ates</w>
D re
pa rent</w>
under stood</w>
acqu isi
M ol
four th</w>
es sions</w>
electr icity</w>
CH AN
D L-
reg ardless</w>
T est</w>
po sts</w>
Res pon
12 0</w>
seas onal</w>
L D</w>
TH AT</w>
e mail
co ating</w>
viol ence</w>
person nel</w>
i ti
INDUSTR Y</w>
d ges</w>
Brow se</w>
L atin</w>
perf ec
end ant</w>
b an</w>
A vi
con stantly</w>
ma kers</w>
em issions</w>
proced ure</w>
Sun day</w>
ti ll</w>
ren cy</w>
g la
b attle</w>
Me tro</w>
ol ic</w>
happ ens</w>
organ ic</w>
hibi ted</w>
f ro
TC1303 B-
ep ts</w>
ult .aspx</w>
est er
G 4</w>
e ast</w>
ti ves</w>
gol f</w>
clic king</w>
be aring</w>
leg s</w>
disci pl
i i</w>
recei ving</w>
process or</w>
umin um</w>
a ward</w>
Flor ida</w>
ti me
integr ity</w>
H ello</w>
Be hance</w>
t s
conduc ted</w>
IN FOR
b ow
ep ing</w>
c ot
G ood</w>
top ic</w>
0 s</w>
ab sor
si zes</w>
mis s</w>
1. 2</w>
Gmb H</w>
l ux
pro x
ma d</w>
pr ay</w>
re produce</w>
ing u
dou bt</w>
cre te</w>
Em p
weap ons</w>
oc cur
th in</w>
m on</w>
rel atively</w>
C C</w>
fail ed</w>
tren d</w>
fin ding</w>
Y ou
sti c</w>
Me eting</w>
fol der</w>
Lis bon</w>
I ra
9 8</w>
adop ted</w>
ke d
bed ded</w>
F as
Belgi um</w>
L ong</w>
fo rec
commun ities</w>
St at
encour age</w>
Ath ens</w>
Hel p</w>
Grap hic</w>
M P</w>
uni versal</w>
suppl ies</w>
ex ci
L and
C ultural</w>
mil k</w>
ar my</w>
techn ological</w>
P aper</w>
wed ding</w>
tow ay</w>
movi es</w>
Por t
Op toway</w>
1. 1</w>
f illing</w>
in e-
end a</w>
represent ative</w>
O K</w>
S au
remain ed</w>
r d</w>
fundam ental</w>
S ave</w>
Im porter</w>
pres erv
T here</w>
infring ement</w>
Moun tain</w>
dec la
emer gency</w>
Fl at-screen</w>
consis ten
show ed</w>
dr ug</w>
st ern</w>
s low</w>
w alls</w>
TM t</w>
S or
sel ling</w>
AT E</w>
R C</w>
ell er</w>
orig in</w>
qu arters</w>
Gre ater</w>
ic als</w>
f at</w>
Gen eva</w>
direc tor</w>
Is lam
Des cription</w>
re frigerator</w>
n on</w>
Pho enix</w>
serv ation</w>
lar s</w>
in ser
ar g
in form
concer ns</w>
accep tance</w>
pri ority</w>
An ton
us i
sto res</w>
er n
access ing</w>
A sh
In c.</w>
Wil li
f ly</w>
O UT</w>
c le</w>
off erings</w>
th or
DAT ING</w>
be ar
pos s
Chin a-
regul atory</w>
ac id</w>
VM ware</w>
inter ior</w>
particip ation</w>
INFOR MATION</w>
ke ys</w>
C el
pra yer</w>
streng then</w>
sub stan
mar ried</w>
TH IS</w>
F ur
Experi ence</w>
9 1</w>
r on</w>
gover ned</w>
typ ically</w>
reserv ed</w>
Th er
Anal ysis</w>
organ ized</w>
S atur
Pow er
J ord
m useum</w>
A h</w>
ug s</w>
K r
C able</w>
publ ication</w>
Ho t</w>
recor ds</w>
rub ber</w>
ab ling</w>
m ac
spe ech</w>
Af ter</w>
E st
ni ghts</w>
F IT
wat ching</w>
L it
199 9</w>
c ut
ro man
50 72
Y ah
we ak
li ght
ath ers</w>
tr ou
ag encies</w>
5072 7.
2.0. 50727.
at ings</w>
la m</w>
recogni tion</w>
ra dio</w>
Sp ace</w>
Cap ital</w>
C ross</w>
V ID
ar di
us sel
or ts</w>
discus sions</w>
gu n</w>
no on</w>
licens ors</w>
Li ber
rep ut
fant astic</w>
中 文</w>
dis closure</w>
val ent</w>
hu a</w>
Min h</w>
pub lish
e z
di c</w>
prof its</w>
top ics</w>
g lo
ep h</w>
P M</w>
DAMAG ES</w>
Hostelworld .com</w>
H ear
Th ir
R oc
H un
ro y
promo tion</w>
lim its</w>
k ne
exten sion</w>
con stitute</w>
pro ven</w>
do g</w>
W a
oper ated</w>
Categ ory</w>
w ou
2 ,
War saw</w>
the ast</w>
S et</w>
S ection</w>
Ne ar</w>
ER Y</w>
o x</w>
gr in
sc r
fac tion</w>
m ale</w>
fl esh</w>
Com ments</w>
S ri</w>
RO C</w>
n i</w>
val ent
op s</w>
uni versities</w>
si x
addres ses</w>
B ot
re tail</w>
ok ay</w>
equ i
el ed</w>
commun icate</w>
ar ia</w>
V in
E C</w>
Invest ment</w>
contribu te</w>
Pa kistan</w>
vis a</w>
c ali
coun ter</w>
Sk y
smo oth</w>
pass engers</w>
distribu ted</w>
W ard
N O</w>
M r</w>
Hung ary</w>
riv al</w>
Christi ans</w>
Por to</w>
EL EC
suppli er</w>
T el</w>
boo k
Gu ests</w>
e x</w>
trans mit</w>
SERVIC E</w>
W ed
secon dary</w>
op tional</w>
R ic
Up per</w>
le ather</w>
pack ages</w>
real ized</w>
defini tion</w>
sim pli
cl ou
c af
C T</w>
neigh bor
hi b
f on
lar ation</w>
ris ing</w>
promis ed</w>
Res ults</w>
s ong</w>
k a
cho ices</w>
ch e</w>
ro c
dis co
e u
t ment</w>
moun tains</w>
Ex per
P A</w>
w are
hy draulic</w>
Sh are</w>
el a</w>
col ors</w>
Hos p
thou ghts</w>
C ou
dar k
ann ers</w>
Super b</w>
uni verse</w>
furn ished</w>
d uty</w>
Rom an</w>
Mo vi
person alize</w>
extre me</w>
O B
bot tle</w>
L ux
Del uxe</w>
f la
log istics</w>
Professi onal</w>
D -
perfec tly</w>
intellig ence</w>
in her
u el</w>
I -
Austr alian</w>
l o</w>
clos er</w>
I ON</w>
crip tions</w>
X in
elec ted</w>
tax es</w>
M all</w>
trans ferred</w>
Op en
B ath
mot or
v an
D ou
pip e</w>
Mo del
we h</w>
E ff
smart phone</w>
pri est</w>
7 2</w>
repres ents</w>
L am
contain ing</w>
ou ght</w>
un k</w>
Mic hael</w>
our selves</w>
9 8
abe tes</w>
s per
serv ant</w>
Sy n
r ying</w>
max im
de parture</w>
c at</w>
T om
an al</w>
ph en
k id
op posite</w>
thre a
Cro ati
Yah weh</w>
Ward robe</w>
conver t</w>
ab il
K al
Z one</w>
exp enses</w>
Wh ich</w>
win ning</w>
qu ets</w>
vari able</w>
G R
SE O</w>
comput ers</w>
hosp ital</w>
ec tions</w>
j ac
S K
CE O</w>
ber t</w>
direc tory</w>
swe et</w>
pix els</w>
great ly</w>
S A</w>
g ori
Jos eph</w>
boo kings</w>
as y</w>
H ong
6 8
hy per
event ually</w>
call ing</w>
J our
no tes</w>
G od
draw ing</w>
7 8
in ar</w>
destro y</w>
pres entation</w>
n ur
le ment</w>
gener ator</w>
medic ine</w>
u ght</w>
exis tence</w>
m atic</w>
enti rely</w>
decor ated</w>
2. 5</w>
s en</w>
ha i</w>
fin ish</w>
W OR
Co sta</w>
un ning</w>
elev ator</w>
D or
15 -
over seas</w>
T ree</w>
Ret ur
t une</w>
so c
oper ational</w>
Cy pr
O il</w>
u tely</w>
notic ed</w>
D E</w>
ha ven</w>
ad ise</w>
A ri
L i</w>
cap ture</w>
n u
al t</w>
strate gies</w>
arbit ration</w>
Sk ype</w>
pow ers</w>
Portugu ese</w>
regul arly</w>
offici als</w>
ut ch</w>
st oc
IG H
O s
at ti
W IL
awar ded</w>
ar rive</w>
Her itage</w>
C la
B ran
vet op</w>
Tw in</w>
p al</w>
Tw o</w>
RO U
academ ic</w>
stor ies</w>
N av
grap hic</w>
cor ro
star ts</w>
W u
wor ry</w>
gori th
For ce</w>
sch ol
0 ,
Emp ire</w>
bed rooms</w>
H z</w>
bo ards</w>
At l
fir ms</w>
TION AL</w>
ro pol
D a
Cre dit</w>
amp ton</w>
rest ore</w>
con clu
1 0.
rel ative</w>
p ush</w>
Sc ot
public ly</w>
is ms</w>
Mo tel</w>
y outh</w>
ty ard</w>
Smar t</w>
l unch</w>
thre e-
crimin al</w>
pre ne
differ ences</w>
m ur
hor iz
em a</w>
M ay
th care</w>
Ch amp
pres sion</w>
go s</w>
cont acts</w>
S o</w>
em ony</w>
T ours</w>
Regi on</w>
discoun ted</w>
om et
Amaz on</w>
wh ol
Cypr us</w>
C ra
mathem atics</w>
B I
identi fication</w>
pe ti
he ads</w>
in ity</w>
r are</w>
n utri
g an</w>
excep tional</w>
th o
In nov
Commun ist</w>
P y
te ach</w>
us sy</w>
mun icip
di plom
P ost</w>
sc ap
s ending</w>
engine ers</w>
prom oting</w>
Th ank</w>
. org</w>
su ites</w>
rap idly</w>
fr ag
streng th
S CO</w>
view ing</w>
dr inks</w>
ch art</w>
x i</w>
high- quality</w>
paragrap h</w>
pro ve</w>
a j
li sts</w>
trac king</w>
re plied</w>
ing redi
EN CE</w>
Mun ich</w>
fis cal</w>
state -
Chair man</w>
en der</w>
Pu erto</w>
discus sion</w>
j s</w>
is tic
k it</w>
D B
cros s-
ven ant</w>
J obs</w>
ph p</w>
termin al</w>
rati o</w>
Smo king</w>
prec ise</w>
sh ares</w>
concer n</w>
a b</w>
Micro wave</w>
b ad
i. e.</w>
commer ce</w>
d il
Phot os</w>
sal vation</w>
W atch</w>
r ad
applic ant</w>
S ex
fir m
a uc
ub a</w>
man aging</w>
aceu tical</w>
Qu estions</w>
mis sing</w>
er o
cros sing</w>
6 4
r ings</w>
clos ely</w>
Prof essor</w>
g as
bran ch</w>
p ot
correspon ding</w>
mar k
sli ghtly</w>
dens ity</w>
em br
ak ers</w>
o xi
rec e
N ext</w>
es -
sti mul
Jud ah</w>
re porting</w>
i tion</w>
R ap
tr ouble</w>
z o</w>
ter ri
are n</w>
jud gment</w>
depend ent</w>
f air
E L</w>
mechan ism</w>
own a</w>
exp ired</w>
Thom as</w>
contr ast</w>
pro posed</w>
l i</w>
ni ght
coo per
har v
O P
Kel owna</w>
special ist</w>
foot ball</w>
demon str
Vic toria</w>
f ra
p air</w>
fur t</w>
en th
g ot
Man ual</w>
M ount</w>
min i</w>
dis eases</w>
adv ent
terr itory</w>
al i</w>
suc ce
expres sed</w>
d ust</w>
Mon day</w>
venti onal</w>
driv ers</w>
cele br
ate n</w>
inj ury</w>
Anal og</w>
9 7</w>
revoc able</w>
M ost</w>
Fore x</w>
ES S</w>
er ies</w>
as c
Se a
9 3</w>
Sy ria</w>
y ellow</w>
auth entic
Col um
allo y</w>
R ose</w>
B it
Em irates</w>
high- speed</w>
pum ps</w>
F av
n ity</w>
Tem plate</w>
199 8</w>
re ply</w>
D A</w>
C T
surr ounding</w>
v o</w>
tri al</w>
ni c</w>
res earch
ste m</w>
develop ers</w>
H angzhou</w>
gi fts</w>
run s</w>
M and
L IN
ren t
reco ver</w>
G -
AC T
S D</w>
Mar k</w>
mar ked</w>
li sting</w>
bou quets</w>
K h
ta ught</w>
A G</w>
ren ess</w>
state ments</w>
sh ad
ei gh
acti vely</w>
am oun
os s</w>
guarante ed</w>
ful l-
Down town</w>
plan e</w>
tem plates</w>
b ly</w>
Str ate
woo den</w>
sur g
modi fied</w>
Fr an
attrac tive</w>
B ec
k itchen
k g</w>
corrup tion</w>
but tons</w>
fav ourite</w>
0 -
se es</w>
pe o
Des k</w>
St ri
C ri
il e
l ot
Sec retary</w>
M ER
con sol
can di
7 7</w>
Pass enger</w>
train s</w>
s q
psy ch
air craft</w>
M as
K az
ti red</w>
lan tic</w>
Or der</w>
dis covered</w>
sub -
W ang</w>
defini tely</w>
trans formation</w>
C it
pr oud</w>
dish es</w>
Moder n</w>
poli tics</w>
Vi ew
con crete</w>
Log in</w>
Cont in
prin ted</w>
Jord an</w>
re venue</w>
house hold</w>
br inging</w>
T en
Fri day</w>
ten tion</w>
g in
le d
f ishing</w>
S av
C an</w>
ad ults</w>
Ac ti
ell ing</w>
lux urious</w>
to ol
co ast</w>
li ament</w>
satis fied</w>
H ot
atten ded</w>
Sec re
ex pos
sac rif
hur t</w>
te en
def ense</w>
n ative</w>
is son</w>
up per</w>
T ags</w>
for t</w>
f ers</w>
Produc tion</w>
st art
Pr inc
Adv anced</w>
modi fication</w>
9 4</w>
re verse</w>
se am
er os
dis abled</w>
re j
thre at</w>
f arm
enfor ce
D est
we ak</w>
w et</w>
an o
Fun d</w>
P UR
s i</w>
mut ual</w>
St an
W at
Democr atic</w>
be aches</w>
suff ering</w>
ag en</w>
MA CHIN
L y
tempor arily</w>
identi fied</w>
f ail</w>
ade qu
Af gh
Li stings</w>
Di alogue</w>
Wor king</w>
Br ussel
n ings</w>
15 -minute</w>
man if
De ut
co ordin
K ing
bre ath</w>
nor m
ELEC TR
E ther
resid ents</w>
W he
cau ght</w>
rece ip
al uminum</w>
wis dom</w>
invest ments</w>
Manufactur ing</w>
Archi ves</w>
own s</w>
ad just</w>
De bt</w>
or dered</w>
human ity</w>
T y
u tr
si ghtseeing</w>
no ted</w>
S ig
es thouse</w>
agric ultural</w>
pow ered</w>
t- in</w>
surve y</w>
di ameter</w>
nec k</w>
Ste el</w>
su gar</w>
lin ed</w>
compe tent</w>
crip tion
inv ent
Phot o
en abling</w>
temper atures</w>
speci fy</w>
comm only</w>
lin ear</w>
vic ti
G U
Wom en</w>
sec tors</w>
th ick
te c</w>
p t</w>
famili ar</w>
Av ail
new s
St yle</w>
spo ken</w>
cre ates</w>
consider ation</w>
ak h
exc iting</w>
al gorith
ou pe</w>
educ ational</w>
eri e</w>
G N
struc tural</w>
evalu ation</w>
C ulture</w>
sol di
fl ash</w>
Man chester</w>
el i
S and
7 1</w>
e k
Frank furt</w>
po ver
own ership</w>
K S</w>
whe el</w>
land scape</w>
H app
spec ies</w>
cal endar</w>
N avi
form ats</w>
s ung</w>
B il
shi ft</w>
xx x</w>
we stern</w>
wou ldn</w>
optim ize</w>
it an</w>
stre ets</w>
pp ers</w>
ol d
B en</w>
f ar
def ine</w>
mi x</w>
N a
T est
ul timate</w>
dang erous</w>
Ma ke</w>
Den mark</w>
b lin
S ab
L ay
H aw
Commer cial</w>
3 00
cr iter
de partments</w>
PRO DUC
lo vely</w>
eng aged</w>
P ot
ell ed</w>
COR POR
re fu
philosoph y</w>
Gu adel
F ut
M ass
enter ing</w>
e go</w>
ack er</w>
val ves</w>
ri ers</w>
Rom an
lo ading</w>
Guadel oupe</w>
pro sp
Char les</w>
expl ained</w>
the tic</w>
con ventional</w>
D ol
stor m</w>
ill er</w>
Tra de
N ature</w>
W A
Ag ent</w>
K nowledge</w>
simul ation</w>
lob by</w>
Mar ina</w>
ha z
b ac
up s</w>
Sain t-
in y</w>
C M
plo t</w>
resid ential</w>
U T
ni vers
fil ters</w>
comb ine</w>
AR E</w>
Brussel s</w>
D O</w>
sal t</w>
el le</w>
di tion</w>
M ur
G E</w>
sc al
re sh
implem ented</w>
Isra el
connec ting</w>
absol utely</w>
Mot or
bloc ks</w>
V e
in valid</w>
ini an</w>
ta b</w>
pain ting</w>
k ind
cri ed</w>
0. 6</w>
x videos</w>
mar ket
I ES</w>
bu l</w>
ac compl
al leg
revol ution</w>
Ab ra
F ull</w>
be hold</w>
Log istics</w>
form ance</w>
Appl ications</w>
surr ounded</w>
ent re
Or lan
l ad
enc ing</w>
D .</w>
B B
ur s</w>
l der</w>
compens ation</w>
S F
mo on</w>
Tra vel
on i
a f</w>
W I
bu m</w>
mor t
susp ect</w>
situ ations</w>
ro ll
W here</w>
occas ion</w>
wat ers</w>
ac compan
es el</w>
fur ther
sh ore</w>
analy tics</w>
at i</w>
acquisi tion</w>
eter nal</w>
Enter tainment</w>
h ome
n ine</w>
guid ance</w>
fr ames</w>
a quarium</w>
govern ance</w>
V R</w>
CR M</w>
sever e</w>
f i</w>
co ach</w>
Deli very</w>
ang el
I L</w>
la ke</w>
compl ex
T X</w>
row n</w>
refl ect</w>
Pre mier</w>
ferryto .net</w>
Materi als</w>
Ma x
audi ence</w>
P et
convers ation</w>
b b
canc el</w>
D ani
frequ ently</w>
ex trac
W ol
confirm ed</w>
cop per</w>
co verage</w>
fore ver</w>
s ounds</w>
require ment</w>
pro hibited</w>
Mon t
Ar rival</w>
ple ased</w>
Me di
H ou
viol ate</w>
plas ma</w>
Budd h
atten d</w>
Un it</w>
optim al</w>
ge -
decla red</w>
Orlan do</w>
ish ment</w>
plan et</w>
201 6-
satis faction</w>
teach ers</w>
Lic ense</w>
The atre</w>
E F
Bal i</w>
rela xing</w>
b ap
n atur
chec k
IC S</w>
design ated</w>
ou red</w>
F al
roman tic</w>
ic ons</w>
ye ah</w>
t ation</w>
l ers</w>
He ad</w>
Des cription
wil d</w>
exam ination</w>
Wr iting</w>
ro s</w>
Argent ina</w>
f a</w>
En ded</w>
reput ation</w>
program me</w>
Al l
A I</w>
un ion</w>
sty lish</w>
equi valent</w>
um -
tic ip
Cop yright</w>
og a</w>
c n</w>
associ ates</w>
bu ying</w>
O w
draw n</w>
um es</w>
sh oes</w>
p utting</w>
es ome</w>
c up</w>
z en</w>
en force</w>
bo xes</w>
a ren
Prin ce</w>
Wh y</w>
S ens
hol m</w>
know ing</w>
e uro
eph one</w>
eng age</w>
po st-
olo gi
immedi ate</w>
Mar ia</w>
ra il</w>
enti tled</w>
amp s</w>
O ut</w>
L en
expect ations</w>
De parture</w>
pre ferences</w>
Pe ace</w>
2. 0</w>
vic tory</w>
plan ned</w>
N ice</w>
serv ants</w>
s and</w>
At lantic</w>
Lan ka</w>
du pl
port able</w>
o ted</w>
SP EC
Materi al</w>
j an</w>
consequ ences</w>
Q ing
Z ur
W ei
po t</w>
g al
Kitchen ware</w>
ax is</w>
arriv ed</w>
I stan
12 -
zer o</w>
inj ection</w>
rela x
c astle</w>
special ized</w>
di r
oph istic
C up</w>
br a</w>
appreci ate</w>
L es
H al
re in
Ca thedral</w>
M ath
. css</w>
process ed</w>
6 6
unfor tunately</w>
employe e</w>
ur ities</w>
F ig
believ es</w>
5- star</w>
disp utes</w>
cli m
W all
NA TIONAL</w>
cour ts</w>
tern s</w>
fil ed</w>
ar ise</w>
awa reness</w>
Br and</w>
Develop er</w>
Pop ular</w>
8 1</w>
stitu tion</w>
recor ded</w>
estima ted</w>
Tel ephone</w>
Rad isson</w>
ban king</w>
ag o
res ent
produc ing</w>
E ver
f oun
ex ports</w>
u d</w>
fab ulous</w>
G am
restric tions</w>
en ever</w>
Tra in</w>
arm ed</w>
accoun ting</w>
Anton io</w>
ro ws</w>
ã o</w>
es .aspx</w>
b om
S cript</w>
ri sts</w>
cli ps</w>
per pet
our g</w>
J ew
O O
7 6</w>
s v
Gener ator</w>
gr and
Ki ds</w>
199 7</w>
Mar tin</w>
them es</w>
ins ula</w>
l y-
flow s</w>
Par ts</w>
si zed</w>
ag a</w>
Wor ks</w>
po sting</w>
suspen sion</w>
protec ting</w>
di verse</w>
Lear ning</w>
tradi tion</w>
8 9</w>
P N</w>
simul tan
s kip</w>
C ot
cop e</w>
imag ine</w>
desig ner</w>
id ays</w>
destro yed</w>
pro vin
H P</w>
war ning</w>
rob ust</w>
bo l</w>
noti fication</w>
gre w</w>
fi re
fi ghting</w>
Pro vi
t ank</w>
C LA
G B
Wh o</w>
indic ates</w>
bir ds</w>
phot ograph
Col or</w>
s ophistic
gre es</w>
o is</w>
T V
Z he
e ating</w>
affili ated</w>
exten d</w>
dol lars</w>
vis itor</w>
4. 6.
sou thern</w>
Por n</w>
al arm</w>
Comp uter</w>
gu ess</w>
W ine</w>
P A
V ice</w>
Mor oc
E mer
ori sts</w>
Commun ication</w>
ta p</w>
v end
oc curred</w>
- T
ti ally</w>
min ister</w>
y oun
leav es</w>
jour n
f ted</w>
absol ute</w>
Det ail
use ums</w>
ang el</w>
S Y
bri d</w>
al tar</w>
Abra ham</w>
li a</w>
we et</w>
ric h
enth usi
F ar
pres sed</w>
Olymp ic</w>
pre gn
obj ective</w>
u tionary</w>
ain ts</w>
d ri
inf ection</w>
buff et</w>
bo w</w>
gh am</w>
E D
er ge</w>
INTER NATIONAL</w>
deli vers</w>
Ph ar
In troduc
I l
Ter r
Istan bul</w>
col lege</w>
main tained</w>
th west</w>
atic al</w>
tol er
sex ual</w>
p oc
B us</w>
12 .
R ock</w>
D S
co in</w>
Ac commod
l u
d ging</w>
regul ation</w>
di et</w>
b and
Phot os
confir m</w>
bou ght</w>
Sho p</w>
enh anced</w>
V ER
mas sive</w>
Stor age</w>
ther apy</w>
H K
subscri be</w>
s h</w>
gh ly</w>
Lev el</w>
S cre
L A</w>
C F
mir ror</w>
col our</w>
ide ally</w>
be an</w>
E dit</w>
p ill
ass em
rail way</w>
2 nd</w>
sh af
en ic</w>
bear ings</w>
Sta dium</w>
Satur day</w>
Car ol
Br un
P rec
iP od</w>
fa sts</w>
position ed</w>
resol ve</w>
ti ce</w>
justi ce</w>
g ardens</w>
a str
T ar
T OS</w>
Au to</w>
1 10</w>
Pal est
t .
mar ble</w>
di os</w>
em bedded</w>
N S
ver tical</w>
un wind</w>
ain ing</w>
resid ence</w>
mo stly</w>
ili an</w>
Joh n
sp are</w>
Brit ain</w>
gh ty</w>
SA P</w>
f ai
origin ally</w>
wor se</w>
Out look</w>
7 4</w>
pover ty</w>
neigh b
Zur ich</w>
pro of
optim ization</w>
further more</w>
ten sion</w>
democr acy</w>
st res
ag u
Pass word</w>
1 20
bur y</w>
oxi de</w>
wh enever</w>
Ju n</w>
fir st-
al co
F it
terr or
m ic</w>
wh is
Com pl
sa ith</w>
T op
Ch an</w>
Sh er
s an
p per</w>
R ot
he arts</w>
ill ustr
mar ine</w>
ef s</w>
measure ments</w>
care ful</w>
Med ic
B ut
tel ec
n ic
. COM</w>
ul ations</w>
stu dio</w>
exec utive</w>
f arm</w>
gu y</w>
att ached</w>
G ri
co vering</w>
at or
air e</w>
ch ur
In surance</w>
cap ability</w>
s wi
Sau di</w>
Con struction</w>
tre as
meas ured</w>
7 9</w>
Jew ish</w>
J am
is ted</w>
contribu tion</w>
I o
grad ually</w>
L U
receip t</w>
is lands</w>
e ties</w>
c asting</w>
ear n</w>
Pan el</w>
comput ing</w>
w a</w>
pric ing</w>
mon thly</w>
del ay</w>
downlo ads</w>
ass essment</w>
Sto ck</w>
s cript</w>
. The</w>
Sci ences</w>
nivers ary</w>
g ospel</w>
on ds</w>
sh ut</w>
ref resh
b r</w>
ti p</w>
IB M</w>
Ar my</w>
3 rd</w>
poin ted</w>
f athers</w>
perform ing</w>
ograp hic</w>
hi a</w>
Sam sung</w>
Pl an</w>
As si
I M</w>
la sting</w>
clos ing</w>
Per formance</w>
sched ul
M IM
7 3</w>
so -
Fin ance</w>
gradu ate</w>
Zhe jiang</w>
TER MS</w>
sex y</w>
au d
R F</w>
Fre e
r u</w>
H D
ox y
o v</w>
Wor k</w>
str ange</w>
y an</w>
IN C</w>
pl ug
occur s</w>
om a</w>
net working</w>
bass ador</w>
W ay</w>
per spective</w>
Han zi</w>
exec ution</w>
Corpor ate</w>
d in
bel t</w>
T it
O x
zz le</w>
di abetes</w>
re placement</w>
t ong
199 5</w>
reduc es</w>
dr ugs</w>
O THER</w>
su m</w>
scienti sts</w>
min s</w>
cam eras</w>
S n
year -
j ak</w>
as king</w>
T ool</w>
7 00</w>
A wards</w>
incre di
gather ed</w>
mi xed</w>
ho l</w>
th u
l ub
in direct</w>
l ady</w>
dis continue</w>
cam p</w>
assu me</w>
Men u</w>
. com
r ants</w>
L ane</w>
im e
Ma j
special ty</w>
pre fer
Sing le</w>
boo ked</w>
par ks</w>
ge ar</w>
D un
2 1st</w>
di vision</w>
Sy m
sp aces</w>
re pl
roy al
om mun
sur prise</w>
con ten
Egyp tian</w>
syn chron
relax ation</w>
Exc el</w>
ori ented</w>
dark ness</w>
N ight</w>
o b</w>
Oper a</w>
saf e
g ated</w>
N az
Ag ency</w>
in duc
law ful</w>
CORPOR ATION</w>
9 5
tou rists</w>
ic tion</w>
m ouse</w>
fi able</w>
Fer ry
asp ect</w>
de grees</w>
c d</w>
K s</w>
Cl assi
E li
2 1.
v als</w>
Nor thern</w>
peace ful</w>
Res id
norm ally</w>
T F
li ked</w>
renov ated</w>
shor t
quali fied</w>
me al</w>
y ard</w>
I R</w>
4 4
di tional</w>
et o
ed iting</w>
ann a</w>
after noon</w>
D s</w>
D an
tour ism</w>
j in</w>
char ging</w>
p ick
Me te
col le
d ess</w>
Ob ama</w>
&apos; S</w>
tre m
cou pl
Nor way</w>
invi ted</w>
il ed</w>
Ham burg</w>
ne utr
labor atory</w>
administr ator</w>
inter pre
P ap
mit ting</w>
entre prene
appl i
licens ed</w>
WH E
k l
buil t-in</w>
ingredi ents</w>
V ac
L and</w>
ak i</w>
Comp on
B UT</w>
jo in
ecti ves</w>
Par t</w>
mon etary</w>
bur n</w>
Az ure</w>
config ure</w>
class ical</w>
Photos hop</w>
Musli m</w>
quir y</w>
in et</w>
ic ked</w>
b ill</w>
re fin
qu est</w>
ed -
har m</w>
b id
D riv
wh at
clin ical</w>
V ent
por n</w>
K a
Bran ch</w>
t ower</w>
ferryto .co.uk</w>
transi tion</w>
oc ean</w>
exc ee
analy ze</w>
Sup ply</w>
str ing</w>
ex ha
Re d
pri ests</w>
Su zhou</w>
tr usted</w>
ati on-
st ones</w>
enem ies</w>
Guang dong</w>
en cia</w>
deli vering</w>
Musli ms</w>
J ust</w>
f icial</w>
Pa ul
T esting</w>
th on</w>
criter ia</w>
Sta tement</w>
re min
eng agement</w>
C am</w>
un d</w>
preci ous</w>
integr ate</w>
mat ure</w>
re action</w>
Spe ed</w>
Ch ief</w>
pul l</w>
over come</w>
optim ized</w>
R an
obvi ous</w>
en ni
WE B
199 0</w>
Hosp ital</w>
jud ge</w>
deal ings</w>
ver e
in formed</w>
it arian</w>
yl on</w>
tur ing</w>
Th ese</w>
cancell ation</w>
ref ers</w>
re placed</w>
enem y</w>
th day</w>
on ym
Che ap</w>
Sto vetop</w>
reli ef</w>
G ardens</w>
B ure
S at
strugg le</w>
co st-
Tr ading</w>
world -
pri mar
exc eption</w>
a ho
LA R</w>
bro ke</w>
Islam ic</w>
h ill</w>
he ar
Fil m</w>
il li
L es</w>
regim e</w>
I d
av a</w>
ag ues</w>
j a
bo asts</w>
Ar bit
G P
Ar e</w>
ti re</w>
6 5
we i</w>
reve aled</w>
Ira q</w>
tra -
correc tly</w>
ar chi
P on
7 8</w>
cri me</w>
exi sts</w>
ex act</w>
compar ison</w>
coll ap
T om</w>
Mot or</w>
get table</w>
v ar
ran ked</w>
feder al</w>
F ER
dr am
Bo ston</w>
1. 6</w>
Admini str
ici ans</w>
WIL L</w>
Sm all</w>
bro thers</w>
on de</w>
mon d</w>
ro ads</w>
si onal</w>
dist ingu
vir uses</w>
over looking</w>
tw ice</w>
ter ing</w>
d ao</w>
en os</w>
10 1</w>
accommod ate</w>
happ iness</w>
tong ue</w>
p ack</w>
me ets</w>
insp ired</w>
si de
Ar ch
G ul
attor neys</w>
cho osing</w>
U sers</w>
The y</w>
im a</w>
ag ged</w>
e ed
ali ve</w>
In fin
uti lity</w>
keep s</w>
wor ship</w>
t ub
t ours</w>
lo gos</w>
V O
Co jak</w>
kis sed</w>
rec ording</w>
h o</w>
a ult</w>
vis u
ad ult</w>
O ne
unfor gettable</w>
tal ent</w>
al y
beg ins</w>
Auth ority</w>
f ed</w>
appoin tment</w>
tis m</w>
an ed</w>
Mat the
ra ising</w>
Un is
Par ties</w>
for um</w>
Fo ot
Hu a
s Â</w>
ne ed
NE SS</w>
Geor gia</w>
8 3</w>
i k
S eas
mean while</w>
lig ence</w>
50 -
WHE THER</w>
pan or
moun ted</w>
ne ver
s k</w>
sh ine</w>
AU D</w>
gy m</w>
gla d</w>
n t</w>
ani stan</w>
K IN
confidenti ality</w>
contr ary</w>
conc epts</w>
M aker</w>
Fin n
comm anded</w>
ome ter</w>
consequ ential</w>
alle l</w>
s crip
un known</w>
rela xed</w>
D am
amoun ts</w>
Mon te
resi stant</w>
co ck
gen e
Le ague</w>
bin ding</w>
ON E</w>
rec y
op ens</w>
cust oms</w>
1. 3</w>
tel ling</w>
sophistic ated</w>
m ere</w>
p ussy</w>
acc um
COR P</w>
uc c
S G
B ay
lev ard</w>
m -
hor se</w>
e iro</w>
p in</w>
discus sed</w>
im mun
gu an</w>
associ ation</w>
ar k</w>
ur g
n es</w>
P W
intern ation
Val ue</w>
C olog
iP ad</w>
Gu esthouse</w>
vo id</w>
su rely</w>
q i</w>
fail s</w>
de struction</w>
AC C
m ill</w>
research ers</w>
p a</w>
there by</w>
bre a
sched ule</w>
lat ter</w>
her itage</w>
ei ved</w>
Th at</w>
U k</w>
Proc ess</w>
cruc ial</w>
e ing</w>
T ou
P le
Off ic
appe al</w>
P ear
fre ight</w>
y .aspx</w>
E T
Aut o
v ital</w>
IP O</w>
se al</w>
D utch</w>
in corporate</w>
cer emony</w>
wor thy</w>
s our
T able</w>
V C</w>
usti n</w>
Sec ond</w>
got ten</w>
man agers</w>
t ables</w>
l uc
ici an</w>
cat ch</w>
car rying</w>
or row</w>
flu id</w>
bo ost</w>
K it
C air
8 7</w>
pro ved</w>
SN74AHC T
Autom ation</w>
su e</w>
dam aged</w>
re vis
Rep resent
legi timate</w>
loc ked</w>
so ever</w>
advertis ers</w>
in a
s now</w>
equ ity</w>
Li thu
Y o
ure ment</w>
smo ke</w>
is k</w>
r ural</w>
pro gres
pat terns</w>
ex posed</w>
i us</w>
Inst all
h ang
Hi stor
P il
ac quired</w>
aw a</w>
mi ghty</w>
B ol
over view</w>
t um
hair dryer</w>
deplo yment</w>
phen om
M L</w>
AC K
De c</w>
V IS
Acc ess
U B
mag ic</w>
N u
th eless</w>
mid -
Stock holm</w>
rec ru
S li
enfor cement</w>
Ex po</w>
Bure au</w>
cir cul
b id</w>
ate way</w>
grin ding</w>
Z IP</w>
M is
Colog ne</w>
inv est</w>
connec tivity</w>
m at</w>
perpet ual</w>
00 -
T an
Feder ation</w>
stic k</w>
sh ook</w>
C lin
facilit ate</w>
pro sper
th esis</w>
L ounge</w>
0. 7</w>
primar ily</w>
b ags</w>
7 5
plac ing</w>
infl ation</w>
adjust ment</w>
PUR PO
ep is
G or
corro sion</w>
inde x
sh ell</w>
ph er
lo an</w>
Prin ci
so vere
equ ality</w>
bir d</w>
i OS</w>
Saf e</w>
shap es</w>
dimen sions</w>
Semiconduc tors</w>
fing er</w>
ar on</w>
So fi
Willi am</w>
speci ally</w>
bes ide</w>
sign als</w>
ho sting</w>
C lar
C ari
MIM E</w>
M eas
est yle</w>
b one</w>
8 4</w>
B A
spec tac
any way</w>
em ade</w>
Sa tellite</w>
strong er</w>
sh alt</w>
wall paper</w>
subs cription</w>
on tal</w>
car rier</w>
ang ry</w>
O t
inter view</w>
Lou is</w>
expl an
Gl ass</w>
tr as
s ki
Accommod ation</w>
tr uck</w>
str a</w>
in spir
Del hi</w>
mol ec
8 2</w>
Agr ic
sugg est</w>
obj ectives</w>
expl ains</w>
Sol ution</w>
EXPRE SS
1 1-
investi gation</w>
re viewed</w>
in os</w>
sup posed</w>
cri bed</w>
Rob ert</w>
f alls</w>
coo king</w>
Vir tual</w>
inter action</w>
COMP ANY</w>
Cli ent</w>
n esses</w>
cre am</w>
Is lam</w>
PAR TI
comm and
F ish
licens es</w>
S ic
continu ously</w>
Dev ice</w>
j um
dis crimin
un like</w>
s can</w>
M erc
Al ban
trans fer
ap o
pe g</w>
inter pret
fing ers</w>
2. 1</w>
Th ree</w>
ple x</w>
Dis cus
z ation</w>
forec ast</w>
grow n</w>
i ding</w>
to x
st ages</w>
PURPO SE</w>
K in
Le gal</w>
C are
de fe
an a
Cam bo
aut onom
E P
ti ght</w>
eng ines</w>
suff er</w>
suppli ed</w>
F ort</w>
e ously</w>
bot t
Tr an
MACHIN ERY</w>
v ector</w>
T I</w>
Hel sin
g ap</w>
ag gre
sec tions</w>
shou lder</w>
b g
Res erve</w>
sc ar
cri tic
C S</w>
Cam bridge</w>
199 6</w>
T EC
te ful</w>
pharm aceutical</w>
L S
Un der
Bu enos</w>
3 20
share holders</w>
L ong
AT ED</w>
expos ure</w>
TH ER
tot ally</w>
Vi sta</w>
To aster</w>
CO 2</w>
un t</w>
enforce able</w>
Thir d</w>
D ays</w>
16 0
ch est</w>
ven ues</w>
contain er</w>
eto oth</w>
ol i</w>
ti vation</w>
Ether net</w>
3. 0</w>
fer ti
Unis onic</w>
s word</w>
tw el
tran sit</w>
lo gic</w>
ke -up</w>
Di am
Afgh anistan</w>
ro m
g ood
9 00</w>
be i</w>
Part ner</w>
Spr ing</w>
ad hes
s on
Matthe w</w>
w av
new ly</w>
St atistics</w>
Feat ures</w>
K ra
k iss</w>
exp anded</w>
Eng ine</w>
Chi ang</w>
mor al</w>
Ex cell
Op tions</w>
d uration</w>
st ering</w>
s ch</w>
lam p</w>
Cle aning</w>
s ors</w>
b i</w>
C ase</w>
ic ycle</w>
os is</w>
Y outh</w>
D F
f oods</w>
produc tive</w>
transpa rent</w>
dom in
W ish</w>
ric ane</w>
prote in</w>
per cent
p ushed</w>
Ci vil</w>
radi ation</w>
P M
k in</w>
f ound
Jac ob</w>
t ut
S ev
ore r</w>
contrac ts</w>
chem icals</w>
Ac coun
G a
impres sive</w>
volun te
d life</w>
M ai</w>
s and
independ ence</w>
f ans</w>
ep age</w>
arti st</w>
adequ ate</w>
Wor ld
c ry</w>
Th ur
L S</w>
Io T</w>
initi ative</w>
dr inking</w>
co al</w>
B anner</w>
y i</w>
S ign</w>
Rep ub
less ons</w>
constitu tes</w>
R ules</w>
g ained</w>
discoun ts</w>
P ain
pass ing</w>
ch amp
heal thcare</w>
Sou thern</w>
techni que</w>
so- called</w>
Sol ar</w>
D y
rec tion</w>
sig ning</w>
pris on</w>
th ful</w>
super vis
less ly</w>
is si
Me th
L aser</w>
bot s</w>
bl essed</w>
descri be</w>
MER CHAN
re aching</w>
M ong
ut ing</w>
ste am</w>
tim ely</w>
K er
8 5
s ul
cre di
tel ls</w>
Vi ews</w>
Math em
Croati a</w>
A ires</w>
sam ples</w>
connec tor</w>
C AR
st unning</w>
ro of</w>
or i</w>
fri dge</w>
expl ic
des c
Z oo</w>
me als</w>
Jan eiro</w>
mon t</w>
H E
ti er</w>
o ke</w>
Helsin ki</w>
st aying</w>
An dre
0. 8</w>
ar ded</w>
sch e</w>
lo s</w>
dec ade</w>
repres ented</w>
cas ino</w>
E duc
Dr agon</w>
s ick</w>
del icious</w>
co des</w>
si l</w>
refl ected</w>
fac ed</w>
Mast er
CU LAR</w>
ten nis</w>
effici ently</w>
h em
fig ures</w>
R IS
1. 8</w>
install ing</w>
b is
b ag
N XP</w>
detec t</w>
n erv
it ting</w>
edi tion</w>
U L
Ch annel</w>
3 1
ulti mately</w>
on going</w>
sim pl
every where</w>
be ings</w>
A ve</w>
at on</w>
veri fy</w>
T weet</w>
Stat us</w>
in tu
confidenti al</w>
commit tee</w>
res c
pre vention</w>
ensu s</w>
B e</w>
re now
es h
pe ts</w>
om issions</w>
m old</w>
PARTI CULAR</w>
K or
g ers</w>
aff airs</w>
activ ate</w>
stu ff</w>
oxy gen</w>
vill a</w>
fall ing</w>
Par adise</w>
Fer ryto
LI G
un limited</w>
ty- free</w>
poll ution</w>
Pen insula</w>
advis ed</w>
Ta x</w>
eri al</w>
Certi fic
no d
sli de</w>
sett lement</w>
Commun ications</w>
F C</w>
elim inate</w>
3. 5</w>
tou ched</w>
arti sts</w>
Off ering</w>
Ma h
G ro
promo tions</w>
in n</w>
I X</w>
ati vity</w>
K am
t ories</w>
Ac tion</w>
conveni ently</w>
FIT NESS</w>
so il</w>
M M
se ed</w>
nor thern</w>
Moroc co</w>
treat ments</w>
terr it
sp r
w age</w>
prin ter</w>
tr ay</w>
rol ling</w>
D rop
Met al</w>
ob served</w>
ble -
D ollar</w>
la ted</w>
sym bol</w>
dro pped</w>
GH z</w>
ou ts</w>
P ir
AC T</w>
F ab
SA S</w>
sc anning</w>
introduc e</w>
fre sh
rec all</w>
par allel</w>
dis aster</w>
M iss
G H</w>
never theless</w>
E A</w>
comb ines</w>
re forms</w>
o id</w>
w ash</w>
op position</w>
P al</w>
Mete o</w>
J ack
peri al</w>
fel low</w>
demon stra
Le e</w>
D ic
M ar</w>
de e
s. net</w>
Lo g</w>
24 0</w>
hon or</w>
p aint</w>
men tion</w>
C os
us her</w>
dis rup
ch oc
Chem ical</w>
ol ate</w>
ni e</w>
hi de</w>
T ax
we igh
Mo d
cu ts</w>
ll ers</w>
EXPRE SS</w>
per mit</w>
j o</w>
co venant</w>
sur prises</w>
fun ding</w>
Introduc tion</w>
te ars</w>
sa ke</w>
prepar ing</w>
I F</w>
set up</w>
l or
mach ining</w>
ca using</w>
fin ancing</w>
f os
God dess</w>
we aring</w>
m ic
TA IN
t ari
seri ously</w>
unc tion</w>
K at
pro tocol</w>
la b</w>
arrang ements</w>
fe el
St and</w>
Ir oning</w>
lap top</w>
ge ted</w>
M AR
royal ty-free</w>
ab eth</w>
Turk ish</w>
Cour se</w>
pres ti
re mark
el ig
mer ely</w>
l t
Arab ia</w>
Zh ong
compati bility</w>
EXPRESS LY</w>
f u</w>
ati le</w>
vir tu
g ather</w>
e tr
MERCHAN T
tri ps</w>
p d
s â</w>
limit ations</w>
St re
fil ing</w>
L av
down town</w>
de aling</w>
boo t</w>
A li
199 3</w>
in er
reli ance</w>
develop er</w>
extr as</w>
offic er</w>
m .</w>
key board</w>
Lear n</w>
B ai
3 ,
bac ter
Fu j
Ad venture</w>
For m</w>
C ore</w>
C ity
30- 250</w>
tab let</w>
pe ak</w>
D u</w>
Camp ing</w>
pur i
B A</w>
rent als</w>
won der</w>
N ing
H ai
co ast
en ly</w>
pris on
m ount</w>
ho b
bre ast</w>
2. 2</w>
purch asing</w>
j an
form al</w>
clus i
Op tim
E liz
pack ers</w>
bon us</w>
bi ds</w>
M AN
Lux emb
enti ties</w>
bre aking</w>
u l</w>
tom orrow</w>
G ab
Ad am</w>
sil ence</w>
tal ks</w>
natur ally</w>
concentr ation</w>
2- star</w>
conver ted</w>
no tices</w>
arrang ed</w>
MERCHANT ABILITY</w>
Bro ad
du ties</w>
check- out</w>
happ ening</w>
Hard wood</w>
D L
Pri ze</w>
utili ze</w>
Blu etooth</w>
engine er</w>
Pol y
G L
op ol
ci erge</w>
se ven
ord ination</w>
f at
adv oc
C oc
Ling nan</w>
Am bassador</w>
what soever</w>
Bas ic</w>
r ice</w>
appl ying</w>
Fas hion</w>
te eth</w>
f ting</w>
indic ated</w>
Be auty</w>
199 4</w>
sing le-
po ols</w>
Sil ver</w>
sh irt</w>
ch i</w>
ai red</w>
L ot
mar king</w>
r h
w .
ade ite</w>
it ate</w>
er ts</w>
Tem per
H av
di alogue</w>
O ven</w>
sem i-
legis lation</w>
sur faces</w>
struc k</w>
larg ely</w>
Ven ez
produc es</w>
parti cles</w>
gu il
ber ry</w>
re fun
contribu tions</w>
au x</w>
V eri
H ills</w>
sacrif ice</w>
ni k</w>
spectac ular</w>
sign ature</w>
Uni versal</w>
Prec ision</w>
th row</w>
institu tion</w>
v es
di versity</w>
De posit</w>
Cur rent</w>
arti ficial</w>
M other</w>
mo ist
cop ies</w>
S CH
Slo v
clus ter</w>
am m
A P</w>
as ion</w>
o to</w>
Bou levard</w>
E p
accid ent</w>
199 2</w>
Pi er
K on
Electr on</w>
wat ched</w>
con vin
ac o</w>
ur ance</w>
al er</w>
T A</w>
pre fer</w>
Pre mium</w>
H TT
fa ult</w>
quanti ty</w>
negoti ations</w>
mid st</w>
T og
op t</w>
th read</w>
sum mary</w>
config ur
M .</w>
me l</w>
Le g
v ot
ar range</w>
rou t
col on
Test ament</w>
al bum</w>
Al liance</w>
x x</w>
chil d
Th re
er ia</w>
T ot
je wel
mer cy</w>
satis fy</w>
addi tionally</w>
Tel ev
read s</w>
tw enty</w>
in sights</w>
ab and
16 0</w>
Ter race</w>
Im age</w>
travel ing</w>
possib ly</w>
on ian</w>
complex ity</w>
ic e
bil ateral</w>
Hu b</w>
te dly</w>
b low
renow ned</w>
perman ently</w>
accompan ied</w>
dec re
suff ered</w>
k r</w>
cer amic</w>
Harb our</w>
wan ting</w>
t one</w>
shaf t</w>
H K</w>
Di ego</w>
sou ght</w>
as se</w>
N ote</w>
Dani el</w>
D RE
ro lled</w>
al um
Alex ander</w>
do t</w>
tr ail
lif ted</w>
Luxemb ourg</w>
develop ments</w>
as m</w>
Di v
pic ked</w>
Bu y</w>
Sum mer</w>
atis tical</w>
C ann
cop ied</w>
St art</w>
t ang
h as
p en</w>
man n</w>
aim s</w>
N ig
Jiang su</w>
my st
N et</w>
D on</w>
w ind
Environ ment</w>
pas sion</w>
peo ples</w>
config ured</w>
c art</w>
C RE
ti e</w>
switch es</w>
ecti veness</w>
y en</w>
vulner ability</w>
hu i</w>
deman ding</w>
kitchen ette</w>
Mal ta</w>
rou gh</w>
collec tive</w>
Happ y</w>
char ming</w>
ins ul
i tive</w>
newsp aper</w>
H ours</w>
A TIONS</w>
mis sion
agric ulture</w>
RA M</w>
F ire</w>
hy brid</w>
ham mad</w>
bo ys</w>
I ris
strong ly</w>
Innov ation</w>
Cath olic</w>
as signed</w>
th ro
des criptions</w>
b ai
Val encia</w>
Hou ston</w>
sustain ability</w>
ac tors</w>
ch apter</w>
wit ness</w>
dis closed</w>
surpris ed</w>
hos ted</w>
2 1
li p</w>
iz er</w>
Gir ls</w>
Dong guan</w>
thre ats</w>
fl av
an xi
Sea ways</w>
stu died</w>
y l</w>
eth nic</w>
tion ing</w>
percent age</w>
expl os
Jer sey</w>
sel ler</w>
Telev ision</w>
Reserv ed</w>
ten s</w>
S om
I O
He al
consult ation</w>
Work shop</w>
o i</w>
govern mental</w>
calcul ated</w>
K E</w>
am ai</w>
Pay Pal</w>
ul ties</w>
uc ks</w>
hum ans</w>
proph et</w>
pa ten
evalu ate</w>
dee ply</w>
merch ant
Ab stract</w>
3 60</w>
cry stal</w>
chur ches</w>
c on</w>
si te
Clo thes</w>
Trade mark</w>
N ON
soldi ers</w>
Har ry</w>
wh er
Tu es
Po ints</w>
con clusion</w>
re me</w>
claim er</w>
veri fication</w>
H ind
s co
Hol ly
G ate</w>
B is
deep er</w>
S on
199 1</w>
tar geted</w>
re new</w>
gen u
L oo
to s</w>
na ked</w>
Americ ans</w>
civ il
l ens</w>
refu ge
bl ack
s ence</w>
ff s</w>
harm ful</w>
Analy tics</w>
cul tiv
is ely</w>
feat ured</w>
cons ulting</w>
Avail able</w>
ax y</w>
Inf o</w>
ro ller</w>
Mag azine</w>
M s.</w>
Cari b
cl ubs</w>
So i</w>
comple tion</w>
d ale</w>
tw in</w>
a .com</w>
be er</w>
Par liament</w>
represent ations</w>
o a</w>
fil ms</w>
bi ke</w>
Fun ia</w>
Py thon</w>
mod ular</w>
St one</w>
Photo Funia</w>
20 -
d .
chec king</w>
L C
Inte gr
sh ock</w>
W ind
H it
F el
atic a</w>
D res
val idity</w>
un ity</w>
bur ning</w>
gr ams</w>
Thur s
e o</w>
an niversary</w>
feel ings</w>
h ate</w>
jo ining</w>
gen der</w>
Y es</w>
K ir
loc ks</w>
ce iling</w>
XX X</w>
DIS CLA
ou ter</w>
WEB SITE</w>
pres ents</w>
b ound
W hol
s ound
pri me</w>
Har v
om on</w>
x -
testi mony</w>
sel ecting</w>
phot ograp
re friger
ENT S</w>
gol den</w>
consisten tly</w>
Cha in</w>
A y
ha y</w>
F air</w>
democr atic</w>
L au
do or
1. 7</w>
U V</w>
shar p</w>
righte ousness</w>
resp ectively</w>
ch ro
ac les</w>
L ap
Fil ter</w>
DAT A</w>
Ni k
wel coming</w>
off ensive</w>
lar ge-
Termin al</w>
S us
D el</w>
life time</w>
SH ALL</w>
K un
gu ys</w>
di esel</w>
Em plo
pl ug</w>
Pres sure</w>
Alex and
is e
he ated</w>
fla g</w>
A go
KIN D</w>
repres entation</w>
fab ric</w>
re l</w>
le ep</w>
c -
You Tube</w>
desig ners</w>
brow sing</w>
impro vements</w>
ch ose</w>
G PS</w>
Environ mental</w>
or ities</w>
ag enda</w>
wai ver</w>
de av
li ke
at t</w>
proc ee
En d</w>
poli tic
no de</w>
prop he
merchant ability</w>
dish washer</w>
as is</w>
descri bes</w>
p ap
G ospel</w>
super vision</w>
um entation</w>
D ra
interpret ation</w>
aim ed</w>
18 0</w>
blin d</w>
res ur
hon est</w>
gl ori
EN TI
gr ab
d ual</w>
Slo ven
SM S</w>
F arm</w>
enjo ying</w>
dis pos
&apos; an</w>
Qu ar
mem or
man ufactu
every day</w>
J ade</w>
ent -
train ed</w>
speci fication</w>
ta ya</w>
reci pi
lab our</w>
Sup reme</w>
eff ectiveness</w>
F alls</w>
A part
st al
m useums</w>
Bul gar
Aff airs</w>
expan ding</w>
Lim as
I ll
ir revocable</w>
U NE
Drop box</w>
Stud y</w>
F our</w>
n â</w>
g au
M echan
har mon
br e</w>
Mo du
prec isely</w>
H at</w>
Carib bean</w>
Li ving</w>
H ow
Ak amai</w>
cop y
ch -
Boo king</w>
Ã 1</w>
Mac au</w>
she ets</w>
M -
port al</w>
the ore
es sive</w>
bath tub</w>
spec tr
shor t-
gl asses</w>
of- the-
Web cam</w>
Tues day</w>
A F
D ur
twel ve</w>
hi bit</w>
co at</w>
C ry
Al tai</w>
invent ory</w>
Arti cles</w>
Ch eng
tron ics</w>
IN FR
ti l
fl orists</w>
challeng ing</w>
nar row</w>
and ong</w>
J on
proc eed
es .
sh r
mom ents</w>
fa x</w>
ar in</w>
Dom ain</w>
AN G</w>
neighbor hood</w>
S ant
do s</w>
Mid -
atti tude</w>
V il
t .aspx</w>
MA TER
cot ton</w>
ack now
prox im
CP U</w>
th ick</w>
b al</w>
to ilet</w>
telec ommun
Comp an
T P
Whol es
mig rants</w>
ester day</w>
Navi gation</w>
incid ental</w>
A qu
1. 4</w>
de ad
or n</w>
Li u</w>
us er-
IT S</w>
mo vements</w>
gr and</w>
ELECTR ON
up grad
ed y</w>
Lit tle</w>
att ach
Str uc
rang ing</w>
om eters</w>
di ving</w>
Pl astic</w>
n -
conve y
N ev
tr y
sil ent</w>
it i</w>
Thurs day</w>
Gir l</w>
Fo rest</w>
con stra
Qing dao</w>
colle agues</w>
W R
Wi ki
Temper ature</w>
S .
email s</w>
Set tings</w>
Finn ish</w>
A zer
re tain</w>
proceed ings</w>
Fr ont</w>
ul ted</w>
Electr ical</w>
ww w.
log ical</w>
consci ous</w>
bri ef</w>
vi bration</w>
g inal</w>
inv o
der ness</w>
H S</w>
Eliz abeth</w>
ell s</w>
as ide</w>
hum or</w>
direc tions</w>
Cam era</w>
peti tion</w>
manufactu red</w>
INFR ING
Cambo dia</w>
1. 0</w>
2. 3</w>
read ers</w>
photograph s</w>
Wash ing</w>
AG REE</w>
Col or
S tra
FER ENCE</w>
big ger</w>
v ent</w>
man ip
recog n
S itu
OR S</w>
Bal cony</w>
hospit ality</w>
Rel ated</w>
spl it</w>
non exclusive</w>
g est
ome try</w>
glob ally</w>
Kaz akh
ash x</w>
He aven</w>
com posed</w>
ach el
s essions</w>
person alized</w>
n an
hol idays</w>
centur y
Treat y</w>
Cl ose</w>
4 00
u ed</w>
conf id
comm ands</w>
AB T
thick ness</w>
New s
Access ories</w>
as i
achiev ements</w>
l ord</w>
deb ate</w>
Discus sion</w>
elec tions</w>
Bo dy</w>
el se
nific ent</w>
moun ting</w>
leg ally</w>
Pol i
2. 4</w>
de fic
bel ong</w>
T ED</w>
Em bass
oper ates</w>
identi fiable</w>
Movi e</w>
Mem bers</w>
H ous
LA N</w>
Brow n</w>
contribu ted</w>
wri ter</w>
read er</w>
as sign</w>
ex tra
20 th</w>
stud ying</w>
h at</w>
ing er</w>
de pos
S ense</w>
Direc tory</w>
Coo peration</w>
re vi
hu b</w>
wor st</w>
O k
A ge</w>
Le ban
Des ktop</w>
sk y
cali bration</w>
Pat taya</w>
qi ao</w>
fif th</w>
ch amber</w>
Ev ents</w>
wher ever</w>
repe at</w>
bal anced</w>
crow d</w>
Mess age</w>
contro l
Compon ents</w>
simultan eously</w>
guid ed</w>
TH ROU
Sp ec
in habit
h ang</w>
inter faces</w>
Ad min</w>
W N
Sum mit</w>
consider ing</w>
SU CH</w>
tal ked</w>
gi ous</w>
AS E
ri d
q ing</w>
Embass y</w>
D ES
win ner</w>
head quarters</w>
exc eed</w>
H i</w>
in directly</w>
join tly</w>
fru its</w>
respon sib
invol ves</w>
cont am
Ph ys
La w
im ported</w>
P ul
stric tly</w>
ma x</w>
St and
Sk y</w>
fl ying</w>
disco very</w>
W IPO</w>
achiev ing</w>
si vely</w>
ro bot</w>
met als</w>
dra g</w>
accep table</w>
Tr ader</w>
Con sum
spe akers</w>
pen alty</w>
21. ca</w>
assum es</w>
ab le
L D
emplo yed</w>
FA Q</w>
shap ed</w>
g oo
ari os</w>
d anger</w>
Modu le</w>
m its</w>
sett led</w>
ro v
Cent ury</w>
plas tics</w>
arch ive</w>
col or
LO SS</w>
separ ated</w>
Pr ic
fi x
19 th</w>
century 21.ca</w>
G as</w>
D i</w>
chec ked</w>
Jour nal</w>
switch ing</w>
res ted</w>
j e</w>
es tion</w>
L AN
scre ens</w>
consci ousness</w>
Sou th
scre w</w>
or m
B M
Sol omon</w>
st om
organ isation</w>
c um</w>
Tab le
princi pal</w>
implem enting</w>
calcul ation</w>
THROU GH</w>
R on
sur charges</w>
Multi -
s. Â</w>
g allery</w>
ac tor</w>
N am
busin ess
ter y</w>
4.0.30319. 34
Inter face</w>
she ep</w>
AM 26
F L</w>
par ameter</w>
old est</w>
me tro</w>
H ur
V I</w>
A ren
j er
b at
e ded</w>
u ter
et c.</w>
S end</w>
Sor ry</w>
i ah</w>
em entary</w>
Hear t</w>
row ing</w>
p .
out come</w>
oo th
initi atives</w>
Com fort</w>
5 6
four -
es a</w>
mat ches</w>
G et
INFRING EMENT</w>
div ine</w>
cal m</w>
U -
determin ation</w>
n y
k ar
Swe dish</w>
Budd ha</w>
obvi ously</w>
separ ation</w>
loc ate</w>
connec tors</w>
ght ness</w>
pra ise</w>
aff ir
fuc king</w>
Proc essing</w>
Iris h</w>
lo dging</w>
seam less</w>
y esterday</w>
downlo ading</w>
Pol ish</w>
K L
ó n</w>
Arbit ration</w>
S ust
att an</w>
i bis</w>
head ed</w>
Au dio</w>
B all</w>
utiliz ing</w>
i stry</w>
defa ult.aspx</w>
val id
c ran
AV I</w>
ste in</w>
E P</w>
dor f</w>
F os
uc e</w>
re n</w>
e b
o z</w>
L et</w>
k es
centr ally</w>
Mo on</w>
Im ages</w>
week end</w>
Ste ph
pan els</w>
acceler ate</w>
ar us</w>
Regi onal</w>
bur den</w>
pd f</w>
au to</w>
Acti vities</w>
Cour tyard</w>
ac ket</w>
On ly</w>
Di vision</w>
accord ingly</w>
t u</w>
Ev ent</w>
0. 9</w>
Sel ect</w>
man ually</w>
mag azine</w>
ini um</w>
ag gres
top- class</w>
surg ery</w>
vill as</w>
sugg ested</w>
h ence</w>
proxim ity</w>
Trans lation</w>
AM D</w>
M ill
stand ardi
TR AD
zz i</w>
retri eved</w>
go d</w>
f ing</w>
e z</w>
ther mo
e uro</w>
schedul ed</w>
Mu hammad</w>
ob serv
bran ches</w>
Nan jing</w>
at ar</w>
PRO VID
B C
w aves</w>
il er</w>
Fig ure</w>
bel ong
Pe ts</w>
camp us</w>
K A</w>
Exper t</w>
pri ze</w>
Gul f</w>
visi bility</w>
glo be</w>
an ticip
laugh ed</w>
Pr int</w>
Hua wei</w>
v acc
Sal v
R evolution</w>
E dition</w>
Dat abase</w>
Arab ic</w>
mo ves</w>
Pl an
sup er</w>
Wed nes
M D
centur ies</w>
L ump
ro of
CN C</w>
AC E</w>
U d
ful ness</w>
Pro tocol</w>
else where</w>
ker age</w>
lo v
exci ted</w>
downlo aded</w>
au g
as ive</w>
V it
PRODUC TS</w>
DN S</w>
panor amic</w>
Expl orer</w>
go ds</w>
S C</w>
Kazakh stan</w>
4.6. 10
pro min
necess arily</w>
Rep air</w>
under ground</w>
tar gets</w>
Rel ease</w>
om b
TAIN ED</w>
Al arm</w>
tit les</w>
W IF
6 00
ful fill</w>
com position</w>
3 9
re stor
F -
ear th
M it
high light</w>
UR E</w>
Fi ref
le y
di alog</w>
bre ath
S ite
Ind ustries</w>
co m</w>
Bulgar ia</w>
tu m</w>
per or</w>
ch er
ic ks</w>
col um
P -
spe aker</w>
ha o</w>
contin ental</w>
org an</w>
Program ming</w>
Ju li
Medic ine</w>
Sust ain
Pla y
en ess</w>
In form
h ast</w>
disp ens
Contro ller</w>
pres sing</w>
g ue</w>
t owns</w>
victi ms</w>
high- tech</w>
S op
Holly wood</w>
negoti ated</w>
dimen sional</w>
An y</w>
th a</w>
in vention</w>
gu est
a e</w>
M IN
f t
bu g</w>
Compan ies</w>
A V</w>
Trans port</w>
Part ners</w>
1 30</w>
g rid</w>
survi ve</w>
offici ally</w>
de par
classi fication</w>
bu yer</w>
Pal m</w>
en orm
dep end</w>
dec laration</w>
bi e</w>
E dge</w>
I te
R h
He bre
Ab u</w>
well- known</w>
high lights</w>
righte ous</w>
ling ual</w>
Bab y</w>
Un ic
P in
J ing
g are
hal f-
gi ant</w>
advent ure</w>
k k
Log o</w>
198 9</w>
ten ess</w>
1. 9</w>
sty les</w>
p in
Stu dies</w>
la yers</w>
CON FERENCE</w>
form at
apo st
an onym
V -
C in
A aron</w>
y- to-
mechan isms</w>
tim eline</w>
lif ting</w>
Mo z
AR Y</w>
tail ored</w>
0 4
trans form</w>
su dden</w>
hum idity</w>
mis sed</w>
loo p</w>
collec tively</w>
um ble</w>
pres cribed</w>
T ub
br ush</w>
Hu a</w>
y land</w>
K ur
F an</w>
mo bility</w>
ex changes</w>
Dic tionary</w>
invol ving</w>
M ob
organ is
Ku ala</w>
t ough</w>
explo ited</w>
im mer
ill ance</w>
d ent</w>
diam onds</w>
Man h
ti veness</w>
horiz ontal</w>
g ently</w>
ex clusi
g ence</w>
Vis it</w>
adop t</w>
v ess
am end
sub jects</w>
Pear l</w>
circ le</w>
authentic ation</w>
Repub lic
ref used</w>
ne um
hr s</w>
Lithu ania</w>
promo tional</w>
b les</w>
S L
peri o
high- performance</w>
h u</w>
Th read</w>
T its</w>
T T</w>
Sta y</w>
Air lines</w>
in ars</w>
1. jpg</w>
le verage</w>
ket ball</w>
l or</w>
8 4
W en
fall en</w>
Certi fication</w>
A h
o tes</w>
l it</w>
HTM L
in ev
g ains</w>
diffic ulties</w>
Ri ver
Paul o</w>
N at
ini ons</w>
P R</w>
bl ade</w>
inter medi
lo aded</w>
conflic ts</w>
IF IC
en on</w>
Or acle</w>
k ni
Res orts</w>
DN A</w>
D ish
non- infringement</w>
Mon ey</w>
fre el
trans fers</w>
S aul</w>
B low
phys ics</w>
Alban ia</w>
initi ally</w>
inhabit ants</w>
V ision</w>
S ie
certain ty</w>
e able</w>
gener ations</w>
at om
Wednes day</w>
Up date</w>
. JPG</w>
ti les</w>
des ert</w>
G S
lo y
dre ams</w>
Sh ang
AM E</w>
c er</w>
Ri ght</w>
A B</w>
stop s</w>
mathem atical</w>
at oes</w>
R ub
lin der</w>
B ris
og ue</w>
Inst ant</w>
gr o</w>
fav or</w>
establish ing</w>
e astern</w>
Hom emade</w>
ver ages</w>
per -
j peg</w>
g ay</w>
N ep
re tail
ph r
Deut sch</w>
h ad
ca ke</w>
Ki m</w>
uni or</w>
HTT P</w>
L ow
form ula</w>
RE 4</w>
Ma ur
Con c
R out
R ating</w>
con sole</w>
he pati
e i</w>
bec ue</w>
tr e</w>
pol ym
A .
V el
Swe et
J ack</w>
S ession</w>
prof essor</w>
prec ed
ab und
Sat an</w>
M ak
pi one
anal ys
To day</w>
Offic er</w>
tur b
remark able</w>
presti gious</w>
ins ulation</w>
wi red</w>
ch air
14 0</w>
hepati tis</w>
vari ables</w>
S pl
J as
Com ment</w>
p el
sub j
F S</w>
Dis play</w>
a .aspx</w>
Princ ess</w>
9 001</w>
thre n</w>
shad ow</w>
revol utionary</w>
argu ment</w>
v ice</w>
ec tion
g aming</w>
W an
Desig ner</w>
valent ine</w>
threa tening</w>
pro files</w>
os y
4. 0</w>
uti ves</w>
a wards</w>
Treat ment</w>
简 体
thr one</w>
los ing</w>
Ur l</w>
Intel lectual</w>
end it
Ch ap
ex cur
ash ed</w>
I O</w>
t ress</w>
reg arded</w>
Pan ama</w>
te d
gi an</w>
lt d</w>
adj usted</w>
Retur ns</w>
trans mit
st abil
sh oc
Rev el
B atter
T ips</w>
Per u</w>
prophe ts</w>
Tian jin</w>
M ission</w>
seri al</w>
E ur
vibr ant</w>
veget ables</w>
possib ilities</w>
usti ce</w>
liter ature</w>
Ver y</w>
sol o</w>
IC RC</w>
anc ement</w>
J .</w>
ti ble</w>
N ot
Mr s.</w>
sear ching</w>
H AR
ven ted</w>
Assi stant</w>
lo on</w>
9 6
su ited</w>
pro b
collec tions</w>
36 5</w>
lo ves</w>
bi de</w>
Vin tage</w>
foc using</w>
L ind
Canc er</w>
arrang ement</w>
Manh attan</w>
w ich</w>
ch airs</w>
ass urance</w>
vit amin</w>
h an
Ap ps</w>
tow els</w>
Con tribu
in sight</w>
ex t
r ac
it ance</w>
diagnos is</w>
18 -
u tion
at tract</w>
am pli
Ch ile</w>
inc enti
war m
con dem
ben e
High way</w>
Cat al
peri ods</w>
ener y</w>
proof ing</w>
fe eding</w>
L IC
A K
1 10
elim in
top s</w>
Con trac
Car l
. cn</w>
en to</w>
parti tion</w>
Pl anning</w>
graph y</w>
gg s</w>
ti ous</w>
sup pose</w>
low s</w>
gi e</w>
T ak
H ome
P E
transpa rency</w>
se ats</w>
pa tents</w>
0 5
Sur ve
No bel</w>
Mar k
Certi fied</w>
m ust
V PN</w>
im migration</w>
ON G</w>
Azer bai
pen etr
NON -
bon ds</w>
whe el
terri ble</w>
guarante es</w>
9 4
mag nificent</w>
Def a
rout ine</w>
p ink</w>
Su k
Dom in
Dish washer</w>
y n</w>
inf o
fra ud</w>
ash es</w>
S ign
Ed itor</w>
DL- 53
Vir gin</w>
land marks</w>
Dest inations</w>
F E
br aries</w>
Ch er
substan tial</w>
as sign
Off icial</w>
Jin ping</w>
sh ire</w>
for war
ID E</w>
on i</w>
ap ol
EN G</w>
B U
il eg
ab ol
protec tive</w>
licens ing</w>
g ments</w>
ast y</w>
D B</w>
u e
enjo ys</w>
P ed
En try</w>
wi ki</w>
3 50</w>
te k
L ess</w>
le g</w>
gr ading</w>
dec reas
b anners</w>
Sil icon
e a</w>
Wi reless</w>
S oc
demonstr ate</w>
alleg ed</w>
High -
cho ol
sh oot</w>
acti vation</w>
Scot land</w>
C M</w>
par tial</w>
exp ir
environ ment
ad ds</w>
P U
vir tually</w>
inter act</w>
Reserv ations</w>
Lar ge</w>
Inf ra
individ ually</w>
di m
we i
W hi
12 5</w>
min eral</w>
He ad
g y-
R y
ann y</w>
D .
er ly</w>
do gs</w>
stri ke</w>
protec ts</w>
mist ake</w>
Lump ur</w>
W E</w>
1 11</w>
char m</w>
re ar</w>
et a</w>
MP 3</w>
F ul
ti gation</w>
Firef ox</w>
hand ed</w>
der ly</w>
con ferences</w>
UNE SCO</w>
p ics</w>
maxim ize</w>
pursu e</w>
particip ating</w>
Con fig
lo ans</w>
e ks</w>
Gu ine
sub stances</w>
bre thren</w>
cent res</w>
neigh bour
au dit</w>
WAR E</w>
S R
w icked</w>
t ori
main land</w>
amp ing</w>
RE G
incorpor ated</w>
Se attle</w>
B ag
str o</w>
con form</w>
Cit rix</w>
saf ely</w>
produc ers</w>
Strate gy</w>
pill ar</w>
accur ately</w>
pos session</w>
encryp tion</w>
work shop</w>
Z hu
pro tot
om ing</w>
is ite</w>
attemp ts</w>
T yp
j unction</w>
Rel ig
Educ ational</w>
servic ed</w>
ere fore</w>
- in</w>
cur tains</w>
C ant
par quet</w>
p on</w>
past e</w>
vi ous</w>
S ide</w>
pro por
organ ize</w>
di al</w>
Vis hay</w>
mo m</w>
doc tors</w>
ste pped</w>
pet ro
per sec
bou tique</w>
im ports</w>
hom epage</w>
vess els</w>
R ent
o ever</w>
explan ation</w>
M T
any more</w>
ak ia</w>
S phere</w>
hard ly</w>
arm a</w>
P un
s cri
lic en
WARRAN TY</w>
l est</w>
c and
alco hol</w>
L ow</w>
l on
fun ny</w>
3 2-
un employment</w>
D all
clou ds</w>
L iter
op pon
Pa tent</w>
Bi o
j et</w>
ex hib
Cons ult
Li v
Cre ate</w>
te x</w>
AG RE
tin y</w>
exec utives</w>
U ti
rej ected</w>
intu itive</w>
h agen</w>
pal ace</w>
kne es</w>
addres sed</w>
T ay
Flo or</w>
Dep uty</w>
vot ers</w>
incredi ble</w>
in fin
teen th</w>
ev al</w>
Colum bia</w>
Bro ok
reco vered</w>
ic one</w>
ing .com</w>
Ning bo</w>
Pack aging</w>
Con stitution</w>
stra p</w>
li v
Mem ory</w>
stra in</w>
Distribu tor</w>
choc olate</w>
lin ing</w>
un enforceable</w>
consider able</w>
Tot al</w>
prac tic
bir thday</w>
Cal le</w>
for ums</w>
S ão</w>
L ang
restric ted</w>
ran dom</w>
k ins</w>
8 00
简体 中文</w>
investi g
elig ible</w>
Mem orial</w>
M ail</w>
IC A</w>
P ack</w>
stre am
b uses</w>
ren der</w>
nod ded</w>
Ko h</w>
4 ,
travel er</w>
scen arios</w>
in tr
comm it</w>
l as
f ere</w>
Lat via</w>
re produced</w>
mo s</w>
inten sive</w>
ab sence</w>
equ ally</w>
doc tr
sp ra
responsib ilities</w>
newsp apers</w>
Sen ior</w>
tr il
inv ite</w>
dr ying</w>
SN74 ABT
modi fications</w>
ban e</w>
hibi tions</w>
gh ter</w>
dis able</w>
ath s</w>
Dy nam
sol ved</w>
non- exclusive</w>
ici ency</w>
H PE</w>
sem iconduc
commun ic
st rive</w>
X box</w>
y ours</w>
O m
M Hz</w>
r acing</w>
presid ential</w>
he l</w>
Represent ative</w>
M umb
. asp</w>
K E
CON DI
youn ger</w>
indic ator</w>
id en
ed a</w>
re ward</w>
am ple</w>
pres erve</w>
decor ation</w>
res cent</w>
fre ely</w>
GN U</w>
Con nect</w>
Stu dios</w>
0 6
tro ops</w>
ware house</w>
Carol ina</w>
position ing</w>
gin ia</w>
N U
B at
post al</w>
Ric hard</w>
M R
He w
wa ke</w>
conclu ded</w>
R ay
Def ense</w>
g un
ess ence</w>
decre ase</w>
P ST</w>
1 ,000</w>
s ity</w>
m g</w>
assi on
of-the- art</w>
proc eed</w>
Hor iz
Cir cu
cat ering</w>
R ental</w>
H L
G P</w>
sel y</w>
com posite</w>
advis e</w>
Re alty</w>
et -
human itarian</w>
We ek</w>
Silicon ix</w>
Mag ic</w>
C open
n av
ti ed</w>
Ox ford</w>
B un
end ers</w>
13 .
uni form</w>
endor se</w>
I LI
Diam ond</w>
li p
E X</w>
es ho
Ch ro
b ond</w>
WIF I</w>
Certific ate</w>
where as</w>
repe ated</w>
renew able</w>
program mes</w>
scen ario</w>
righ t-
im aging</w>
ab use</w>
like wise</w>
inter fere</w>
AL S</w>
promis es</w>
Wi k
B ase</w>
treat y</w>
Pack ard</w>
Dis claimer</w>
sle eping</w>
Sloven ia</w>
ans as</w>
activ ated</w>
Ve hic
re ferences</w>
cl oth</w>
ld ers</w>
Mon te</w>
7 50</w>
brow n</w>
off line</w>
innov ations</w>
Revel ation</w>
r ics</w>
foun der</w>
chron ic</w>
sh ots</w>
mi xing</w>
bas ket</w>
vol umes</w>
no s</w>
hob by</w>
it ability</w>
colum ns</w>
tex ts</w>
Per f
Mac ed
op inions</w>
ASE AN</w>
pri de</w>
access ed</w>
Hen ry</w>
gr ass</w>
U L</w>
Cli mate</w>
Classi c</w>
ul tras
tab lets</w>
state- of-the-art</w>
sp ot
s enti
cra zy</w>
F ast</w>
B s</w>
propos al</w>
pe ted</w>
F un</w>
Bel t</w>
t t
val et</w>
Lu ke</w>
WOR KS</w>
TR AN
Econom ics</w>
recei ves</w>
qu ery</w>
farm ers</w>
exclusi vely</w>
OR E</w>
appli ances</w>
st y</w>
l av
car go</w>
yi eld</w>
s lo
resur rection</w>
excell ence</w>
be am</w>
Hew let
Q i
P ass</w>
Ar men
minim ize</w>
lif estyle</w>
invest or</w>
benef icial</w>
ob st
auc tion</w>
Tour ist</w>
Copen hagen</w>
moist ure</w>
any on</w>
ang els</w>
Gran de</w>
Fri end
strength ening</w>
desig ning</w>
Re al
pl ain</w>
iz ations</w>
g ases</w>
NO W</w>
extr act</w>
exam ine</w>
Ap ache</w>
hydro gen</w>
D al
explo it</w>
collec ting</w>
sp ots</w>
en deav
et on</w>
R ica</w>
no body</w>
Vir ginia</w>
Buddh ist</w>
b ble</w>
priv ileg
a x</w>
whol es
b y-
M in</w>
ir s</w>
ent ations</w>
M en</w>
mar i
te es</w>
requ iring</w>
every body</w>
cur tain</w>
V A</w>
K M</w>
trac ks</w>
stre aming</w>
deplo y</w>
ro bots</w>
speci alists</w>
pl ing</w>
S ul
Mumb ai</w>
sequ ence</w>
cab inet</w>
10 5</w>
sk ill</w>
enorm ous</w>
LI ABLE</w>
B ever
promp tly</w>
diplom atic</w>
compl icated</w>
Econom y</w>
bi ological</w>
b all
ag r
P op</w>
EM F
ol ia</w>
Blow job</w>
pil ot</w>
bo a</w>
affili ate</w>
Mar t
un lawful</w>
out comes</w>
genu ine</w>
col om
air y</w>
Rout e</w>
Haw ai
ll a</w>
den y</w>
am ong
B .</w>
T ren
Centr o</w>
B ow
Mar ine</w>
per ed</w>
gather ing</w>
mix ture</w>
mis es</w>
ent y-
bur ied</w>
LI ABILITY</w>
el e</w>
eas ed</w>
Han oi</w>
G oods</w>
16 -
mob il
m ad
af ood</w>
N ar
del eg
band width</w>
ac ies</w>
S avi
G h
occas ions</w>
RE CT</w>
Sh andong</w>
AT ES</w>
ch in
break fasts</w>
La b</w>
sour cing</w>
prosper ity</w>
Z -
o e</w>
j ump</w>
bag gage</w>
b t
. php</w>
Ori ental</w>
G E
n s
thir ty</w>
extra ordinary</w>
u id</w>
iss ance</w>
d wel
terror ism</w>
tail s</w>
Y ang</w>
Tro jan
Li ke</w>
inst antly</w>
anim ation</w>
T su
an ity</w>
F S
S .</w>
Fun c
ear ned</w>
B us
simil arly</w>
gover ning</w>
en za</w>
diffic ulty</w>
am en</w>
S HO
Install ation</w>
ai ah</w>
P av
P ages</w>
B ent
es c
celebr ate</w>
well ery</w>
F low</w>
A post
pass port</w>
ca p</w>
im posed</w>
e .aspx</w>
E .</w>
s ongs</w>
p acking</w>
inter actions</w>
ght ful</w>
exc ess</w>
Y ang
N AS
w ill
sli ppers</w>
Sc ore</w>
sou ls</w>
N Y
rest ored</w>
c ables</w>
Ta ke</w>
R ou
isol ated</w>
ang o</w>
comb ining</w>
min ds</w>
UN D
Off er</w>
algorith m</w>
7 6
f estival</w>
among st</w>
trans lated</w>
poc ket</w>
er als</w>
NON- INFRINGEMENT</w>
ow ed</w>
IM S</w>
en co
cr usher</w>
M ig
re member
V an</w>
Os aka</w>
M iss</w>
Mic hel
H U
8. 0</w>
exp ense</w>
con str
aci al</w>
invest ing</w>
construc ted</w>
an mar</w>
Por sche</w>
4 6
process ors</w>
popul arity</w>
D H
Bro kerage</w>
qu er
ob serve</w>
f ences</w>
mo tiv
viol ations</w>
sch eme</w>
J O
E uro</w>
z y
purch ases</w>
p H</w>
de vil</w>
discrimin ation</w>
enti ally</w>
ec osy
Salv ador</w>
Lin ks</w>
succe ed</w>
gre en
bel l</w>
with draw
large- scale</w>
char ger</w>
bl essing</w>
architec tural</w>
W -
Fi eld</w>
ind ustr
Ben ef
Ser bia</w>
C ris
Li ver
defini tive</w>
b orders</w>
CONT ENT</w>
9 2
dou ble-
I cel
li vely</w>
ER P</w>
poten tially</w>
cos me
V ar
LA W</w>
IC E</w>
tran qu
distinc t</w>
bra ke</w>
Spr ings</w>
Cur rency</w>
candi dates</w>
R M
work er</w>
tr ust
ak en</w>
con sec
I K
Boo ks</w>
f ish
contro llers</w>
R id
Ori ginal</w>
I .</w>
WI TH
open -
R ab
Ch amber</w>
x in</w>
cr yp
l v
W ood
TI VE</w>
sk a</w>
con vic
Y i</w>
pi ano</w>
Gr and
15 0
1 4.
Sim on</w>
H ER
D a</w>
Ple tronics</w>
inf ected</w>
B our
some where</w>
ri ding</w>
cour age</w>
thre w</w>
fin ds</w>
Pos ted</w>
epis ode</w>
p l</w>
p ag
impro ves</w>
D I</w>
wel fare</w>
uni fied</w>
gra in</w>
Con cer
Caf e</w>
ri e</w>
chec ks</w>
A A
nam ely</w>
identi fying</w>
high- end</w>
ed ic
a xi
Direc tors</w>
person ality</w>
coun ty</w>
No tice</w>
Mar ble</w>
Tou ch</w>
prosp ects</w>
gover n</w>
frequ ent</w>
Don ald</w>
you â</w>
exerc ises</w>
Pro te
20 20</w>
Cann es</w>
g ross</w>
eros pace</w>
John son</w>
J an</w>
Pier re</w>
ge ometry</w>
acknow led
T all
F L
mail ing</w>
furn ace</w>
D er
D av
1 40
f its</w>
T H</w>
N C</w>
pos ter</w>
gr y</w>
brea thing</w>
Ch en</w>
Bris bane</w>
IN C
NE W</w>
li st
phot o
for k
P T</w>
fai thful</w>
categ or
Ch all
ad option</w>
Wal es</w>
pass es</w>
pass age</w>
par all
M L
-- --
indic ators</w>
b its</w>
remo ving</w>
d ated</w>
T os
certific ates</w>
ac ed</w>
R ain
P eri
Bab ylon</w>
Lis ten</w>
al ong
Ho tel
re ment</w>
autonom ous</w>
Fut ure</w>
ut a</w>
st ared</w>
co ordination</w>
s par
l er
D im
thre sh
ol e
mon itors</w>
P B
pos ing</w>
T P</w>
Jav a
Foot ball</w>
veri fied</w>
luc ky</w>
cy linder</w>
c aching</w>
it y-
batter ies</w>
ari at</w>
consol id
compli ant</w>
at ers</w>
As s</w>
30 00</w>
. ru</w>
qui ries</w>
dis cer
stom ach</w>
in su
V M</w>
Unic ode</w>
Jo b</w>
Dr inks</w>
AGRE EMENT</w>
ton ight</w>
su s</w>
ag as
ac ent</w>
198 8</w>
promis ing</w>
mat ching</w>
fol ders</w>
G O</w>
Dall as</w>
dra ft</w>
EM F</w>
ropol itan</w>
R U
re turning</w>
o tic</w>
E E</w>
TI C</w>
My anmar</w>
ig nor
brow sers</w>
side bar</w>
sc ul
aut umn</w>
Mid- range</w>
separ ately</w>
Di ff
res et</w>
attrac tion</w>
Table au</w>
Contin ental</w>
15 .
bur nt</w>
Batter y</w>
p acked</w>
b low</w>
W A</w>
Sm ith</w>
Reg ister</w>
t ap
law yers</w>
4 th</w>
reve al</w>
remember ed</w>
emplo yer</w>
hon ey</w>
cur ve</w>
Val ent
S B
G il
19 80</w>
ick en</w>
4 2
con cierge</w>
az za</w>
L ad
ro gen</w>
cap tain</w>
I E</w>
ul ator</w>
ent ally</w>
dis charge</w>
s ad</w>
anc a</w>
wh el
fe els</w>
bas ically</w>
C AN
3. 1</w>
w er
es timate</w>
sun set</w>
sc op
bel ongs</w>
w ay
sta ke
vill ages</w>
spe eds</w>
Ta g</w>
D R</w>
adjust able</w>
16 .
se aling</w>
A ustin</w>
o des</w>
earth qu
bu yers</w>
Smar t
Est onia</w>
Bud get</w>
ow ing</w>
as ks</w>
Sci enti
Res ource</w>
2 D</w>
sm ell</w>
I J</w>
sp ray</w>
hab its</w>
ti fication</w>
ro les</w>
S ud
- 1</w>
vo tes</w>
mo des</w>
b alls</w>
kil ometers</w>
hur ricane</w>
gr at
N G</w>
gra teful</w>
Swe et</w>
survi val</w>
tion ed</w>
spectr um</w>
Spr ing
ter ly</w>
Cl ass
advertis ements</w>
acqu ire</w>
He y</w>
sugg ests</w>
news letter</w>
dur able</w>
RF ID</w>
bor g</w>
E G</w>
v as</w>
i est</w>
f loo
cor d</w>
报 摊</w>
书 报摊</w>
k u</w>
for gotten</w>
air line</w>
PC B</w>
Feat uring</w>
Fac tory</w>
eng ra
mol ding</w>
Autom otive</w>
2. jpg</w>
collap se</w>
Situ ated</w>
R ich
so l</w>
H S
电 子
an ten
Defa ult.aspx</w>
A ud
promp ted</w>
no te
inter vention</w>
coo k</w>
S ucc
wil derness</w>
i di
guid es</w>
cost- effective</w>
Sub way</w>
integr al</w>
H imself</w>
Y an
pli ance</w>
v able</w>
k el
ass ess</w>
an eous</w>
c ub
brow se</w>
ju ice</w>
pre mises</w>
confid ent</w>
comm ission</w>
Rel ations</w>
Program me</w>
under lying</w>
G em
appro aches</w>
surve illance</w>
c ache</w>
un available</w>
sec urities</w>
occup ied</w>
k en
encour aged</w>
bl end</w>
ai a</w>
R ange</w>
Cl ari
zh u
immun e</w>
excur sions</w>
br illi
V inc
P G</w>
friend ship</w>
cy cles</w>
ab or
licens able</w>
log s</w>
auth ors</w>
stro ke</w>
rou ghly</w>
phot ography</w>
f ate</w>
mean ing
man kind</w>
be gun</w>
b loo
CD E</w>
ha ul
tex tile</w>
min or</w>
Dre am</w>
B ru
pun ishment</w>
O UR</w>
z u
reason ably</w>
emo tional</w>
o ils</w>
P uti
B in
ban k
b in</w>
Th ings</w>
Re ference</w>
th es
enti c</w>
U M</w>
C old</w>
susp ected</w>
fing er
ath le
Cre ative</w>
differ ential</w>
H ampton</w>
W is
Gal axy</w>
am id</w>
us a</w>
inten sity</w>
custom ize</w>
promin ent</w>
def ects</w>
ar row</w>
Leban on</w>
no -
cap tured</w>
b acked</w>
convey or</w>
all y-
Cons ulting</w>
ti zed</w>
ti a</w>
fi ers</w>
e ggs</w>
aho tel
recy cling</w>
in tent</w>
econom ics</w>
cons ult</w>
anc er</w>
sla ve</w>
gir l
ann e</w>
R SS</w>
St y
resc ue</w>
P ati
st atistical</w>
har der</w>
differ enti
icon .
t ability</w>
lis her</w>
fe wer</w>
con servation</w>
Cru z</w>
some what</w>
p an</w>
10 2</w>
comm issi
og en
l oud</w>
Rem ote</w>
represent ing</w>
dis continu
ul tra-
k n
deri ved</w>
Bel arus</w>
tu ary</w>
X ML</w>
EMF TR</w>
pr on
Vis ual</w>
ES E</w>
signific ance</w>
f old</w>
bri ghtness</w>
s ement</w>
obe y</w>
OB TAINED</w>
K it</w>
control ling</w>
broad cast</w>
b atch</w>
S eller</w>
tion -
2 50
ei ve</w>
dec k</w>
c um
ab ide</w>
Liver pool</w>
Del ta</w>
l ateral</w>
euro zone</w>
bra ted</w>
ahotel s.net</w>
E i
ro yal</w>
AN T</w>
P ud
M ap
Ky oto</w>
Dub rov
Asi ahotels.net</w>
prefer ential</w>
Fit ness</w>
Pl ant</w>
K -
Mil itary</w>
whe els</w>
S ak
t l</w>
E UN
m p
bun al</w>
B B</w>
resol ved</w>
produc er</w>
ligh ted</w>
R MB</w>
v ans</w>
mis leading</w>
phenom enon</w>
ig ned</w>
inten se</w>
D alian</w>
k u
gre gation</w>
cat alog</w>
Dis ney</w>
tw enty-
ra p</w>
m .
hol es</w>
vi c</w>
liber al</w>
fair ly</w>
SO LI
d ad</w>
year- old</w>
m ood</w>
E UN</w>
C lock</w>
Be ds</w>
sl o</w>
in no
F our
Avi v</w>
hor ses</w>
w ick</w>
for give</w>
Y am
M S
201 5-
AV E</w>
along side</w>
C at</w>
w ishes</w>
l as</w>
fr anch
y u</w>
estima tes</w>
bow l</w>
ti ts</w>
over whel
j u</w>
bi z</w>
a w</w>
Lin col
tis sue</w>
th y
it â</w>
Guine a</w>
Al ber
firm ly</w>
ex em
et ly</w>
Trans fer</w>
Kitchen ette</w>
CONDI TIONS</w>
ran king</w>
el -
de pression</w>
adap ted</w>
S chools</w>
K ol
vulner able</w>
t ape</w>
adj acent</w>
y si
Web sites</w>
ther ap
har mony</w>
T ob
dom ains</w>
detec ted</w>
convin ced</w>
gr ound
constr ued</w>
Serv ic
P endant</w>
AB CDE</w>
pre ad</w>
it ly</w>
discipl ine</w>
RE SU
H ell
it ment</w>
Phar ao
R -
pig eon</w>
Hy att</w>
super se
he im</w>
em es</w>
deli ver
cons ensus</w>
M es
O slo</w>
J E
V la
At mel</w>
74 LV
T own
B ill</w>
Bre ak
GH IJ</w>
F GHIJ</w>
scul p
sc anner</w>
internation ally</w>
MA Y</w>
aw n</w>
inter ference</w>
W yn
Israel i</w>
anti que</w>
Tax i</w>
Pl aces</w>
campaig ns</w>
conven tion</w>
az z</w>
S heet</w>
tun nel</w>
CB D</w>
Americ as</w>
p neum
B ush</w>
in ver
P ay</w>
ri gi
V ari
s ail
re ver
Sens or</w>
Jos hua</w>
ch an
T ong
dec l
AC SI</w>
tor que</w>
C av
revis ed</w>
politic ians</w>
o res</w>
en coun
semiconduc tor</w>
el ds</w>
v it</w>
a ther
intern s</w>
c ast
U z
Pi ece</w>
N ord
st ays</w>
re pos
ol o</w>
mot ors</w>
Fer r
refl ects</w>
inv itation</w>
val ley</w>
is i</w>
bor ne</w>
sensi tivity</w>
Res ol
mail .com</w>
g em
Dubrov nik</w>
AR T</w>
AP PL
le ans</w>
Sam ui</w>
Fl at</w>
inher itance</w>
exp endit
dres sed</w>
V an
Gu id
N AT
essi bility</w>
K il
EUN TR</w>
in um</w>
de duc
a us
che ese</w>
b att
WITH OUT</w>
heav ily</w>
u zzi</w>
ro d</w>
C uba</w>
shou lders</w>
ov o</w>
exec uted</w>
re ject</w>
fi ve-
Tun is
Car peted</w>
with draw</w>
tor al</w>
L et
L T</w>
C ros
Direc t</w>
D river</w>
ste ady</w>
b ay</w>
ac tu
G az
smil ing</w>
on site</w>
Dec laration</w>
2 5-
org ans</w>
sv g</w>
foc uses</w>
V AT</w>
Mic ro</w>
lo ad
b uc
cri mes</w>
d well</w>
Provi der</w>
E scap
In iti
obe di
n ose</w>
compres sion</w>
Le on
experim ent</w>
R ho
9. 1</w>
ograph ical</w>
model ing</w>
minim al</w>
v y</w>
refl ection</w>
in er</w>
Ur ban</w>
Tr u
soci alist</w>
optim um</w>
invol ve</w>
cy cl
U I</w>
Or ange</w>
D W
un usual</w>
er ra</w>
Wa ke-up</w>
ant ine</w>
ant i</w>
ab a</w>
V ec
s om
b os
ash ing</w>
Im perial</w>
Dis k</w>
curren cies</w>
citiz en</w>
Chr is</w>
C ay
z -
t anks</w>
t ag
d um
sub mitting</w>
che stra</w>
Sy rian</w>
P VC</w>
partic le</w>
ro ots</w>
O D</w>
tr aders</w>
li braries</w>
C anyon</w>
r atings</w>
Proc ed
M a</w>
pur ity</w>
Min i</w>
Xi a
ra ys</w>
se gment</w>
dis c</w>
d ick</w>
ch ains</w>
lub ric
n ut</w>
a issance</w>
F ine</w>
z ona</w>
off -
tex ture</w>
spe aks</w>
ar -
Autom atic</w>
gi o</w>
contain ers</w>
5. 0</w>
propos als</w>
heal ing</w>
as leep</w>
5 8
M ON
C all</w>
k on
Mun icip
IS O
program m
Sup pl
K m</w>
HTML 5</w>
Gen esis</w>
re y</w>
pers is
regi str
pr o</w>
bott les</w>
gar age</w>
emphas is</w>
b und
PL C</w>
L ady</w>
Cu be</w>
F F</w>
ful filled</w>
sil icone</w>
k h
Mand arin</w>
Ferryto .com</w>
gam bling</w>
cons ist</w>
Part ner
bid den</w>
Tit le</w>
ENTI AL</w>
mus cle</w>
dic tionary</w>
upd ating</w>
publ ications</w>
o h</w>
Ann ual</w>
l ind
al ised</w>
H IV</w>
B ap
sk illed</w>
D G
att acker</w>
S po
Zh ang</w>
Puti n</w>
Aren a</w>
Fav ourite</w>
stric ts</w>
in si
T ir
rang es</w>
in correct</w>
W TO</w>
is a</w>
Pharao h</w>
Ar c
SOLI D
L ost</w>
Ger man
exc essive</w>
sym bol
ma ster
V IP</w>
unc ture</w>
lif ts</w>
J ustice</w>
Gi ft</w>
thro at</w>
K A
con serv
B ad
competi tiveness</w>
Ch al
l amps</w>
as a</w>
TE L</w>
Coo kies</w>
tur n
Sw imming</w>
Pric eline</w>
A FF
omet res</w>
iden tical</w>
Ud l
12 3</w>
co atings</w>
Sam uel</w>
74 HC
respon ses</w>
Sh ar
No vo
dimen sion</w>
Pos ition</w>
C ities</w>
lo ose</w>
it z</w>
C SS</w>
trou bl
sum mit</w>
s ar
har sh</w>
glob alization</w>
T ile</w>
Hon da</w>
B ased</w>
wai ted</w>
or ings</w>
p y</w>
c ute</w>
s r
min gham</w>
S ony</w>
consi sting</w>
ener gy-
bul k</w>
T reas
Ago da</w>
ven tions</w>
sn acks</w>
Sim ple</w>
hu an</w>
N A</w>
h oo
ar ose</w>
Par k
A ID
ne gro</w>
ani um</w>
tic a</w>
vend ors</w>
po sters</w>
j ah</w>
cre ativity</w>
ch ap
Pro vin
n as
fav icon.
daugh ters</w>
air ports</w>
Agric ulture</w>
r ication</w>
infra red</w>
author ization</w>
ne st
f et
character istic</w>
ab o
ar dian</w>
Bon us</w>
compl eting</w>
sm oo
legis l
hard ness</w>
cul tures</w>
car riage</w>
Ju an</w>
G u</w>
B y
201 4-
pe d
expl oring</w>
r as</w>
m ile</w>
l ou
ae us</w>
Stud ent</w>
Out put</w>
Jer em
st up
st amp</w>
est y</w>
Cl os
Blo od</w>
it ar</w>
cruc i
ch eng</w>
Ti bet
fas test</w>
f ast
auth entic</w>
Doc ument</w>
13 -
wi der</w>
pati o</w>
candi date</w>
c s</w>
Fur niture</w>
Detail ed</w>
De tec
Ben j
Ang el</w>
ma ted</w>
beauti fully</w>
atter ed</w>
Y i
D aily</w>
pre view</w>
S am</w>
Pack age</w>
Fr ank</w>
ter -
p endant</w>
on t
a z</w>
L um
M I</w>
I sa
sp am</w>
res ulted</w>
refuge es</w>
amen to</w>
E mil
se aled</w>
HO ME</w>
de t
bu st
am ate
Z i
Bir mingham</w>
Al bert</w>
sho oting</w>
cor n</w>
bacter ia</w>
it -
W ISE</w>
oc ity</w>
si m</w>
organis ations</w>
decl are</w>
classi fied</w>
assu red</w>
as ka</w>
S W
E ph
w ages</w>
car riers</w>
pe di
viol ent</w>
ki d</w>
in spec
cl ari
Ch ong
ch ina</w>
Fi re
g on
M F
F requ
mar ry</w>
S USE</w>
Cur ve</w>
real istic</w>
Mar se
Icel and</w>
wi des
app aren
Trojan .
D es</w>
some how</w>
A IL
bo x
apparen tly</w>
jewel ry</w>
In sp
Euro star</w>
st ore
altern atively</w>
Bang lad
1 1.
proc urement</w>
gra ve</w>
kil ometres</w>
chair man</w>
5 th</w>
an th
Or leans</w>
Lis boa</w>
Fo x</w>
v d</w>
ch a
believ ers</w>
LT S</w>
Cir cle</w>
Slov akia</w>
Rom ans</w>
Man ila</w>
H ab
B attle</w>
SU B
go v
Nor th
Con duc
Be hold</w>
val idation</w>
provin ces</w>
LA TION</w>
wh il
in struction</w>
Proper ties</w>
leg acy</w>
con test</w>
Tog gle</w>
ON S</w>
198 5</w>
pot atoes</w>
nerv ous</w>
AS S</w>
Chil d</w>
Ch eng</w>
gene tic</w>
viol ated</w>
poss ess</w>
Pre vious</w>
sub mission</w>
De ath</w>
art a</w>
AG E</w>
ti fier</w>
coast al</w>
bu re
met ric</w>
li abilities</w>
demonstra ted</w>
b are
at ories</w>
achel or</w>
Y uan</w>
G ur
s ends</w>
az ines</w>
subsidi ary</w>
L .</w>
S R</w>
En ter</w>
An d
Ad ditional</w>
omet ric</w>
Lincol n</w>
ker nel</w>
In stitu
Grap h
Ap p
gener ating</w>
U sing</w>
m illing</w>
R ing</w>
st uck</w>
Viet nam
Boo ked</w>
eng aging</w>
St ory</w>
18 th</w>
sh a</w>
sc enery</w>
o Â</w>
shor tly</w>
sanc tions</w>
L yn
J ess
correc tion</w>
2. 8</w>
v i</w>
nutri tion</w>
in ability</w>
fore ig
fon ts</w>
ach i</w>
Ph arm
J ose</w>
div or
depend ence</w>
circul ation</w>
ben ch
conf usion</w>
bri ef
Ro y
g aller
Bit coin</w>
wel comes</w>
Ari zona</w>
st ack</w>
met a</w>
Vol tage</w>
perform ances</w>
al izing</w>
24 5
k an
F X</w>
Vol ume</w>
time -
ob taining</w>
limit ing</w>
ah a</w>
AS T</w>
moder ni
Y ellow</w>
H R</w>
Can al</w>
t less</w>
re medi
graph ical</w>
publish ing</w>
fr aming</w>
emo tions</w>
. â</w>
n ick
ind ustri
exci tement</w>
P el
Braz ilian</w>
AR IS
per su
doc k</w>
vers atile</w>
bur ned</w>
yl ene</w>
O M
inten tion</w>
astr onom
si gh
hi king</w>
T OR
SOLID WORKS</w>
Cheng du</w>
inv ested</w>
bo ats</w>
b -
7. 0</w>
rele ases</w>
dispos al</w>
Cam p</w>
arti stic</w>
W ill</w>
wor n</w>
on er</w>
d age</w>
connec ts</w>
S cal
IB LE</w>
tr ation</w>
enh ancing</w>
Re quest</w>
D ru
dr illing</w>
br on
. ashx</w>
um a</w>
tril lion</w>
pe i</w>
ad ly</w>
Hard ware</w>
Ber n
Ad ri
wal ks</w>
us ive</w>
polic y
Is le</w>
tra it</w>
prev enting</w>
inspir ation</w>
ent ries</w>
Al bu
withdraw al</w>
struc tured</w>
sol ic
ab r
Val ve</w>
Tun es</w>
s now
industr y-
dele tion</w>
attribu tes</w>
Pud ong</w>
K is
H -
Ag il
with Â</w>
mom ent
cr ying</w>
Ch am
cer y</w>
S ound
L ag
K ath
10 00
gent le</w>
ad mit</w>
Vill as</w>
compres sor</w>
ab stract</w>
dat ab
are r</w>
Suk hum
P es
1 200</w>
sub stance</w>
so red</w>
us tion</w>
k illing</w>
ear ing</w>
Escap ia</w>
C I
s andy</w>
renew al</w>
independ ently</w>
arg ue</w>
Cal cul
C R</w>
re ign</w>
lau gh</w>
grab bed</w>
Secre t</w>
10 3</w>
sub way</w>
institu tional</w>
ad mission</w>
ach t</w>
Main tenance</w>
H R
nov el</w>
conten t
re conc
ob scene</w>
pro sec
interrup ted</w>
em en</w>
ar do</w>
popul ations</w>
op posed</w>
grap h</w>
continu ally</w>
B ak
An na</w>
sen tence</w>
apol is</w>
Wholes aler</w>
ma id</w>
Fil es</w>
p av
configur ations</w>
tradi tions</w>
Jack son</w>
198 7</w>
whil st</w>
neutr al</w>
le aned</w>
i g</w>
fore going</w>
rec ur
anc ou
An ne</w>
particip ated</w>
Oper ations</w>
t- Packard</w>
part ly</w>
mat ched</w>
Hewlet t-Packard</w>
fl ame</w>
Uz be
sovere ign
ori entation</w>
or ds</w>
Pat ong</w>
A quarium</w>
hospit als</w>
Infra structure</w>
J un
中 文
wat ches</w>
Sukhum vit</w>
E- mail</w>
y .com</w>
autom obile</w>
accep ting</w>
fo ol
de struc
Ed ward</w>
Azerbai jan</w>
wheel chair</w>
Qu ad
MP -
K ev
there in</w>
lin en</w>
Ex port</w>
D ong</w>
An drew</w>
re aches</w>
path s</w>
m p</w>
corrup t</w>
ru gged</w>
l en
R ac
c or</w>
adel p
ran k</w>
fas hi
chem istry</w>
Fa x</w>
- win</w>
S ac
Agil ent</w>
valu ation</w>
ke -
incid ent</w>
W ell</w>
Rec om
monit orings</w>
com pris
al isation</w>
Monte negro</w>
lin king</w>
jud icial</w>
inser t</w>
brilli ant</w>
ast ro
Win 32</w>
Par ks</w>
8. 2</w>
wholes ale</w>
W N</w>
ad ver
No tes</w>
over -
n ail</w>
Gran ada</w>
Gl asses</w>
Xi amen</w>
To ol
wor ried</w>
sav es</w>
safe guard</w>
ph a</w>
ni p
ent e</w>
Com petition</w>
B AS
gent le
az z
ro id</w>
Pur ch
t ary</w>
t all</w>
SE QU
Ho sting</w>
Cre ator</w>
â -
ex am</w>
corpor ations</w>
Ly on</w>
AC K</w>
Qu i
pul se</w>
a es
aff ects</w>
P it
seven th</w>
fi replace</w>
af a</w>
mar gin</w>
10 ,000</w>
jac ket</w>
in .aspx</w>
Hung arian</w>
K ap
H .
lig ent</w>
eas y-to-
Doc tor</w>
publish es</w>
mist akes</w>
col ours</w>
Ad ult</w>
tal ents</w>
V ancou
syste m
shel f</w>
low ed</w>
al liance</w>
Color ado</w>
ra inf
fin ishing</w>
a Â</w>
T ig
y u
Sou theast</w>
R og
E ll
mat rix</w>
Proc essor</w>
LIN E</w>
Sho w
age .aspx</w>
For tune</w>
Retur n</w>
R isk</w>
Den ver</w>
Con go</w>
Be fore</w>
sh ed</w>
rul ing</w>
habit at</w>
Ã 3
tri be</w>
sp ac
mus cles</w>
h m</w>
cul tivation</w>
sh ade</w>
comple teness</w>
Il lin
fore sts</w>
ash a</w>
10 9</w>
pro be</w>
diagnos tic</w>
addres sing</w>
kni fe</w>
exec ute</w>
em on</w>
Zh eng</w>
gh ua</w>
al ter</w>
Distribu tion</w>
mig rant</w>
TO .
w ings</w>
so m</w>
ph os
16 th</w>
secre ts</w>
ell es</w>
Regi stry</w>
en o</w>
de aths</w>
announ cement</w>
i Tunes</w>
Mo vement</w>
F lic
pip eline</w>
ing en</w>
for got</w>
Ferry TO.
Ch el
tr ace</w>
p ushing</w>
car bide</w>
Po sts</w>
Loc ations</w>
war s</w>
utiliz ation</w>
li ed</w>
l uck</w>
compl aints</w>
Mon it
Mari o</w>
Je ho
uplo ads</w>
follow ers</w>
agre es</w>
W M
u ous</w>
pregn ant</w>
Stock ings</w>
the Â</w>
the atre</w>
be st-
Cru ise</w>
wat ch
os a</w>
Pi azza</w>
PROVID ED</w>
CON SEQU
re vision</w>
ish ings</w>
hab i</w>
su its</w>
h at
favicon. ico</w>
Q C</w>
sym b
Is aiah</w>
multi tude</w>
hun gry</w>
com prises</w>
Sie m</w>
tho do
conver ter</w>
Sil icon</w>
lin s</w>
impres sion</w>
J en
hang ing</w>
h il
bl an
N -
har b
ch ances</w>
MO V</w>
E K</w>
ves sel</w>
no ble</w>
d ying</w>
hy gi
Venez u
y able</w>
loc k
den ied</w>
ENT AL</w>
y ar
Sel f-
Bath room</w>
p up
l ung</w>
8 2
4 9
scre ening</w>
ho pes</w>
fin dings</w>
N AME</w>
deli ber
R ico</w>
SM 320
draw ings</w>
Vancou ver</w>
2. 7</w>
R un
X en
ti um</w>
mem br
ch a</w>
Phil adelp
Re ap</w>
num er
Tunis ia</w>
ed ly</w>
mort gage</w>
Stor m</w>
Qu in
M US
7 50
Tub er</w>
SY ST
2. 6</w>
ir r
hand -
blo gs</w>
Main land</w>
work place</w>
riv ers</w>
Excell ent</w>
dupl icated</w>
discontinu ance</w>
Wi ki</w>
olog ist</w>
extrac tion</w>
lo ver</w>
il itation</w>
simpli fy</w>
p ad</w>
Ren aissance</w>
Hu ang
ly n</w>
arch y</w>
D og
5 2
under take</w>
medi um-
H ave</w>
z o
work flow</w>
Sw itch</w>
p it</w>
b icycle</w>
DO WN
to ys</w>
pass words</w>
Ac tive</w>
lo ving</w>
anal og</w>
Comm ons</w>
CA M</w>
z ones</w>
g aining</w>
Lab or
E lev
sem inars</w>
up coming</w>
G ard
Anti -
scen es</w>
mag azines</w>
function ing</w>
con su
Win ter</w>
ard i</w>
S ong
O THER
F P
8 9
wides pread</w>
r ab
b ent</w>
Prin ting</w>
De b
ur i
sol ving</w>
fail ures</w>
Bot an
Yo dot</w>
In dependent</w>
B all
ad u
Wi en</w>
pursu it</w>
Pir aeus</w>
H B
qu alities</w>
AL S
rot ary</w>
guest rooms</w>
g ig
af ford</w>
Sher aton</w>
IM F</w>
Inte grated</w>
C art</w>
thor ou
os ity</w>
dro me</w>
S l
Bos nia</w>
d ental</w>
S ir</w>
M ul
car d
add y</w>
On t
B .
Mar kets</w>
0 7
telecommun ications</w>
str ang
ci um</w>
ub by</w>
re jo
e ye
circ ular</w>
ch at
T umble</w>
Lot us</w>
10 4</w>
hand led</w>
fle et</w>
Mo de</w>
E B
6 9
res orts</w>
min ary</w>
lin ess</w>
K an
Col l
Nap les</w>
Li ghting</w>
Marse ille</w>
wr ath</w>
fl ed</w>
comb inations</w>
r in
mon uments</w>
Ken ya</w>
Jac kie</w>
2016- 0
to col
ess entially</w>
c ure</w>
OTHER WISE</w>
La undry</w>
K im
Isa ac</w>
Y un
Sh u
10 6</w>
thi op
occup ation</w>
ma tes</w>
Roman ian</w>
15- 25</w>
gu ards</w>
consisten cy</w>
ans on</w>
Jam a
13 th</w>
1 30
cour tyard</w>
H oo
t ages</w>
li kes</w>
iz za</w>
defe at</w>
Vietnam ese</w>
Sev ille</w>
stake holders</w>
depos its</w>
W id
S TR
Pen n
PR O</w>
ut ter</w>
stret ched</w>
m apping</w>
light weight</w>
Philadelp hia</w>
CONSEQU ENTIAL</w>
o .aspx</w>
harv est</w>
Y E
12 8</w>
er g
transl ations</w>
form ity</w>
aggre gate</w>
Palest inian</w>
qui etly</w>
soc ket</w>
inf ant</w>
Back up</w>
kno c
ir ts</w>
conduc ting</w>
bo arding</w>
ar ch</w>
K os
J C
ge ous</w>
e br
Wil dlife</w>
O PC</w>
v il
G ateway</w>
Ver ona</w>
Chro me</w>
Sustain able</w>
M ec
soci eties</w>
ali ke</w>
Por tal</w>
K as
I b
F ish</w>
in clusion</w>
tool bar</w>
om o</w>
mus ical</w>
K ai
Ch en
viol ates</w>
tri gg
ex ported</w>
en counter</w>
Mi ke</w>
M T</w>
ste ad
author ised</w>
WE B</w>
tri als</w>
ro om
regul ated</w>
S cr
out -
ate -
DOWN LO
prev ents</w>
Y u</w>
R ay</w>
quali fication</w>
p our</w>
ang a</w>
sec ured</w>
re bel
meth od
in- depth</w>
back packers</w>
S V
G row
in- house</w>
TEC H</w>
Banglad esh</w>
r am
E thiop
sub contractors</w>
LO W
D habi</w>
Bo b</w>
sti pul
ec tors</w>
Pain ting</w>
Mechan ical</w>
J a
flor al</w>
Ti bet</w>
Doc umentation</w>
ans om
E MP
A x
str ate</w>
paten ted</w>
no des</w>
introduc ing</w>
comb at</w>
Nig eria</w>
non- smoking</w>
f li
bar becue</w>
Ret ail</w>
P ip
world- class</w>
ul um</w>
St ars</w>
Consum er</w>
4 50</w>
war ming</w>
vent ures</w>
the ater</w>
stret ch</w>
pursu ant</w>
lan ding</w>
compil ation</w>
H A
198 6</w>
S anti
mem ories</w>
je wellery</w>
e- commerce</w>
H ad
20 1</w>
investi gate</w>
fr iction</w>
co ins</w>
k ou</w>
Sec ure</w>
tri gger</w>
cont acting</w>
ass er
Scienti fic</w>
ARIS ING</w>
web cam</w>
ast ery</w>
en rich</w>
an tum</w>
3. 3</w>
- M
I ce</w>
conf used</w>
compl aint</w>
198 4</w>
trans formed</w>
symb ols</w>
ol ive</w>
flo ating</w>
Gu ard</w>
C ome</w>
nam ent</w>
defic it</w>
s ten
d os
coun try
con grat
Mex ican</w>
moder ate</w>
met al
know -
head er</w>
C ards</w>
toler ance</w>
le af</w>
el ders</w>
re vel
de d
P P</w>
Harv ard</w>
high way</w>
Mar co</w>
ern acle</w>
Sc and
Ac cor
provin cial</w>
mini stry</w>
PS D</w>
wash ed</w>
scen ic</w>
Hawai i</w>
A U</w>
17 0</w>
tu des</w>
sen ten
end -
em ent
k t</w>
Y ong
Trans portation</w>
Kev in</w>
J ones</w>
ti ll
Z im
Jo int</w>
p ers</w>
licen sees</w>
Ill ustr
polym er</w>
i k</w>
arg uments</w>
all ed</w>
territ ories</w>
ha r</w>
ri -
municip al</w>
character ized</w>
re venues</w>
ing .aspx</w>
Ex p
ur ies</w>
off shore</w>
gl ance</w>
week ly</w>
ic op
esho oting</w>
es .com</w>
cy lind
br ac
Tro pical</w>
C um
exten sions</w>
Novo tel</w>
E spa
valent ine-
memor able</w>
le an</w>
contr ad
commer ci
Un der</w>
Maced onia</w>
D in
di visions</w>
bour ge
surve ys</w>
read ily</w>
Ont ario</w>
Benj amin</w>
199 0s</w>
Al ic
ili st
Perf ect</w>
pre li
attrac ted</w>
Con fuc
ra k
ex e</w>
Or ch
proj ection</w>
expl oration</w>
exclu ding</w>
dur ability</w>
avi ation</w>
W HO
HL MP-
con fron
M IL
Con do</w>
Pro vid
G y
Cust om</w>
mis s
im pose</w>
ig ent</w>
ic -
V E
Hard core</w>
c ad
IND I
urg ent</w>
ti gh
bin ary</w>
assum ed</w>
M ore
Expl ore</w>
t ack
myst ery</w>
land scap
ing o</w>
el e
deplo yed</w>
Go th
sn ap
pre ach</w>
navi gate</w>
had n</w>
h in
fif ty</w>
f ill
assion ate</w>
Steph en</w>
DRE SS</w>
Ch ang</w>
explic itly</w>
el and</w>
dr ill</w>
qu otes</w>
ion ship</w>
concer t</w>
Scre en</w>
tu r</w>
law yer</w>
after wards</w>
C rown</w>
pos es</w>
es ia</w>
calcul ate</w>
algorith ms</w>
Mong olia</w>
hand les</w>
The ater</w>
C ater
m entation</w>
short- term</w>
anonym ous</w>
Sal es
Be auti
comp ounds</w>
AN A</w>
T ER</w>
10 8</w>
iz a</w>
hi p</w>
R .</w>
Mac ao</w>
C MS</w>
tw er
sovereign ty</w>
Merc ure</w>
tur a</w>
squ ee
l eng
des per
So ft</w>
ra d</w>
here in
fo am</w>
fam il
determin es</w>
tocol s</w>
s ink</w>
re strict</w>
har a</w>
bre aks</w>
Re qui
Y e
consult ants</w>
w ines</w>
r ue</w>
he art
bur st</w>
blo gging</w>
Stand ards</w>
E as
Reg ulations</w>
roof top</w>
exha ust</w>
emer ged</w>
Y -
Th us</w>
stri p</w>
Limas sol</w>
F T</w>
Camp site</w>
Bu ff
neg ligence</w>
b ones</w>
W on
D ay
vin ey
six th</w>
lo gging</w>
ici de</w>
One -
be verage</w>
aw esome</w>
S ON
Ar th
al lies</w>
Sho ws</w>
4.0.30319. 36
2 80</w>
integr ating</w>
de vi
k al
dem o</w>
Java Script</w>
rot ation</w>
furn ishings</w>
expir ation</w>
H ei
相 关
nest led</w>
gu es</w>
Cre ek</w>
gh ton</w>
fit ting</w>
Mad agas
scrip ts</w>
nit rogen</w>
determin ing</w>
cle ans
ELECTRON ICS</w>
Ph ilist
non- refun
ill um
h oods</w>
ap ple</w>
amate ur</w>
I l</w>
ul ar
p se</w>
Veg et
ra ft</w>
qu eries</w>
en burg</w>
colom bia</w>
ch icken</w>
c av
Le vi
whis pered</w>
Sec urities</w>
wel com
l un
P om
N E</w>
Mon aco</w>
Administr ator</w>
know- how</w>
er ation</w>
G A
eg g</w>
L P</w>
8. 4</w>
pu zzle</w>
he m</w>
bl ame</w>
suspen ded</w>
g -
clus ions</w>
Sou l</w>
R IGH
st ain</w>
ili ation</w>
ess ors</w>
S ON</w>
Qu anti
fi g</w>
ü r
your selves</w>
y a
wri tes</w>
retri eve</w>
enjo yable</w>
Anim al</w>
axi al</w>
Sil k</w>
MP 4</w>
Fr on
small est</w>
RE LIG
over night</w>
d ash
cli p</w>
C N</w>
pick up</w>
F I
Bl onde</w>
ush i</w>
loc king</w>
d ence</w>
th rown</w>
b age</w>
s chool
l ds</w>
beli efs</w>
Roman tic</w>
G all
f anci
ent ers</w>
ann ually</w>
analy tical</w>
Terr itory</w>
Secre tar
k- in</w>
f ought</w>
a qu
P ad
at able</w>
Grou ps</w>
Ar t
subsequ ently</w>
T ang
yn asty</w>
Ap t</w>
Rem o
RELIG ION</w>
Em peror</w>
ter ior</w>
struc turing</w>
r ick</w>
liter ally</w>
attach ment</w>
Intel ligence</w>
10 7</w>
00 00</w>
herein after</w>
d ancing</w>
Ken ne
AD DRESS</w>
compres sed</w>
bo y
mal icious</w>
j adeite</w>
exten ds</w>
an n</w>
Op ens</w>
Motor ola</w>
C row
Blo om
be st
bar riers</w>
Land scape</w>
sem inar</w>
S port</w>
inv iting</w>
encryp ted</w>
ass ure</w>
V ee
sur charge</w>
organiz ational</w>
cre w</w>
al ert</w>
Pay ment</w>
O FF
win ners</w>
ate dly</w>
Well -
un certainty</w>
pu zz
Rom a</w>
Madagas car</w>
F U
Dr ying</w>
wh a</w>
per missions</w>
doctr ine</w>
Monit oring</w>
GB P</w>
Flic kr</w>
B lock</w>
ili ary</w>
cra fted</w>
Ferry TO</w>
ten der</w>
sol id
lo vers</w>
isol ation</w>
h ills</w>
8. 1</w>
min ority</w>
loy alty</w>
li am
Z am
Te en</w>
R S
15 00</w>
ung er</w>
t v</w>
dro ve</w>
car to
acc o</w>
Dis p
Cor p</w>
stoc ks</w>
pres su
dro ps</w>
Poli tical</w>
Ar tec</w>
TH ESE</w>
H IGH
syn thetic</w>
L ob
En tire</w>
E cu
uni qu
oun ce</w>
f s</w>
SS L</w>
ropol is</w>
U ser
K iss</w>
F ro
up uncture</w>
entreprene urs</w>
ind le</w>
enti als</w>
H ay
F oc
5 9
201 1-
lis tened</w>
di stricts</w>
assem bled</w>
R un</w>
P .</w>
K O
on te</w>
cro p</w>
comfor ts</w>
EM S</w>
Tai pei</w>
S ter
E UR
C isco</w>
res in</w>
Fe edback</w>
check out</w>
prop ag
practi tion
ev es</w>
ansom ware</w>
G ang
Bap ti
3. 2</w>
rainf all</w>
Gu ate
â- oÂ</w>
re tention</w>
ma ke
bour g</w>
AFF ILI
cat aly
Christi anity</w>
19 70</w>
SO FT
S he</w>
wh oever</w>
jour neys</w>
bro ker</w>
A del
s aints</w>
pen sion</w>
our met</w>
heav ens</w>
cl er
am as</w>
W .</w>
S ap
中文 版</w>
shou ldn</w>
inst ances</w>
con ies</w>
ren dering</w>
f eng</w>
bene ath</w>
ast e</w>
o h
bre asts</w>
Guate mal
vol can
en close</w>
Mo tion</w>
7 9
le um</w>
ar o</w>
Char lot
4. 5</w>
re gre
it ated</w>
form erly</w>
Pro ph
Lim a</w>
An al</w>
be ast</w>
b illing</w>
ush es</w>
mar ital</w>
her o</w>
fac e
art z</w>
o va</w>
Rec tifier</w>
ON S
Integr ation</w>
CN Y</w>
f ati
il ica</w>
gest ure</w>
Bas ler</w>
B L
fin est</w>
d s
Tra ditional</w>
AV AIL
ec k</w>
dev oted</w>
refresh ed</w>
star ing</w>
ci o</w>
promo ted</w>
in cl
em ission</w>
Th erefore</w>
PO W
Ale x</w>
un preced
obj ection
ig no
fu r</w>
Lic ens
Fri ends</w>
gau ge</w>
que en</w>
wr apped</w>
R G4</w>
ux i</w>
inf ections</w>
datab ases</w>
govern or</w>
De als</w>
B and
sur fing</w>
con ce
car di
Sar ah</w>
Mic hi
invol vement</w>
in puts</w>
ex hibitions</w>
des erv
Grow th</w>
D anish</w>
Cent ers</w>
treas ure</w>
ter ror</w>
S ten
R ig
Nav y</w>
resol utions</w>
ran ks</w>
illustr ation</w>
Com b
v ar</w>
objection able</w>
d ham</w>
char ts</w>
B ang</w>
pre aching</w>
cou ples</w>
Tr ust</w>
L aur
D ance</w>
recipi ent</w>
imp acts</w>
cas ual</w>
c ams</w>
ag le</w>
trem end
as sion</w>
Model s</w>
some body</w>
religi ons</w>
uck land</w>
s wal
Advertis ing</w>
rou s</w>
dynam ics</w>
cr ash</w>
con e</w>
commod ity</w>
Car ne
in c</w>
man us
loc ally</w>
in n
dir ty</w>
gor geous</w>
dres sing</w>
anc ers</w>
st ation
gro cery</w>
8. 8</w>
un expected</w>
ill ness</w>
hy po
S EC
P ep
Benef its</w>
col ored</w>
cap ita</w>
0 x
P O</w>
fis k</w>
Tr inity</w>
18 .
. ca</w>
Mon itor</w>
perform s</w>
m all</w>
assi stant</w>
ag an</w>
aff ecting</w>
Seas ons</w>
Col on
el ite</w>
cooper ate</w>
color ful</w>
b old</w>
Illin ois</w>
pan e</w>
neighb ors</w>
con qu
ce ase</w>
TV s</w>
Sofi tel</w>
sk aya</w>
Wol f
An twer
pri zes</w>
mand atory</w>
Bu ch
Bas ketball</w>
repos itory</w>
por teur</w>
mat h</w>
EX T
gr ay</w>
deal er</w>
thresh old</w>
pl ant
cont act
S le
Buddh ism</w>
r ush</w>
it su</w>
err or-
encoun tered</w>
dr um</w>
cros sed</w>
b ands</w>
.com .
u li
enni um</w>
Tay lor</w>
Beauti ful</w>
201 3-
visu alization</w>
produc t
e u</w>
dig it
cru ise</w>
Tibet an</w>
Intel ligent</w>
o yang</w>
en z
hi o</w>
au x
ad apter</w>
tox ic</w>
su es</w>
partner ships</w>
haul ers</w>
INC ID
A A</w>
Th eme</w>
re ti
esti vals</w>
dir t</w>
car pet</w>
ali tion</w>
74 V
or dering</w>
compil ations</w>
M .
so ver</w>
Vee am</w>
w ang
Wiki Project</w>
10- 30</w>
sac red</w>
o ved</w>
li est</w>
in quiry</w>
fac tories</w>
acc essibility</w>
Li qu
Cor s
17 .
uni ted</w>
bed ding</w>
O ff</w>
vend or</w>
dist urb
comp ete</w>
child hood</w>
LIMIT ATION</w>
1 15
sy lv
spir its</w>
com promised</w>
id ad</w>
res sion</w>
l an</w>
weap on</w>
applic ants</w>
W ood</w>
MB ER</w>
Car r
B BC</w>
o ch
Inter sil</w>
Im port</w>
Gr an</w>
D IN</w>
res old</w>
IC T</w>
零 件</w>
相关 电子
相关电子 零件</w>
meaning ful</w>
R ail</w>
Fal un</w>
us et
unpreced ented</w>
mac ro
Bl vd</w>
smo ker</w>
men ted</w>
preli minary</w>
observ ations</w>
see ds</w>
g ni
appe aring</w>
BB Q</w>
bap tism</w>
tre ati
gra vity</w>
air lines</w>
A uckland</w>
y b
ur i</w>
Sha red</w>
Mem ber
I ran
G ong</w>
y o</w>
night life</w>
dep ic
Chong qing</w>
am o
L ec
sh ame</w>
dram atic</w>
consequ ence</w>
Pe ti
S hel
1 15</w>
win ds</w>
org asm</w>
demon stration</w>
Sex y</w>
Movi es</w>
repe atedly</w>
associ ate</w>
U .
RIS K</w>
ecosy stem</w>
ambi ent</w>
2 20</w>
- R
sci ences</w>
lin k
cou ch</w>
n in
experi encing</w>
ad here</w>
Free dom</w>
Cor fu</w>
pic tu
cre atures</w>
IE C</w>
re me
om ed</w>
collabor ative</w>
inten d</w>
ac a</w>
PRE S
fl our</w>
as -
Per man
Mil k</w>
Goo d
qu ad
pra yed</w>
el t</w>
H ill
Com mission
Bent ley</w>
te au</w>
ach uset
2.0.50727. 54
Pl as
J unior</w>
des ires</w>
bo o</w>
syn c</w>
in ches</w>
pal m</w>
develop s</w>
assign ment</w>
arriv ing</w>
Wyn dham</w>
ol ine</w>
hyper link</w>
g mail.com</w>
ag e-
K ow
Penn sylv
E asy</w>
C ell</w>
AC Y</w>
si sters</w>
diff er</w>
al ties</w>
Li f
id el
ati lity</w>
Diff er
work shops</w>
theore tical</w>
noti fied</w>
E ve</w>
must -
b ang</w>
t ative</w>
pas sive</w>
con junction</w>
cab in</w>
Te tra</w>
SPEC IAL</w>
up grading</w>
corrup ted</w>
N el
Contro ls</w>
cou pon</w>
ch am
In tl</w>
comp ound</w>
vi d</w>
scre en
fas cin
hi er
AT A</w>
set tle</w>
pul ling</w>
comb ustion</w>
ai ds</w>
a rent</w>
Mass achuset
INCID ENTAL</w>
Gen re</w>
Buil d</w>
ten sions</w>
TI T
Resol ution</w>
Ji m</w>
A E</w>
thorou ghly</w>
influ enced</w>
des ir
adhes ive</w>
tr ag
ph ony</w>
parall eled</w>
foot print</w>
con gregation</w>
la p</w>
di versi
SOFT WARE</w>
H ir
str anger</w>
C K
ra rely</w>
earthqu ake</w>
Olymp ics</w>
15 th</w>
b are</w>
g el</w>
aband oned</w>
Cot tage</w>
é s</w>
pain ted</w>
corpor ation</w>
POR TION</w>
Atl anta</w>
17 th</w>
res ist</w>
k el</w>
in- room</w>
5 ,
off set</w>
g ent</w>
laugh ter</w>
Com mon
Le o</w>
preserv ation</w>
Han wha</w>
eth ical</w>
contrac tual</w>
clean er</w>
W an</w>
Un ity</w>
Sol id
P V</w>
M I
lo gged</w>
dram atically</w>
P te</w>
F A</w>
em ented</w>
Pet ro
scal able</w>
mid d
leg es</w>
decisi on-
Po st
te water</w>
p ine</w>
cal ories</w>
Su perior</w>
Fac ulty</w>
G T</w>
ure -
photograp h</w>
bo ot
Down loads</w>
6 th</w>
welcom ed</w>
ultras onic</w>
tim ing</w>
termin als</w>
res ume</w>
TH E
m esh</w>
ex chang
as i</w>
achiev ement</w>
U lit
fr ac
ten ded</w>
for cing</w>
be verages</w>
Pra ha</w>
He av
Han ting</w>
app arent</w>
Br and
Bec ause</w>
thodo x</w>
prec eding</w>
S ao</w>
Rol ex</w>
s light</w>
main tains</w>
T B</w>
v oting</w>
ong -
guil ty</w>
ex hibit</w>
A ven
prin ce</w>
el ding</w>
Uzbe kistan</w>
AN CE</w>
12 2</w>
to aster</w>
ship ped</w>
g ateway</w>
destruc tive</w>
Santi ago</w>
Republic an</w>
Rel ation</w>
Ow ner</w>
Kenne dy</w>
Ite m</w>
E n</w>
ud a</w>
pro found</w>
fri gh
J et</w>
Di stri
R av
Nep al</w>
sear ch
hor ri
Ulit sa</w>
U bun
Cl ick
Cair o</w>
el ect</w>
S ki
h ung</w>
flow ing</w>
contin ent</w>
re tro
ag on
S ound</w>
ACK ER</w>
Re duc
Rap porteur</w>
sin ners</w>
pri orities</w>
ass ing</w>
Care ers</w>
Pol ice</w>
Met ropolitan</w>
preci p
ob servation</w>
threa tened</w>
prox y</w>
p ec
low ing</w>
fo res
R A</w>
Graph ics</w>
Bo at</w>
promp t</w>
prob ability</w>
fuc ked</w>
N uc
wat er-
sli ding</w>
molec ular</w>
P .
Liber ty</w>
Coun tries</w>
st ol
eri an</w>
M ining</w>
Gl as
bl ank</w>
F la
6 4-
noti fications</w>
let ting</w>
bu bble</w>
attor ney</w>
W at</w>
C s</w>
B ER
d ged</w>
Si em
2- 8</w>
regi stering</w>
ad ata</w>
r ical</w>
con dens
att acked</w>
Tr in
TE C</w>
Boo k
fin ed</w>
il ee</w>
high lighted</w>
Wed ding</w>
Pub lish
N AS</w>
sun ny</w>
ph p
Surve y</w>
S top</w>
G enti
E aster</w>
os la
ion ally</w>
constra ints</w>
F IN
Can on</w>
B ell
198 3</w>
fol k</w>
f ounding</w>
Clari ant</w>
198 2</w>
Sen ate</w>
Auth or</w>
ex clusion</w>
end less</w>
emb lies</w>
Back ground</w>
di agram</w>
as ia</w>
ag li
SP ONS
win ding</w>
w et
perio dic
P ink</w>
ri tis</w>
AN D
de fam
to y</w>
install ations</w>
ec ycle</w>
Ubun tu</w>
tr ucks</w>
sm outh</w>
p itch
municip ality</w>
fe ast</w>
cop ying</w>
Y ug
At t
Al tern
p es
dis claims</w>
aci ds</w>
accep ts</w>
reg ards</w>
pur ple</w>
d ose</w>
coun cil</w>
comp assion</w>
S ant</w>
S P</w>
ul ent</w>
mit ory</w>
environment ally</w>
do va</w>
bri dges</w>
- related</w>
por tions</w>
lo ader</w>
Lin ked
l enses</w>
ign ore</w>
T N
Port smouth</w>
th um
O ver</w>
critic ism</w>
bal ancing</w>
Shi pping</w>
Caf es</w>
B og
termin ates</w>
sustain ed</w>
is er</w>
d are</w>
ac ity</w>
Un classi
dis appeared</w>
cock tails</w>
ch ips</w>
Sn ap
Si erra</w>
C over</w>
phos ph
de tention</w>
am ics</w>
F AR
u -
pra yers</w>
p ile</w>
he ading</w>
ati tude</w>
Unclassi fed</w>
17 -
p ants</w>
Pennsylv ania</w>
Meth od</w>
well ness</w>
4 3
stup id</w>
for ty</w>
di oxide</w>
Y emen</w>
OO L</w>
F ord</w>
prof itable</w>
po p</w>
gre y</w>
experim ents</w>
di str
uplo aded</w>
ho ped</w>
Sud an</w>
z oom</w>
reme dy</w>
priv ately</w>
neighbour hood</w>
gradu ated</w>
flo od</w>
M D</w>
pregn ancy</w>
UN I
F ed
197 9</w>
schol ars</w>
le ver
gu a</w>
Al ice</w>
preserv ed</w>
Pro jects</w>
G ig
198 0s</w>
m ask</w>
fascin ating</w>
al ign
Harb or</w>
D an</w>
C V
t ing-
impl ications</w>
der og
d ot
SA R</w>
Man aging</w>
Chin at
OR Y</w>
vari ed</w>
g ins</w>
oun ced</w>
Pla ya</w>
cy cling</w>
ad mitted</w>
R ates</w>
L ine
APPL IC
d ess
PAR TY</w>
proj ector</w>
Sam ple</w>
19 0</w>
wh ite
qu isite</w>
proph ec
Massachuset ts</w>
indic ating</w>
bi om
believ ing</w>
Ten nis</w>
tut orial</w>
sin cer
embr ace</w>
Wall papers</w>
U m
D ate
un paralleled</w>
at us</w>
S ear
Pro motion</w>
IC AL</w>
2. 9</w>
victi m</w>
f os</w>
emb arr
U M
Produc t
AR D</w>
sh i</w>
Venezu ela</w>
St at</w>
Infin ity</w>
w ished</w>
p itch</w>
Id enti
Co ol
C ash</w>
intermedi ate</w>
ack ers</w>
Aug ust
W uxi</w>
O H
F ed</w>
Ban king</w>
x on</w>
cin ema</w>
Sp ir
Moun tains</w>
Del ete</w>
ad ays</w>
Cor ning</w>
kid ney</w>
Sh ut
Initi ative</w>
show ers</w>
ge on</w>
at ri
Insp ection</w>
7 th</w>
multi media</w>
g le
Pr acti
found ations</w>
evid ent</w>
co zy</w>
Ji ang</w>
E x</w>
B ell</w>
ous ada</w>
kind ly</w>
Qu ick
gra b</w>
f o</w>
ab i</w>
Mon tre
vic inity</w>
v s.</w>
Wi fe</w>
A e
er i</w>
Comm on</w>
key word</w>
Michi gan</w>
Li b
G ROU
F ive</w>
restor ation</w>
pain ful</w>
s nor
mal ware</w>
do z
ag g
IB ILITY</w>
occas ionally</w>
se afood</w>
cal cium</w>
19 20
secon d-
ge able</w>
Sha re
Distri to</w>
Cl ou
An tal
dist or
bo ard
NU MBER</w>
rest art</w>
import antly</w>
Cy cl
uc tu
t le
Siem ens</w>
perc eived</w>
g u</w>
ferti lity</w>
ard ous</w>
virtu alization</w>
G ren
Asi a-
1 12</w>
cos y</w>
substan tially</w>
lin e
Luc as</w>
s ap
moment um</w>
can al</w>
b ps</w>
v in</w>
resp ects</w>
di ves</w>
E s</w>
h yp
bl onde</w>
G os
Cle an
reli ably</w>
sear ches</w>
concentr ated</w>
U E</w>
Vi ol
Pol ic
Ped ro</w>
Guatemal a</w>
Fin al</w>
Condi tion</w>
cele bration</w>
Joh ann
F em
C and
writ ers</w>
pro visi
p ur</w>
out puts</w>
l ang</w>
infring ing</w>
g eting</w>
de grad
galler ies</w>
U s
ologi sts</w>
Win dow</w>
Gol d
Austri an</w>
teach ings</w>
exclu ded</w>
ation .aspx</w>
T elec
S IT
ut ory</w>
T pl</w>
Sta ff</w>
view er</w>
pip es</w>
as ian</w>
M ature</w>
distribu tors</w>
b less</w>
announ ce</w>
Z ul
L u</w>
I B</w>
Config uration</w>
h all
erg onom
accid ents</w>
a a</w>
O hio</w>
M ORE</w>
Langu ages</w>
ast on
Oc t</w>
Emer ald</w>
A ber
sub tle</w>
shor ter</w>
roc ks</w>
loc ales</w>
ing .
g az
e es</w>
co in
Ecu ador</w>
y un</w>
th ed</w>
sh it</w>
rot ating</w>
amen ded</w>
Fran ç
AID S</w>
win s</w>
ter fly</w>
Oper ating</w>
hy dr
fun ded</w>
ar rested</w>
Or chestra</w>
psych ological</w>
j ava</w>
comp ul
Sex y
S id
Nor we
F is
B R</w>
wi z
fu els</w>
H us
B US
succe eded</w>
journ alists</w>
ch ol
O ak
res ili
prin ts</w>
predic t</w>
ad or
R acing</w>
Pow ered</w>
oo ter</w>
iz h
a ked</w>
Commission er</w>
5 ,000</w>
up -to-
s an</w>
is -
in equality</w>
est one</w>
aggres sive</w>
jurisdic tions</w>
T D
F .</w>
Sh ould</w>
P af
O li
H ard</w>
Fuj itsu</w>
C utting</w>
ne uro
min erals</w>
di ve</w>
behavi our</w>
ast ers</w>
W ACKER</w>
M oo
ï 1</w>
pe dest
k ia</w>
encour aging</w>
T us
acc used</w>
TM re</w>
Sur face</w>
Ital i
u de</w>
standardi zed</w>
sex y
ro bo
accompl ished</w>
tom b</w>
sli p</w>
ag ogue</w>
Soci alist</w>
st ad</w>
icon ic</w>
cele brated</w>
v ou
re production</w>
fati gue</w>
Zhong shan</w>
Y ardi</w>
MATER IAL</w>
ment -
can vas</w>
al o
Y oga</w>
SCH OOL</w>
G RE
im m
crow n</w>
house holds</w>
consec utive</w>
command ments</w>
associ ations</w>
TH IR
k an</w>
insul in</w>
ash i</w>
To y
R ent</w>
9. 2</w>
v ap
domin ant</w>
cry st
Ukra inian</w>
Si x</w>
197 8</w>
s lot</w>
ro ad
ol f</w>
la dies</w>
TRAD ING</w>
C P</w>
bro ader</w>
bloc ked</w>
ach front</w>
Sp i
pro tocols</w>
pre ference</w>
pneum atic</w>
o dy</w>
g ang</w>
er s
M am
Antwer p</w>
b oss</w>
Sc ott</w>
Kow loon</w>
H in</w>
EXT ENT</w>
x y</w>
public ity</w>
gl y
20 .
mand ate</w>
de bu
Q atar</w>
D afa</w>
wor e</w>
sp i
fac ial</w>
cooper ative</w>
2 ,000</w>
u ation</w>
anten na</w>
E ye</w>
As set</w>
r aces</w>
a erospace</w>
Domin ican</w>
5. 00</w>
12 1</w>
mini sters</w>
adv ances</w>
X u
T ext</w>
Enter prises</w>
C es
HIGH EST</w>
ti de</w>
pain tings</w>
Y os
m ise</w>
competi tors</w>
ch in</w>
Paf os</w>
Confuc ius</w>
stri king</w>
rec k
gen ital</w>
dic t
sti r
prin c
pl ed</w>
et tes</w>
ch o</w>
bath s</w>
tor ture</w>
TA S</w>
Mari e</w>
op her</w>
Cor in
vir gin</w>
emplo yers</w>
PRO PORTION</w>
M essi
non- smoker</w>
Tos hi
Espa ñ
DF DS</w>
Ch u
saf er</w>
quanti ties</w>
med itation</w>
f an
ben ch</w>
Gu il
Ch ubby</w>
- free</w>
cr ushing</w>
ch en</w>
Ra di
volunte ers</w>
me tr
del icate</w>
colon ial</w>
Proph et</w>
z burg</w>
mi ti
Le ading</w>
wh i
go w</w>
ES S
ym outh</w>
dec or</w>
al ter
Wei qi</w>
Gener ation</w>
Cust oms</w>
Cr yp
B uc
sanc tuary</w>
recogn ised</w>
per mits</w>
Ex clusive</w>
CONT ACT</w>
tub es</w>
ship ment</w>
bar a</w>
7. 6</w>
sou ven
edic ts</w>
alum inium</w>
Wu Zheng</w>
Vo ice</w>
10 th</w>
po ker</w>
new est</w>
mo ther
fl uctu
com promise</w>
collec ts</w>
Sh a</w>
whe at</w>
s wee
f ence</w>
1 18</w>
nu ts</w>
el derly</w>
d airy</w>
U plo
MA X</w>
- and-
tex t
por tray</w>
gi veness</w>
dr agon</w>
cl ause</w>
civil ization</w>
B EST</w>
A F</w>
resp ected</w>
or ange</w>
sh ake</w>
y- General</w>
now adays</w>
h en
bap tized</w>
Jo e</w>
retail ers</w>
error- free</w>
dec om
absor ption</w>
Vol vo</w>
rul ed</w>
micro phone</w>
k .
dem anded</w>
EN D
Arth ur</w>
24 .
pati ence</w>
out let</w>
b acks</w>
19 45</w>
stre ams</w>
k s
ge ographical</w>
Mo o</w>
Lab our</w>
B and</w>
refin ed</w>
refer ring</w>
fro zen</w>
attemp ted</w>
wi kipedia.org</w>
le tin</w>
gh ted</w>
al tered</w>
Po int
MB A</w>
Cry stal</w>
20 -minute</w>
p x</w>
inv asion</w>
contribu ting</w>
F on
Co at</w>
Hebre w</w>
venti lation</w>
trans c
ski ing</w>
consequ ently</w>
a ver
Perman ent</w>
Mos que</w>
tor ate</w>
strength ened</w>
distingu ished</w>
dig nity</w>
Histor ic</w>
B la
8 th</w>
imag ination</w>
ge ography</w>
dele gation</w>
Ever y
en ship</w>
ag ara</w>
INDI RECT</w>
F ant
trans form
r al</w>
en ligh
wonder ed</w>
spon sor</w>
modi ties</w>
merch ant</w>
Well- positioned</w>
Ste ve</w>
Pr ac
EL Y</w>
100 ,000</w>
un necessary</w>
real ization</w>
inten si
R ansomware</w>
DISCLA IMS</w>
manif est</w>
a er
UN D</w>
co ated</w>
Yug osla
prin ces</w>
G in
F O</w>
respon ding</w>
p oured</w>
class room</w>
Im p
Con tract</w>
B S</w>
14 -
phr ase</w>
c us</w>
S tain
L as
19 60</w>
ust rated</w>
bel oved</w>
Ven e
I g
ro l</w>
fe ver</w>
econom ists</w>
Vir tu
Fos han</w>
Ac ts</w>
ul ating</w>
sto l</w>
mini -
Zim bab
M ai
es te
Break fasts</w>
un ci
ma sters</w>
dist ant</w>
br un
Pic ture</w>
J ak
Cater pillar</w>
9 ,
ish an</w>
bar rier</w>
anxi ety</w>
IN T
Brook lyn</w>
war dro
suppl ements</w>
defin es</w>
ro bes</w>
ile ge</w>
ben ding</w>
L ess
Gab ri
th an
avo iding</w>
F E</w>
wor d
t am
des erve</w>
assem ble</w>
Sho p
13 5</w>
tri ple</w>
rel atives</w>
lic ence</w>
Speci fications</w>
B 2
transfer able</w>
out line</w>
obst acles</w>
in take</w>
gov ina</w>
R M</w>
H .</w>
Ci tiz
initi ated</w>
f ont</w>
justi fied</w>
gor ous</w>
D ell</w>
foreig ners</w>
L ex
An th
no ver</w>
my ri
J MP</w>
A ur
ing ent</w>
ass y</w>
R af
Im port
IN E</w>
well- equipped</w>
ell i</w>
car ries</w>
bare ly</w>
Secretar y-General</w>
Man sion</w>
196 8</w>
work force</w>
eri ous</w>
Partner ship</w>
NAT O</w>
A Q
simpli fied</w>
sh u
life -
famil y-
ec ological</w>
Phil ip</w>
Norwe gian</w>
H V
sh aking</w>
progres sive</w>
et ta</w>
any time</w>
T h</w>
No ah</w>
G los
bo oth</w>
atten ding</w>
amend ment</w>
align ment</w>
Z o
Cor n
B oli
A b</w>
A K</w>
W it
si e
I de
us ter</w>
phys ically</w>
Ver de</w>
Municip al</w>
D PR
rein forced</w>
U g
S ome</w>
Phot ography</w>
Philist ines</w>
Mess enger</w>
6 50</w>
im pe
defin ing</w>
PO PU
C rescent</w>
ex igent</w>
ass is</w>
Hong qiao</w>
160 x
s z
L ion</w>
L az
K .</w>
J azz</w>
rec ep
mari time</w>
evol ving</w>
cy ber</w>
H A</w>
4. 1</w>
persis tent</w>
d é
B ail
mat ch
electro de</w>
deli ght</w>
ag ne</w>
Quanti ty</w>
through put</w>
recru itment</w>
bot tled</w>
S now</w>
turb ine</w>
sp here</w>
re marks</w>
h of</w>
a S</w>
H az
Elec tro
nom inal</w>
l ington</w>
jum ped</w>
green house</w>
c ep
N V</w>
Indi ana</w>
EL L</w>
D T</w>
insu red</w>
hab it</w>
go d
gen ous</w>
ev angel
consum ing</w>
an ian</w>
We ather</w>
Pers on
Bri ghton</w>
Mar s</w>
Guid elines</w>
Carl ton</w>
we al
volun tary</w>
tic k</w>
pro let
edi ted</w>
Sic huan</w>
Rem ove</w>
12 7</w>
exam ined</w>
altern atives</w>
C I</w>
An hui</w>
9. 0</w>
heav enly</w>
de fl
de em</w>
cur ious</w>
cro ps</w>
Qu ery</w>
pictu res
cre ature</w>
V ila</w>
Master card</w>
A E
v et</w>
se gments</w>
sc ared</w>
O r</w>
H art
C ast
s ab
meas ur
exis ted</w>
Her ze
multi lateral</w>
constitu tion</w>
F light</w>
y ne</w>
tremend ous</w>
tow el</w>
se -
m es
24 4
ati ci
De ad</w>
inten tions</w>
favor able</w>
clos est</w>
calcul ations</w>
Scrip ture</w>
Inform atica</w>
A poll
li stings</w>
0 3
smart phones</w>
accompl ish</w>
Les bian</w>
197 5</w>
sum mar
stat utory</w>
me g
disp uted</w>
J ean</w>
Doc uments</w>
B old</w>
communic ating</w>
Y S</w>
S qu
RE SPONS
H ell</w>
stres sed</w>
min d
is ive</w>
GROU P</w>
interrup tion</w>
ref ine</w>
j ack</w>
claim ing</w>
CA N</w>
4 K</w>
termin ated</w>
after -
Mod ules</w>
stop ping</w>
s atur
re stra
periodic ally</w>
h unger</w>
flo oring</w>
S ax
wit n
tor -
sp an</w>
for tunately</w>
World wide</w>
L ip
Gu arante
K yr
J im
Gra fisk</w>
Connec tion</w>
sing ing</w>
puri fication</w>
elimin ating</w>
compar able</w>
W W
H and</w>
ind ul
accommod at
C ard
197 2</w>
ten d
schol ar
am boo</w>
W oo
T .</w>
Pal ma</w>
Budd hi
4. 2</w>
p uni
co ding</w>
Wal k</w>
weak ness</w>
t ant</w>
ho ping</w>
hi ps</w>
bloc k
SI M</w>
sq m</w>
s ules</w>
ren dered</w>
il ion</w>
addi tives</w>
Rich mond</w>
Hol dings</w>
Bri d
Ass essment</w>
rel ate</w>
pix el</w>
fol i
av ail</w>
recommend ation</w>
r ors</w>
m ou
laugh ing</w>
attribu te</w>
SN74 ALS
C AS
real m</w>
depar ted</w>
S car
I bis</w>
C art
Buch arest</w>
fre e-
electro magnetic</w>
U PS</w>
Tw o-
Ne ed</w>
Herze govina</w>
mel t</w>
Wi th
N ag
Cho ice</w>
sun light</w>
O T
wi ves</w>
i ors</w>
fail ing</w>
correspon dence</w>
suppl ement</w>
capit alism</w>
shi eld</w>
itu de</w>
e ball</w>
ad ow</w>
VIC E</w>
NE R</w>
5 000</w>
poin ting</w>
coupl ed</w>
co gni
w oods</w>
m ill
ko v</w>
architec t</w>
Tra ff
S UN
K ansas</w>
EM C</w>
D ual</w>
wil dlife</w>
gener ous</w>
centr alized</w>
Li sting</w>
up-to- date</w>
thr ust</w>
hab ilitation</w>
dou b
Zimbab we</w>
th ine</w>
recei ver</w>
clou d-
c ave</w>
Wh ile</w>
SN74 ACT
公 司</w>
exten ding</w>
broad band</w>
argu ed</w>
Quar ter</w>
Meas urement</w>
Glas gow</w>
160x 240</w>
wor lds</w>
sc roll</w>
er man</w>
arbitr al</w>
WA Y</w>
Medi a
Mar ket
King ston</w>
G aller
12 5
jud ges</w>
iz z
Nov a</w>
L yr
A Z
sh av
puni tive</w>
P is
J -
G host</w>
G as
trans duc
Asia- Pacific</w>
k ong</w>
bor row
anc e
D own</w>
th at
sp ite</w>
coun sel</w>
Shang ri-
K le
Direc t
vari eties</w>
ta h</w>
in visible</w>
St al
P sy
J in</w>
3 60
the ft</w>
ri gation</w>
real -
for giveness</w>
deter i
ber ed</w>
Veri fied</w>
POPU LATION</w>
C ITY</w>
prison ers</w>
bas es</w>
a g</w>
RA R</w>
Nuc lear</w>
K ings</w>
- on</w>
mechan ics</w>
low ship</w>
gare t
fu me</w>
Stri p</w>
Com plex</w>
gu itar</w>
gener ates</w>
SD K</w>
vers es</w>
Y U
ev ap
administr ators</w>
R 2</w>
Li ght
D il
0 2
Bet a</w>
tou ching</w>
su pre
ri fu
prin ters</w>
Du ke</w>
vel ocity</w>
spon sored</w>
hy th
buff er</w>
bre eding</w>
ai c</w>
appro ached</w>
Nic ol
For m
prosp ect</w>
INTER NET</w>
n est</w>
incenti ves</w>
ferti liz
end ants</w>
T on
ham mer</w>
Tall inn</w>
P ET</w>
LE G
weigh ing</w>
qu antum</w>
S hell</w>
40 -
ple -
mil li
Comp act</w>
8. 6</w>
1 N
ı on</w>
perc eption</w>
accommodat ıon</w>
Xin jiang</w>
Ni agara</w>
Invest ors</w>
Al l-
Be er</w>
AVAIL ABLE</w>
pro -
ap h
a an</w>
Loc k</w>
Boo ked
c i</w>
pres entations</w>
ep s</w>
detec tor</w>
V ati
ro x</w>
gl anced</w>
Lyr ics</w>
Char ter</w>
1 13</w>
Tri al</w>
trail ers</w>
si ans</w>
eas ing</w>
Practi ce</w>
24- hr</w>
wonder ing</w>
surpris ing</w>
promo tes</w>
necess ity</w>
Brit t
tri angle</w>
mil it
inev itable</w>
ali en</w>
T ai</w>
Ri vi
Levi tes</w>
sof tly</w>
W ire</w>
Stan ding</w>
K ie
main stream</w>
jo y
inv asive</w>
ex terior</w>
Col lins</w>
. exe</w>
with stand</w>
we l</w>
th inks</w>
W ant</w>
S lots</w>
N on
te am
de activate</w>
copy rights</w>
consum ed</w>
construc t</w>
appreci ation</w>
Spl it</w>
Brow ser</w>
ger ia</w>
ar se</w>
MA IL
Buddhi sts</w>
distinc tive</w>
trac tors</w>
p y
ir k</w>
est ock</w>
Stain less</w>
RE L
E sa
Dar k</w>
Con st
in timate</w>
fil tration</w>
tr on</w>
est ay</w>
differ ently</w>
at ch
Wil d</w>
J ump</w>
I Q
ex quisite</w>
de m</w>
P ope</w>
C lear</w>
Bapti st</w>
Alic ante</w>
j ob
gra tes</w>
M O</w>
An y
ung le</w>
trac tor</w>
b ic
re t</w>
pe as
m 3</w>
lec ture</w>
gradu ates</w>
c ow
Wen zhou</w>
Stud ents</w>
Fe b</w>
198 1</w>
see ks</w>
pre mi
p ale</w>
excep tions</w>
en oid</w>
cor ners</w>
co stly</w>
In die</w>
Com pliance</w>
- in-
stri kes</w>
Li ability</w>
B av
f ears</w>
experim ental</w>
W o
MA X
M ö
inform al</w>
bi ology</w>
RA ID</w>
c it
St ats</w>
v eter
tou gh
ti tled</w>
t In</w>
coordin ate</w>
Engine er</w>
2 10</w>
remedi es</w>
fi red</w>
der s
Bel fast</w>
60 s</w>
sin c
ori um</w>
high- level</w>
fil tering</w>
expres sions</w>
U ru
H an</w>
te k</w>
b ong
P ig
Blu e
ste ms</w>
est e</w>
K om
En joy</w>
fol ding</w>
country side</w>
Mc A
B I</w>
vo ices</w>
re tained</w>
obedi ence</w>
bol t</w>
Ram ada</w>
Des ert</w>
7. 8</w>
index .aspx</w>
Avi ation</w>
inno cent</w>
J al
Ar m
Aff ili
ori de</w>
be ts</w>
M Y
H id
8 3
war ned</w>
sovere ign</w>
rou ter</w>
pro test</w>
play ground</w>
ill o</w>
ass ed</w>
ari um</w>
Cho ose</w>
WHO IS</w>
Cap it
Bo ot
territ orial</w>
Gr adu
Franc is</w>
W ai
D inner</w>
re act</w>
policy makers</w>
Sil ver
Fam ilies</w>
Euro camp
Cal ed
b ore</w>
adjust ments</w>
membr ane</w>
im per
hi d</w>
HO TEL</w>
有 限
upgrad es</w>
ti tude</w>
r is</w>
im ply</w>
ign -
i ter</w>
emplo y</w>
T at
P ousada</w>
J adeite</w>
Acc ep
sub stitute</w>
mail s</w>
cra w
N ai
Ham il
te st
tab ernacle</w>
par adise</w>
cle arance</w>
Mil ano</w>
F a</w>
Anim ation</w>
1 19</w>
treati es</w>
n ex
es burg</w>
ap ing</w>
Tan z
Colom bo</w>
AL L
w oven</w>
w u</w>
sub licensable</w>
ph ases</w>
i Booked
Th ou</w>
O M</w>
Ku wait</w>
A er
spec im
sc attered</w>
Mar rak
Friend ly</w>
a than</w>
ER R
n arr
gr asp</w>
Toshi ba</w>
Lab or</w>
F DA</w>
pictures que</w>
Se bas
P ak</w>
well- being</w>
was tewater</w>
lo gy</w>
grad es</w>
Organ isation</w>
Hom es</w>
Conduc t</w>
Wor kers</w>
Pub lisher</w>
He at</w>
Eurocamp ings</w>
need le</w>
eth ics</w>
don â</w>
be ars</w>
b anner</w>
an no
e ze</w>
de bit</w>
z ers</w>
ye ong
m s
fat ty</w>
Uru gu
Mon ument</w>
ph ire</w>
organ ised</w>
dil ig
desir able</w>
V all
S z
O S
se als</w>
p airs</w>
il es</w>
e Commerce</w>
AN G
Sab bath</w>
doz ens</w>
ac ute</w>
Tor ch</w>
I ALS</w>
emp ire</w>
V IE
Maj or</w>
E th
B log
6 2
terror ist</w>
pres enting</w>
mix er</w>
exc use</w>
amp ed</w>
T oul
L C</w>
Br as
vulner abilities</w>
upgrad ed</w>
min es</w>
fab rics</w>
B ig
negoti ation</w>
consu me</w>
Sh in
P I</w>
hon our</w>
es e-
char ity</w>
O ST</w>
Car lo</w>
Bah rain</w>
tre ating</w>
re ments</w>
rad ical</w>
encour ages</w>
S ong</w>
M use
w and
tri bes</w>
seam lessly</w>
igno red</w>
derog atory</w>
Sant or
Kyr gy
Inter ior</w>
Croati an</w>
st riv
e ons</w>
commit ments</w>
ar c</w>
ag e.
Z ion</w>
Lin k
F oun
AD VIS
12 4</w>
m asses</w>
lec tures</w>
it ories</w>
concentr ate</w>
bab ies</w>
Po in
Fi ber</w>
Dis co
Advis ory</w>
W u</w>
Ac qu
wit nesses</w>
ear nings</w>
dis playing</w>
con vince</w>
Le ad
speci ality</w>
S can
DAMAG E</w>
sens ing</w>
sec retary</w>
sco res</w>
po s</w>
dem ption</w>
W ars</w>
ris en</w>
educ ated</w>
ch lor
M ing</w>
L ower</w>
kno ck</w>
al e
CON NE
m oul
able .
McA fee</w>
B h
dis per
con ut</w>
ad i</w>
200 7-
pre fix</w>
p ause</w>
c ill
N VID
B T
A men
re actions</w>
orig inated</w>
im migrants</w>
el et</w>
av en
TE N</w>
Comm and</w>
Chec k
ish list</w>
h ose</w>
extr usion</w>
ash amed</w>
add ic
Re ading</w>
Dr ama</w>
Bas el</w>
Administr ative</w>
asc ular</w>
9 th</w>
v aries</w>
st roll</w>
ail ed</w>
C X
oblig ed</w>
econom ical</w>
distinc tion</w>
I H
bank rup
ab ad</w>
Q -
At trac
refriger ation</w>
o .com</w>
ed ges</w>
con a</w>
R ound</w>
5. 1</w>
ur ge</w>
tol l</w>
down time</w>
bet ting</w>
t ing
interpre ted</w>
an tic</w>
SYST EM</w>
14 th</w>
j ust
e ted</w>
an xi</w>
EV EN</w>
Dres den</w>
Conc ept</w>
tek tur</w>
eng lish</w>
cancell ed</w>
ab usive</w>
prof itability</w>
e try</w>
atten dance</w>
under stand
indi genous</w>
ar rest</w>
N ipp
rec ord
haz ardous</w>
gro ws</w>
T rou
chi o</w>
arbitr ator</w>
Te acher</w>
G reg
. biz</w>
有限 公司</w>
tri bunal</w>
tou ch
wa ist</w>
ver sus</w>
re war
qu ity</w>
it ative</w>
engra ving</w>
coun tless</w>
amp oo</w>
Nor mal</w>
Lou isi
Le ave</w>
sw ing</w>
par liament</w>
our ing</w>
jour nal</w>
arbitr ary</w>
ain ant</w>
Mathem atics</w>
Cal endar</w>
12 th</w>
re side</w>
Sp on
A verage</w>
no m</w>
mul a</w>
inte grates</w>
famili arise</w>
consci ence</w>
conduc tivity</w>
R im
I W
6 ,
dis sem
deli ghted</w>
all ing</w>
New castle</w>
z ip</w>
liqu idity</w>
bound aries</w>
N H</w>
F u</w>
sil icon</w>
gen e</w>
Savi or</w>
li ties</w>
consider ably</w>
E va</w>
ki tektur</w>
ec o-
Quin ta</w>
He bei</w>
n as</w>
cor rid
Wil son</w>
V ER</w>
E den</w>
1 14</w>
s ory</w>
G .</w>
super b</w>
plan ted</w>
p .com</w>
We i</w>
M iller</w>
uni ons</w>
reci pe</w>
dupl icate</w>
ful ly-
Ri ding</w>
with standing</w>
volunte er</w>
or ca</w>
le f
f usion</w>
cy ber
cosme tics</w>
acceler ated</w>
Y a
Roc k
G ay</w>
196 9</w>
Th ess
S now
IN ESS</w>
H ope</w>
DPR K</w>
stol en</w>
quanti tative</w>
b la
appro aching</w>
th- century</w>
te ar</w>
streng ths</w>
re wards</w>
pre ached</w>
ili ans</w>
h l</w>
asp ir
Guarante ed</w>
Ac adem
tr am</w>
out lets</w>
di ver
Sub mission</w>
S ti
PO SS
Jama ica</w>
IF S</w>
so s</w>
inj uries</w>
fin anci
bab e</w>
air- conditioning</w>
Lay er</w>
H air</w>
Al i</w>
3 20</w>
12 6</w>
mon i
excee ds</w>
dam n</w>
bound ary</w>
NVID IA</w>
y ch
sq .</w>
electron ically</w>
bor ough</w>
Y ears</w>
D EL
B ong
mur der</w>
l um
ind ication</w>
but ter</w>
Mal dives</w>
inter fer
THIR D</w>
Jan e</w>
inj ured</w>
bloc king</w>
ut most</w>
suc k</w>
impres sed</w>
clos ures</w>
ca thedral</w>
ag ging</w>
4. 3</w>
1 17</w>
ung al
medi eval</w>
ise es</w>
en rich
analys es</w>
Q .</w>
L in</w>
Ke ep</w>
st ake</w>
revi val</w>
res ult
R IE
Histor ical</w>
deal t</w>
D ancing</w>
Bir d</w>
vir a</w>
r ound
mathem atici
lif ecycle</w>
et ric</w>
re tired</w>
oppon ents</w>
lo ve
est -
Rent als</w>
Ch ur
196 7</w>
凤 凰</w>
po ol
defam atory</w>
decision- making</w>
In clu
2 1-
n ab
mel ting</w>
in sur
g ur
Wom an</w>
Sal t</w>
C ost</w>
r ational</w>
der son</w>
d- winning</w>
N ur
M ENT</w>
C ul
form ulated</w>
Tr uck</w>
Categ ories</w>
197 3</w>
p oo
note book</w>
swe et
si ded</w>
infin ite</w>
197 7</w>
firm ware</w>
decor ative</w>
al ge
D aten</w>
Car los</w>
Auto CAD</w>
Re ply</w>
Broad way</w>
sk et
def ect</w>
d d
th ank
re treat</w>
ic king</w>
fif teen</w>
cle ver</w>
X- ray</w>
Requi rements</w>
Re qu
Thre esome</w>
Dre am
8. 5</w>
4 u</w>
4 80</w>
thor ough</w>
re mind</w>
p atch</w>
M ei
Botan ical</w>
la kes</w>
e ter</w>
ap ologi
Low est</w>
Jerem iah</w>
v is</w>
cr ack</w>
Nipp on</w>
N .</w>
Clin ton</w>
Ac upuncture</w>
respon sive</w>
pum ping</w>
stres ses</w>
acceler ation</w>
Thess al
Be th
ACC ESS</w>
197 6</w>
- friendly</w>
veget able</w>
ti ans</w>
sym path
renov ation</w>
ed it
T ener
L ak
5 12</w>
pap er
Se ver
Labor atory</w>
Dis ne
Co venant</w>
B achelor</w>
vari ations</w>
em an</w>
ant age</w>
al located</w>
Succ ess</w>
MATER IALS</w>
bron ze</w>
pic king</w>
ci garet
Shangri- La</w>
Pro grams</w>
Intern al</w>
1 16</w>
tradi tionally</w>
te aches</w>
surg ical</w>
sp reading</w>
Y el
v .</w>
parti ally</w>
dec isive</w>
car bon
News letter</w>
B icycle</w>
divi de</w>
den um</w>
Lab s</w>
Cle an</w>
Aven ida</w>
20 8
p assionate</w>
expendit ure</w>
enter tained</w>
bo d
No kia</w>
Dynam ic</w>
D ro
Apoll o</w>
40 4
sam pling</w>
pan ic</w>
Sch ol
In str
1 0.0</w>
tic le
th umb
key words</w>
Vehic le</w>
trail er</w>
tar geting</w>
sp her
ish i</w>
gu ardian</w>
explic it</w>
en did</w>
Th an</w>
Pan or
Chel sea</w>
Cas tell
Port land</w>
Mor gan</w>
I c
vol ta
sp ake</w>
ro pe</w>
wa i</w>
v on</w>
so ap</w>
distingu ish</w>
IS L
subsi dies</w>
ha b</w>
belong ing</w>
N ak
H ouse
vari ant</w>
hy dra
explos ion</w>
b s
ad verse</w>
Tran si
FO OD</w>
27 4</w>
p s
en comp
M é
enjo yment</w>
cl am
Sch ed
Lam b</w>
H ai</w>
1 13
sur plus</w>
pressu res</w>
nur se</w>
i fe</w>
a is
Ac ron
t ue</w>
o thy</w>
mic ro</w>
collabor ate</w>
ch y</w>
Tur in</w>
Mill ennium</w>
Elev ator</w>
w ound</w>
t ants</w>
ste ering</w>
privileg es</w>
plug in</w>
nor theast</w>
f th</w>
engine ered</w>
dev ast
0 4-
hel icop
el d
T agged</w>
P er</w>
renew ed</w>
es cal
bo ots</w>
K ent
er mo</w>
Santor ini</w>
Cre am</w>
y an
entreprene ur
consi ders</w>
c el</w>
amo del
TC P</w>
Hamil ton</w>
B ust
tax ation</w>
ques tion
long ed</w>
fork lifts</w>
easy-to- use</w>
dom inated</w>
AP Is</w>
cl arity</w>
any a</w>
a us</w>
Le ader</w>
Kel ly</w>
IS H</w>
Fol low</w>
mil d</w>
dis claim</w>
de eds</w>
am end</w>
Strate gic</w>
Li st
Arch ive</w>
to b
sinc ere</w>
fi l</w>
Hell enic</w>
G ive</w>
CM OS</w>
y ards</w>
smoo thly</w>
it ted</w>
glori ous</w>
evol ved</w>
67 13
coupl ing</w>
2 32</w>
ph ysi
end ary</w>
Infin eon</w>
se ated</w>
persec ution</w>
lic king</w>
clim b</w>
Y our
Im migration</w>
sli pped</w>
introduc es</w>
in qu
finger print</w>
discipl inary</w>
B ob
to oth</w>
swi m</w>
Mol dova</w>
30 1</w>
un lock</w>
practition ers</w>
W ang
Gr am
D J</w>
bri de</w>
Vati can</w>
Plat inum</w>
Op tical</w>
L un
quali fy</w>
explo itation</w>
Sky Team</w>
SS D</w>
Appl ic
2 30</w>
w ood
d ried</w>
al ph
Ethiop ia</w>
AC H</w>
rul ers</w>
must- see</w>
format ted</w>
compan ion</w>
cat tle</w>
awar d-winning</w>
Sh aring</w>
Christi e</w>
re vo
hun ting</w>
end -to-
water proof</w>
la ying</w>
hes itate</w>
ad h
Je wel
B ey
8 7
6 3
utili ties</w>
tw are
pe pper</w>
T W
Saf ari</w>
Im pl
An ci
form ally</w>
eas iest</w>
e der</w>
74 AC
vari ation</w>
recy cl
oo s</w>
mo tivation</w>
k or</w>
conc ep
G on
Char ac
. D.</w>
p h</w>
m our
di min
bal conies</w>
Ar k
al together</w>
Vinc ent</w>
Tr ack</w>
Q in
E arly</w>
whol ly</w>
mul tin
ch ia</w>
analy zing</w>
adap tation</w>
B it</w>
197 4</w>
ti te</w>
techn icians</w>
syste matic</w>
dist ances</w>
MAIL ING</w>
Kra k
D oes</w>
agre eing</w>
Ti m</w>
Gr ade</w>
AS H</w>
tem pl
s its</w>
her pes</w>
apost les</w>
amodel s.com</w>
Pro mo
Iran ian</w>
EN S
Cor ner</w>
An n</w>
tail or</w>
flu o
del ays</w>
bong amodels.com</w>
Sic ily</w>
ren e</w>
jo ints</w>
F it</w>
in quiries</w>
Tam at</w>
Ling erie</w>
sl aves</w>
s s
es co</w>
aux iliary</w>
any body</w>
Ad d
asp ed</w>
X T</w>
Member ship</w>
M 4
Gr ace</w>
Genti les</w>
A m</w>
swe ar</w>
augh ty</w>
tax pay
multi lingual</w>
in coming</w>
Relig ion</w>
O sc
In j
4.6.10 8
vi an</w>
og y</w>
mir acle</w>
le ak
hygi ene</w>
fas c
Tow ers</w>
Lo ft</w>
B ad</w>
An dr
- off</w>
inte st
ear liest</w>
X X</w>
Trans l
Louisi ana</w>
IR F
Fre der
un install</w>
ecti ous</w>
ambi tious</w>
Sum mary</w>
E vol
Al geria</w>
rou ting</w>
pher ic</w>
avo ided</w>
Traff ic</w>
T Y
str asse</w>
state- owned</w>
por trait</w>
oper a</w>
anc e-
acti vi
She ets</w>
H op
troubl eshooting</w>
qu al
be fore
be c</w>
D j
de part</w>
car ing</w>
Lind a</w>
F IF
EL L
50 ,000</w>
rel ay</w>
command ment</w>
al location</w>
Hous ing</w>
reve als</w>
for tune</w>
WM V</w>
Super Chan</w>
S G</w>
197 0s</w>
pursu ing</w>
met all
Pot ter</w>
M ou
Con f
C ub
B ella</w>
ew are</w>
Comp uting</w>
par liam
elim inated</w>
che on</w>
bas ics</w>
Cors ica</w>
z en
in aug
fa ke</w>
V as
M uch</w>
H AVE</w>
xi ang</w>
us ado</w>
ul ative</w>
indem nity</w>
constitu tional</w>
com modities</w>
ann i</w>
accum ulated</w>
sti r</w>
rigi d</w>
pro vo
boo m</w>
Tener ife</w>
FIT S</w>
s port
f ool</w>
19 00</w>
. svg</w>
transmit ter</w>
ha ted</w>
enh ancement</w>
Sal zburg</w>
Gr ound</w>
G EN
ten ds</w>
ox id
15 5</w>
in h
fr ame
f arms</w>
contam ination</w>
TO U</w>
H I</w>
Cer t</w>
Be ans</w>
stat ue</w>
metal lic</w>
eleg ance</w>
P ath</w>
Dou ble
C 4
Bar bara</w>
AD A</w>
2 50-
photograp her</w>
oc e
Fol k</w>
Bal ear
Acron is</w>
ADVIS ED</w>
0 7-
ligh ter</w>
il ia</w>
i Date
i Cloud</w>
clim bing</w>
Jac uzzi</w>
Heal thcare</w>
H em
G S</w>
11 th</w>
prof ession</w>
ph y</w>
at s
View Read</w>
F M
Britt any</w>
p u</w>
ma h</w>
d ness</w>
yb denum</w>
remain der</w>
beg in
V ul
TC1 30
sch emes</w>
sal on</w>
i bility</w>
eff ected</w>
dis card</w>
Armen ia</w>
ref urb
man ages</w>
dra ws</w>
Sofi a</w>
Lad y
6. 0</w>
14 5</w>
dr unk</w>
P an</w>
M om
At tor
end-to- end</w>
e ager</w>
V .</w>
In put</w>
Ex am
l ush</w>
l on</w>
ki ah</w>
Tel e
RE PRES
Camp us</w>
predic ted</w>
Vic tori
S quir
Kar l
men u
cur ric
anti body</w>
A sp
sur ge</w>
anc ements</w>
St rom
POSS IBILITY</w>
P N
p ays</w>
ne a</w>
f use</w>
N y
Mi x
benef ici
W eight</w>
Gover nor</w>
Anim als</w>
he ater</w>
es tive</w>
en vel
az zo</w>
Urugu ay</w>
Disne yland</w>
Ae ge
labor atories</w>
ever -
cock tail</w>
Par ticip
P ing
es â</w>
em on
attemp ting</w>
Or thodox</w>
stu dios</w>
c ements</w>
atom ic</w>
acknowled ged</w>
EV ENT</w>
Div ine</w>
valu e-
ut t
st or</w>
rec ession</w>
pop -up</w>
bb les</w>
X I</w>
W iz
ur ban
met adata</w>
coun ts</w>
H allo
Apost le</w>
Montre al</w>
Jon athan</w>
Chang i</w>
Struc ture</w>
Pen h</w>
Hy dro
Contrac ting</w>
12 9</w>
tho tel</w>
rel uc
k ill
compl ement</w>
Sim ulation</w>
Sh ort</w>
H DM
r ation
Wi de</w>
L ook</w>
197 1</w>
tel es
p ounds</w>
Pre par
No v</w>
N X</w>
M all
Ar kitektur</w>
3. 4</w>
sp rings</w>
incredi bly</w>
U sa</w>
Re ader</w>
G M</w>
Al g
A O
t ort</w>
olog ically</w>
cred its</w>
Registr ar</w>
3 G</w>
19 49</w>
invo ice</w>
h s</w>
ab out
Por no</w>
Por n
C lear
je al
driv e
W ishlist</w>
Ph nom</w>
Fuj ian</w>
0 3-
n ica</w>
hur ry</w>
ace ful</w>
Ma o</w>
J um
ther ine</w>
se ized</w>
mer ger</w>
cur i
Phar isees</w>
C og
sens es</w>
far ming</w>
evol utionary</w>
Back packers</w>
88 8</w>
20 30</w>
as ph
M ade</w>
A i
20 EP</w>
13 9</w>
soci alism</w>
Veget arian</w>
sle pt</w>
h ou
coun ted</w>
c ade</w>
Respon dent</w>
Net works</w>
Inter active</w>
F ra
V I
Sli ppers</w>
ha us</w>
first- class</w>
exhib its</w>
acc redi
F ellow</w>
pra ying</w>
ing ness</w>
bl u
V II</w>
Rho des</w>
sor ts</w>
disci ple</w>
Palest ine</w>
5. 5</w>
5 30
4.0.30319. 1</w>
y â</w>
seas ons</w>
m ould</w>
ap par
Remo val</w>
O peration</w>
Exc eption</w>
enfor ced</w>
sou thwest</w>
qi ang</w>
oc curren
manif est
Sign al</w>
Op portun
Hor se</w>
H ep
w ool</w>
mis use</w>
i ves</w>
deleg ates</w>
pig eons</w>
fra ud
fire wall</w>
discus sing</w>
Ste p</w>
S ag
Hei ghts</w>
CRE ATE</w>
tim ber</w>
pres so</w>
ograp h</w>
g li
clean ed</w>
accredi ted</w>
Aege an</w>
li fer
l rh
dis order</w>
Rec re
H ack</w>
24 0
ru .ru</w>
lrh ru.ru</w>
contrad ic
ap ar
ME D
J ur
self- catering</w>
sal ary</w>
li tigation</w>
ge ographic</w>
exclu de</w>
Wu han</w>
Sound proofing</w>
P sal
Cha ir</w>
WR IT
TM ve</w>
Di plom
A par
prac tically</w>
m ills</w>
Zh ou</w>
So l</w>
Colum bus</w>
b ind</w>
E ric</w>
Wh it
CO MM
mo thers</w>
long est</w>
excee ding</w>
bal ances</w>
Mar mar
Bu kit</w>
tal ented</w>
rul er</w>
low ered</w>
Circu it</w>
7 ,
ti fy</w>
ke e</w>
fl ag
docum ented</w>
CO UN
CA T</w>
pa used</w>
micro -
construc tive</w>
Indi an
201 2-
sup porters</w>
programm able</w>
il -
di vid
Se p</w>
Dis co</w>
pre vented</w>
organ isms</w>
mer ged</w>
k ling</w>
clic ks</w>
ac res</w>
vir tue</w>
st own</w>
ho tel
e aten</w>
dis abilities</w>
buil ds</w>
aff lic
ad t</w>
F eng</w>
Cay man</w>
Agric ultural</w>
x it</w>
the ories</w>
stead ily</w>
st ove</w>
di al
L or
Cair ns</w>
Atl as</w>
Al mighty</w>
Al b
A gi
st aff
aho o</w>
Tsu i</w>
Alexand ria</w>
8 ,
win -win</w>
stor ing</w>
mu d</w>
il ly</w>
format ting</w>
ec ture</w>
bad ly</w>
Nap ol
m ers</w>
fr ustr
fac ulty</w>
a ine</w>
def ence</w>
Venez ia</w>
I AC</w>
E sp
Cam er
13 8</w>
sh ep
B usin
gl as</w>
ass emblies</w>
tr ail</w>
lo yal</w>
gener ic</w>
Lis a</w>
19 50</w>
í a</w>
vi k</w>
reci pes</w>
Trin idad</w>
Sales force</w>
Mad ison</w>
In come</w>
l oun
erv ical</w>
b yp
TC1303 C-
Sain te-
J R</w>
C e
Al pha</w>
sub strate</w>
organiz ing</w>
kind ness</w>
ji e</w>
S IG
C ock</w>
gen ic</w>
Ug anda</w>
POR T</w>
I â</w>
F ishing</w>
B P</w>
Al ere</w>
mer ge</w>
inser ted</w>
won ders</w>
stra igh
spon sor
ri des</w>
php BB</w>
fast -
Re wards</w>
web site
ti fied</w>
plan es</w>
Canc un</w>
Bu yer</w>
Bri an</w>
9 00
6. 5</w>
&apos; clock</w>
sel lers</w>
pre jud
ma st
de en</w>
brea the</w>
Rivi era</w>
7. 5</w>
x y
re structuring</w>
od d</w>
el i</w>
dro p-
an ism</w>
Zul u
w af
um i</w>
out look</w>
Sun set</w>
Optim ization</w>
Green light</w>
19 -
. de</w>
am ins</w>
J W</w>
Chall enge</w>
ex otic</w>
de x
N ero</w>
Johann esburg</w>
FT A</w>
AD VICE</w>
se wing</w>
re placing</w>
demonstra tes</w>
Pic tures</w>
Mar gare
Are as</w>
Al -
up set</w>
pe ar
correc ted</w>
Eff ects</w>
Ap ply</w>
t os
sil k</w>
r us
ever lasting</w>
d ine</w>
ta ted</w>
identi fies</w>
cran e</w>
V ector</w>
De ep</w>
7 00
monit ored</w>
impl ies</w>
dis asters</w>
cent rifu
am -
al erts</w>
View er</w>
Power Point</w>
Hair y</w>
emb ar
compe tence</w>
Hy dr
so dium</w>
ig ni
er ce</w>
di p</w>
dec ent</w>
compreh en
bon uses</w>
b ite</w>
princ ess</w>
end um</w>
ch ang</w>
WH O</w>
For mat</w>
molec ules</w>
dec lar
coo ked</w>
cont acted</w>
b ach</w>
V or
zhu ang</w>
regi stry</w>
ir i</w>
inter -
fir st
decreas ed</w>
consider ations</w>
L atest</w>
He at
sky line</w>
rem n
ko v
divor ce</w>
Cop y</w>
w ishing</w>
re demption</w>
l umin
K ING</w>
Avail ability</w>
tr ades</w>
reti rement</w>
pat ri
nuc le
inter val</w>
info box</w>
defe ated</w>
cruci fied</w>
conserv ative</w>
b ye</w>
Ac tivity</w>
ret ariat</w>
pro tests</w>
col leges</w>
ST AR</w>
M 74HC
BR ICS</w>
sigh ed</w>
ry lic</w>
r at</w>
y oga</w>
strugg ling</w>
ster eo</w>
sol ub
serv atory</w>
ent .
d g
ac on</w>
Man age</w>
I ONS</w>
x im
s ick
peri ph
lub rication</w>
an men</w>
T ony</w>
Respon se</w>
Plan et</w>
G C</w>
w p-
shep her
kis sing</w>
Sw itch
PL US</w>
HDM I</w>
Grou p
De bian</w>
unc le</w>
suc king</w>
shoc ked</w>
imp ec
br ick</w>
bou quet</w>
W ay
Ul tra</w>
Rel i
17 5</w>
add le</w>
a di
U tah</w>
Bas ilica</w>
16 5</w>
Tex tile</w>
valu ed</w>
n is
dest iny</w>
ach ers</w>
a v</w>
Line ar</w>
un wanted</w>
cat alogue</w>
ass ment</w>
Reg ency</w>
Camp sites</w>
Arc tic</w>
An cona</w>
4 000</w>
cur se</w>
Nel son</w>
Gi ov
A quari
rej ection</w>
fore ign-
deal ers</w>
cred entials</w>
ro tor</w>
circu its</w>
T ol
Re ports</w>
0 8-
wor th
rep airs</w>
pil low</w>
exc av
St age</w>
Sens ors</w>
N ick
Co -
Cap tain</w>
del ayed</w>
Pop ulation</w>
Cons ulate</w>
AS E</w>
is c
ex emp
Pub l
F ar</w>
Con temporary</w>
ru b</w>
keep er</w>
ex -
be ans</w>
UN G</w>
S i</w>
Phys ical</w>
ho st
boo bs</w>
abund ant</w>
Per son</w>
P ASS</w>
Her oes</w>
E very</w>
tr ick</w>
small -
refresh ing</w>
or us</w>
equ ation</w>
Whi te
Ros a</w>
Phys ics</w>
Dru g</w>
Al ab
ü n
tr ails</w>
ti ghtly</w>
ori als</w>
nation ality</w>
in avi
et ti</w>
T hi
S aig
Fin anci
wi pe</w>
ang ular</w>
ou b
ed es</w>
dec lined</w>
de priv
con s</w>
arch ae
Uni verse</w>
Mon etary</w>
I ED</w>
Br on
Bl u</w>
A ston</w>
19 40</w>
res on
or ph
n m</w>
Di e</w>
tow ers</w>
1 G
ø bet</w>
tra p</w>
not able</w>
ga ze</w>
ess ings</w>
un clean</w>
qui ds</w>
occur ring</w>
min ded</w>
influ ences</w>
ei ver</w>
Naz i</w>
Am ber</w>
influ ential</w>
i ght
ac re</w>
Valent ine</w>
Udl øbet</w>
N BA</w>
Bever ly</w>
p ub</w>
kne e</w>
break through</w>
Spring Hill</w>
R S</w>
Pal ermo</w>
pe e</w>
no where</w>
b ills</w>
S earch
Le ica</w>
- made</w>
conc eived</w>
ap hr
Lo ren
K o</w>
var ying</w>
spec t
priv ilege</w>
plan ets</w>
g .jpg</w>
fresh water</w>
an ic</w>
an dis
Kra i</w>
H eight</w>
B an</w>
prepar ations</w>
ind a</w>
fi k
Treas ury</w>
Liter ature</w>
D og</w>
tre me</w>
sc ales</w>
neighb or</w>
gri p</w>
ab l
O ber
Be at
ten cy</w>
spl endid</w>
qu it</w>
fill ment</w>
eth eless</w>
bi kes</w>
bad ge</w>
att ach</w>
Ma ison</w>
MA N</w>
G 20</w>
C ore
Br ad
sn ack</w>
m ess</w>
es presso</w>
T OR</w>
La os</w>
user- friendly</w>
uniqu ely</w>
stic ks</w>
simpl icity</w>
s ne
loc als</w>
iss a</w>
co t</w>
Shi p</w>
pro pose</w>
optim izing</w>
Sym phony</w>
P ound</w>
A ub
soldi er</w>
psych ology</w>
comm em
ans k</w>
Sin ce</w>
Man or</w>
In fo
A 1</w>
conver ters</w>
Sol id</w>
RESPONS IBLE</w>
R it
Pat rick</w>
Mal aga</w>
50 1</w>
r hyth
j quer
fos ter</w>
fore head</w>
ago on</w>
SP ACE</w>
Pas sover</w>
Condi tioning</w>
Anti gua</w>
AB OUT</w>
u be</w>
super market</w>
o ks</w>
market place</w>
exem pl
dist ur
discer ning</w>
aw ak
Excell ence</w>
Bi ke</w>
vibr ations</w>
regul ators</w>
gh s</w>
gener ators</w>
FA Q
Ex ternal</w>
wi res</w>
mag ical</w>
do zen</w>
compil ed</w>
Zh eng
Ra j
oo p</w>
m ire</w>
Sec tor</w>
RIE TI</w>
H er</w>
&apos; i</w>
zu ki</w>
on ne</w>
ho pe
gentle man</w>
ff el</w>
dem ons</w>
Te h
S EM
D P
w ounded</w>
um bre
ul u</w>
nor thwest</w>
mar vel
Pati o</w>
O -
Mat rox</w>
mer ing</w>
l ending</w>
Bro chure</w>
so oner</w>
over head</w>
enthusi ast</w>
ati tis</w>
Sun shine</w>
S eri
AB S</w>
ter rain</w>
cer amics</w>
Vent ures</w>
UN IC
For ces</w>
C IS</w>
protot ype</w>
alco hol
T sim</w>
CO M
B LO
A X
pay able</w>
mess aging</w>
hon or
cos ity</w>
are l</w>
Si ghtseeing</w>
w oke</w>
tr ad
k ing-
it ably</w>
inf ectious</w>
he al</w>
d h
Vac ation</w>
L om
De bit</w>
5 50</w>
ster il
shar ply</w>
r um
g ourmet</w>
consult ant</w>
at on
M ang
Je an-
us al</w>
cut ting-
cru de</w>
er .
S L</w>
non etheless</w>
myst erious</w>
iti us</w>
ar y-
TIT LE</w>
Egyp tians</w>
Ap pro
Tr uth</w>
Sub scri
Licens ing</w>
Hun ter</w>
Gr und
ho w
Mat t</w>
1 74
开 始</w>
ic it</w>
ev en
X in</w>
Ph ase</w>
PRO FITS</w>
C F</w>
Bir thday</w>
Ag enda</w>
thi ans</w>
es i
S IL
D ak
ven pick</w>
stimul ate</w>
deb ts</w>
Tanz ania</w>
vo ted</w>
su stain</w>
met abol
m m
coun sel
River side</w>
N atur
Driv ing</w>
Custom ers</w>
us s</w>
spon sors</w>
rol ment</w>
enthusi asm</w>
protot yp
horiz on</w>
compul sory</w>
col our
Saig on</w>
C ow
tari ffs</w>
h acking</w>
b end</w>
appli ance</w>
ampli fier</w>
al o</w>
PC s</w>
K n
Inv est</w>
H as
Bo t</w>
vi ds</w>
ox idation</w>
Port folio</w>
K ris
Indones ian</w>
Hallo ween</w>
v ain</w>
tend ency</w>
dest e</w>
Sty les</w>
S ard
IT T</w>
H all
Cho col
26 4</w>
syn drome</w>
p ending</w>
fanci er</w>
advis ory</w>
adjust ing</w>
c ens
Phil ip
B T</w>
wav el
subj ected</w>
sof t
bit ter</w>
appreci ated</w>
B ren
Al aska</w>
shel ter</w>
r it
ot to</w>
c ks</w>
aur us</w>
O L
fe ared</w>
conclu de</w>
PRODUC T</w>
Gi br
C lau
ris on</w>
pl ain
merch andis
is y</w>
el iness</w>
Mon th</w>
J ing</w>
tim acy</w>
civ ilians</w>
bil li
ad her
Sh i</w>
s oo
red und
p ity</w>
emer gence</w>
c itation</w>
Sh r
Limas ol</w>
16 8</w>
trou bled</w>
leg endary</w>
PO LIC
New sp
Charlot te</w>
S cor
Mar yland</w>
M IS
G en</w>
C ount</w>
ym nas
start up</w>
induc tion</w>
in stitute</w>
fos sil</w>
autom ate</w>
T AL</w>
Pen thouse</w>
Disco very</w>
ru ins</w>
par a</w>
de .js</w>
d ense</w>
cou p</w>
commit tees</w>
Par am
NAS A</w>
Bor n
predic table</w>
Sear ches</w>
Ri ad</w>
Driv ers</w>
AU TO
T sin
Nev ada</w>
Messi ah</w>
Hebre ws</w>
tim er</w>
pol e</w>
or ship</w>
emo tion</w>
bench mark</w>
M au
Gem ini</w>
ten ant</w>
dat a-
cent ric</w>
E lis
B D
r ing
leg end</w>
conver ting</w>
Shi ft</w>
Se ych
C ache</w>
77 7</w>
iBooked .ca</w>
hon ored</w>
em ia</w>
Lib ya</w>
C ook</w>
seas ide</w>
revel ation</w>
r in</w>
ch al
caf es</w>
Organ ic</w>
Dou glas</w>
D uring</w>
procee ding</w>
g ard
fl our
distribu tor</w>
cross- border</w>
Z agre
Ru a</w>
Pro ble
MA IN</w>
revis e</w>
Fri ed
名 称</w>
sk irt</w>
cup s</w>
Wik tionary</w>
tob acco</w>
sh ining</w>
g ad
fashi on
d an</w>
Vic tor</w>
APPLIC ABLE</w>
20 ,000</w>
civ ilian</w>
amend ments</w>
W y
W ake</w>
Pat ri
nes ium</w>
endor sement</w>
dis orders</w>
bor ing</w>
ap i</w>
I Z
Chinat own</w>
Anci ent</w>
under water</w>
ren al</w>
San to</w>
Que ens
sla very</w>
heal ed</w>
dim ir</w>
bir th
Inst all</w>
In ner</w>
Gr ill</w>
sc rap
motiv ated</w>
h ec
euro s</w>
demo graphic</w>
co il</w>
Sh eng</w>
Bal ance</w>
st air
spec tro
gu iding</w>
follow -up</w>
flor a</w>
R T
Jin jiang</w>
Corin thians</w>
poli tically</w>
n au
liber ty</w>
Su zuki</w>
SK F</w>
Ni ke</w>
E ri
solic itation</w>
re construction</w>
n at
ma c</w>
d ys
c entered</w>
Zulu Trade</w>
Bal ti
ap point</w>
Per sian</w>
Br anson</w>
refl ecting</w>
enti ve</w>
doc king</w>
cli ff</w>
SPEC IFIC
Emer gency</w>
under taken</w>
sever ely</w>
s wa
nor mal
ht m</w>
Well ington</w>
Cont act
quali fications</w>
nom inated</w>
in ny</w>
i x
analy zer</w>
E G
Bo y</w>
l ane</w>
k its</w>
d ul
conf ess</w>
ab olic</w>
Wr ite</w>
S r
R PG</w>
Qu ali
Jas on</w>
Au g</w>
Ann oun
vir al</w>
sol v
gar bage</w>
endeav or</w>
ca b</w>
we st-
tra its</w>
[...]
