, 12739212
the 10830682
. 8591252
and 6375990
of 5894023
to 5343823
in 3786565
a 3522739
is 2249834
: 2219538
you 2035725
for 1990762
&quot; 1908909
) 1653380
( 1634774
that 1523526
with 1507483
or 1501354
on 1449582
/ 1246394
it 1169542
this 1101721
- 1067946
I 1044201
as 1016296
from 1014089
your 1011532
are 999595
be 958010
not 914972
was 865690
&apos;s 861230
by 855284
at 830823
all 674194
we 661186
? 652369
can 642888
have 640730
will 618695
an 617189
he 589152
any 547920
our 511860
but 460405
more 435768
has 426006
if 424085
do 421916
other 409529
use 390962
his 375290
; 370625
requested 361505
which 359535
they 359448
one 355601
what 352048
URL 346125
time 325912
about 322564
her 318877
Hotel 317828
information 314617
1 312003
also 310355
their 308722
its 305761
there 302447
when 299998
she 294364
! 284557
so 283592
2 270129
my 267880
such 266748
out 264610
&apos;t 262373
no 260260
may 254931
up 254395
The 249845
me 239909
had 235353
-@@ 231325
map 230013
us 227949
new 225541
hotels 224173
&apos; 223338
how 222415
4 217948
them 217708
3 217375
&amp; 214703
these 212445
who 211862
only 210558
please 208992
been 208157
him 207875
important 204080
into 203378
â 197186
were 194839
China 193440
€ 191546
said 191040
see 190855
free 189450
available 186806
hotel 186524
services 185695
data 184572
people 182502
数据表 181348
service 180736
Page 180399
then 179370
over 178716
like 178332
most 177784
shall 177173
world 176964
than 176752
&#93; 169168
details 167985
Datasheet 167436
room 166648
&#91; 166236
found 165883
used 165306
ferry 165260
first 164222
get 161538
would 161345
just 159853
some 159760
after 158208
including 157042
详细搜索 157025
5 154730
right 154580
km 154393
make 154313
want 154061
through 152728
now 151551
offers 151475
system 151336
know 150065
well 149833
view 149716
site 148822
S@@ 146874
God 145760
provide 145728
very 144624
work 144553
Â 142908
best 142123
many 141988
business 140096
way 137274
two 136420
United 134644
here 133914
Chapter 133907
years 133529
... 133134
working 133103
where 132472
B@@ 132436
products 131455
D@@ 131288
hours 130821
ticket 130797
@ 130066
10 129679
i 128274
price 127785
P@@ 127318
page 127026
_ 126848
Show 125830
access 125655
without 125348
name 124915
should 124508
o 124003
T@@ 123783
A 123691
K@@ 122858
order 122207
day 121911
good 121831
need 119820
online 119771
find 119709
back 119558
even 118935
re@@ 118822
M@@ 118655
don 118547
server 117792
able 117751
part 117683
C@@ 117670
book 117397
content 117147
G@@ 117033
made 117024
$ 115353
N@@ 114811
6 114541
k@@ 114432
car 114164
s 113593
change 113466
between 113279
un@@ 113012
go 112825
home 112570
&gt; 112566
show 112487
take 112088
help 111998
E@@ 111989
L@@ 111926
within 111333
high 110784
F@@ 110603
same 110458
in@@ 110337
type 110214
does 110011
under 109971
each 109711
% 109380
using 109114
city 108886
H@@ 108767
because 108609
7 108369
A@@ 108125
could 107921
life 107487
R@@ 107315
rooms 107009
area 106961
s@@ 106938
before 106795
d@@ 106755
product 105675
y@@ 105311
must 105047
while 104999
8 104767
&#124; 103872
man 103823
visit 103733
did 103148
de 103137
company 100936
set 100758
V@@ 98675
New 98226
those 97793
own 96731
located 96157
Service 95881
near 95127
guests 94580
power 94251
place 93987
.@@ 93162
number 92930
States 91944
account 91918
availability 91830
year 90892
control 90800
W@@ 90320
development 89945
Supplier 89355
quality 89316
J@@ 89300
contact 89186
great 89022
offer 88967
process 88531
n@@ 88310
design 88027
e@@ 87783
website 87345
water 87224
both 87045
come 87037
p@@ 87008
9 86969
down 86906
4@@ 86885
property 86572
support 86467
features 86303
Download 86109
away 85936
am 85914
LTD 85671
O@@ 85329
International 85110
t@@ 85040
er 84735
* 84690
every 84668
Co 84563
personal 84515
miles 84482
file 84331
al@@ 84124
C 82776
CO 82579
ing 81989
different 81791
ers 80932
much 80918
technology 80831
Chinese 80809
B 80500
software 80095
around 80088
e 79978
.aspx 79765
long 79711
TV 79542
stay 79478
facilities 79239
m@@ 79193
images 78472
accommodation 78328
US 78205
And 77875
City 77870
b@@ 77747
experience 77605
20 77528
i@@ 77392
a@@ 77290
during 77102
.com 76869
en@@ 76126
apartment 75347
agree 75263
es 75189
prices 75185
Room 75179
think 74946
being 74929
end 74877
create 74817
market 74675
country 74575
o@@ 74435
ed 74215
following 74095
g@@ 73866
Ltd 73796
3@@ 73708
countries 73356
an@@ 73322
f@@ 73162
English 72626
international 72282
5@@ 72205
top 71802
going 71524
click 71476
production 71460
read 70976
c@@ 70910
y 70367
law 70365
air 70343
Free 70289
user 70277
left 70198
public 70145
per 70102
cookies 70009
security 69934
15 69704
er@@ 69570
30 69494
en 69373
again 69166
University 68895
v@@ 68748
Wikipedia 68737
rights 68731
address 68717
look 68714
l@@ 68637
industry 68592
r@@ 68447
12 68278
Z@@ 68215
Y@@ 68208
why 67960
+ 67928
j@@ 67832
network 67783
still 67781
current 67539
based 67502
application 67393
days 67246
users 67215
say 66855
main 66703
location 66591
always 66560
u@@ 66416
last 65892
management 65826
z@@ 65820
let 65711
11 65538
form 65524
three 65390
t 65306
h@@ 65117
third 64964
2@@ 64954
machine 64924
Information 64825
next 64749
minutes 64537
another 64108
provides 63937
al 63752
Services 63543
large 63397
search 63338
against 63211
ar@@ 63154
less 62818
Version 62785
however 62642
U@@ 62582
X@@ 62546
staff 62457
children 62130
6@@ 61692
party 61521
since 61439
Technology 61400
D 61133
on@@ 61010
France 61006
m 60873
I@@ 60870
level 60865
required 60803
old 60764
give 60683
OF 60666
real 60600
check 60578
&apos;re 60465
house 60381
include 60302
related 60240
21 60230
photos 60170
things 60100
full 60032
2016 59946
project 59822
ch@@ 59767
Ferries 59672
accept 59661
private 59601
example 59474
open 59455
Jesus 59441
Airport 59432
hand 59165
provided 59151
small 59127
off 58691
too 58632
For 58589
little 58506
THE 58036
came 58012
OR 58002
customers 57927
conditions 57736
local 57714
terms 57704
questions 57591
passenger 57540
Standard 57487
k 57342
equipment 57228
systems 57128
love 56932
enjoy 56834
applications 56776
u 56443
performance 56182
range 56172
By 56141
family 55897
case 55763
Road 55740
person 55572
list 55245
looking 55183
8@@ 55170
companies 55110
interests 54987
few 54962
global 54947
Site 54912
light 54853
18 54820
asked 54751
material 54484
bed 54288
side 54248
dates 54186
is@@ 54092
video 53953
am@@ 53932
ti@@ 53886
ate 53771
night 53601
line 53487
7@@ 53450
live 53434
went 53349
Company 53320
Inn 53284
Apartment 53203
National 52938
upon 52916
de@@ 52913
O 52710
24 52704
food 52700
x 52630
European 52466
Canada 52353
key 52179
front 52131
course 52076
become 52046
according 51999
drive 51955
In 51844
el@@ 51741
choose 51738
better 51721
customer 51712
today 51651
Park 51623
at@@ 51604
ation 51479
16 51453
Internet 51432
S 51339
major 51333
materials 51305
Center 51296
Web 51285
it@@ 51279
latest 51244
Group 51235
point 51195
match 51166
body 51145
1@@ 51059
25 51054
South 51054
9@@ 50941
Europe 50920
heart 50843
E 50779
below 50634
easy 50588
ted 50516
special 50503
18@@ 50481
n 50469
es@@ 50419
statistics 50393
whether 50392
age 50215
You 50176
government 50102
possible 50100
land 50058
put 50028
navigation 49947
Texas 49857
Website 49795
head 49783
Street 49775
0@@ 49736
videos 49722
low 49661
building 49472
or@@ 49469
value 49155
Shanghai 48968
dis@@ 48860
complete 48822
note 48808
This 48717
T 48591
needs 48579
Lord 48525
group 48428
14 48415
never 48316
among 48276
future 48134
human 48109
solutions 47966
w@@ 47938
World 47871
&apos;ll 47816
energy 47815
M 47800
email 47800
generate 47786
Hong 47702
Design 47639
as@@ 47605
once 47492
b 47474
pay 47441
North 47359
really 47325
fully 47311
center 47232
men 47220
ago 47217
state 47137
13 47072
100 46918
Hotels 46905
close 46877
® 46731
Re@@ 46673
walk 46599
Home 46516
st@@ 46495
&apos;@@ 46452
bathroom 46412
travel 46363
learn 45975
ab@@ 45902
Instruments 45858
San 45784
keep 45761
policy 45644
x@@ 45601
means 45512
Kong 45508
share 45454
im@@ 45421
responsible 45395
article 45279
edit 45181
king 45181
areas 45173
making 45121
game 45084
Content 45041
economic 45036
otherwise 45005
files 44993
P 44974
le@@ 44958
In@@ 44940
L 44927
send 44823
rate 44790
might 44753
pool 44749
th@@ 44746
choice 44653
past 44649
further 44614
We 44610
language 44565
ad@@ 44556
Italy 44541
face 44537
event 44523
computer 44516
ensure 44463
looked 44311
50 44291
refresh 44273
times 44108
second 44090
di@@ 43932
AND 43928
something 43875
together 43853
ic@@ 43741
Beach 43738
continuing 43730
&apos;m 43651
tickets 43625
USD 43612
took 43597
result 43472
cannot 43436
ability 43387
ag@@ 43344
loss 43282
Terms 43281
start 43227
17 43146
social 43146
G 43090
modern 42814
19 42794
p 42782
2015 42735
c 42626
Microsoft 42494
team 42462
others 42440
select 42440
Al@@ 42330
d 42309
son 42224
media 42086
View 42063
sure 42035
popular 42017
activities 41942
sh@@ 41889
limited 41886
ro@@ 41875
given 41835
te@@ 41810
card 41805
table 41774
Christ 41675
g 41639
test 41607
device 41594
sites 41564
designed 41537
research 41504
analysis 41460
until 41301
size 41292
called 41278
via 41154
providing 41087
addition 40994
House 40783
Agreement 40648
00 40593
Central 40532
R 40428
results 40405
reviews 40396
throughout 40342
0 40336
certain 40256
source 40241
X 40216
request 40097
Beijing 40089
10@@ 40011
image 39984
22 39934
Windows 39934
door 39925
trade 39922
yet 39810
F 39782
version 39738
e-@@ 39728
position 39700
living 39642
eyes 39560
field 39535
due 39529
various 39500
hard 39485
l 39352
growth 39161
above 39147
requirements 39064
State 39063
York 38975
lot 38911
airport 38906
history 38902
meet 38872
mobile 38868
options 38816
z 38784
ON 38777
Agriaffaires 38774
selected 38756
parties 38744
ated 38729
written 38675
ac@@ 38512
largest 38411
ar 38331
tell 38315
Sale 38285
Ch@@ 38277
specific 38238
More 38196
understand 38190
safety 38164
usage 38071
feel 38064
thing 38029
resources 37986
known 37960
Japan 37932
ts 37919
answers 37893
Your 37872
V 37848
money 37824
ia 37808
changes 37729
promise 37725
# 37680
Germany 37636
single 37616
already 37586
code 37515
date 37513
protection 37496
believe 37455
kind 37437
held 37432
Wi-Fi 37335
em@@ 37269
space 37237
An@@ 37225
Africa 37161
financial 37133
solution 37120
booking 37100
rates 36942
LORD 36922
often 36901
general 36773
standard 36709
parts 36654
2014 36570
health 36570
several 36549
review 36442
storage 36413
K 36351
play 36329
purpose 36254
h 36110
il@@ 36106
Ar@@ 36095
works 36043
additional 36034
Inc 36007
web 35997
desk 35952
laws 35877
model 35869
environment 35799
.jpg 35723
ting 35701
ap@@ 35685
li@@ 35662
Kingdom 35572
os 35425
add 35406
necessary 35389
improve 35361
Business 35340
Policy 35312
Asia 35294
80 35276
American 35249
ter 35223
temperature 35211
template 35097
My 35093
got 35052
ten 35034
whole 35031
Q@@ 35014
thought 35010
23 34909
perfect 34900
domain 34891
care 34890
members 34870
done 34840
ol@@ 34815
across 34781
non-@@ 34775
Station 34774
ating 34767
beautiful 34752
ly 34681
later 34627
24-hour 34615
ations 34551
text 34549
et@@ 34528
ine 34496
try 34408
types 34382
connection 34337
tools 34324
password 34315
Israel 34306
series 34192
four 34155
directly 34066
Software 34001
big 33989
Spain 33959
subject 33937
40 33929
legal 33928
led 33901
Data 33896
con@@ 33834
UK 33831
along 33753
having 33698
saw 33691
fact 33689
includes 33635
natural 33584
cost 33483
etc 33479
&apos;ve 33447
le 33440
Mar@@ 33392
East 33367
bar 33326
therefore 33274
Facebook 33244
London 33125
link 33095
enter 33090
box 33085
common 33071
Bid 33032
op@@ 33020
digital 33019
lowest 32972
el 32944
He 32920
doing 32881
total 32871
places 32855
wide 32835
offering 32807
didn 32804
Privacy 32782
vehicle 32774
obtain 32769
N 32749
increase 32740
H 32723
2012 32709
notice 32670
present 32670
art 32648
yes 32618
tool 32498
ur@@ 32408
co@@ 32388
higher 32377
technical 32375
Google 32318
ing@@ 32302
true 32299
unto 32273
national 32265
um@@ 32248
action 32235
Ã 32202
simple 32188
Products 32159
To 32133
individual 32132
centre 32125
program 32120
2017 32092
sales 32057
member 32041
news 32041
et 31959
TO 31927
us@@ 31909
floor 31887
jobs 31881
All 31857
ri@@ 31839
period 31758
ant 31737
return 31684
post 31679
problem 31679
screen 31670
2013 31620
excellent 31602
million 31568
ever 31540
USA 31484
Management 31468
words 31453
call 31435
description 31413
far 31374
oil 31354
Sh@@ 31313
unique 31300
sale 31178
Ferry 31150
damage 31136
200 31131
receive 31121
supply 31110
Paris 31098
System 31038
Republic 31014
women 31003
processing 30991
La 30980
interest 30934
os@@ 30930
se@@ 30903
ferries 30880
Con@@ 30878
devices 30863
om@@ 30807
display 30765
political 30746
makes 30686
least 30684
investment 30653
Centre 30645
professional 30634
either 30509
From 30507
foreign 30501
nothing 30457
run 30448
months 30427
students 30423
music 30403
word 30346
pressure 30325
bring 30322
young 30250
28 30162
distribution 30151
Semiconductor 30129
function 30101
told 30067
Russia 30051
conditioning 30032
risk 30009
phone 30000
26 29999
flower 29947
industrial 29920
President 29845
mind 29817
training 29788
With 29785
der 29764
3D 29760
= 29747
operation 29719
matter 29708
Resort 29674
profile 29650
ways 29647
liable 29638
report 29627
ent 29614
be@@ 29612
shopping 29595
27 29569
strong 29549
included 29498
partners 29467
ec@@ 29408
reason 29362
costs 29316
breakfast 29307
projects 29293
60 29259
continue 29254
anything 29252
developed 29241
restaurant 29227
als 29209
board 29203
delivery 29165
Line 29163
office 29096
16@@ 29093
Museum 29091
ic 29085
though 29079
meeting 29071
ina 29065
Avg 29035
began 29033
ideal 29026
apply 29019
copyright 28942
ul@@ 28937
comes 28926
ings 28910
cable 28905
U 28902
transfer 28862
region 28836
ask 28730
views 28684
activity 28674
effect 28663
advance 28571
hot 28549
rest 28531
uses 28508
school 28505
America 28464
brand 28460
si@@ 28458
early 28449
© 28442
agreement 28441
Online 28434
easily 28434
everything 28431
particular 28374
class 28344
daily 28330
sp@@ 28272
properties 28257
per@@ 28245
says 28241
PHP 28223
store 28218
construction 28149
protect 28133
W 28102
electric 28090
education 28039
cause 28017
2018 27989
speed 27979
red 27964
leading 27921
amount 27914
equipped 27911
Pro@@ 27872
hour 27870
mean 27862
especially 27856
ra@@ 27853
over@@ 27844
allow 27833
Old 27798
Videos 27794
allows 27791
ha@@ 27753
safe 27750
IN 27700
• 27692
plan 27691
West 27674
variety 27640
white 27614
India 27538
turn 27538
style 27537
credit 27534
posted 27522
sent 27484
Singapore 27476
um 27465
woman 27425
average 27398
created 27374
y-@@ 27370
Best 27347
rental 27302
privacy 27301
outdoor 27298
section 27297
PDF 27250
employees 27240
community 27236
vi@@ 27211
yourself 27188
question 27182
enough 27180
station 27150
friends 27140
five 27121
His 27109
ous 27068
selection 27042
download 26992
wanted 26960
29 26935
r 26912
problems 26858
treatment 26851
platform 26779
exchange 26736
child 26718
hold 26707
log 26693
est 26673
pl@@ 26658
ma@@ 26653
ot@@ 26600
goods 26579
photo 26579
seen 26575
kitchen 26552
entire 26545
steel 26536
ver@@ 26535
Suites 26532
knowledge 26482
save 26452
short 26447
death 26423
thus 26383
taken 26377
charge 26360
Price 26326
ator 26271
ST@@ 26260
tr@@ 26246
step 26228
commercial 26222
almost 26162
immediately 26160
Development 26143
outside 26124
needed 26122
registration 26088
express 26083
September 26073
advanced 26065
color 26041
French 26032
Prices 26031
stop 26001
German 25930
hands 25914
Japanese 25903
turned 25891
direct 25872
moment 25865
31 25856
12@@ 25837
capital 25820
ANY 25811
comfortable 25805
economy 25772
HTML 25757
� 25730
browser 25664
id@@ 25654
relevant 25649
knew 25640
II 25638
clear 25613
welcome 25596
Name 25567
sub@@ 25498
detailed 25471
travelers 25468
surface 25465
built 25462
Y 25399
paper 25398
flowers 25376
Li@@ 25375
da 25374
ates 25357
marketing 25345
gas 25308
General 25260
mm 25247
John 25206
started 25194
category 25179
longer 25171
build 25144
News 25118
buy 25067
operating 25038
Party 25025
issues 25025
soon 25021
bo@@ 24985
district 24985
move 24972
events 24896
lo@@ 24857
1.@@ 24824
tax 24790
quickly 24768
taking 24758
AD@@ 24745
month 24686
exist 24678
traditional 24661
restaurants 24633
Private 24613
became 24602
father 24602
force 24593
travellers 24583
ong 24560
study 24557
original 24556
15@@ 24554
garden 24535
license 24513
Car@@ 24498
ana 24497
ten@@ 24487
himself 24472
nature 24466
ons 24464
received 24462
lost 24427
2011 24418
talk 24416
ans 24411
added 24394
similar 24383
deals 24377
protected 24369
Us 24353
opened 24345
clean 24341
job 24334
standards 24328
fast 24325
a-@@ 24316
Taiwan 24307
listening 24292
components 24285
Australia 24241
ex@@ 24216
2010 24197
reduce 24187
ou@@ 24183
ed@@ 24140
demand 24114
feature 24095
St@@ 24076
consider 24063
coffee 24027
v 24011
manufacturing 23987
Ex@@ 23955
consent 23947
existing 23945
takes 23944
expected 23929
gave 23874
established 23861
games 23844
coming 23809
option 23794
up@@ 23791
la@@ 23789
effective 23729
.wikipedia.org 23691
35 23680
ground 23661
October 23658
ak@@ 23654
ir@@ 23642
Red 23640
favorite 23637
tions 23634
Be@@ 23628
PC 23622
war 23599
accordance 23591
ka 23577
town 23571
Skip 23555
tour 23543
visitors 23535
Search 23505
sea 23505
ang 23486
to@@ 23483
lower 23468
ta@@ 23467
WiFi 23425
stars 23419
Ireland 23412
role 23411
TMs 23393
leave 23386
links 23385
Di@@ 23350
17@@ 23286
won 23266
ad 23256
requires 23225
Club 23205
blood 23200
pro@@ 23189
beach 23186
cooperation 23178
Le@@ 23172
brought 23164
purchase 23155
ne@@ 23134
felt 23129
respect 23098
app 23074
happy 23052
ho@@ 23048
Contact 23031
tion 23030
la 23012
June 23006
method 23000
Office 22992
Russian 22964
friendly 22943
Server 22925
quote 22911
parking 22907
2008 22892
ready 22867
star 22855
ist 22850
RE@@ 22824
heard 22820
multiple 22808
fine 22806
remove 22799
wood 22799
Mon@@ 22773
ton 22771
May 22762
although 22762
List 22748
follow 22747
collect 22726
saying 22704
prior 22663
meters 22648
points 22617
anyone 22607
medical 22593
cases 22586
pre@@ 22568
ai 22541
and@@ 22539
itself 22536
IN@@ 22520
internet 22518
No 22503
0.@@ 22481
TM 22479
payment 22478
ling 22471
th 22460
32 22458
Last.fm 22421
levels 22408
ye 22371
Product 22357
hi@@ 22349
window 22348
message 22334
capacity 22331
cities 22322
mother 22312
mo@@ 22283
inter@@ 22274
distance 22263
stats 22231
efficiency 22226
quick 22212
automatically 22211
double 22193
glass 22179
IT 22175
Video 22160
20@@ 22157
structure 22156
error 22154
.NET 22134
Hostel 22103
Am@@ 22099
reach 22085
sound 22080
situation 22071
operators 22060
accurate 22053
unless 22039
applicable 22035
It 22033
benefits 22020
Guest 22017
steps 22008
Villa 22000
concerts 21998
Korea 21982
Use 21952
STMicroelectronics 21938
te 21928
processes 21915
previous 21910
User 21909
century 21871
voice 21847
unit 21837
skin 21819
lead 21816
fitness 21811
ter@@ 21805
secure 21786
earth 21764
En@@ 21738
iron 21734
ness 21733
pages 21721
pe@@ 21704
rather 21703
half 21702
De@@ 21689
car@@ 21673
July 21662
AR@@ 21660
watch 21655
technologies 21647
simply 21643
Framework 21640
If 21638
central 21632
button 21626
Council 21617
Map 21606
qu@@ 21555
term 21525
ER 21516
markets 21513
13@@ 21512
2009 21496
policies 21485
communication 21456
Square 21430
inside 21415
AN@@ 21414
Co@@ 21412
Bar@@ 21411
Ad@@ 21407
he@@ 21406
status 21390
14@@ 21381
Grand 21363
thank 21331
Spirit 21316
flat-screen 21310
ke 21262
greater 21239
failure 21227
testing 21226
Par@@ 21215
responsibility 21212
Mr. 21210
arrival 21201
Sea 21186
maximum 21174
port 21155
Q 21154
Se@@ 21130
behind 21123
cloud 21120
running 21104
0.1 21099
sign 21080
ang@@ 21072
bus 21068
integrated 21062
fire 21046
potential 21044
bit 20980
deliver 20971
interested 20966
issue 20955
maintenance 20937
shows 20936
depending 20922
ators 20912
black 20908
fees 20896
road 20896
s-@@ 20893
ent@@ 20891
Law 20877
Man@@ 20859
faith 20845
peace 20827
December 20824
hair 20823
ah 20811
culture 20795
basic 20791
develop 20783
ors 20769
onboard 20761
Industry 20739
cl@@ 20732
recent 20730
November 20727
CH@@ 20696
Union 20684
Games 20682
00@@ 20668
IP 20665
res 20659
ni@@ 20632
Shenzhen 20627
se 20624
Air 20608
park 20605
no@@ 20590
highly 20587
45 20575
t-@@ 20561
focus 20541
offered 20530
LED 20525
extra 20523
Art 20510
arising 20494
Island 20493
purposes 20493
50@@ 20469
enterprise 20459
ance 20455
Area 20435
heat 20433
act 20430
plant 20416
Day 20411
me@@ 20375
Eastern 20373
ally 20368
flow 20368
connected 20356
500 20347
xHamster 20345
90 20338
Th@@ 20338
shower 20336
dining 20326
amenities 20320
33 20292
People 20288
ch 20285
contains 20279
websites 20279
rules 20255
getting 20244
modify 20244
instead 20218
published 20167
Manufacturer 20117
Please 20097
fl@@ 20088
week 20074
base 20068
School 20044
themselves 20036
groups 20020
girl 20016
persons 20012
Western 20007
ding 20007
morning 19990
doesn 19987
Of 19979
official 19978
tic 19966
documents 19958
August 19939
highest 19923
f 19919
situated 19914
exporter 19908
idea 19900
sc@@ 19884
answer 19855
rent 19854
hope 19847
ds 19840
ks 19837
ASP.NET 19822
church 19802
press 19779
gh@@ 19776
Sp@@ 19771
January 19749
basis 19748
ut@@ 19744
require 19739
March 19733
train 19726
AS@@ 19723
external 19715
electronic 19707
der@@ 19704
deal 19700
Rights 19691
collection 19687
relationship 19677
ren@@ 19673
par@@ 19663
impact 19652
les 19651
forward 19649
weight 19644
&apos;d 19641
routes 19634
nor 19598
70 19592
green 19580
40@@ 19568
provision 19561
provisions 19553
ay 19549
April 19544
mon@@ 19538
update 19538
effects 19528
usually 19509
famous 19506
achieve 19471
installation 19451
District 19441
actually 19438
copy 19418
quite 19418
bi@@ 19408
success 19389
ya 19386
al-@@ 19379
ID 19372
Apartments 19364
01 19312
registered 19310
reliable 19296
Mo@@ 19294
About 19283
HYIP 19278
experiences 19263
MA@@ 19256
reasonable 19235
ism 19214
for@@ 19195
Here 19185
How 19158
404 19123
shown 19123
mar@@ 19115
bl@@ 19113
Bank 19104
opportunity 19098
difficult 19097
currently 19092
models 19082
physical 19052
caused 19047
everyone 19046
beginning 19045
ep@@ 19043
complex 19040
clients 19021
Manager 19007
What 18998
comfort 18991
thanks 18971
claim 18961
gold 18960
tea 18953
measures 18939
Bo@@ 18925
Bed 18924
except 18917
Garden 18905
25@@ 18904
IT@@ 18904
truth 18904
learning 18887
contract 18865
environmental 18832
benefit 18824
bad 18820
tips 18812
wireless 18805
ve@@ 18774
story 18755
holiday 18739
Holy 18729
trademark 18722
ge@@ 18715
court 18706
else 18699
sense 18660
CENTURY 18657
tes 18652
Guangzhou 18633
War 18629
36 18621
do@@ 18621
lines 18596
e-mail 18589
cleaning 18585
listed 18549
output 18548
Tr@@ 18540
d-@@ 18529
60@@ 18506
efficient 18505
memory 18502
register 18481
machines 18479
av@@ 18463
moved 18455
operations 18441
Email 18440
remember 18434
2.@@ 18430
Mediterranean 18420
Young 18403
NOT 18397
alone 18393
discover 18383
gr@@ 18382
practice 18379
values 18377
response 18367
increased 18349
res@@ 18343
19@@ 18340
On 18331
guest 18327
active 18318
powerful 18317
functions 18312
King 18301
Answers 18287
30@@ 18284
Security 18277
programs 18272
TI@@ 18269
.png 18250
Not 18234
St. 18232
Organization 18231
military 18231
bank 18230
approach 18228
separate 18228
Un@@ 18213
developing 18207
hear 18174
attention 18168
population 18147
Other 18146
accepted 18146
gu@@ 18136
Oh 18125
writing 18123
ones 18122
Spanish 18116
core 18112
ph@@ 18105
nice 18095
One 18094
helps 18091
U.S. 18079
IS@@ 18053
growing 18052
Thailand 18044
Conference 18041
interface 18038
maintain 18021
lesson 18018
someone 18004
Gu@@ 18003
34 17999
ice 17993
background 17978
gives 17973
prevent 17963
1-@@ 17954
sometimes 17946
un 17929
engineering 17925
organization 17925
AC@@ 17924
IS 17907
submit 17896
metres 17892
s.@@ 17869
domestic 17845
appropriate 17836
br@@ 17835
innovation 17832
speak 17830
automatic 17813
destination 17807
sailing 17803
ati@@ 17802
items 17794
FOR 17793
Per@@ 17790
De 17787
society 17780
ies 17774
Committee 17771
deep 17758
understanding 17755
Bay 17752
trying 17739
self-@@ 17738
nearby 17732
audio 17730
man@@ 17726
ig@@ 17719
Express 17713
load 17712
ale 17694
Breakfast 17692
ite 17631
worldwide 17601
placed 17598
wall 17586
oc@@ 17560
liability 17554
manage 17552
born 17533
considered 17532
Islands 17527
Type 17517
J 17496
thou 17494
six 17492
Bi@@ 17484
75 17483
stage 17482
strength 17467
ded 17465
mouth 17447
guide 17425
co 17409
operator 17365
Saint 17358
wife 17354
admin 17332
resolution 17317
menu 17312
° 17283
insurance 17280
David 17262
Sch@@ 17235
Great 17231
Me@@ 17230
advertising 17205
ge 17186
rich 17174
associated 17163
AL@@ 17161
Trade 17161
mis@@ 17160
forms 17139
release 17120
Santa 17119
shop 17108
EU 17106
default 17091
Global 17088
so@@ 17083
Suite 17074
metal 17066
advantage 17065
chain 17065
mode 17056
completely 17055
Town 17048
film 17041
February 17032
gi@@ 17031
regarding 17030
sin 17029
St 17027
ley 17020
engine 17011
w 17007
thy 17003
stone 16979
.Â 16977
2007 16969
ty 16969
independent 16968
Su@@ 16955
wish 16952
High 16949
ker 16947
planning 16934
EN@@ 16926
28@@ 16925
in-@@ 16907
Android 16897
ai@@ 16854
Now 16843
cut 16837
remain 16825
strategy 16822
infrastructure 16811
Com@@ 16810
accommodations 16808
Machine 16786
track 16786
title 16780
Series 16776
-- 16762
setting 16759
beyond 16754
Manufacturers 16753
reached 16752
friend 16750
satellite 16745
Convention 16743
encyclopedia 16741
avoid 16737
perform 16736
climate 16731
Power 16728
finally 16728
ob@@ 16725
suite 16721
.. 16717
Br@@ 16698
Ma@@ 16697
s.aspx 16695
com@@ 16694
leaders 16688
ci@@ 16687
fi@@ 16685
Rome 16684
on-@@ 16669
suppliers 16669
Avenue 16668
enable 16645
ber@@ 16637
ES@@ 16624
partner 16620
allowed 16611
significant 16606
3-@@ 16605
ay@@ 16600
decision 16588
Ro@@ 16548
ING 16530
hostels 16530
spacious 16529
cultural 16526
Holland 16496
re 16496
transport 16493
Science 16487
towards 16458
comply 16450
fall 16450
suitable 16441
length 16430
die 16429
ring 16426
ment 16425
Institute 16409
camera 16403
pass 16402
trading 16398
css 16397
end@@ 16372
corporate 16365
Church 16355
articles 16345
lives 16335
Barcelona 16326
wrong 16318
regulations 16303
rec@@ 16297
ants 16284
trust 16250
For@@ 16247
sex 16225
likely 16207
su@@ 16202
whom 16200
comprehensive 16197
Cor@@ 16194
39 16192
Guarantee 16180
na 16170
damages 16168
Baltic 16161
continued 16148
opportunities 16138
agents 16133
œ@@ 16130
Marketing 16123
efforts 16116
Our 16112
38 16107
ical 16099
units 16096
print 16086
dry 16084
shared 16063
served 16057
Instagram 16056
ass 16056
inform 16048
late 16044
TR@@ 16042
enterprises 16038
ma 16034
methods 16033
ard 16010
out@@ 16001
5-@@ 15999
est@@ 15995
degree 15994
eat 15992
ence 15972
EN 15961
3.@@ 15942
AM@@ 15942
skills 15941
innovative 15938
ant@@ 15917
luxury 15904
bu@@ 15899
CO@@ 15896
monitoring 15892
dedicated 15877
write 15863
overall 15849
packaging 15832
generation 15831
affiliates 15827
measurement 15813
sports 15812
host 15800
sorry 15791
Le 15786
ach@@ 15785
billion 15785
portion 15785
ary 15782
Ne@@ 15780
af@@ 15754
ES 15752
80@@ 15746
FileHippo.com 15738
third-party 15736
Lake 15735
final 15734
Profile 15721
ino 15697
mark 15684
di 15682
ics 15670
ys@@ 15656
experts 15646
Ri@@ 15630
successful 15627
ano 15619
First 15606
era 15591
ity 15590
Player 15588
27@@ 15576
Green 15574
whose 15570
comments 15569
reservation 15568
trip 15566
stand 15565
states 15556
cheapest 15551
particularly 15547
touch 15546
ung 15542
Him 15529
ure 15526
fuel 15524
Spa 15521
Qu@@ 15517
British 15508
sole 15507
income 15499
internal 15494
channels 15493
24@@ 15487
OS 15480
m2 15457
master 15455
og@@ 15445
ship 15444
AT@@ 15442
paid 15432
vote 15425
convenient 15399
2000 15395
California 15395
q@@ 15394
ub@@ 15393
under@@ 15393
37 15380
ke@@ 15372
cutting 15370
creating 15367
gates 15357
settings 15355
Apple 15343
stood 15338
accuracy 15328
chemical 15315
Director 15302
,000 15300
ta 15280
Toilet 15278
YOU 15273
balcony 15271
architecture 15261
reference 15250
str@@ 15236
dead 15233
Real 15226
guarantee 15209
ED 15207
sun 15182
essential 15172
ne 15168
reports 15160
au 15151
4.0.30319 15150
install 15140
object 15139
acknowledge 15137
cover 15136
o-@@ 15130
é@@ 15118
Royal 15116
Health 15115
ste@@ 15111
integration 15108
beat 15105
Corporation 15087
SM@@ 15058
ful 15054
street 15051
River 15049
Lines 15041
currency 15030
consumption 15025
iz@@ 15020
serve 15014
Asian 15005
organizations 14996
Car 14995
circumstances 14991
2-@@ 14982
the@@ 14975
actions 14967
messages 14953
48 14948
swimming 14947
reservations 14931
session 14927
accessible 14916
giving 14893
fun 14891
thinking 14874
Restaurant 14868
sell 14867
thereof 14867
Father 14863
ud@@ 14861
ideas 14859
square 14854
closed 14852
laser 14846
Bangkok 14844
names 14843
produce 14842
deposit 14840
reserves 14835
del 14823
Cal@@ 14818
Studio 14794
middle 14785
science 14776
useful 14775
stock 14758
Last 14756
connect 14754
Linux 14753
fresh 14742
ki@@ 14739
Ab@@ 14728
ning 14724
re-@@ 14721
ion 14716
plastic 14714
Gr@@ 14712
direction 14705
sector 14701
Her@@ 14696
statement 14696
po@@ 14693
languages 14688
den 14686
Flash 14679
55 14678
resistance 14678
high-@@ 14672
35@@ 14660
Special 14650
ative 14650
Egypt 14648
regional 14642
elements 14631
sat 14631
CD 14627
Food 14609
Limited 14607
Account 14589
Palace 14586
ER@@ 14584
document 14580
ked 14573
Control 14572
OEM 14572
former 14570
26@@ 14568
ats 14568
reasons 14556
ev@@ 14549
database 14546
UN 14543
Game 14537
concept 14537
blue 14526
budget 14520
El@@ 14517
sensor 14517
MAC 14507
feet 14507
player 14502
Code 14500
Mexico 14496
tive 14494
Vi@@ 14490
path 14474
300 14465
terrace 14461
LI@@ 14456
intellectual 14455
hardware 14443
patent 14437
terminate 14433
Nations 14431
opening 14431
Ver@@ 14429
minimum 14428
ports 14419
bar@@ 14417
net 14408
AN 14402
changed 14390
record 14380
tic@@ 14377
walking 14368
manner 14364
client 14348
Col@@ 14347
complimentary 14340
bound 14330
remote 14311
Ac@@ 14310
uc@@ 14310
presence 14309
Estate 14302
Support 14297
ore 14296
disease 14294
ves 14278
il 14272
USB 14269
Media 14265
gate 14263
ra 14254
ve 14243
volume 14243
installed 14241
myself 14236
summer 14220
Add 14199
challenges 14194
id 14191
laundry 14191
refund 14187
Microchip 14179
sk@@ 14176
ur 14170
Travel 14156
2005 14155
indeed 14145
smart 14140
ak 14133
Found 14129
Double 14128
thee 14119
ise 14117
leader 14117
Hu@@ 14116
attractions 14114
Open 14106
weather 14094
2006 14090
ized 14087
ian 14076
promote 14072
,@@ 14069
round 14068
bottom 14059
appear 14055
involved 14055
ong@@ 14051
Board 14049
Check 14049
Son 14036
traffic 14035
va 14035
Application 14033
cold 14033
ry 14032
1,200 14027
Blog 14024
Paul 14022
ler 14020
recovery 14016
Location 14009
Po@@ 14005
Tutor 13996
Mal@@ 13982
Star 13979
rise 13978
historical 13972
annual 13968
Berlin 13955
dec@@ 13945
join 13943
30.00 13941
ins 13936
USE 13925
Research 13923
Live 13922
virtual 13920
tri@@ 13918
difference 13901
Bible 13899
positive 13892
Italian 13889
package 13882
AP@@ 13878
ation@@ 13876
shipping 13873
ON@@ 13871
cancer 13866
floors 13866
Industrial 13865
Inter@@ 13863
workers 13860
condition 13856
scale 13856
spirit 13855
BC 13846
Sydney 13846
followed 13844
Adobe 13841
cr@@ 13834
Store 13833
moving 13833
balance 13828
RO@@ 13823
tried 13822
Ho@@ 13821
showing 13819
limitation 13817
fish 13815
Community 13814
Max 13798
poor 13796
sts 13792
tion@@ 13786
toward 13768
described 13765
wrought 13752
ery 13733
MO@@ 13727
breach 13727
correct 13726
practices 13725
multi-@@ 13722
contain 13721
movement 13720
Z 13713
combination 13713
Intel 13709
Or@@ 13708
nuclear 13707
enables 13692
assistance 13687
29@@ 13682
providers 13652
shops 13652
graphics 13623
kettle 13612
assets 13607
dark 13596
permission 13596
Network 13594
foot 13583
99 13581
seemed 13575
gl@@ 13563
au@@ 13560
businesses 13533
mer@@ 13525
communications 13522
recommendations 13510
met 13504
furniture 13501
inclusive 13501
progress 13501
Overview 13494
visiting 13491
minute 13489
seven 13486
relations 13480
critical 13476
supports 13476
institutions 13467
owner 13465
Article 13464
col@@ 13463
picture 13463
edge 13461
apartments 13445
Social 13444
SP@@ 13440
forth 13436
dr@@ 13433
Dining 13429
Personal 13422
entertainment 13421
Forum 13414
Systems 13414
sky 13412
starting 13406
supported 13403
hidden 13401
70@@ 13399
normal 13392
When 13388
limit 13383
EC@@ 13379
Dr. 13375
Steam 13375
crisis 13372
Department 13358
route 13354
Los 13352
ology 13347
--@@ 13345
returned 13343
Lu@@ 13342
goal 13339
Quick 13338
entered 13327
4.@@ 13323
industries 13303
Is 13297
author 13297
Reviews 13282
recently 13277
ters 13273
Association 13272
info 13271
0.2 13269
Coffee 13248
Top 13232
ferryto.com 13230
IP@@ 13226
Plaza 13226
Jerusalem 13222
ada 13221
ate@@ 13221
TO@@ 13216
Lo@@ 13214
thousands 13214
provider 13213
released 13213
Equipment 13206
Water 13203
Fi@@ 13199
Bar 13193
ow@@ 13177
ish 13167
90@@ 13164
Chat 13164
ip@@ 13162
claims 13160
regions 13153
gone 13151
numbers 13141
specified 13139
Market 13133
pre-@@ 13128
Life 13126
exclusive 13119
Suppliers 13113
explore 13109
delivered 13108
configuration 13106
joint 13099
38@@ 13096
fee 13091
feeling 13089
Via 13081
IC@@ 13078
Time 13064
Czech 13047
format 13042
reading 13037
fields 13034
st 13034
lift 13031
White 13030
determine 13028
committed 13026
s.com 13026
ering 13021
target 13018
discretion 13011
generally 13011
CA 13006
ah@@ 13003
mechanical 12997
decided 12996
applied 12995
ages 12990
42 12988
compare 12984
bedroom 12983
books 12977
compared 12971
SE@@ 12966
icon 12961
BlackBerry 12955
input 12945
sl@@ 12938
factors 12931
fear 12929
hostel 12926
wear 12923
forces 12921
des 12916
He@@ 12912
.html 12910
cuisine 12897
administrative 12892
Province 12891
Prague 12890
34@@ 12882
ff@@ 12882
tor@@ 12881
serious 12878
advice 12872
Dating 12866
flexible 12861
seems 12861
delete 12857
break 12846
Har@@ 12842
Family 12841
Natural 12836
ill@@ 12832
worked 12828
Sal@@ 12824
1,@@ 12803
ki 12791
increasing 12789
sleep 12785
all@@ 12783
Solutions 12780
pi@@ 12775
Engineering 12774
percent 12769
spa 12767
ms 12760
Im@@ 12754
happened 12753
drink 12738
ica 12735
College 12722
heaven 12719
200@@ 12716
No@@ 12712
Francisco 12710
Bur@@ 12708
Las 12707
saved 12704
contents 12695
Mac 12690
printing 12687
ao 12684
unlikely 12679
entry 12675
frame 12675
healthy 12669
huge 12662
Find 12661
Dis@@ 12658
ization 12651
OR@@ 12637
Si@@ 12631
ass@@ 12627
monitor 12605
beds 12604
Big 12602
stability 12596
grant 12592
~ 12588
trans@@ 12570
cards 12564
anti-@@ 12560
shape 12559
US@@ 12555
e.g. 12550
ball 12546
produced 12546
parents 12545
cm 12542
passed 12540
filter 12536
kept 12536
brochure 12528
ill 12527
suggestions 12522
Budapest 12521
Holiday 12515
we@@ 12513
Ag@@ 12500
command 12493
IC 12490
Human 12486
changing 12473
az@@ 12471
95 12467
ing-@@ 12463
probably 12460
perhaps 12458
carry 12456
implementation 12451
wait 12450
41 12449
baby 12441
flat 12437
warranties 12434
Greece 12433
actual 12430
letter 12423
Public 12408
Project 12384
Washington 12379
electrical 12379
Mobile 12378
banks 12368
Switzerland 12362
ines 12349
ents 12348
Drive 12347
ast@@ 12339
spot 12338
sw@@ 12338
spring 12335
atmosphere 12334
36@@ 12331
44 12326
ash 12323
Exporters 12307
Zealand 12307
journey 12302
confirmation 12290
min@@ 12290
authority 12288
Mom 12286
featuring 12282
timetables 12282
died 12279
lin@@ 12278
&lt; 12277
TS 12277
figure 12276
ens@@ 12274
Conditions 12273
TA@@ 12266
surroundings 12266
UR@@ 12260
wonderful 12258
ara 12256
resulting 12256
compliance 12254
homes 12254
wh@@ 12252
wine 12252
UN@@ 12250
sources 12243
que 12240
tree 12231
cell 12229
plants 12225
Blue 12223
warm 12221
soft 12215
island 12214
ens 12212
defined 12207
SO@@ 12202
translation 12201
DVD 12192
Bal@@ 12181
Minister 12181
carefully 12172
whatever 12170
gift 12163
driving 12154
item 12154
Min@@ 12152
toiletries 12152
updated 12149
49 12141
resource 12140
sets 12140
rule 12138
violation 12134
Pr@@ 12130
transportation 12127
piece 12124
exercise 12119
worth 12118
sister 12114
truly 12114
Building 12110
vision 12110
gain 12109
Card 12108
easier 12107
Place 12106
ali@@ 12101
LE@@ 12096
freedom 12096
ze 12086
individuals 12078
unauthorized 12073
motor 12071
remains 12065
Peter 12063
ou 12054
conference 12050
cells 12046
ble 12035
manufacturers 12035
Court 12034
cheap 12031
Pacific 12026
plans 12024
Electric 12020
beauty 12019
mat@@ 12016
spiritual 12007
65 11999
But 11982
Christian 11980
Mer@@ 11980
Government 11974
reliability 11969
weeks 11953
Fl@@ 11952
ered 11934
reality 11933
ans@@ 11931
Pi@@ 11928
granted 11916
season 11916
neither 11915
So@@ 11904
sold 11902
Milan 11899
5.@@ 11897
DC 11884
e.@@ 11879
boy 11874
Melbourne 11872
blog 11871
identify 11869
religion 11865
evidence 11864
LCD 11857
campsite 11855
ade 11846
officers 11838
WINDOWS 11835
pictures 11835
labor 11830
Music 11826
MC@@ 11822
block 11821
cheaper 11808
Shower 11807
nearest 11807
¢ 11803
strategic 11800
characteristics 11798
certainly 11786
den@@ 11786
43 11783
carried 11781
gets 11778
Visa 11765
long-term 11762
Ber@@ 11761
Education 11759
interesting 11754
can@@ 11753
Parking 11750
fit 11746
war@@ 11744
4-@@ 11742
signal 11733
Executive 11728
Year 11725
permanent 11724
administration 11722
AB@@ 11708
SH@@ 11703
AS 11700
sa@@ 11700
permitted 11699
faster 11696
Jo@@ 11695
arms 11689
convenience 11687
Ph@@ 11683
wind 11683
conflict 11680
ane 11675
Christmas 11673
nearly 11669
theory 11663
Exhibition 11655
har@@ 11649
regular 11649
destinations 11644
cor@@ 11639
ine@@ 11638
Mi@@ 11633
Cl@@ 11617
win 11617
primary 11614
leisure 11608
-based 11607
labels 11593
mi@@ 11587
export 11582
creation 11576
extremely 11572
respond 11572
productivity 11567
Florence 11564
helpful 11563
sharing 11563
ini 11562
go@@ 11560
student 11554
100@@ 11553
kids 11547
pain 11545
voltage 11542
ISO 11541
32@@ 11533
aw@@ 11527
Sam@@ 11520
HD 11516
mainly 11514
standing 11512
heating 11502
practical 11502
46 11490
requesting 11488
founded 11484
talking 11477
effort 11474
cur@@ 11473
quiet 11471
department 11465
designs 11464
ville 11463
securely 11460
Customer 11459
networks 11458
playing 11456
Angeles 11455
task 11454
Moscow 11444
6.@@ 11440
intended 11440
answered 11433
editor 11424
ID@@ 11421
air-conditioned 11419
Pl@@ 11417
sustainable 11415
governments 11410
56 11407
ns 11403
repair 11391
bath 11383
relax 11379
flexibility 11358
becomes 11355
2004 11352
Tech 11352
TripAdvisor 11341
^ 11340
login 11339
201@@ 11338
extent 11329
51 11328
Ba@@ 11328
anywhere 11328
families 11326
agreed 11325
Ge@@ 11320
Quality 11316
calls 11313
instant 11313
As 11310
exactly 11307
completed 11306
prepared 11298
Error 11297
combined 11295
numerous 11291
eye 11281
ess@@ 11280
Cas@@ 11278
fell 11262
ps 11261
recommend 11261
appointed 11259
covered 11251
lies 11251
02 11247
Toronto 11233
08 11232
Korean 11232
Er@@ 11222
47 11218
SA@@ 11208
battery 11203
walked 11203
grow 11200
Gi@@ 11199
authorities 11189
atic 11185
Sex 11184
fixed 11184
loved 11184
goes 11183
her@@ 11183
previously 11177
locations 11176
reduced 11174
tag 11164
oo@@ 11163
Gold 11159
religious 11149
App 11146
attempt 11145
sensors 11142
dy 11138
Middle 11136
wrote 11136
isn 11128
54@@ 11126
waiting 11125
Pal@@ 11120
module 11114
valid 11101
studies 11099
reserve 11095
larger 11092
58 11091
Web@@ 11083
tor 11083
stored 11075
400 11073
named 11072
begin 11071
houses 11067
scientific 11063
od@@ 11056
ona 11044
behavior 11043
patients 11037
clearly 11035
obtained 11035
orders 11035
Boutique 11033
er-@@ 11028
Safety 11025
influence 11023
improved 11021
kinds 11020
directors 11010
are@@ 11005
custom 11001
Size 10993
Tri@@ 10988
yuan 10981
on-site 10980
spread 10978
bri@@ 10977
SS@@ 10961
aid 10958
funds 10949
cars 10943
Electronics 10939
ari@@ 10930
presented 10928
represent 10927
consumer 10922
ov@@ 10918
MP@@ 10916
distribute 10915
termination 10915
meaning 10913
channel 10904
mission 10904
extensive 10891
precision 10891
affect 10890
lighting 10890
aware 10887
Brazil 10882
players 10882
ell@@ 10877
S-@@ 10875
acts 10869
iPhone 10867
cre@@ 10858
fill 10851
chance 10846
despite 10846
debt 10841
expertise 10836
Arab 10833
ha 10833
ties 10828
plus 10826
Cloud 10825
yn@@ 10825
capabilities 10820
challenge 10817
Pol@@ 10813
ars 10807
ver 10803
enhance 10799
Machinery 10798
Gallery 10797
importance 10791
Congress 10789
driver 10789
couldn 10788
solar 10782
ann@@ 10781
ses 10781
Tower 10770
hearing 10770
microwave 10767
handle 10766
Earth 10764
› 10764
\ 10763
mass 10761
heavy 10756
multi@@ 10753
causes 10751
tics 10751
Val@@ 10746
seconds 10740
Mag@@ 10726
Economic 10721
Vienna 10721
transmission 10721
chat 10720
check-in 10720
ner 10719
tourist 10716
Hall 10715
del@@ 10715
recommended 10713
des@@ 10710
lay 10710
lack 10709
Bl@@ 10708
ru@@ 10706
ously 10699
Do 10689
IA 10689
measure 10687
massage 10680
ality 10669
accounts 10668
widely 10667
Amateur 10666
64 10662
stainless 10659
objects 10653
seek 10652
thousand 10649
Dr@@ 10648
ets 10647
Mor@@ 10628
Casino 10625
ford 10621
See 10620
television 10617
filled 10614
superior 10610
ie 10608
entrance 10606
Tokyo 10600
telephone 10596
Hilton 10594
EL@@ 10593
tu@@ 10593
NE@@ 10590
cross 10589
expect 10586
civil 10584
sal@@ 10580
evening 10579
ba 10576
37@@ 10571
continuous 10566
flight 10562
2003 10560
appears 10560
valve 10551
Technologies 10544
Commission 10543
competition 10543
Arts 10541
pump 10534
Flowers 10525
du@@ 10524
micro@@ 10522
74@@ 10521
sides 10519
experienced 10518
logo 10517
eng@@ 10514
array 10511
dynamic 10510
Port 10506
inspection 10504
Outdoor 10500
Java 10496
Soviet 10494
happen 10494
LE 10489
á@@ 10488
Tor@@ 10483
recreational 10483
girls 10479
Vietnam 10478
finished 10476
TS@@ 10473
fashion 10473
Ti@@ 10471
soul 10469
Report 10467
removed 10464
bright 10463
contained 10463
stable 10460
determined 10452
AL 10448
Digital 10448
apps 10448
agent 10443
certification 10437
j 10433
ath@@ 10429
automation 10424
54 10422
approximately 10410
advantages 10406
stress 10406
proprietary 10398
gre@@ 10394
Rate 10393
Pe@@ 10390
herself 10386
spend 10385
component 10380
ata 10376
lets 10375
corner 10368
Word 10367
trademarks 10361
sons 10355
eth 10353
BE 10345
Pro 10343
controlled 10341
switch 10340
53 10333
por@@ 10332
WITH 10329
Black 10325
carbon 10307
examples 10305
comment 10298
Booking.com 10295
Go@@ 10290
Exchange 10287
ys 10285
ty@@ 10284
disclose 10280
raw 10279
smoking 10264
issued 10259
waste 10253
fight 10248
principle 10245
seating 10243
refuse 10242
wi@@ 10241
Phuket 10239
ster@@ 10239
handling 10236
schools 10236
Ben@@ 10234
k-@@ 10234
signed 10230
52 10229
Book 10222
evil 10214
Bath 10211
ize 10210
wasn 10207
rose 10205
69 10202
citizens 10197
mentioned 10193
ko 10178
Protection 10176
8-@@ 10173
panel 10171
hu@@ 10170
Vegas 10168
sitting 10167
Library 10165
risks 10162
ying 10157
59 10147
Medical 10146
categories 10146
expert 10131
ie@@ 10125
Member 10124
Access 10118
No. 10109
luggage 10109
entity 10105
Times 10102
We@@ 10083
seem 10079
ins@@ 10074
pres@@ 10073
sample 10071
Trans@@ 10070
05 10065
3-star 10065
certified 10065
County 10061
mail 10060
nation 10057
tests 10054
WordPress 10052
Financial 10049
lose 10041
co-@@ 10038
To@@ 10032
layer 10028
sur@@ 10028
Bre@@ 10027
Indian 10025
housekeeping 10025
chair 10021
WARRANTIES 10018
Energy 10016
Moses 10016
stated 10014
11@@ 10011
becoming 10005
Bridge 10003
row 10003
employment 10002
TECHNOLOGY 10001
Address 9998
ME@@ 9997
attack 9994
ber 9991
regard 9991
Dubai 9989
Hostels 9989
locality 9989
establish 9987
Luxury 9985
ky 9985
SITE 9984
brother 9983
om 9983
Fr@@ 9982
conduct 9981
bur@@ 9979
Gal@@ 9966
fr@@ 9966
Residence 9964
holding 9958
vary 9957
enc@@ 9955
Poland 9944
ple@@ 9943
elegant 9942
courses 9941
introduction 9941
hundreds 9930
techniques 9922
cast 9920
Bas@@ 9913
TH@@ 9911
historic 9909
proportion 9909
SC@@ 9904
acc@@ 9904
principles 9904
collected 9903
cash 9900
formed 9896
customized 9894
portfolio 9894
couple 9892
updates 9890
Ste@@ 9885
frequency 9884
seat 9883
sel@@ 9882
username 9882
El 9875
back@@ 9870
pieces 9870
looks 9862
procedures 9861
agreements 9858
buildings 9858
Ros@@ 9856
index 9855
48@@ 9851
Ap@@ 9851
0.3 9848
displayed 9847
concerning 9845
errors 9842
DA@@ 9840
hundred 9840
IR@@ 9838
feedback 9833
a.@@ 9823
ches 9820
returns 9818
operate 9813
Malaysia 9812
0.0 9803
Queen 9803
Valley 9799
els 9798
Bel@@ 9789
announced 9789
Trump 9787
6-@@ 9784
cycle 9770
Em@@ 9767
tur@@ 9767
sort 9761
ff 9760
ot 9757
150 9754
our@@ 9744
fuck 9742
saving 9737
ey 9731
rated 9727
managed 9726
incomplete 9725
Bu@@ 9719
Me 9717
Mac@@ 9715
Up 9713
responded 9713
html 9711
noise 9710
IL@@ 9709
At 9708
false 9708
Greek 9704
anti@@ 9704
Key 9703
Ministry 9703
Te@@ 9703
ard@@ 9696
ani 9695
Guide 9694
assembly 9690
Tra@@ 9689
village 9686
GDP 9684
bear 9680
pick 9678
LA@@ 9677
raised 9677
vehicles 9676
0.5 9674
bs 9672
fair 9668
referred 9667
brings 9665
notify 9661
Enterprise 9656
Welcome 9655
ran 9655
eng 9651
publish 9651
linked 9648
Seoul 9645
leadership 9644
solid 9644
CA@@ 9643
lie 9643
Sol@@ 9641
dinner 9637
phase 9637
teaching 9635
ug@@ 9634
pleasant 9629
ue 9626
interactive 9621
tags 9618
majority 9617
ile 9613
parameters 9610
.... 9608
African 9606
7.@@ 9605
wants 9604
Property 9597
England 9596
eg@@ 9594
No.@@ 9586
expressly 9585
DE@@ 9583
disk 9583
measuring 9583
E-@@ 9575
Jews 9574
AC 9569
vs 9566
implied 9560
HO@@ 9555
rating 9552
57 9550
keeping 9550
.gif 9549
animals 9549
occur 9547
fe@@ 9546
indoor 9546
alternative 9533
¬ 9533
character 9532
Award 9527
ca@@ 9527
urban 9521
ping 9520
ENTERPRISE 9519
Mc@@ 9518
work@@ 9517
Turkey 9516
fer@@ 9504
Pool 9500
Sub@@ 9500
visited 9493
bridge 9488
Located 9486
affected 9474
Model 9473
hire 9472
sing 9471
appeared 9467
serves 9467
afraid 9462
participate 9458
mine 9457
factory 9456
possibility 9453
sensitive 9453
nations 9449
anc@@ 9447
ther@@ 9446
Registrant 9442
09 9440
Madrid 9439
servers 9430
certificate 9428
president 9427
none 9423
removal 9418
La@@ 9417
spent 9412
liquid 9410
flights 9409
ee 9407
hath 9407
deleted 9406
Federal 9398
Rec@@ 9398
manufacturer 9390
03 9378
estate 9378
EX@@ 9370
Res@@ 9356
rapid 9352
BO@@ 9351
eri@@ 9351
ce 9348
ancient 9346
hr 9345
ment@@ 9345
instructions 9340
scope 9328
defend 9325
ita 9322
viewed 9321
partnership 9320
prepare 9318
tel@@ 9312
07 9309
university 9308
TE@@ 9307
inaccurate 9307
daughter 9306
maybe 9304
£ 9304
Ticket 9303
any@@ 9290
Cap@@ 9288
authorized 9288
resort 9287
successfully 9286
career 9279
appearance 9277
broad 9277
firm 9274
listen 9273
smile 9271
lock 9270
draw 9267
husband 9267
obligation 9266
za 9265
library 9261
Amsterdam 9260
Review 9260
relating 9258
blogger 9257
inf@@ 9257
fruit 9251
preferred 9250
Restaurants 9245
allowing 9243
effectively 9243
manual 9243
recognized 9242
fa@@ 9229
decisions 9227
LLC 9225
Light 9222
ensures 9214
ational 9210
Finland 9208
IM@@ 9208
History 9200
speaking 9193
As@@ 9186
feed 9183
fin@@ 9183
intelligent 9183
ja 9180
onto 9180
Sales 9178
stopped 9178
Academy 9177
birth 9176
ends 9176
Then 9174
Golden 9172
initial 9172
tube 9170
leaving 9165
moreover 9163
Golf 9160
mountain 9159
cock 9157
lounge 9157
tropical 9156
1000 9149
99@@ 9146
an-@@ 9146
fy 9146
Mel@@ 9143
pretty 9141
mer 9139
vo@@ 9138
zone 9131
10-@@ 9129
Ser@@ 9127
harmless 9126
LO@@ 9121
und@@ 9117
Converter 9110
MA 9110
Pa@@ 9109
import 9107
closet 9106
bag 9104
sion 9100
thermal 9100
ash@@ 9097
A-@@ 9096
Discover 9096
Tools 9090
iting 9086
confidence 9084
Rue 9082
gar@@ 9082
Main 9081
grounds 9080
pulled 9080
concerned 9074
pleasure 9074
air@@ 9067
savings 9067
introduced 9064
Man 9061
sch@@ 9061
goals 9056
machinery 9056
bars 9051
Redirecting 9050
sm@@ 9046
newer 9042
BE@@ 9033
police 9028
BY 9026
versions 9021
chief 9018
medium 9014
ically 9013
Act 9007
Number 9003
spoke 9001
zh@@ 8999
Resources 8996
sauna 8996
Sur@@ 8994
ac 8994
ODM 8992
ances 8992
III 8990
arm 8989
specifically 8989
YOUR 8985
negative 8981
earlier 8979
C-@@ 8978
greatest 8977
ched 8976
theme 8975
fil@@ 8974
Str@@ 8970
33@@ 8964
CD@@ 8963
well-@@ 8963
att@@ 8961
CE@@ 8958
winter 8958
800 8956
played 8956
Ltd. 8951
Petersburg 8950
detection 8948
ders 8938
88 8935
housing 8935
AG@@ 8934
cu@@ 8934
sight 8934
ads 8933
approval 8931
06 8929
drop 8926
low-@@ 8925
consumers 8924
2002 8923
reducing 8921
gen@@ 8920
owners 8920
66 8918
Advertisement 8911
Radio 8911
improvement 8908
element 8906
refer 8905
Sk@@ 8903
INDUSTRIAL 8898
San@@ 8894
commitment 8893
windows 8892
jurisdiction 8891
Kitchen 8889
glory 8887
virus 8886
Colombia 8884
decide 8883
ls 8883
investors 8882
dream 8880
600 8873
eight 8867
typical 8866
cal@@ 8863
competitive 8862
ir 8862
Shopping 8858
ire 8855
sins 8855
ast 8854
Box 8852
matters 8851
ick@@ 8849
straight 8848
Pan@@ 8846
Portugal 8845
fied 8836
proper 8836
backup 8835
img 8832
WebResource.axd 8829
travelling 8829
ama 8825
ride 8824
amazing 8823
ind@@ 8822
opinion 8819
Channels 8816
rack 8816
68 8815
tw@@ 8810
north 8803
EUR 8801
sofa 8801
river 8800
Towels 8795
ani@@ 8795
desired 8793
Foundation 8787
finance 8781
CP@@ 8779
Collection 8778
bro@@ 8778
Netherlands 8775
wa@@ 8768
Ocean 8762
Gen@@ 8761
assist 8761
discount 8760
tors 8759
IMPLIED 8752
Program 8752
helping 8752
real-time 8751
ironing 8747
tel 8747
hand@@ 8739
0.4 8738
MS 8738
holder 8736
sec@@ 8733
SI@@ 8731
Click 8729
tasks 8729
aspects 8725
ahead 8713
increasingly 8713
displays 8708
alized 8704
Read 8702
⁄ 8702
API 8697
vast 8690
smaller 8689
diamond 8680
Technical 8673
behalf 8673
warranty 8668
TE 8666
Featured 8658
ol 8657
My@@ 8655
Temple 8655
che@@ 8650
meetings 8650
affordable 8645
non@@ 8644
ny 8644
desktop 8642
fiber 8642
Refrigerator 8640
Sweden 8639
my@@ 8637
ji@@ 8636
accessories 8635
clothes 8634
Mil@@ 8626
Javascript 8622
factor 8620
BR@@ 8619
hosts 8615
launched 8611
exhibition 8605
T-@@ 8604
automotive 8603
ut 8602
improving 8600
pen@@ 8596
ick 8595
Sa@@ 8592
pa@@ 8590
Char@@ 8589
Ukraine 8589
Tourism 8583
besides 8583
taxi 8579
Language 8574
requests 8574
layout 8568
LT@@ 8565
hy@@ 8565
sit 8565
welding 8559
Iran 8558
Children 8547
instance 8539
ALL 8538
ments 8538
owned 8534
marks 8531
equal 8527
xi@@ 8525
AT 8523
hal@@ 8522
clock 8521
Mat@@ 8520
Sofa 8520
min 8520
Linen 8517
secret 8513
ement 8512
Xi 8508
ore@@ 8507
8.@@ 8506
taiwantrade.com 8502
female 8500
Village 8498
Play 8496
subsidiaries 8495
000 8494
James 8490
conversion 8486
offices 8482
indemnify 8481
lips 8481
Kar@@ 8480
Lodge 8479
Can@@ 8478
brands 8478
TION 8477
of@@ 8476
Tickets 8471
implement 8468
9.@@ 8467
Castle 8467
2019 8464
Cape 8462
reported 8460
Du@@ 8457
ute 8456
reform 8454
Ho 8453
Pre@@ 8453
demands 8453
instrument 8451
illegal 8450
south 8448
KB 8446
mi 8446
Ter@@ 8445
professionals 8443
unable 8442
Master 8441
kingdom 8440
older 8439
Fairchild 8438
FROM 8433
PO@@ 8430
Coast 8429
LIMITED 8428
cookie 8424
race 8424
submitted 8423
maintaining 8422
expansion 8420
45@@ 8416
INCLUDING 8414
Plus 8412
hit 8410
seeing 8408
IB@@ 8404
sheet 8403
Cha@@ 8399
Class 8399
abroad 8397
DR@@ 8395
ess 8394
biggest 8393
reception 8391
one-@@ 8390
slowly 8387
extended 8386
classes 8383
2001 8382
realize 8382
Taiwantrade 8380
manager 8380
Cam@@ 8375
61 8374
aim 8373
election 8372
automated 8371
fac@@ 8369
Hol@@ 8368
bodies 8366
B-@@ 8363
comm@@ 8359
remaining 8358
sa 8358
SQL 8357
decline 8356
Swiss 8354
Chicago 8352
SU@@ 8350
launch 8349
Austria 8348
lived 8346
mal@@ 8345
adding 8343
ori@@ 8343
maker 8337
paying 8329
Country 8328
mining 8328
Super 8326
Foreign 8322
payments 8320
wire 8315
collaboration 8314
PRO@@ 8312
approved 8312
trees 8310
enjoyed 8307
app@@ 8306
ear@@ 8303
ink 8303
Back 8299
Tea 8299
Twitter 8293
helped 8292
ich@@ 8292
Cams 8291
controls 8290
properly 8290
Love 8287
4-star 8285
aged 8281
Devices 8279
bathrooms 8278
ned 8275
bas@@ 8273
Get 8272
doors 8271
ry@@ 8271
PC@@ 8269
contemporary 8267
ching 8263
62 8254
follows 8254
Sha@@ 8251
Sites 8247
Shi@@ 8240
desire 8240
RA@@ 8236
controller 8235
chosen 8227
88@@ 8223
meat 8222
NY 8221
connections 8220
discuss 8219
ser@@ 8218
Ren@@ 8217
vacuum 8217
club 8214
File 8213
killed 8211
redirected 8208
Hairdryer 8206
achieved 8206
environments 8206
facing 8206
int 8206
supporting 8205
kill 8202
compact 8199
classic 8195
86@@ 8192
creative 8191
Hill 8189
patient 8189
Casa 8187
Sports 8183
foundation 8176
focused 8174
suspend 8174
AV@@ 8172
63 8171
04 8164
expression 8158
personally 8151
generated 8150
solely 8149
Miami 8147
izing 8146
dear 8145
amp@@ 8140
TM@@ 8139
SERVICES 8136
Rooms 8135
Details 8132
86 8131
compatible 8131
proof 8129
divided 8126
height 8125
marriage 8121
untrue 8120
attacks 8118
Dublin 8116
instruments 8116
transmitted 8114
Administration 8113
Mary 8113
meter 8110
Sy@@ 8109
representatives 8109
significantly 8109
driven 8108
85 8106
bo 8106
Por@@ 8104
wealth 8103
taste 8093
ung@@ 8093
positions 8091
warrant 8087
aries 8082
bre@@ 8082
functional 8082
land@@ 8082
ek 8080
ended 8080
Wall 8074
plate 8074
campaign 8073
Electronic 8065
Rd 8064
Is@@ 8063
ensuring 8062
stations 8061
seeking 8060
CAD 8055
Ha@@ 8055
Ji@@ 8054
context 8053
Venice 8052
holy 8050
Chi 8043
io 8042
solve 8042
suddenly 8034
Iron 8032
belief 8031
consistent 8029
Assembly 8028
Railway 8028
en-@@ 8028
pm 8024
powder 8022
sir 8020
charges 8012
fan 8011
centers 8010
ely 8007
Tour 7999
Rio 7998
province 7998
Ni@@ 7997
form@@ 7997
IF@@ 7996
clothing 7996
EM@@ 7993
PR@@ 7993
dress 7992
doctor 7989
shuttle 7984
ena 7983
sy@@ 7981
obligations 7977
visual 7976
Go 7975
senior 7969
turning 7968
ham 7967
fitted 7964
Recovery 7962
fo@@ 7962
Maps 7961
Op@@ 7960
berg 7960
outstanding 7959
fication 7954
hereby 7954
symptoms 7953
77@@ 7952
tungsten 7951
Indonesia 7949
translate 7949
increases 7946
continues 7945
AM 7944
brain 7942
label 7942
upload 7942
modules 7938
decades 7935
platforms 7935
Allah 7931
incurred 7931
ura 7929
reduction 7928
teams 7928
ft 7927
× 7927
pure 7926
Marriott 7923
busy 7923
forced 7922
covers 7919
vacation 7917
Thai 7915
yp@@ 7914
ef@@ 7911
tested 7908
disciples 7907
cooling 7905
joined 7903
ure@@ 7901
Photo 7896
grants 7894
laid 7894
MySQL 7891
Date 7888
expand 7888
performed 7887
venue 7887
bal@@ 7882
ination 7882
jo@@ 7882
Prime 7875
Index 7874
¡ 7873
fix 7870
functionality 7870
emerging 7863
optical 7862
constant 7856
transactions 7854
grace 7851
ker@@ 7846
An 7845
acy 7844
agency 7842
MB 7835
losses 7835
visits 7829
Ke@@ 7824
7-@@ 7821
animal 7821
anger 7819
Met@@ 7811
signs 7809
sport 7809
minibar 7808
participants 7808
Fin@@ 7804
silver 7803
1.5 7802
Romania 7799
1st 7798
forget 7798
Fre@@ 7789
ce@@ 7787
movie 7787
pan@@ 7787
Micro@@ 7786
static 7786
67 7782
circuit 7777
Del@@ 7774
FREE 7770
Sun 7765
cool 7765
boat 7758
Heating 7755
Edinburgh 7753
smiled 7753
Phone 7752
asset 7752
-to-@@ 7751
florist 7750
adapt 7748
ji 7745
recognize 7745
inch 7743
mil@@ 7739
GB 7738
exit 7738
enabled 7735
hole 7734
herein 7732
ships 7731
imp@@ 7730
96 7727
Training 7724
knows 7720
leads 7720
to-@@ 7713
enti@@ 7711
ular 7708
consists 7704
teacher 7704
Hel@@ 7703
charged 7703
ently 7701
score 7701
dating 7699
George 7698
ey@@ 7697
establishment 7687
subsequent 7687
Registration 7684
forest 7684
Flower 7680
vis@@ 7679
dia 7677
ish@@ 7674
ving 7668
premium 7658
identity 7656
Gar@@ 7654
plenty 7654
ScriptResource.axd 7649
detail 7648
capable 7645
Canadian 7644
dryer 7643
hom@@ 7643
dispute 7636
250 7634
spending 7633
favorites 7632
broken 7630
framework 7629
Facilities 7627
facility 7624
specifications 7622
quarter 7621
alization 7617
explain 7615
Platform 7609
ei@@ 7608
A. 7606
derivative 7606
ming 7602
Society 7601
millions 7595
Dr 7593
Philippines 7593
hall 7592
yl@@ 7590
Architecture 7588
believed 7587
applies 7584
empty 7580
sil@@ 7579
facts 7571
inner 7570
apart 7568
Source 7567
Fresh 7563
Local 7563
aff@@ 7562
ological 7562
Bra@@ 7561
Al 7554
trends 7549
upgrade 7549
preparation 7548
indicate 7546
temple 7538
At@@ 7536
washing 7536
sol@@ 7533
rock 7532
membership 7530
Wil@@ 7527
manufacture 7527
transaction 7527
Link 7525
ending 7525
raise 7525
willing 7522
depends 7521
dollar 7521
sin@@ 7514
Ko@@ 7512
ain@@ 7512
column 7511
Change 7507
ities 7500
documentation 7498
Seating 7496
purchased 7496
respective 7496
root 7495
10-minute 7490
pattern 7489
Festival 7486
learned 7484
escape 7483
fourth 7483
guidelines 7480
bul@@ 7479
ere 7474
ili@@ 7472
economies 7469
sen@@ 7468
Fer@@ 7467
relationships 7467
phones 7465
bread 7463
inc@@ 7463
rou@@ 7462
grade 7461
regardless 7460
top@@ 7460
ours 7454
programming 7453
characters 7451
stayed 7447
meant 7443
electronics 7441
parent 7441
electricity 7440
drives 7439
THAT 7437
constantly 7437
treated 7436
Care 7434
posts 7434
120 7431
understood 7429
impossible 7426
Han@@ 7425
violence 7421
Browse 7420
emissions 7419
Fe@@ 7418
men@@ 7417
profit 7416
coating 7415
tech 7415
Cr@@ 7412
Latin 7410
seasonal 7409
uni@@ 7404
hot@@ 7403
scene 7402
self 7400
Sunday 7399
Pri@@ 7398
INDUSTRY 7397
Metro 7391
happens 7391
battle 7389
· 7389
legs 7387
personnel 7387
Florida 7386
till 7386
22@@ 7378
Av@@ 7378
TC1303B-@@ 7377
clicking 7372
Test 7364
golf 7364
Team 7362
east 7362
ped 7359
processor 7357
Cur@@ 7356
bearing 7353
procedure 7353
ths 7353
integrity 7352
conducted 7350
Hello 7348
Behance 7347
cli@@ 7346
weapons 7345
award 7341
receiving 7338
reproduce 7336
Good 7335
tim@@ 7335
sizes 7334
doubt 7331
miss 7324
finding 7321
GmbH 7320
char@@ 7320
band 7318
mental 7318
1.2 7316
Ru@@ 7316
pr@@ 7315
topic 7315
pray 7314
relatively 7313
encourage 7311
visible 7308
Lisbon 7307
head@@ 7300
Athens 7299
movies 7298
failed 7296
trend 7296
Paper 7294
le-@@ 7290
army 7289
Save 7287
The@@ 7287
motion 7287
Cultural 7285
milk 7285
Long 7283
adopted 7282
folder 7281
98 7276
Sar@@ 7275
bel@@ 7275
super@@ 7274
universal 7273
communities 7272
Meeting 7271
technological 7267
wedding 7264
walls 7261
Ca@@ 7258
TMt 7256
valuable 7256
emergency 7255
Belgium 7253
Graphic 7253
director 7253
fundamental 7252
Help 7251
Sun@@ 7249
representative 7248
Flat-screen 7246
Importer 7246
DO@@ 7244
Sil@@ 7234
supplies 7234
1.1 7233
Bon@@ 7233
selling 7231
Mountain 7227
aci@@ 7227
showed 7226
acceptance 7225
fat 7225
remained 7225
¦ 7220
Wal@@ 7219
47@@ 7218
ell 7217
slow 7216
There 7215
Optoway 7211
NO@@ 7210
zz@@ 7208
Greater 7207
drug 7207
origin 7206
CL@@ 7204
PL@@ 7198
Phoenix 7196
non 7195
val@@ 7191
57@@ 7190
fying 7189
interior 7188
Point 7186
Description 7185
offerings 7185
Geneva 7184
priority 7181
concerns 7180
accessing 7179
stores 7178
cam@@ 7177
DATING 7176
acid 7176
refrigerator 7174
Inc. 7173
ax@@ 7170
regulatory 7169
PS 7165
prayer 7161
5-minute 7158
VMware 7156
Analysis 7155
Press 7153
ga 7151
ots 7151
tons 7150
west 7150
Cable 7149
INFORMATION 7149
participation 7149
keys 7148
Comp@@ 7147
THIS 7147
cul@@ 7143
married 7142
sive 7139
ü@@ 7136
SS 7135
Experience 7134
museum 7129
é 7129
ado 7127
strengthen 7127
Hot 7124
gra@@ 7121
reserved 7118
ET 7117
Ah 7116
governed 7114
ko@@ 7114
relation 7112
After 7111
Chi@@ 7111
agencies 7107
organized 7107
publication 7106
typically 7106
records 7105
ingly 7103
Ta@@ 7100
rubber 7099
watching 7098
Des@@ 7097
Minh 7092
ables 7091
recognition 7091
ron 7090
fantastic 7089
ll@@ 7089
Star@@ 7088
speech 7087
Space 7084
ous@@ 7083
Hostelworld.com 7081
discussions 7081
ri 7080
profits 7078
Air@@ 7077
Cross 7077
licensors 7076
web@@ 7071
pol@@ 7067
mel@@ 7065
serving 7065
1999 7063
CE 7062
Vol@@ 7061
topics 7059
cer@@ 7058
Capital 7054
C. 7053
aging 7053
extension 7049
operated 7049
ture 7048
constitute 7047
Don@@ 7046
Warsaw 7045
Bedroom 7043
disclosure 7042
radio 7035
ST 7034
Near 7032
ROC 7032
proven 7032
Category 7031
PM 7030
cap@@ 7023
23@@ 7020
flesh 7017
log@@ 7016
ola 7016
DAMAGES 7014
chi@@ 7012
dog 7011
ok@@ 7011
ven@@ 7011
Investment 7009
Sri 7009
joy 7009
rain 7008
limits 7006
male 7004
promotion 7004
Section 7003
Set 7002
universities 7002
Comments 7001
ari 7000
.net 6999
stands 6995
distributed 6991
contribute 6990
2,@@ 6989
Pakistan 6988
addresses 6986
ici@@ 6986
ä@@ 6986
supplier 6980
ella 6979
passengers 6979
communicate 6977
Hungary 6976
Porto 6975
smooth 6975
Mr 6974
Guests 6973
packages 6973
deemed 6971
Tel 6970
retail 6970
NO 6968
Christians 6966
okay 6964
secondary 6963
lis@@ 6962
visa 6961
SERVICE 6953
Upper 6953
ney 6949
realized 6949
mountains 6947
She@@ 6946
suit 6945
Sho@@ 6943
ti 6940
CR@@ 6939
Tro@@ 6939
expensive 6939
Results 6937
DS 6936
Cre@@ 6934
optional 6932
Tim@@ 6931
definition 6931
{ 6929
ro 6925
rising 6924
transmit 6924
all-@@ 6921
ush@@ 6920
q 6919
count 6918
logistics 6916
pe 6915
border 6908
che 6906
oral 6906
anda 6905
personalize 6905
Share 6904
tub 6904
500@@ 6902
choices 6901
closer 6899
colors 6899
hydraulic 6899
furnished 6898
leather 6898
New@@ 6897
extreme 6897
med 6897
song 6897
structures 6897
ene 6894
duty 6893
ger 6893
ken 6889
Australian 6888
Pen@@ 6887
bottle 6887
ka@@ 6887
taxes 6885
universe 6882
ably 6879
perfectly 6879
priest 6879
Mall 6878
D-@@ 6877
thoughts 6875
intelligence 6873
win@@ 6872
Professional 6870
ourselves 6870
ust 6870
Deluxe 6869
I-@@ 6869
Superb 6869
Michael 6868
Euro@@ 6867
lit@@ 6867
UC@@ 6865
72 6864
Lin@@ 6858
smartphone 6857
Roman 6855
containing 6854
ca 6845
sed 6845
transferred 6845
represents 6844
Wardrobe 6843
Ger@@ 6840
gg@@ 6839
anal 6838
replace 6838
cat 6836
ala 6832
pipe 6830
convert 6829
SD@@ 6822
Hor@@ 6821
Tur@@ 6820
ined 6820
hell 6819
Net@@ 6818
Joseph 6815
Zone 6813
variable 6813
Gl@@ 6812
departure 6812
Yahweh 6811
ges 6810
bookings 6808
expenses 6807
shot 6806
Which 6804
opposite 6803
AR 6801
lights 6800
pixels 6800
Kal@@ 6799
computers 6794
directory 6793
ski 6793
greatly 6790
hospital 6789
servant 6788
atory 6785
entirely 6785
CEO 6784
SA 6784
SE 6782
notes 6782
SEO 6781
alism 6781
Nan@@ 6780
drawing 6779
by@@ 6777
08@@ 6776
2.5 6776
finish 6776
arts 6775
operational 6775
sweet 6774
existence 6773
liver 6772
calling 6769
ace 6766
78@@ 6760
ner@@ 6759
decorated 6754
medicine 6752
Wi@@ 6751
eventually 6746
elevator 6744
capture 6743
ban@@ 6741
destroy 6741
presentation 6740
overseas 6739
Yu@@ 6735
Oil 6733
generator 6733
Two 6724
Li 6722
haven 6722
hol@@ 6722
Heritage 6721
powers 6721
Mu@@ 6720
Nor@@ 6719
Skype 6719
ese 6719
Gre@@ 6718
Costa 6712
na@@ 6711
noticed 6710
strategies 6709
oven 6707
officials 6705
regularly 6704
itation 6699
arbitration 6698
arrive 6697
ew@@ 6694
Twin 6693
angle 6691
publicly 6689
play@@ 6688
stories 6686
Portuguese 6685
bedrooms 6683
ml 6682
starts 6682
awarded 6680
academic 6678
Hand@@ 6677
Credit 6676
Da@@ 6674
lands 6671
relative 6671
youth 6662
Motel 6661
tro@@ 6661
push 6656
So 6650
differences 6650
lunch 6649
firms 6648
worry 6648
10.@@ 6646
Ed@@ 6644
criminal 6643
discounted 6642
heads 6642
Cyprus 6639
Region 6632
exceptional 6632
contacts 6631
ech@@ 6629
Smart 6628
tical 6627
Empire 6626
restore 6626
lam@@ 6623
Amazon 6621
Communist 6621
Thank 6618
engineers 6617
organic 6616
Je@@ 6615
mathematics 6615
drinks 6609
kers 6607
9-@@ 6606
Tours 6605
rare 6604
identification 6599
i-@@ 6597
CS@@ 6596
roll 6596
new@@ 6594
rapidly 6591
teach 6590
Chairman 6589
Post 6588
chart 6587
suites 6587
Puerto 6585
ades 6583
paragraph 6583
sending 6582
high-quality 6580
sting 6579
aj@@ 6577
ising 6569
yer 6566
lists 6564
promoting 6562
ratio 6562
i.e. 6559
discussion 6552
maps 6552
tional 6552
ros@@ 6551
terminal 6551
Munich 6550
precise 6550
tracking 6550
Professor 6548
inv@@ 6547
two-@@ 6547
ira 6545
shares 6541
fiscal 6540
Microwave 6539
West@@ 6538
managing 6535
replied 6529
tem@@ 6527
Jobs 6523
venture 6523
sun@@ 6522
crossing 6521
Do@@ 6516
reporting 6516
ame 6513
corresponding 6513
density 6513
Watch 6512
js 6512
closely 6509
ink@@ 6509
aya 6508
proposed 6508
branch 6507
concern 6507
Photos 6506
du 6504
slightly 6502
applicant 6501
Questions 6496
missing 6496
salvation 6494
hor@@ 6493
OK 6492
judgment 6490
Next 6484
Monday 6483
TL@@ 6481
expired 6480
thin 6480
Judah 6479
OP@@ 6478
Anti@@ 6476
EL 6473
92 6472
uk@@ 6472
Victoria 6469
cat@@ 6467
es-@@ 6465
yellow 6465
trouble 6464
mini 6462
mechanism 6461
specialist 6461
treat 6460
Manual 6458
tre@@ 6454
Thomas 6452
Rose 6450
ora 6449
diseases 6447
Hangzhou 6445
expressed 6445
pair 6442
Mount 6440
dust 6440
pumps 6440
zhou 6439
ging 6436
97 6434
Forex 6433
drivers 6433
Analog 6432
li 6430
Most 6429
territory 6428
ole 6426
contrast 6425
met@@ 6423
ordinary 6423
Syria 6422
ams 6422
93 6419
football 6419
trial 6418
reply 6417
add@@ 6416
high-speed 6416
letters 6416
mit@@ 6416
1998 6413
down@@ 6413
Hi@@ 6411
developers 6410
surrounding 6406
TC@@ 6404
Emirates 6402
Template 6401
PH@@ 6400
injury 6400
Kelowna 6394
gifts 6394
van 6394
hel@@ 6393
Pat@@ 6392
listing 6390
ishing 6387
AG 6386
ved 6386
Mad@@ 6385
runs 6385
yc@@ 6383
Desk 6382
ali 6378
kg 6378
statements 6378
recover 6376
taught 6376
wooden 6373
ble@@ 6372
que@@ 6369
holds 6364
corruption 6363
X-@@ 6360
bouquets 6359
Bri@@ 6357
China-@@ 6353
guaranteed 6353
pat@@ 6353
Passenger 6348
Mark 6347
Secretary 6347
alloy 6347
printed 6347
Wang 6344
cas@@ 6344
modified 6344
proud 6344
77 6342
Ra@@ 6342
templates 6342
trains 6342
Downtown 6341
attractive 6340
dishes 6340
buttons 6338
bol@@ 6336
Can 6335
aircraft 6335
ly@@ 6334
transformation 6332
discovered 6329
Mas@@ 6328
hum@@ 6328
Order 6327
aspx 6327
Modern 6326
coast 6324
luxurious 6324
rel@@ 6323
ium 6321
vel@@ 6321
Ci@@ 6320
concrete 6315
revenue 6313
da@@ 6309
hi 6309
household 6307
Win@@ 6305
bringing 6305
Friday 6303
adults 6303
fishing 6301
Jordan 6299
favourite 6299
IV 6297
politics 6295
native 6291
Tags 6290
Login 6286
upper 6285
attended 6278
Gra@@ 6277
Advanced 6275
modification 6273
defense 6272
Pres@@ 6271
lin 6271
hurt 6268
investments 6265
reverse 6261
weak 6261
ues 6260
Democratic 6257
sions 6255
mutual 6253
94 6252
Production 6252
IG@@ 6250
Sim@@ 6246
ington 6246
temporarily 6246
ect 6244
wet 6243
ao@@ 6242
threat 6234
disabled 6232
suffering 6232
identified 6228
pos@@ 6228
Archives 6226
Fund 6226
Working 6226
breath 6226
neck 6225
Es@@ 6223
ordered 6223
noted 6222
fail 6221
hydro@@ 6217
acting 6216
beaches 6215
Listings 6214
sufficient 6213
cher 6211
Manufacturing 6210
Vis@@ 6210
pri@@ 6210
si 6210
specify 6210
sectors 6209
diameter 6208
humanity 6208
powered 6208
Steel 6206
wisdom 6206
survey 6204
Debt 6202
wave 6201
adjust 6199
agricultural 6199
residents 6199
15-minute 6195
competent 6195
temperatures 6194
zed 6194
Women 6193
off@@ 6193
caught 6192
Dialogue 6191
Mir@@ 6190
linear 6190
aluminum 6189
commonly 6188
sightseeing 6187
enabling 6186
rely 6185
sugar 6183
familiar 6182
get@@ 6181
Manchester 6178
educational 6178
bon@@ 6177
mor@@ 6177
vers 6176
oned 6174
55@@ 6173
Culture 6173
spoken 6173
les@@ 6170
LM@@ 6169
Frankfurt 6168
91 6166
lim@@ 6165
exciting 6164
shift 6158
evaluation 6157
Style 6156
landscape 6154
structural 6153
71 6152
Sand@@ 6152
ished 6147
ownership 6147
creates 6146
lovely 6146
formats 6145
wheel 6145
ach 6141
ba@@ 6141
Sc@@ 6138
western 6137
departments 6136
ened 6133
ain 6132
calendar 6130
engaged 6130
flash 6129
streets 6129
loc@@ 6127
ose 6125
Make 6124
ton@@ 6123
bor@@ 6122
optimize 6117
xxx 6117
define 6116
bit@@ 6113
ultimate 6112
Mari@@ 6110
wouldn 6108
species 6106
valves 6106
Ki@@ 6105
Open@@ 6103
Ben 6102
mix 6101
dangerous 6098
ham@@ 6098
ow 6097
Denmark 6095
nights 6095
entering 6092
Commercial 6091
Nature 6087
ack@@ 6087
verse 6087
Tom@@ 6086
Sem@@ 6085
explained 6085
xvideos 6085
Guadeloupe 6082
ARE 6080
philosophy 6080
lobby 6077
ust@@ 6077
Agent 6076
storm 6076
plot 6075
simulation 6075
contractors 6074
ok 6074
stream 6074
dance 6071
stra@@ 6070
Charles 6068
absolutely 6067
Marina 6065
ays 6063
combine 6063
L-@@ 6062
kes 6062
salt 6062
Brussels 6061
Knowledge 6056
blocks 6056
lots 6056
long@@ 6055
cried 6051
0.6 6050
DO 6048
Rom@@ 6048
conventional 6047
implemented 6045
ward 6045
invalid 6044
filters 6043
sli@@ 6041
painting 6040
tab 6040
Saint-@@ 6039
67@@ 6038
ger@@ 6037
cons@@ 6031
tal@@ 6030
GE 6026
behold 6026
strict 6026
connecting 6021
iss@@ 6020
surrounded 6020
compensation 6017
net@@ 6017
Logistics 6016
suspect 6013
ris@@ 6012
revolution 6011
Applications 6005
AU@@ 6001
CRM 5996
poly@@ 5996
Commerce 5994
occasion 5989
ran@@ 5987
situations 5987
waters 5984
Ju@@ 5978
GA 5976
Full 5975
Sta@@ 5974
kings 5973
coach 5972
pal@@ 5972
guidance 5971
Delivery 5967
eternal 5965
aquarium 5964
Materials 5963
severe 5963
una 5961
Loc@@ 5960
governance 5960
acquisition 5958
Where 5957
nine 5957
Uni@@ 5954
age@@ 5954
forever 5954
analytics 5952
attend 5951
reflect 5950
ease 5944
Jin@@ 5943
VR 5942
requirement 5942
License 5941
audience 5941
conversation 5941
coverage 5940
prohibited 5939
Arrival 5938
Entertainment 5936
ox@@ 5935
Premier 5934
squ@@ 5934
confirmed 5932
planet 5932
ferryto.net 5931
frequently 5931
declared 5930
relaxing 5929
PA 5927
arm@@ 5927
forming 5926
sounds 5924
lake 5923
IL 5921
sters 5921
cancel 5920
optimal 5920
teachers 5913
Theatre 5912
formation 5911
violate 5908
AI 5906
Fol@@ 5906
pleased 5906
pul@@ 5906
Writing 5905
Unit 5904
def@@ 5902
yeah 5902
satisfaction 5901
Bro@@ 5899
plasma 5899
romantic 5899
Head 5897
med@@ 5896
wild 5896
boards 5894
Ended 5893
union 5893
Out 5892
copper 5890
icons 5890
ico 5889
Copyright 5885
associates 5884
ben@@ 5884
Prince 5883
reputation 5882
equivalent 5881
examination 5880
Why 5877
ners 5876
Orlando 5875
ail@@ 5874
hon@@ 5874
Description@@ 5872
Argentina 5869
98@@ 5868
stylish 5867
radi@@ 5866
Departure 5865
immediate 5864
knowing 5863
programme 5863
sand 5863
servants 5863
engage 5862
planned 5862
arr@@ 5861
buying 5860
designated 5859
putting 5859
cup 5857
arrived 5856
dom 5855
enforce 5855
boxes 5850
shoes 5850
rail 5849
Cathedral 5848
temporary 5848
entitled 5847
ero 5847
Bali 5846
Lanka 5845
Nice 5845
post-@@ 5845
injection 5842
cho@@ 5841
expectations 5841
ato 5840
employee 5840
portable 5839
Atlantic 5838
axis 5834
Peace 5833
preferences 5832
victory 5830
Kitchenware 5828
believes 5828
12-@@ 5826
Material 5825
5-star 5824
Maria 5824
elected 5824
consequences 5822
2.0 5816
specialized 5816
81 5814
te-@@ 5814
PD@@ 5811
oning 5810
.css 5808
ath 5808
ware 5808
zero 5808
show@@ 5807
sen 5806
Radisson 5805
processed 5805
producing 5805
unfortunately 5804
Developer 5803
shan 5803
Dong@@ 5802
Cup 5800
appreciate 5800
filed 5799
ils 5796
Ã@@ 5796
book@@ 5795
accounting 5793
ide@@ 5793
disputes 5792
Telephone 5791
awareness 5789
ette 5787
Ban@@ 5786
Ir@@ 5786
64@@ 5785
art@@ 5785
restrictions 5783
exports 5782
Popular 5781
FOR@@ 5778
courts 5778
dev@@ 5778
tra@@ 5775
dem@@ 5772
clips 5770
Antonio 5768
ym@@ 5766
Brand 5765
banking 5765
fun@@ 5765
gro@@ 5765
Martin 5763
Train 5762
onic 5761
76 5760
one@@ 5757
1997 5755
recorded 5755
ures 5754
Generator 5752
sy 5752
armed 5751
PS@@ 5750
Ram@@ 5748
97@@ 5747
cy@@ 5747
s. 5747
fabulous 5746
Learning 5745
robust 5743
grew 5742
ids 5742
estimated 5739
suspension 5739
89 5738
protecting 5738
tradition 5738
mag@@ 5735
Dor@@ 5734
HP 5733
Parts 5732
imagine 5732
skip 5732
themes 5732
destroyed 5731
warning 5730
Kids 5727
Reg@@ 5724
Color 5723
diverse 5720
fighting 5719
es.aspx 5718
designer 5716
birds 5715
posting 5714
tile 5714
southern 5711
istic 5710
tent 5710
tap 5709
trac@@ 5708
y.@@ 5708
occurred 5706
Computer 5705
dollars 5704
tank 5704
Who 5702
eating 5702
guess 5699
equ@@ 5698
Tam@@ 5697
ze@@ 5696
alarm 5693
aut@@ 5692
PA@@ 5690
indicates 5687
visitor 5687
prove 5686
Super@@ 5685
ised 5684
notification 5684
extend 5683
Wine 5680
fore@@ 5679
Abraham 5677
Porn 5676
angel 5676
Vice 5675
infection 5675
INTERNATIONAL 5673
Communication 5669
ATION 5665
ome@@ 5665
port@@ 5665
gener@@ 5663
sexual 5663
Den@@ 5662
absolute 5660
objective 5658
Edit 5657
don@@ 5657
Olympic 5655
GO@@ 5654
delivers 5653
maintained 5653
12.@@ 5652
Bor@@ 5652
FA@@ 5652
Istanbul 5652
leaves 5650
railway 5648
Log@@ 5647
G-@@ 5646
massive 5644
buffet 5643
college 5642
Rock 5640
confirm 5637
post@@ 5637
TOS 5636
enhanced 5635
iPod 5634
diet 5632
Kh@@ 5631
bought 5628
Level 5624
actively 5624
em 5624
Bus 5622
ideally 5622
Stadium 5618
sem@@ 5617
filling 5615
mirror 5614
lu@@ 5613
unwind 5613
Ham@@ 5611
bra@@ 5608
MB@@ 5607
regulation 5606
vertical 5605
110 5604
gardens 5604
2nd 5603
spare 5603
LA 5602
Shop 5602
bearings 5601
colour 5601
Auto 5599
amp 5599
ony 5599
ory 5598
residence 5598
therapy 5598
Storage 5597
justice 5595
000@@ 5594
68@@ 5593
Pu@@ 5593
marble 5591
originally 5589
mostly 5588
resolve 5587
Britain 5586
optimization 5586
embedded 5584
Outlook 5579
SAP 5577
poverty 5574
Jun 5573
Saturday 5573
Out@@ 5569
74 5567
worse 5567
Password 5565
wise 5565
saith 5563
On@@ 5561
ö@@ 5560
furthermore 5558
whenever 5558
democracy 5557
.org 5556
hearts 5556
lying 5554
Insurance 5553
duc@@ 5553
marked 5548
bing 5545
.js 5544
executive 5541
.COM 5540
Ob@@ 5539
120@@ 5535
uan 5535
measurements 5533
plays 5532
studio 5530
illa 5529
ase 5528
satisfied 5528
attached 5527
Construction 5526
Jewish 5526
79 5525
ni 5525
ini@@ 5524
guy 5523
measured 5523
assessment 5519
careful 5518
contribution 5517
covering 5517
entr@@ 5516
gradually 5516
farm 5515
sti@@ 5515
Panel 5513
Saudi 5513
islands 5512
Plan 5509
yed 5508
bet 5507
Zurich 5506
computing 5506
fathers 5506
monthly 5506
earn 5505
plane 5505
ws 5505
gospel 5504
Army 5503
capability 5503
script 5501
shut 5501
Zhejiang 5499
jiang 5499
delay 5498
zi@@ 5498
receipt 5497
.The 5496
performing 5495
Sciences 5494
zing 5492
IBM 5491
mos@@ 5489
ov 5489
pricing 5488
Samsung 5487
br 5487
Performance 5486
execution 5486
Finance 5483
TERMS 5483
definitely 5482
Work 5481
sn@@ 5481
1995 5480
73 5480
she@@ 5480
downloads 5479
ster 5479
sexy 5478
tip 5478
Stock 5475
3rd 5474
pointed 5473
belt 5472
networking 5470
strange 5466
occurs 5465
acted 5464
reduces 5464
cent 5463
stri@@ 5461
scientists 5459
Corporate 5458
Hanzi 5458
Way 5458
OTHER 5456
perspective 5455
star@@ 5454
Single 5451
Awards 5450
camp 5449
drugs 5449
ret@@ 5448
ME 5447
tra 5447
700 5446
RF 5446
gathered 5446
Dun@@ 5445
INC 5445
Menu 5445
avi@@ 5445
Tool 5444
cameras 5444
asking 5442
Hot@@ 5441
IV@@ 5440
kin@@ 5440
ich 5439
sum 5439
Ak@@ 5438
indirect 5437
Excel 5436
diabetes 5435
CON@@ 5434
lady 5434
Rel@@ 5433
de-@@ 5433
parks 5433
Pic@@ 5432
dly 5432
wing 5431
21st 5429
mins 5429
fund 5428
booked 5427
Night 5426
assume 5425
replacement 5424
oriented 5422
surprise 5420
CORPORATION 5419
specialty 5419
AD 5418
Sel@@ 5418
sub-@@ 5418
and-@@ 5414
Egyptian 5412
Lane 5409
magnetic 5409
division 5408
gear 5408
mouse 5407
acks 5405
relaxation 5405
afternoon 5404
Agency 5403
discontinue 5403
darkness 5401
tourists 5401
Power@@ 5400
degrees 5399
Opera 5398
ap 5398
consideration 5398
Ash@@ 5396
mixed 5395
editing 5392
Ks 5391
spaces 5391
cd 5388
Northern 5386
qualified 5385
aspect 5383
makers 5380
Cer@@ 5379
peaceful 5379
normally 5377
renovated 5376
tar@@ 5376
width 5376
administrator 5375
Azure 5374
ily 5374
yard 5374
Hamburg 5373
ater@@ 5373
charging 5373
dies 5373
aps 5372
Dom@@ 5371
tourism 5367
Lim@@ 5366
licensed 5365
ists 5364
liked 5364
Obama 5356
faces 5356
meal 5356
burg 5353
ises 5353
laboratory 5353
&apos;S 5352
ank@@ 5350
swe@@ 5348
Dec@@ 5347
built-in 5347
invited 5347
rep@@ 5346
tend 5343
Part 5339
gri@@ 5339
BUT 5338
Photoshop 5338
Cy@@ 5336
Norway 5333
ingredients 5332
porn 5331
sam@@ 5328
burn 5325
Guangdong 5323
Supply 5323
ome 5323
harm 5322
ed-@@ 5321
tower 5321
monetary 5319
Muslim 5318
classical 5318
ocean 5318
Branch 5314
reaction 5314
Hospital 5313
Just 5312
trusted 5312
Testing 5310
enemies 5309
clinical 5308
Suzhou 5307
transition 5307
stones 5305
configure 5303
delivering 5303
ferryto.co.uk 5303
optimized 5303
pull 5302
Land 5297
analyze 5297
aren 5297
engagement 5295
precious 5295
integrate 5292
Speed 5291
Cam 5290
enemy 5290
hai 5290
Statement 5289
priests 5289
1990 5288
ky@@ 5288
Speci@@ 5287
bill 5287
string 5287
depth 5285
overcome 5285
criteria 5283
Muslims 5282
informed 5279
relief 5279
judge 5278
dealings 5277
Les 5275
Ka@@ 5273
These 5273
Chief 5271
boasts 5271
300@@ 5269
obvious 5269
Cheap 5263
exception 5262
regime 5262
replaced 5261
Iraq 5260
cancellation 5260
cle@@ 5260
moon 5260
refers 5260
fu@@ 5258
Syn@@ 5257
struggle 5257
War@@ 5256
Stovetop 5254
EV@@ 5253
Ku@@ 5250
78 5247
mod@@ 5246
viewing 5245
Film 5243
ght@@ 5243
fre@@ 5242
Gardens 5241
broke 5241
PP@@ 5240
crime 5239
65@@ 5237
Small 5235
comparison 5232
ranked 5232
Motor 5228
Tre@@ 5226
exists 5226
Trading 5225
gam@@ 5225
inspired 5225
FO@@ 5224
Rem@@ 5223
hill 5223
Islamic 5222
Boston 5220
exact 5219
mar 5219
revealed 5218
1.6 5217
Are 5216
stairs 5213
happiness 5212
attorneys 5211
ERS 5210
brothers 5209
0.00 5207
hard@@ 5207
let@@ 5207
ric@@ 5206
pay@@ 5205
alive 5204
accommodate 5203
tours 5203
WILL 5202
viruses 5202
Cab@@ 5201
meets 5201
í@@ 5201
May@@ 5200
federal 5200
loading 5200
cont@@ 5199
twice 5197
101 5195
lab@@ 5195
Users 5194
tan@@ 5194
unforgettable 5194
Authority 5188
tongue 5188
They 5187
choosing 5184
overlooking 5183
0-@@ 5182
utility 5180
ENT 5178
roads 5177
vol@@ 5175
kissed 5171
Cojak 5170
VO@@ 5170
keeps 5167
logos 5167
sÂ 5165
talent 5164
forum 5161
adult 5154
recording 5150
44@@ 5149
raising 5148
worship 5148
frames 5144
customs 5143
meanwhile 5142
unknown 5142
but@@ 5141
mounted 5141
cri@@ 5140
gym 5137
83 5136
Maker 5136
WHETHER 5136
SK@@ 5134
begins 5134
gas@@ 5134
oun@@ 5133
soci@@ 5131
Mus@@ 5130
amounts 5130
ati 5130
Georgia 5129
telling 5129
commanded 5126
consequential 5126
Parties 5125
confidentiality 5123
claimed 5122
Sky@@ 5120
pin 5119
horse 5117
CORP 5116
contrary 5116
destruction 5115
thereby 5114
ONE 5113
glad 5113
ading 5111
AUD 5110
Bay@@ 5109
League 5109
pussy 5109
TX 5107
dian 5107
m-@@ 5107
1.3 5106
Force 5105
mas@@ 5105
surely 5104
researchers 5103
resistant 5103
schedule 5101
concepts 5100
discussed 5099
ther 5099
That 5098
heritage 5096
mill 5096
void 5095
Mur@@ 5094
crucial 5094
opens 5094
relaxed 5093
sophisticated 5093
ulation 5090
Value 5089
y.aspx 5088
Az@@ 5085
freight 5085
Ty@@ 5084
association 5084
iPad 5084
ket 5084
binding 5083
fails 5083
wal@@ 5083
Guesthouse 5081
TC 5080
ark 5080
WE@@ 5077
latter 5076
ET@@ 5074
bio@@ 5071
appeal 5070
incorporate 5068
Table 5064
87 5063
managers 5061
Uk 5060
ity@@ 5059
patterns 5059
ceremony 5054
vital 5054
Fo@@ 5052
Process 5052
boost 5052
catch 5051
comp@@ 5051
equity 5048
legitimate 5048
tables 5048
Second 5047
damaged 5047
snow 5043
exp@@ 5042
dam@@ 5041
ancy 5039
SN74AHCT@@ 5038
acquired 5038
smoke 5036
im 5032
graphic 5030
locked 5030
seal 5029
syn@@ 5029
carrying 5028
deployment 5027
hur@@ 5027
Mont@@ 5026
ion@@ 5026
Dutch 5025
ii 5025
medi@@ 5025
pet 5025
Dev@@ 5022
advertisers 5022
ina@@ 5022
perpetual 5022
overview 5021
exposed 5020
magic 5020
fa 5019
Automation 5017
Bureau 5016
invest 5015
00-@@ 5014
erv@@ 5014
ron@@ 5014
Expo 5013
connectivity 5012
gen 5012
Nu@@ 5011
elle 5011
GU@@ 5008
Dec 5007
fluid 5007
mid-@@ 5006
shalt 5004
proved 5003
Lounge 5002
Federation 5001
loan 5000
Cou@@ 4999
grinding 4999
residential 4998
shook 4997
SD 4995
ZIP 4994
primarily 4994
ication 4991
EC 4989
hairdryer 4988
bags 4987
iOS 4987
png 4986
stick 4985
bid 4984
0.7 4983
hosting 4982
TT@@ 4981
dimensions 4981
rural 4980
Stockholm 4979
signals 4979
adjustment 4978
enforcement 4978
interview 4978
shapes 4976
bird 4975
CC 4972
75@@ 4971
Smoking 4971
ace@@ 4970
not@@ 4970
aka 4967
facilitate 4966
interaction 4963
yang 4963
Semiconductors 4962
ier 4962
fly 4961
Accommodation 4960
MIME 4957
corrosion 4957
Satellite 4956
shell 4955
Louis 4954
inflation 4954
objectives 4954
investigation 4953
beside 4952
84 4951
full-@@ 4951
subscription 4951
Delhi 4950
ect@@ 4947
anyway 4946
set@@ 4946
Virtual 4945
cooking 4945
William 4944
finger 4944
DM@@ 4943
fies 4940
wallpaper 4939
Client 4938
stronger 4938
Pas@@ 4937
Safe 4934
EP@@ 4932
Glass 4932
fingers 4931
angry 4930
licenses 4930
Work@@ 4929
specially 4929
reg@@ 4928
carrier 4927
Solution 4926
tight 4926
cream 4925
reviewed 4925
supposed 4924
unlike 4922
truck 4921
explains 4919
Lam@@ 4918
Three 4917
izes 4916
engines 4915
suggest 4915
Device 4914
Islam 4913
PURPOSE 4912
Sen@@ 4911
ote 4910
PE 4909
hood 4908
stages 4908
82 4907
Cologne 4907
sor@@ 4907
tin@@ 4906
continuously 4905
Robert 4904
COMPANY 4903
grown 4903
scan 4902
forecast 4901
Hal@@ 4900
MACHINERY 4899
suffer 4896
2.1 4895
ux 4891
vector 4891
arch@@ 4889
1996 4888
sections 4888
Cro@@ 4887
Legal 4887
ining 4886
ign@@ 4884
3.0 4883
Fort 4882
G4 4882
supplied 4882
shoulder 4881
totally 4881
DS@@ 4877
cross-@@ 4877
winning 4877
you@@ 4876
Cat@@ 4874
pharmaceutical 4874
Cambridge 4872
CO2 4871
Long@@ 4871
at-@@ 4870
Afghanistan 4866
CF@@ 4866
Ethernet 4865
exposure 4865
Buenos 4862
900 4857
shareholders 4857
gap 4855
newly 4855
transit 4855
Vista 4854
Hy@@ 4853
Toaster 4853
sign@@ 4853
Reserve 4852
Third 4851
sword 4851
Civil 4850
Matthew 4849
Far@@ 4847
Chiang 4844
usual 4843
chest 4840
independence 4840
Unisonic 4839
Wish 4839
GR@@ 4837
anch@@ 4837
expanded 4837
logic 4837
Case 4836
productive 4836
Engine 4835
container 4835
bil@@ 4834
e.com 4833
kiss 4833
Features 4832
Cleaning 4830
Statistics 4830
gained 4830
Partner 4829
je@@ 4829
impressive 4828
moral 4827
contracts 4826
or-@@ 4826
Mai 4823
Pla@@ 4820
Spring 4816
pp@@ 4816
IoT 4815
foods 4814
kin 4814
pushed 4814
Ken@@ 4813
coal 4812
prof@@ 4812
guard 4811
protein 4811
evolution 4809
duration 4808
lamp 4805
of-@@ 4805
transparent 4805
85@@ 4804
ences 4804
chemicals 4803
Jacob 4800
prison 4800
Southern 4798
artist 4798
cry 4797
Rules 4796
passing 4796
Rob@@ 4795
Sign 4795
Youth 4795
DE 4794
so-called 4794
ó@@ 4793
Solar 4792
Banner 4790
Options 4790
constitutes 4789
discounts 4789
Tal@@ 4788
ening 4786
lessons 4786
Laser 4785
fans 4785
initiative 4785
pping 4784
describe 4783
fridge 4783
stunning 4783
LS 4779
meals 4779
drinking 4777
Helsinki 4776
QU@@ 4776
reaching 4776
â@@ 4776
IE@@ 4775
roof 4774
steam 4774
technique 4772
1.8 4771
tells 4771
blessed 4770
kit 4769
ED@@ 4768
Water@@ 4768
bury 4768
detect 4768
staying 4768
Channel 4767
real@@ 4767
ultimately 4767
Views 4765
healthcare 4765
Aires 4764
Ave 4764
beings 4764
Croatia 4763
Janeiro 4763
timely 4763
codes 4761
CAR@@ 4759
radiation 4759
ions 4758
tennis 4757
reflected 4756
PAR@@ 4755
sick 4754
Sw@@ 4750
Tweet 4750
decade 4750
efficiently 4750
ongoing 4750
Camp@@ 4749
Zoo 4749
committee 4746
everywhere 4746
0.8 4745
installing 4744
samples 4742
mu@@ 4741
l-@@ 4739
water@@ 4739
NXP 4738
affairs 4738
HE@@ 4737
ek@@ 4737
31@@ 4736
casino 4736
represented 4736
Dragon 4733
Dem@@ 4732
mold 4732
marine 4731
omissions 4731
oxygen 4731
sim@@ 4731
PARTICULAR 4730
Ze@@ 4730
three-@@ 4728
verify 4727
connector 4725
Be 4724
faced 4723
Status 4722
figures 4720
stuff 4720
delicious 4718
touched 4718
confidential 4714
falling 4714
prevention 4714
Tax 4713
pollution 4713
Offering 4711
ills 4708
Kor@@ 4707
closing 4703
unlimited 4703
ide 4702
Paradise 4700
advised 4700
shi@@ 4700
3.5 4699
villa 4698
FITNESS 4697
Communications 4695
Tu@@ 4695
ame@@ 4693
edition 4693
northern 4689
OD@@ 4688
HD@@ 4687
Peninsula 4687
treatments 4687
GHz 4685
settlement 4685
pets 4684
symbol 4684
Action 4683
rows 4681
act@@ 4680
printer 4680
soil 4680
pas@@ 4679
promotions 4679
chip 4678
slide 4676
seed 4675
Morocco 4674
conveniently 4674
eliminate 4674
SAS 4673
Dollar 4672
Metal 4672
hair@@ 4672
opposition 4672
tele@@ 4672
DB@@ 4671
artists 4671
ord@@ 4670
reforms 4670
Chang@@ 4669
lion 4669
Che@@ 4668
introduce 4668
combines 4665
recall 4665
rolling 4665
Multi@@ 4664
rot@@ 4664
wearing 4663
ear 4661
Fu@@ 4660
fellow 4660
observed 4659
Log 4658
alize 4658
part@@ 4657
oring 4656
mention 4655
scanning 4655
Cos@@ 4654
jo 4654
parallel 4654
nie 4651
Men@@ 4650
honor 4650
paint 4649
dropped 4648
Mar 4646
wash 4646
Chemical 4644
nevertheless 4644
disaster 4642
surprises 4642
EXPRESS 4640
permit 4638
preparing 4638
protocol 4638
ela 4636
Meteo 4635
machining 4634
sof@@ 4633
tom@@ 4633
Lee 4632
Stand 4630
royalty-free 4630
Introduction 4629
rer 4628
causing 4627
thr@@ 4626
drawn 4623
hide 4623
sake 4623
funding 4622
Goddess 4620
ex 4620
trips 4620
seriously 4619
CC@@ 4618
Turkish 4616
sâ 4614
Kat@@ 4612
setup 4612
extras 4610
Ironing 4608
compatibility 4608
laptop 4608
officer 4608
run@@ 4608
1993 4607
Arabia 4607
arrangements 4606
Mol@@ 4604
Core 4603
gather 4601
Black@@ 4600
covenant 4600
ial 4600
financing 4599
merely 4595
Course 4594
EXPRESSLY 4594
reliance 4594
boot 4593
developer 4592
dealing 4591
tears 4591
downtown 4588
Form 4587
ux@@ 4587
wor@@ 4585
Hai@@ 4584
bids 4580
peak 4580
formal 4579
3,@@ 4577
Learn 4577
Adventure 4575
limitations 4575
tablet 4575
Cho@@ 4574
ju@@ 4574
Camping 4573
directed 4572
30-250 4570
turns 4568
arranged 4567
Adam 4565
MERCHANTABILITY 4564
Lingnan 4563
happening 4563
rentals 4563
breaking 4561
p-@@ 4561
Bluetooth 4560
breast 4560
Silver 4559
Tar@@ 4559
concentration 4557
entities 4557
naturally 4556
Basic 4555
ears 4554
2.2 4553
Hardwood 4553
keyboard 4553
dic@@ 4550
Ambassador 4549
eth@@ 4549
negotiations 4549
pace 4549
pop@@ 4549
silence 4549
1994 4548
2-star 4548
tomorrow 4548
bonus 4547
Du 4546
converted 4546
wonder 4546
的@@ 4545
Prize 4544
duties 4544
mount 4544
sex@@ 4544
utilize 4544
Fashion 4543
pools 4543
talks 4542
engineer 4541
rice 4541
teeth 4540
Key@@ 4539
DL@@ 4538
indicated 4537
Beauty 4536
ums 4536
particles 4534
check-out 4533
Tom 4532
applying 4530
eas@@ 4528
single-@@ 4528
anna 4527
notices 4527
Hills 4525
whatsoever 4524
subscribe 4523
marking 4522
produces 4522
struck 4522
Deposit 4521
eli@@ 4521
ements 4521
legislation 4521
promised 4521
chi 4520
sacrifice 4520
surfaces 4520
Boulevard 4519
tis 4519
ation-@@ 4518
purchasing 4518
cluster 4516
institution 4516
contributions 4515
1992 4514
Mother 4514
Oven 4513
sum@@ 4513
LU@@ 4511
dialogue 4511
Ky@@ 4510
additionally 4510
Current 4509
Kon@@ 4508
Alliance 4506
Precision 4506
han 4506
largely 4506
accident 4505
insights 4505
quantity 4503
VER@@ 4502
prefer 4502
Luc@@ 4501
arrange 4500
lia 4500
Premium 4499
Testament 4499
Universal 4499
copies 4499
spectacular 4498
Electron 4497
aki 4497
TA 4496
ye@@ 4495
midst 4494
watched 4494
Angel@@ 4493
signature 4493
mercy 4492
shaft 4491
assi@@ 4489
bilateral 4489
opt 4489
thread 4489
tically 4489
fault 4488
lar@@ 4488
AP 4487
accompanied 4487
oma 4487
time@@ 4487
aire 4486
artificial 4486
inj@@ 4486
M. 4485
xx 4485
counter@@ 4484
summary 4483
Image 4480
permanently 4478
Hub 4477
album 4477
qui@@ 4477
satisfy 4477
Ori@@ 4476
ceramic 4476
renowned 4476
emp@@ 4475
traveling 4474
Mos@@ 4473
Terrace 4473
ator@@ 4471
Diego 4469
possibly 4469
ree 4469
160 4468
developments 4468
twenty 4467
HK 4466
complexity 4465
nit@@ 4465
tone 4463
itch@@ 4459
switches 4459
Note 4458
Sav@@ 4458
wanting 4458
CB@@ 4457
Luxembourg 4454
Summer 4454
Daniel 4453
Fa@@ 4453
Na@@ 4451
oph@@ 4451
ester 4450
kitchenette 4449
Harbour 4448
agu@@ 4448
configured 4447
Kr@@ 4446
aims 4446
passion 4445
hear@@ 4444
lifted 4444
mann 4444
picked 4443
Environment 4442
ards 4442
suffered 4442
Start 4441
ites 4440
copied 4439
Don 4438
Buy 4435
DA 4435
chapter 4434
vulnerability 4429
sought 4426
tie 4426
boys 4424
Alexander 4423
Malta 4423
consultation 4422
sty@@ 4422
thi@@ 4422
Sin@@ 4421
newspaper 4421
tired 4420
Jiangsu 4419
Up@@ 4418
flows 4418
Valencia 4417
agriculture 4417
ethnic 4417
peoples 4417
charming 4416
sustainability 4416
Fire 4415
-T@@ 4414
All@@ 4412
threats 4410
collective 4409
witness 4408
Bir@@ 4407
Net 4407
pack 4407
sto@@ 4407
studied 4407
Innovation 4406
assigned 4406
descriptions 4405
Seaways 4404
demanding 4404
Top@@ 4403
percentage 4402
Catholic 4401
disclosed 4401
pen 4401
Houston 4400
tell@@ 4400
Hours 4399
Reserved 4399
cart 4398
hosted 4398
21@@ 4397
strongly 4396
Dongguan 4395
tens 4395
Girls 4393
spl@@ 4393
izer 4392
pot 4392
deeply 4391
minister 4391
FR@@ 4390
PayPal 4390
papers 4390
affiliated 4388
Abstract 4387
seller 4387
surprised 4386
RAM 4385
crystal 4385
deeper 4385
humans 4385
Clothes 4382
churches 4382
ga@@ 4382
hyper@@ 4382
Happy 4381
Jersey 4381
evaluate 4381
hos@@ 4381
uck 4378
hybrid 4376
soldiers 4376
Points 4375
targeted 4369
Workshop 4368
-up 4367
DI@@ 4367
renew 4367
Red@@ 4366
black@@ 4366
verification 4366
NA@@ 4365
cop@@ 4365
tin 4365
conclusion 4364
lens 4362
Television 4360
calculated 4360
Americans 4359
Soi 4359
Dar@@ 4357
ila 4357
Ms. 4353
360 4351
gif 4351
1991 4349
Harry 4349
Pur@@ 4349
prophet 4349
naked 4348
Available 4347
Parliament 4346
featured 4346
Magazine 4345
Gate 4344
harmful 4344
Info 4343
PhotoFunia 4343
ave 4343
d.@@ 4343
ING@@ 4342
Trademark 4342
a.com 4341
long-@@ 4341
Analytics 4338
ales 4338
ã 4338
consulting 4336
correctly 4336
Yes 4334
Tree 4333
burning 4333
ought 4333
films 4332
representations 4331
ices 4330
beer 4329
20-@@ 4325
tension 4324
CN@@ 4323
bike 4323
testimony 4323
completion 4322
counter 4322
hate 4322
cra@@ 4320
lan@@ 4319
modular 4319
st-@@ 4318
WEBSITE 4317
outer 4317
Python 4316
locks 4316
validity 4316
gender 4315
Chain 4314
anniversary 4314
Ur@@ 4312
roller 4312
righteousness 4311
selecting 4311
x-@@ 4311
prime 4309
XXX 4308
DATA 4306
Xi@@ 4305
Ul@@ 4304
feelings 4304
lifetime 4304
twin 4304
illing 4303
presents 4303
High@@ 4301
democratic 4301
eling 4301
GPS 4300
checking 4300
VE 4299
unity 4299
Gam@@ 4298
offensive 4298
Ay@@ 4297
Stone 4296
UV 4296
ides 4295
respectively 4295
End 4294
agenda 4294
sharp 4294
shock 4294
dom@@ 4292
Terminal 4291
Pra@@ 4290
person@@ 4290
Del 4288
Fair 4288
ab 4288
erie 4287
welcoming 4287
KIND 4285
browsing 4284
SHALL 4283
fabric 4283
Filter 4282
elled 4281
golden 4281
Pressure 4280
representation 4280
th-@@ 4280
merchantability 4279
mol@@ 4279
heated 4278
1.7 4276
Dropbox 4276
enting 4275
lic@@ 4275
Farm 4274
chose 4272
diesel 4272
describes 4270
93@@ 4269
designers 4268
improvements 4268
dishwasher 4267
Gospel 4266
low@@ 4266
Hen@@ 4265
180 4263
honest 4262
XP 4261
everyday 4260
flag 4260
sk 4259
irrevocable 4258
waiver 4258
YouTube 4257
guys 4257
Supreme 4256
dual 4256
dra@@ 4255
ometer 4255
sav@@ 4255
trained 4254
electro@@ 4253
blind 4252
plug 4252
node 4251
sheets 4251
Environmental 4250
c-@@ 4250
effectiveness 4249
interpretation 4249
Wh@@ 4248
SMS 4247
supervision 4247
aimed 4245
&apos;an 4243
M-@@ 4243
appointment 4243
Jade 4242
enjoying 4242
Altai 4240
SF@@ 4240
fur@@ 4239
awa 4238
Hat 4237
Four 4235
ATE 4234
toilet 4234
sta 4233
66@@ 4232
expanding 4232
ante 4231
TR 4230
specification 4230
Lan@@ 4229
Macau 4229
dig@@ 4228
tures 4228
labour 4227
museums 4227
Caribbean 4226
sized 4224
Lab@@ 4222
bathtub 4222
coat 4222
Booking 4221
ANG 4220
Affairs 4220
ch-@@ 4219
Tuesday 4217
Webcam 4216
twelve 4216
Akamai 4215
Falls 4214
Nov@@ 4214
fax 4213
mid@@ 4213
Little 4212
Living 4212
ack 4212
florists 4212
cotton 4211
ros 4211
Study 4209
Mid@@ 4208
iness 4205
challenging 4204
es.@@ 4203
Articles 4202
ida 4202
portal 4202
thick 4202
moments 4201
ston 4201
precisely 4200
Domain 4199
inal 4198
AF@@ 4196
inventory 4196
neighborhood 4196
Med@@ 4195
Liu 4194
diving 4194
Navigation 4193
ua 4193
Bol@@ 4192
Front 4191
narrow 4191
attitude 4189
Qingdao 4188
Girl 4187
Thursday 4187
LL@@ 4186
movements 4183
wa 4182
photographs 4181
CM@@ 4180
Ã1 4180
JPG 4177
colleagues 4177
aling 4173
rest@@ 4173
‹ 4172
class@@ 4170
logical 4169
ands 4168
CPU 4167
ces 4167
Cambodia 4166
Jud@@ 4166
Plastic 4166
brief 4166
Balcony 4165
Camera 4165
ITS 4165
MP 4165
incidental 4165
1.4 4164
www.@@ 4164
Finnish 4163
emails 4163
grand 4163
1.0 4162
key@@ 4162
nonexclusive 4162
retain 4162
Vic@@ 4160
aside 4160
n-@@ 4160
falls 4159
ranging 4159
Forest 4158
Temperature 4158
2.3 4157
personalized 4157
silent 4157
vibration 4156
Elizabeth 4154
proceedings 4154
Electrical 4152
ail 4152
directions 4150
AGREE 4149
achievements 4149
conf@@ 4149
ep 4149
sessions 4148
Stra@@ 4147
Settings 4146
bus@@ 4146
globally 4146
Washing 4143
oo 4143
val 4142
pur@@ 4141
humor 4140
lord 4140
split 4140
Related 4137
manufactured 4135
King@@ 4134
hospitality 4134
Heaven 4133
Close 4131
ress 4131
D. 4130
debate 4129
mere 4129
Sab@@ 4128
Lar@@ 4126
mo 4126
Accessories 4125
Brown 4125
holidays 4125
dor@@ 4124
pped 4123
2.4 4122
Discussion 4122
belong 4122
bigger 4122
writer 4122
95@@ 4121
commands 4117
composed 4117
20th 4116
Doc@@ 4116
Embassy 4116
assign 4116
guided 4116
Components 4115
Message 4114
initi@@ 4114
studying 4113
400@@ 4112
involves 4112
Treaty 4111
kil@@ 4111
reader 4111
repeat 4110
thickness 4110
ula 4110
Body 4109
wherever 4109
Sec@@ 4108
Age 4107
contributed 4107
operates 4107
Directory 4106
Members 4106
sion@@ 4106
identifiable 4105
elections 4104
Cooperation 4103
sho@@ 4102
arian 4101
Over@@ 4100
ana@@ 4100
chamber 4100
mounting 4100
pon@@ 4099
Movie 4098
Desktop 4096
Pattaya 4096
balanced 4096
simultaneously 4096
Summit 4095
hub 4095
kets 4095
PER@@ 4094
strictly 4094
considering 4092
hat 4092
Ev@@ 4091
inger 4091
SUCH 4090
Admin 4089
hang 4089
fifth 4088
calibration 4087
imported 4087
leg@@ 4087
discovery 4086
LOSS 4085
UD@@ 4085
crowd 4085
exceed 4085
indirectly 4085
read@@ 4084
worst 4084
iter@@ 4083
interfaces 4081
main@@ 4081
IR 4080
Events 4079
altar 4079
Sense 4078
headquarters 4078
talked 4077
ve-@@ 4076
Hi 4074
coun@@ 4074
gran@@ 4073
flying 4072
15-@@ 4071
custom@@ 4071
assumes 4070
red@@ 4069
Bang@@ 4068
Sky 4068
implementing 4068
speakers 4068
achieving 4067
19th 4066
Jan@@ 4066
fruits 4066
gy 4065
mature 4065
CH 4063
Century 4063
archive 4062
blo@@ 4062
danger 4062
elling 4062
ota 4061
spe@@ 4060
drag 4059
plastics 4059
metals 4058
Di 4057
Xin@@ 4056
jointly 4056
robot 4056
winner 4056
FAQ 4055
Trader 4055
shaped 4055
TER@@ 4054
THROUGH 4054
WIPO 4054
employed 4054
Tel@@ 4052
settled 4051
surcharges 4051
FL 4050
max 4050
principal 4050
LD@@ 4049
oldest 4049
Cu@@ 4048
Gas 4047
Module 4047
separated 4047
HC@@ 4044
checked 4044
screens 4043
worthy 4043
Journal 4042
Solomon 4040
je 4040
metro 4040
tened 4040
Buddha 4039
ography 4039
penalty 4039
organisation 4037
screw 4036
migration 4035
switching 4035
Processing 4034
century21.ca 4034
parameter 4033
cum 4032
rid 4032
LAN@@ 4031
Tem@@ 4029
nes 4028
resi@@ 4028
stor@@ 4028
VI 4026
s.Â 4026
gallery 4025
Send 4024
calculation 4023
consciousness 4022
outcome 4021
Ball 4019
fucking 4019
Interface 4018
Jos@@ 4018
ui 4017
Comfort 4016
Heart 4016
ck 4016
matches 4016
obviously 4016
56@@ 4014
AVI 4014
compl@@ 4014
sheep 4014
á 4014
ling@@ 4013
divine 4012
initiatives 4012
pressed 4012
Dat@@ 4008
connectors 4006
etc. 4006
separation 4006
Sorry 4005
lodging 4005
Audio 4004
calm 4004
Non-@@ 4001
determination 4001
yesterday 4001
Let 3999
downloading 3998
utilizing 3998
U-@@ 3997
NS@@ 3996
bone 3996
oz 3996
Moon 3994
accelerate 3994
default.aspx 3994
dro@@ 3994
onal 3994
Swedish 3993
fic@@ 3992
́ 3992
Green@@ 3991
ibis 3990
Arbitration 3989
graduate 3988
Division 3987
weekend 3987
0.9 3984
} 3984
centrally 3983
seamless 3983
Courtyard 3982
auto 3982
headed 3982
law@@ 3980
retrieved 3980
Irish 3978
magazine 3978
Activities 3977
Eng@@ 3977
Images 3977
Regional 3976
panels 3976
hence 3975
surgery 3975
praise 3974
burden 3973
manually 3973
tai 3973
ny@@ 3972
signing 3971
suggested 3971
BC@@ 3968
god 3966
Translation 3965
cia 3965
prize 3965
flow@@ 3964
villas 3964
IM 3962
Only 3961
WH@@ 3961
Ann@@ 3960
Nanjing 3960
SN@@ 3960
Gulf 3959
top-class 3958
PM@@ 3957
Print 3957
Works 3957
ender 3957
ght 3957
Database 3956
scheduled 3955
Mic@@ 3954
branches 3954
proximity 3954
CNC 3952
Select 3952
ez 3952
Event 3951
AMD 3950
Bos@@ 3950
Polish 3949
ano@@ 3947
visibility 3947
F-@@ 3945
centuries 3942
waves 3942
panoramic 3941
Alarm 3938
Huawei 3938
laughed 3937
MD@@ 3935
euro 3935
globe 3935
Revolution 3934
Pets 3933
necessarily 3933
moves 3932
Expert 3930
accordingly 3930
composition 3929
Figure 3928
Muhammad 3928
Release 3928
gods 3928
ols 3928
DNS 3926
Edition 3926
SC 3926
excited 3926
high-tech 3926
FF@@ 3925
bet@@ 3925
Bulgaria 3924
commerce 3924
super 3924
illed 3922
tered 3922
esh@@ 3921
fulfill 3921
highlight 3921
speaker 3919
campus 3918
Rev@@ 3917
Juli@@ 3915
bin@@ 3915
downloaded 3915
ft@@ 3915
targets 3915
± 3915
Arabic 3914
elsewhere 3913
Explorer 3912
39@@ 3910
URE 3910
hast 3910
Repair 3909
UT@@ 3909
yan 3909
600@@ 3908
Industries 3907
lec@@ 3907
PRODUCTS 3904
bes 3903
organ 3902
Protocol 3901
negotiated 3900
victims 3900
P-@@ 3899
ented 3899
officially 3899
Any 3898
Controller 3898
dialog 3897
eries 3897
MIN@@ 3896
Transport 3896
Kazakhstan 3895
declaration 3895
cou@@ 3893
pressing 3893
underground 3893
vin@@ 3893
tly 3892
Edge 3891
invention 3891
continental 3890
130 3889
com 3889
IF 3888
towns 3888
vel 3888
1.9 3887
Ari@@ 3887
Programming 3887
half-@@ 3887
depend 3886
gun 3885
ori 3885
pa 3883
Baby 3882
04@@ 3880
Palm 3880
with@@ 3880
CT@@ 3879
Ol@@ 3877
survive 3877
Tai@@ 3876
lifting 3876
1989 3875
Jing@@ 3875
mechanisms 3875
ae 3874
brush 3874
highlights 3874
Companies 3873
Partners 3871
castle 3871
oli 3871
CONFERENCE 3870
Studies 3870
diamonds 3870
Pin@@ 3869
Hollywood 3867
Medicine 3867
giant 3866
aming 3865
layers 3865
adventure 3864
boo@@ 3864
grid 3864
lab 3863
lease 3863
Abu 3862
missions 3862
righteous 3862
timeline 3862
Ang@@ 3861
V-@@ 3861
mobility 3861
Logo 3860
Organ@@ 3860
prescribed 3860
tailored 3860
well-known 3860
collectively 3859
Fan 3858
gains 3858
osis 3858
Kuala 3857
pic@@ 3856
styles 3856
Aaron 3855
Airlines 3854
bert 3854
ille 3854
exchanges 3853
classification 3852
authentication 3851
circle 3851
tough 3851
sudden 3850
53@@ 3849
ENT@@ 3849
SN74AHC@@ 3849
buyer 3848
̧ 3848
Dictionary 3847
arise 3847
horizontal 3846
84@@ 3844
bly 3844
yers 3844
Cla@@ 3843
Hua 3843
Stay 3843
gers 3843
Fun@@ 3842
adopt 3842
involving 3842
loop 3842
gently 3841
Visit 3840
dish 3840
transform 3840
tex@@ 3838
Paulo 3836
exploited 3836
yi 3836
humidity 3835
physics 3835
Cent@@ 3834
Kur@@ 3832
Lithuania 3832
high-performance 3832
1.jpg 3831
Money 3831
LV@@ 3830
Thread 3830
и@@ 3830
promotional 3829
refused 3829
hu 3827
ik@@ 3827
subjects 3827
conflicts 3826
Ah@@ 3823
difficulties 3822
leverage 3821
Certification 3819
non-infringement 3819
Deutsch 3818
Tits 3818
eu@@ 3818
EF@@ 3817
eless 3817
hrs 3817
isi@@ 3817
SL@@ 3816
ket@@ 3816
Vision 3814
oms 3813
loads 3812
nam@@ 3812
Albania 3811
Eli@@ 3811
transfers 3811
DNA 3810
inhabitants 3810
Pearl 3808
Wednesday 3807
ith 3807
Saul 3806
kl@@ 3806
loaded 3806
dil@@ 3805
fallen 3805
generations 3804
EM 3801
jpeg 3801
Oracle 3799
desert 3799
Pos@@ 3798
break@@ 3798
dreams 3798
spec@@ 3797
.JPG 3795
LD 3795
Sweet@@ 3795
aches 3795
ly-@@ 3795
Lis@@ 3794
favor 3794
throw 3793
Session 3791
console 3791
Right 3789
eastern 3788
ency 3788
initially 3788
blade 3787
formula 3787
ged 3787
stops 3785
ups 3785
dat@@ 3784
Kim 3783
establishing 3782
Vel@@ 3781
cake 3781
drew 3781
professor 3781
top-@@ 3781
Display 3780
bra 3780
path@@ 3780
Update 3779
dependent 3779
hem@@ 3778
ort 3778
Officer 3776
RE4 3776
HTTP 3775
Ga@@ 3774
vice 3774
Resorts 3773
wired 3772
Rating 3770
Tianjin 3770
Gor@@ 3769
Homemade 3769
servic@@ 3768
A.@@ 3767
Princess 3767
onia 3767
Today 3766
IO 3765
MAR@@ 3765
atives 3765
gay 3765
iled 3764
4.0 3762
Bet@@ 3762
aring 3761
first-@@ 3761
profiles 3761
FS 3760
Len@@ 3760
Kam@@ 3759
variables 3759
Comment 3758
throne 3758
Instant 3757
mathematical 3757
ual 3757
dar@@ 3756
insulation 3756
remarkable 3756
Kin@@ 3755
serial 3755
ashed 3754
lasting 3754
Satan 3753
ltd 3753
regarded 3753
Returns 3752
prestigious 3752
Tips 3751
ted@@ 3751
literature 3750
son@@ 3750
hepatitis 3749
shadow 3749
threatening 3749
365 3748
revolutionary 3747
Mission 3745
Peru 3745
awards 3744
vegetables 3744
BA@@ 3743
searching 3743
Cancer 3742
Treatment 3742
attract 3742
vibrant 3742
collections 3741
losing 3740
ts@@ 3740
140 3739
Chile 3739
gaming 3739
Url 3738
argument 3738
diagnosis 3738
valentine 3738
Poly@@ 3737
a.aspx 3736
mut@@ 3736
sees 3736
solo 3736
Intellectual 3735
Mrs. 3735
zer 3735
periods 3734
ICRC 3733
Panama 3733
prophets 3733
sing@@ 3733
11-@@ 3731
Assistant 3730
pel@@ 3730
vitamin 3730
possibilities 3729
mus@@ 3728
sul@@ 3728
tis@@ 3728
Chan 3727
arrangement 3726
shirt 3726
Jack 3725
96@@ 3723
Manhattan 3723
chairs 3722
dri@@ 3722
loves 3722
seats 3721
Vintage 3720
flu@@ 3720
home@@ 3720
But@@ 3719
oll@@ 3719
OB@@ 3717
adjusted 3717
isation 3717
Designer 3716
han@@ 3715
suited 3715
VPN 3714
ont 3714
op 3714
Apps 3713
tening 3713
Tak@@ 3712
oni@@ 3711
Very 3710
AK@@ 3709
PE@@ 3709
05@@ 3708
immigration 3708
110@@ 3707
COMP@@ 3707
ref@@ 3705
row@@ 3705
Fil@@ 3704
ania 3704
feeding 3704
rac@@ 3704
J. 3703
Planning 3703
.cn 3701
Sup@@ 3701
Fish@@ 3700
Pap@@ 3699
Highway 3698
semi-@@ 3698
insight 3697
assurance 3696
focusing 3694
towels 3691
bonds 3690
uk 3690
94@@ 3689
Certified 3689
suppose 3688
landmarks 3687
Nobel 3686
alities 3686
routine 3686
gan@@ 3685
Hong@@ 3684
UL@@ 3684
partition 3684
transparency 3684
patents 3683
Virgin 3681
enjoys 3681
magnificent 3681
ENG 3680
ero@@ 3679
kie 3679
Ali@@ 3677
power@@ 3677
impl@@ 3676
18-@@ 3675
Dishwasher 3675
yn 3675
IDE 3672
Less 3671
terrible 3671
antly 3670
Days 3669
nia 3669
exc@@ 3668
demonstrate 3667
Destinations 3666
asp@@ 3666
ONG 3665
Official 3665
Editor 3663
guarantees 3662
virtually 3662
fraud 3661
interact 3661
leg 3661
pink 3660
125 3659
DB 3659
Wei@@ 3659
111 3658
350 3658
Entry 3658
Wireless 3658
fle@@ 3658
Tab@@ 3657
oni 3656
BU@@ 3655
wiki 3655
MP3 3653
diversity 3653
substantial 3653
DL-53@@ 3652
iri@@ 3652
Coun@@ 3651
alls 3651
partial 3651
licensing 3650
shoot 3647
Lumpur 3646
Large 3645
Scotland 3645
Reservations 3644
ello 3644
mistake 3644
apped 3643
loans 3643
Jinping 3642
Fac@@ 3641
alleged 3641
audit 3641
individually 3641
protective 3641
tec 3640
Ful@@ 3639
activation 3639
FE@@ 3638
esses 3638
mini@@ 3638
gs 3637
mineral 3637
stro@@ 3637
High-@@ 3636
participating 3636
dogs 3634
xing 3634
maximize 3633
eds 3632
tier 3632
adds 3631
accurately 3630
actors 3629
banners 3629
handed 3629
encryption 3628
strike 3628
FC 3627
Firefox 3627
there@@ 3626
WARRANTY 3625
curtains 3625
ea 3625
abilities 3624
substances 3624
tru@@ 3623
GP@@ 3622
eta 3621
producers 3621
UNESCO 3620
attempts 3620
Nic@@ 3619
imports 3618
inary 3618
brethren 3617
pose 3617
centres 3616
pursue 3616
wicked 3616
encing 3615
protects 3615
rear 3615
IX 3614
ately 3614
conferences 3614
possession 3614
shop@@ 3614
Citrix 3612
Pet@@ 3612
serviced 3612
wil@@ 3612
sym@@ 3611
Seattle 3610
charm 3610
mainland 3608
dale 3607
t.@@ 3607
SR@@ 3605
parquet 3604
vessels 3604
paste 3603
WE 3601
hardly 3601
incorporated 3601
jet 3601
view@@ 3601
oming 3600
stepped 3600
unc@@ 3600
Franc@@ 3599
conform 3599
fier 3599
Gol@@ 3598
alcohol 3598
incredible 3598
anymore 3597
hab@@ 3597
organize 3597
alist 3596
Strategy 3595
Vishay 3595
palace 3595
holders 3594
pics 3594
commit 3593
mont 3593
safely 3593
tex 3593
mom 3592
explanation 3589
homepage 3589
XX@@ 3588
tec@@ 3588
Flo@@ 3587
outs 3586
Bio@@ 3585
Constitution 3585
Patent 3584
Side 3584
workshop 3584
recovered 3583
Low 3582
doctors 3581
executives 3581
unemployment 3580
Cli@@ 3578
clouds 3578
intuitive 3578
ix 3578
rejected 3577
birthday 3576
funny 3576
dial 3575
Bab@@ 3574
BB@@ 3573
addressed 3573
Latvia 3572
Ven@@ 3572
São 3571
clubs 3571
kins 3571
knees 3571
random 3571
chang@@ 3570
strain 3570
unenforceable 3569
Educational 3568
Aut@@ 3566
Calle 3566
chocolate 3566
intensive 3566
tail 3566
Create 3565
Floor 3565
Columbia 3564
Total 3564
tiny 3564
joining 3563
arti@@ 3562
bling 3562
voters 3562
Memory 3561
boutique 3561
forums 3561
Deputy 3560
-minute 3559
4,@@ 3559
ban 3559
Pack 3558
简体中文 3558
Memorial 3557
eligible 3557
responsibilities 3556
Distributor 3555
Lang@@ 3554
ceiling 3553
buses 3552
disable 3552
filing 3552
od 3552
scenarios 3552
SN74ABT@@ 3551
invite 3551
lig@@ 3550
acked 3549
considerable 3549
drying 3549
equally 3549
newspapers 3549
nodded 3549
CS 3547
Packaging 3547
absence 3547
modifications 3547
Bit@@ 3546
Pon@@ 3545
eda 3544
governmental 3542
Senior 3541
Koh 3540
traveler 3540
restricted 3539
Ningbo 3538
non-exclusive 3538
postal 3538
reproduced 3538
rolled 3538
presidential 3537
ature 3536
ulate 3536
younger 3536
Magic 3535
oth 3535
warehouse 3535
Representative 3534
cour@@ 3534
GNU 3533
1,000 3532
Richard 3532
Xbox 3532
reward 3532
06@@ 3531
TF@@ 3531
Defense 3530
Studios 3530
Tube 3530
positioning 3530
wake 3530
yours 3530
HPE 3529
Back@@ 3528
Bat@@ 3528
decrease 3528
err@@ 3528
Ker@@ 3526
MHz 3526
day@@ 3525
intr@@ 3525
strive 3525
humanitarian 3523
itor 3523
promises 3523
racing 3523
13.@@ 3522
decoration 3522
casting 3521
troops 3521
Rental 3520
inated 3519
whereas 3519
advise 3517
001 3516
indicator 3516
proceed 3516
preserve 3515
composite 3513
mg 3512
中文 3512
ounding 3511
Mail 3510
Realty 3510
freely 3510
RF@@ 3509
Roc@@ 3509
Bul@@ 3508
CT 3508
nu@@ 3508
Diamond 3507
PST 3507
essence 3507
WIFI 3505
cloth 3505
Siliconix 3504
imaging 3504
ASEAN 3503
opinions 3503
sleeping 3503
pli@@ 3502
uniform 3502
Connect 3501
olo@@ 3501
cing 3500
ll 3500
urs 3500
interfere 3499
programmes 3499
Oxford 3497
EX 3496
Monte 3496
adequate 3496
concluded 3496
mixing 3496
Base 3495
Carolina 3495
dol@@ 3495
treaty 3495
var@@ 3495
ater 3494
endorse 3494
abuse 3493
ishes 3493
scenario 3493
yen 3493
Week 3492
tied 3492
renewable 3491
likewise 3490
Revelation 3489
brown 3489
offline 3489
Bs 3486
Disclaimer 3486
Slovenia 3486
columns 3486
Lau@@ 3485
chronic 3485
ert 3485
repeated 3485
xx@@ 3485
su 3484
gol@@ 3482
volumes 3482
Fal@@ 3478
Qi@@ 3478
bond 3478
accessed 3477
ounded 3477
references 3477
query 3476
ram 3476
Certificate 3475
innovations 3475
et-@@ 3474
rings 3474
NOW 3473
crazy 3473
ern@@ 3473
hobby 3473
receives 3472
excellence 3471
Climate 3470
moisture 3470
Sum@@ 3469
designing 3469
texts 3469
state-of-the-art 3468
UL 3466
ected 3466
examine 3466
repl@@ 3466
lav@@ 3465
tablets 3465
yield 3465
Economics 3464
Off@@ 3464
ew 3464
Luke 3463
cuts 3463
founder 3463
plain 3463
ump@@ 3463
valet 3463
basket 3462
LC@@ 3461
farmers 3461
suff@@ 3460
Buddhist 3459
angels 3458
Hom@@ 3457
Pass 3456
collecting 3456
curtain 3456
proposal 3456
extract 3454
Fast 3453
Rica 3453
appliances 3453
iro 3453
resurrection 3452
Centro 3451
IO@@ 3451
grass 3451
strengthening 3451
Classic 3450
Copenhagen 3449
Hum@@ 3449
aces 3449
exploit 3449
tt@@ 3449
investor 3448
pride 3448
ax 3447
explo@@ 3447
minimize 3447
diplomatic 3446
Henry 3445
Aqu@@ 3444
cargo 3444
Belt 3443
Dol@@ 3443
beam 3443
by-@@ 3443
spots 3443
beneficial 3442
infringement 3442
skill 3442
specialists 3442
Apache 3441
Direc@@ 3441
affiliate 3441
ank 3441
gases 3441
hydrogen 3441
nobody 3441
wan 3440
Grande 3439
positioned 3439
vo 3439
Tourist 3438
Economy 3437
aster 3437
cabinet 3437
itors 3436
oli@@ 3436
Lab 3434
lifestyle 3434
promptly 3434
ries 3434
LIABLE 3432
Maj@@ 3432
Men 3432
pilot 3432
tracks 3432
105 3431
KM 3430
Virginia 3430
gn@@ 3430
streaming 3430
tos 3430
Mumbai 3429
¶ 3429
Wat@@ 3428
auction 3428
biological 3427
enormous 3427
exclusively 3427
mobil@@ 3427
mon 3427
ared 3426
Marine 3425
buried 3424
genuine 3424
nic@@ 3424
robots 3424
conc@@ 3423
ball@@ 3422
gathering 3422
requiring 3422
sequence 3422
Min 3420
VA 3420
complicated 3420
deploy 3420
everybody 3419
Pop 3418
Route 3418
deny 3418
fol@@ 3418
mixture 3418
Cle@@ 3417
lat@@ 3413
Goods 3412
Sto@@ 3412
similarly 3412
souls 3412
Ly@@ 3411
S. 3409
shar@@ 3409
baggage 3408
Nar@@ 3407
prosperity 3407
Hanoi 3406
ques 3406
sible 3405
Oriental 3404
Shandong 3404
bandwidth 3404
extraordinary 3404
animation 3403
.php 3402
dy@@ 3402
instantly 3402
thirty 3402
terrorism 3401
unlawful 3401
16-@@ 3400
Yang 3400
Bil@@ 3398
LIABILITY 3397
Ric@@ 3397
pass@@ 3397
packing 3396
B. 3395
Pages 3395
governing 3395
← 3395
difficulty 3394
slippers 3394
Installation 3392
Score 3390
int@@ 3390
combining 3389
songs 3389
breakfasts 3388
gy@@ 3388
imposed 3388
jump 3388
mad@@ 3388
lear@@ 3387
Blowjob 3385
Miss 3385
passport 3385
Like 3384
Mand@@ 3384
Porsche 3384
earned 3383
interactions 3383
sup@@ 3383
Mart@@ 3382
outcomes 3382
shore 3382
NON-INFRINGEMENT 3381
devil 3381
Z-@@ 3380
fences 3380
E. 3379
stu@@ 3379
uti@@ 3378
cap 3377
isolated 3377
occasions 3377
S.@@ 3376
ck@@ 3376
Flow 3375
Van 3375
blessing 3372
celebrate 3372
Euro 3371
e.aspx 3371
processors 3371
HU@@ 3370
Take 3370
puts 3370
minds 3369
EST 3368
LAN 3368
excess 3368
Apart@@ 3367
Pay@@ 3366
nor@@ 3365
Springs 3364
popularity 3364
ugg@@ 3364
CU@@ 3363
architectural 3363
violations 3363
Rol@@ 3362
audi@@ 3362
restored 3362
investing 3361
Offer 3360
Soci@@ 3360
Wor@@ 3360
observe 3360
succeed 3359
Wood@@ 3358
scheme 3358
Brokerage 3357
Osaka 3357
ite@@ 3357
Dou@@ 3356
algorithm 3356
large-scale 3356
cables 3355
crusher 3355
lively 3355
pocket 3355
amongst 3354
cy 3353
readers 3353
yl 3353
JO@@ 3352
festival 3352
translated 3352
Links 3351
umb@@ 3351
46@@ 3350
76@@ 3350
definitive 3350
con 3349
owed 3348
purchases 3348
8.0 3347
charger 3347
expense 3347
ox 3347
brake 3345
borders 3344
ERP 3343
icon@@ 3343
indi@@ 3343
150@@ 3342
LAW 3342
constructed 3342
hr@@ 3342
zi 3342
92@@ 3341
ade@@ 3341
finds 3341
pH 3341
tle 3341
van@@ 3341
Currency 3340
RM@@ 3340
bled 3340
fish@@ 3340
Field 3338
W-@@ 3338
distinct 3338
mes 3338
CONTENT 3337
worker 3337
Rab@@ 3336
Touch 3336
care@@ 3336
tain@@ 3336
Serbia 3335
Yi 3335
Books 3334
Land@@ 3334
county 3334
discrimination 3333
identifying 3333
rap@@ 3333
personality 3331
potentially 3331
UB@@ 3330
prec@@ 3330
somewhere 3330
stal@@ 3330
Bour@@ 3329
Original 3329
aled 3329
NEW 3328
checks 3328
fas@@ 3328
Posted 3327
minim@@ 3327
tro 3327
Johnson 3326
I. 3325
controllers 3325
Cra@@ 3324
Pletronics 3324
Salvador 3324
dges 3324
episode 3324
xin 3324
14.@@ 3323
HK@@ 3323
prospects 3323
namely 3322
Directors 3321
Jan 3321
improves 3321
Cafe 3320
Chen 3319
threw 3319
youâ 3319
Dra@@ 3318
cro@@ 3318
riding 3318
Chamber 3317
courage 3317
ells 3317
high-end 3317
candidates 3316
gh 3316
infected 3316
poster 3316
Cannes 3315
Notice 3315
Simon 3315
welfare 3315
Babylon 3314
fits 3312
govern 3312
indicators 3310
2020 3308
Marble 3308
VM 3308
removing 3307
Der@@ 3306
LS@@ 3306
aded 3306
199@@ 3305
Ale@@ 3305
DI 3305
Mini@@ 3305
gross 3305
pag@@ 3305
furnace 3304
passage 3304
Pass@@ 3303
Wales 3303
exercises 3303
ML@@ 3302
TH 3302
tonight 3302
140@@ 3301
piano 3301
ska 3301
Pierre 3300
faithful 3300
legally 3300
optim@@ 3299
ship@@ 3299
dic 3298
grain 3298
50-@@ 3297
Donald 3297
pers@@ 3297
Var@@ 3296
Da 3295
passes 3295
NC 3294
TP 3294
frequent 3294
30-@@ 3293
fal@@ 3293
mailing 3293
vers@@ 3293
Future 3291
caching 3291
Ass 3290
bes@@ 3290
separately 3290
unified 3290
geometry 3289
bits 3288
ler@@ 3288
autumn 3286
certificates 3286
returning 3286
batteries 3285
breathing 3285
eller 3285
ases 3284
hun@@ 3284
lucky 3284
3000 3282
Brisbane 3282
amed 3282
angh@@ 3281
stomach 3280
1988 3279
anal@@ 3279
Football 3278
coordination 3278
fe 3278
ult 3278
Listen 3277
verified 3277
honey 3276
monitors 3276
matching 3274
bi 3273
curve 3273
cylinder 3273
riv@@ 3273
Unicode 3272
adoption 3272
esti@@ 3270
Hotel@@ 3269
Myanmar 3269
conscious 3269
Dallas 3268
Mid-range 3268
TV@@ 3268
speeds 3268
folders 3267
usion 3267
Gil@@ 3266
autonomous 3266
blow 3266
compliant 3266
oxide 3266
agon 3264
browsers 3264
reveal 3264
Smart@@ 3263
4th 3262
Drinks 3262
Job 3262
burnt 3262
employer 3262
draft 3261
hua 3261
basically 3260
sad 3260
ental 3259
lawyers 3259
tap@@ 3259
attraction 3258
stared 3258
-1 3257
kilometers 3257
3.1 3256
habits 3256
remembered 3256
villages 3256
atis@@ 3255
une 3255
42@@ 3254
reset 3254
sidebar 3254
AGREEMENT 3253
ity-@@ 3253
oting 3253
Battery 3252
Smith 3251
sta@@ 3251
discharge 3250
WA 3249
PT 3246
asks 3245
rad@@ 3245
1980 3244
Register 3244
sunset 3244
teen 3244
GH@@ 3243
forgotten 3243
Budget 3242
Estonia 3242
IE 3242
SB@@ 3242
Tableau 3242
zo 3242
Austin 3239
HS@@ 3239
buyers 3239
kar@@ 3239
mat 3239
15.@@ 3238
Default.aspx 3238
roles 3238
bers 3237
Son@@ 3236
prompted 3236
ren 3236
pil@@ 3235
votes 3235
way@@ 3235
DR 3234
balls 3234
书报摊 3234
advertisements 3233
ami 3233
craft 3233
smell 3233
Automotive 3232
concierge 3232
gging 3232
mighty 3232
newsletter 3232
survival 3232
Tag 3231
owing 3231
Resource 3230
aking 3230
estimate 3229
feels 3229
CAN@@ 3228
sand@@ 3228
2D 3227
belongs 3227
captain 3227
RFID 3225
arity 3225
cement 3224
spray 3224
acquire 3222
placing 3222
sealing 3222
Factory 3221
16.@@ 3220
Lev@@ 3220
Spe@@ 3220
resident 3220
wat@@ 3220
о@@ 3220
adjustable 3219
browse 3218
modes 3218
til@@ 3218
commission 3217
intervention 3217
zy 3217
airline 3216
din@@ 3216
spectrum 3216
Ass@@ 3215
cost-effective 3215
hurricane 3215
liber@@ 3215
sel 3215
Subway 3214
dep@@ 3214
Bah@@ 3213
PCB 3213
Sweet 3213
approaches 3213
durable 3212
authors 3211
cord 3211
friendship 3211
molding 3211
ku 3210
suggests 3210
unavailable 3210
vit@@ 3210
integral 3209
2.jpg 3208
PW@@ 3208
inform@@ 3208
Hey 3207
Himself 3207
Relations 3207
TI 3207
ee@@ 3207
72@@ 3206
è@@ 3206
Get@@ 3205
Situated 3205
essi@@ 3205
excursions 3205
foot@@ 3205
wilderness 3205
cook 3204
rop@@ 3204
underlying 3204
pet@@ 3203
Dan@@ 3202
Galaxy 3202
cache 3201
encouraged 3201
grateful 3201
no-@@ 3201
roughly 3201
Script 3200
securities 3200
surveillance 3200
Featuring 3199
guides 3199
roc@@ 3199
reasonably 3197
cycles 3196
mankind 3196
Programme 3195
immune 3195
logs 3195
Range 3194
Wel@@ 3194
oils 3194
Pot@@ 3193
begun 3193
fer 3193
grand@@ 3193
stroke 3193
collapse 3192
juice 3192
confident 3191
mate 3191
BI@@ 3190
conservation 3190
customize 3190
defects 3190
suspected 3190
photography 3189
tering 3189
alists 3188
fate 3188
Bin@@ 3187
Dream 3186
intensity 3184
tal 3184
Bou@@ 3183
ament 3183
differential 3183
tia 3183
arrow 3182
punishment 3182
recycling 3182
textile 3182
Creative 3181
backed 3181
Hampton 3180
assess 3180
blend 3180
conveyor 3180
economics 3180
minor 3180
um-@@ 3180
Cold 3179
.S@@ 3178
acceptable 3178
OUR 3177
Reference 3177
imag@@ 3177
Remote 3176
Bec@@ 3175
Dur@@ 3175
bow 3175
ken@@ 3175
ally-@@ 3174
emotional 3173
olog@@ 3173
Consulting 3172
fon@@ 3172
Ron@@ 3171
consult 3170
derived 3170
harder 3170
Cruz 3169
bin 3169
Visual 3167
pan 3167
Things 3166
placement 3166
occupied 3165
representing 3165
bat@@ 3163
comb@@ 3163
rescue 3163
significance 3161
250@@ 3160
captured 3159
Wa@@ 3158
ight 3158
obey 3156
broadcast 3155
Belarus 3154
Kyoto 3154
prominent 3154
Liverpool 3153
OBTAINED 3153
andy 3152
slave 3152
Mah@@ 3151
RSS 3151
Sn@@ 3151
rian 3151
batch 3150
fewer 3150
somewhat 3150
tes@@ 3150
Ep@@ 3149
Lebanon 3149
RMB 3148
controlling 3148
eurozone 3148
plan@@ 3148
ho 3147
holes 3147
vans 3147
brightness 3146
deck 3146
yu 3146
ENTS 3145
ested 3145
statistical 3145
Auto@@ 3144
nan@@ 3144
aga 3143
loud 3143
wel@@ 3143
Fitness 3142
Plant 3142
intent 3142
ultra-@@ 3142
apping 3141
eggs 3141
producer 3141
xes 3141
preferential 3140
102 3137
Military 3137
ANT 3136
misleading 3136
phenomenon 3136
resolved 3135
abide 3134
fold 3134
royal 3134
vent@@ 3134
Asiahotels.net 3133
Sou@@ 3133
fairly 3133
ured 3132
dos 3130
php 3130
Beds 3129
aw 3128
locate 3128
Aviv 3126
tape 3126
harmony 3125
icity 3124
year-old 3124
XML 3123
intense 3123
twenty-@@ 3123
2015-@@ 3122
Delta 3121
Seller 3121
convinced 3121
estimates 3121
K-@@ 3119
dad 3119
lo 3119
mood 3119
catalog 3118
Kit 3116
Lou@@ 3116
camp@@ 3115
ima 3115
liberal 3115
MS@@ 3114
wheels 3114
R-@@ 3113
Transfer 3113
tab@@ 3113
Disney 3112
Kol@@ 3112
Medi@@ 3112
bowl 3112
ential 3112
itâ 3112
Dalian 3111
adjacent 3111
fri@@ 3111
stem 3111
CONDITIONS 3110
Clock 3110
alongside 3109
Kitchenette 3108
Schools 3108
wishes 3108
firmly 3107
adapted 3106
forgive 3106
ader 3105
Atmel 3104
el-@@ 3104
horses 3104
sey 3104
ulated 3104
Websites 3103
construed 3102
discipline 3102
Inf@@ 3101
vulnerable 3101
74LV@@ 3100
Gri@@ 3100
Sig@@ 3099
scanner 3099
tissue 3099
MAY 3098
detected 3097
inst@@ 3097
ranking 3097
tits 3097
Pendant 3096
pigeon 3096
Oslo 3095
convention 3095
Cav@@ 3094
Prin@@ 3094
itch 3094
jer@@ 3094
asi@@ 3093
Cat 3091
TIONS 3091
Gro@@ 3090
domains 3090
consensus 3089
GL@@ 3088
revised 3088
Hyatt 3087
ABCDE 3086
t.aspx 3086
Places 3085
icate 3085
Americas 3083
Hun@@ 3083
Joshua 3083
depression 3082
focuses 3082
reflects 3082
Bill 3081
Tong@@ 3081
VAT 3081
internationally 3080
pu@@ 3080
campaigns 3079
glasses 3079
tit@@ 3079
Pay 3078
motors 3077
borne 3076
dressed 3076
proc@@ 3076
ul 3076
Guinea 3075
HS 3075
Dubrovnik 3073
Sensor 3073
Sheet 3073
ser 3073
vac@@ 3073
FGHIJ 3072
interference 3072
torque 3072
wage 3072
Piece 3071
heim 3069
Declaration 3068
interns 3068
Bush 3067
ager 3067
valley 3067
DIS@@ 3066
antique 3066
CBD 3065
EA 3065
politicians 3065
Gener@@ 3064
Taxi 3064
deduc@@ 3064
pin@@ 3064
sensitivity 3064
KE 3063
Israeli 3061
Samui 3061
semiconductor 3061
WITHOUT 3060
executed 3059
organs 3059
vic@@ 3059
ACSI 3058
Provider 3058
san@@ 3058
tunnel 3058
Syrian 3057
esh 3057
cheese 3056
inheritance 3056
smiling 3056
bay 3055
compression 3055
invitation 3055
lay@@ 3055
tured 3055
withdraw 3055
Cuba 3054
rod 3054
heavily 3053
Kil@@ 3050
Van@@ 3050
olo 3050
orn 3049
socialist 3049
Vari@@ 3048
elec@@ 3047
stays 3047
GS@@ 3045
high@@ 3045
has@@ 3044
shoulders 3044
UI 3043
25-@@ 3042
Carpeted 3042
anti 3042
reflection 3042
dwell 3041
SER@@ 3040
ratings 3040
reject 3040
Driver 3038
Imperial 3038
Micro 3037
bos@@ 3037
onsite 3037
tanks 3036
particle 3035
iner 3033
Dam@@ 3032
Chris 3031
Orange 3031
wan@@ 3031
dick 3029
tory 3029
Xia@@ 3028
minimal 3028
steady 3028
Flat 3027
four-@@ 3027
submitting 3026
Direct 3025
ison 3025
DW@@ 3024
healing 3024
archi@@ 3023
citizen 3023
optimum 3023
ar-@@ 3022
speaks 3022
unusual 3022
58@@ 3021
crimes 3021
libraries 3021
off-@@ 3021
purity 3020
Ferryto.com 3019
emphasis 3019
experiment 3018
flo@@ 3018
modeling 3018
nose 3018
asleep 3017
traders 3017
Fine 3016
Ma 3016
Mini 3016
dum@@ 3016
rey 3016
nut 3015
Urban 3014
Wake-up 3014
tha 3014
ural 3014
kh@@ 3013
Call 3012
IES 3012
involve 3012
proposals 3012
gio 3011
Km 3010
king@@ 3009
PLC 3008
pra@@ 3007
texture 3007
Automatic 3006
bottles 3006
Play@@ 3005
5.0 3004
updating 3004
Annual 3003
PVC 3003
Rus@@ 3003
Title 3003
containers 3003
roots 3003
Canyon 3002
HTML5 3002
Cube 3001
chains 3001
matic 3001
pdf 3001
consist 3000
gambling 3000
segment 3000
Mit@@ 2998
publications 2998
Arena 2997
Tan@@ 2997
incorrect 2997
ip 2997
Lady 2996
Mis@@ 2996
dictionary 2995
ough 2995
Tru@@ 2994
fire@@ 2994
nec@@ 2994
ranges 2994
stabil@@ 2994
tag@@ 2994
disc 2993
Kir@@ 2992
Champ@@ 2991
VIP 2991
currencies 2991
garage 2991
tives 2991
Genesis 2990
Les@@ 2990
Hon@@ 2989
Mandarin 2989
conver@@ 2989
muscle 2989
skilled 2989
Pharaoh 2988
rough 2988
Shar@@ 2987
master@@ 2987
stan@@ 2987
big@@ 2986
Cities 2985
tible 2985
eter@@ 2984
silicone 2984
MON@@ 2983
HIV 2982
WTO 2982
revol@@ 2982
rub@@ 2982
snacks 2982
Gift 2981
identical 2981
oh 2981
DV@@ 2979
Justice 2979
excessive 2979
fulfilled 2979
pro 2979
vendors 2979
Kit@@ 2977
Swimming 2977
iti 2977
throat 2977
Position 2976
DG@@ 2975
cab@@ 2975
itz 2975
lamps 2975
responses 2975
Based 2973
Fel@@ 2973
competitiveness 2973
tran@@ 2973
Priceline 2972
Zhang 2972
loose 2972
ria 2972
Samuel 2971
coatings 2971
Putin 2970
attacker 2970
Bad@@ 2969
Nat@@ 2969
asa 2969
consisting 2969
sar@@ 2969
clos@@ 2968
tica 2968
123 2966
Favourite 2966
Angel 2965
CSS 2965
Lost 2965
Vo@@ 2965
mot@@ 2965
characteristic 2964
harsh 2963
wider 2963
fastest 2961
dimension 2959
eness 2959
mile 2959
patio 2959
Document 2958
Ele@@ 2958
Honda 2958
Furniture 2957
arose 2957
hardness 2957
summit 2957
Gu 2956
Simple 2956
use@@ 2956
hoo@@ 2955
2014-@@ 2954
Tile 2954
completing 2954
cute 2954
ont@@ 2954
Agoda 2953
Agriculture 2953
Sony 2953
airports 2953
globalization 2953
waited 2952
Blood 2951
Cookies 2951
Lav@@ 2950
SY@@ 2950
infrared 2950
sou@@ 2950
ACT@@ 2948
Def@@ 2948
Iceland 2948
bulk 2948
cheng 2948
creativity 2948
Sam 2947
Student 2947
emb@@ 2947
Spec@@ 2946
Daily 2945
SCO 2945
SUSE 2945
Output 2944
authorization 2944
az 2944
cultures 2944
authentic 2942
bacteria 2942
oul@@ 2942
resulted 2942
Mak@@ 2940
Frank 2939
Package 2939
bou@@ 2939
daughters 2938
Juan 2937
repe@@ 2937
Clos@@ 2936
did@@ 2936
Detailed 2935
MF@@ 2935
ashes 2935
grave 2935
SW@@ 2934
beautifully 2934
pendant 2934
sealed 2934
candidate 2933
clo@@ 2933
it-@@ 2933
ott 2933
posters 2933
¤ 2933
exploring 2932
corn 2930
ete 2930
Albert 2929
MI 2929
declare 2929
preview 2929
refugees 2929
aur@@ 2928
eb@@ 2928
Des 2927
assured 2927
Battle 2926
Lon@@ 2926
kid 2926
spam 2926
violent 2926
Birmingham 2924
possess 2924
stamp 2923
Slovakia 2922
Eurostar 2921
Lat@@ 2921
wages 2921
carriage 2920
lif@@ 2920
mad 2920
Collec@@ 2919
believers 2919
Previous 2918
carriers 2917
organisations 2917
shooting 2917
somehow 2917
box@@ 2916
liabilities 2916
alternatively 2915
apparently 2915
broad@@ 2915
ter-@@ 2915
Behold 2914
classified 2914
submission 2914
Curve 2913
HAR@@ 2913
Properties 2913
chairman 2912
Fox 2910
Rot@@ 2910
alia 2910
ent-@@ 2910
jewelry 2910
realistic 2910
uted 2910
11.@@ 2909
ago@@ 2909
Yuan 2908
instruction 2908
HOME 2907
org 2907
Cheng 2906
provinces 2905
Circle 2904
Lincoln 2903
kk@@ 2903
5th 2902
Il@@ 2902
Toggle 2902
marry 2902
metric 2902
kilometres 2901
validation 2900
china 2899
ock 2899
Lisboa 2898
centr@@ 2898
genetic 2898
procurement 2898
coastal 2897
Trojan.@@ 2896
contest 2895
demonstrated 2895
was@@ 2895
Child 2894
Orleans 2893
eous 2893
correction 2892
stack 2892
subsidiary 2892
Additional 2891
Romans 2891
quar@@ 2891
AGE 2890
consistently 2890
fonts 2890
legacy 2890
nervous 2890
shortly 2890
Manila 2889
edi@@ 2889
Law@@ 2888
boats 2888
potatoes 2888
fare 2887
nutrition 2886
South@@ 2885
stuck 2885
violated 2885
Death 2884
MT@@ 2884
astic 2884
circulation 2884
Story 2883
2.8 2882
Cour@@ 2882
engaging 2882
ape 2881
dle 2881
welcomes 2881
18th 2880
rob@@ 2880
Arizona 2879
sends 2879
wind@@ 2879
Jose 2878
the-@@ 2878
1985 2877
Bag@@ 2877
Volume 2877
Bitcoin 2876
YO@@ 2876
Brazilian 2875
FX 2875
TP@@ 2875
kernel 2875
sanctions 2873
SOLIDWORKS 2872
generating 2872
meta 2872
Will 2871
cher@@ 2871
performances 2871
Chin@@ 2870
bb@@ 2870
excitement 2870
intention 2870
L. 2869
Canal 2868
dock 2868
releases 2868
App@@ 2867
moder@@ 2867
cut@@ 2866
invested 2866
H-@@ 2865
Ok@@ 2865
disposal 2865
limiting 2865
scenery 2865
vi 2865
.â 2864
245@@ 2864
Ring 2864
alizing 2864
Booked 2863
Nik@@ 2863
SI 2863
burned 2863
drilling 2863
inability 2863
Wan@@ 2862
berry 2862
ety 2862
framing 2862
Vit@@ 2861
inspiration 2861
kan@@ 2861
preventing 2861
yr@@ 2860
Sher@@ 2859
obtaining 2859
Enter 2858
Pudong 2858
ecting 2858
graphical 2858
Escapia 2857
confusion 2857
1000@@ 2855
Adri@@ 2855
ection 2854
.ashx 2853
Chengdu 2853
publishing 2853
trillion 2853
MM@@ 2852
UR 2852
Using 2852
Voltage 2852
Isle 2851
Request 2851
abstract 2851
eve 2851
uma 2851
fed 2850
b-@@ 2849
renewal 2849
Ry@@ 2848
emotions 2848
enhancing 2848
milling 2848
versatile 2848
Pel@@ 2847
hiking 2847
withÂ 2847
nings 2846
sights 2846
OM@@ 2845
inate 2845
reign 2844
Yellow 2843
continually 2841
103 2839
institutional 2839
novel 2839
Jam@@ 2838
Camp 2837
HR 2837
substance 2837
lows 2836
1200 2834
Secret 2834
connects 2834
grabbed 2834
graph 2834
independently 2834
clu@@ 2833
configurations 2833
entries 2833
sentence 2833
snow@@ 2833
walks 2833
● 2833
Cham@@ 2832
Hewlett-Packard 2832
Ten@@ 2832
deb@@ 2832
withdrawal 2832
crying 2830
Dig@@ 2829
Under@@ 2829
argue 2829
eff@@ 2829
、 2829
Valve 2828
attributes 2828
deletion 2827
ows 2827
rank 2827
sandy 2827
Oc@@ 2826
laugh 2826
nar@@ 2826
Anna 2825
Anne 2825
akes 2825
flame 2825
Hardware 2824
Pil@@ 2824
Wholesaler 2824
admission 2824
artistic 2824
subway 2824
entary 2823
populations 2823
Files 2822
Villas 2822
admit 2822
los 2822
obscene 2822
ste 2822
bud@@ 2821
opposed 2821
safeguard 2821
CI@@ 2820
CR 2820
HR@@ 2820
foregoing 2820
killing 2820
Aquarium 2819
BA 2819
chemistry 2819
structured 2819
Agilent 2818
Maintenance 2818
Sukhumvit 2818
ener@@ 2818
neutral 2818
num@@ 2817
whilst 2817
wheelchair 2816
draw@@ 2815
partly 2815
Edward 2814
compressor 2814
leaned 2814
Jackson 2813
Joh@@ 2813
corporations 2813
gentle 2813
linking 2813
monitorings 2813
orientation 2813
Granada 2812
Operations 2812
gies 2812
inations 2811
mem@@ 2811
Azerbaijan 2810
Jun@@ 2809
Montenegro 2809
linen 2808
participated 2808
pav@@ 2808
reaches 2808
traditions 2808
Export 2807
Program@@ 2807
hospitals 2806
incident 2806
astro@@ 2805
Fax 2804
corrupt 2804
insert 2804
1987 2803
E-mail 2803
Patong 2803
obj@@ 2803
saves 2803
Well 2802
judicial 2802
Glasses 2801
Infrastructure 2801
Xiamen 2801
Tool@@ 2800
ente 2800
Parks 2799
maid 2799
Equ@@ 2798
Home@@ 2798
Naz@@ 2797
author@@ 2797
bir@@ 2797
jud@@ 2797
colours 2796
8.2 2795
uring 2795
Andrew 2794
brilliant 2794
enter@@ 2794
over-@@ 2794
titles 2794
stic 2793
y.com 2793
Dong 2792
Fam@@ 2792
tively 2792
mp 2791
nail 2791
ode 2791
Denver 2790
automobile 2790
vide@@ 2788
wholesale 2788
Cel@@ 2787
ema 2787
10,000 2786
MAN@@ 2785
Ther@@ 2785
light@@ 2785
tall 2785
erts 2784
paths 2784
publishes 2784
therein 2784
ais 2783
margin 2783
Hosting 2781
fireplace 2781
ghts 2781
watches 2781
worried 2781
Colorado 2780
Fortune 2780
Hungarian 2780
accepting 2780
yi@@ 2780
Adult 2778
Bis@@ 2778
Creator 2778
Optim@@ 2778
Win32 2778
alliance 2778
ke-@@ 2778
matrix 2778
mistakes 2778
Before 2777
Qui@@ 2777
Risk 2777
Vir@@ 2777
completeness 2777
cultivation 2777
muscles 2777
ruling 2777
Tw@@ 2776
announcement 2775
Notes 2774
unk 2774
missed 2773
teenth 2773
Doctor 2772
Kap@@ 2772
mac@@ 2772
shelf 2772
Lyon 2771
Movement 2770
shire 2770
Processor 2769
emer@@ 2769
habitat 2769
Mario 2768
PROVIDED 2768
alisation 2768
shade 2768
addressing 2767
exam 2767
Return 2766
jacket 2766
uploads 2766
wings 2765
Distribution 2764
affects 2764
chem@@ 2764
complaints 2764
Southeast 2763
dered 2763
109 2762
Posts 2762
dorf 2762
pun@@ 2762
uous 2762
yu@@ 2762
Set@@ 2761
diagnostic 2761
equality 2761
gia 2761
them@@ 2761
ake 2760
coin 2760
finishing 2760
gal@@ 2760
Competition 2759
ingen 2759
luck 2759
probe 2759
shed 2759
tism 2759
carbide 2758
knife 2758
secrets 2758
tribe 2758
seventh 2757
theÂ 2757
ú@@ 2757
Registry 2756
atch 2756
trace 2756
Locations 2755
Show@@ 2755
astr@@ 2754
pushing 2754
chances 2753
dist@@ 2753
pot@@ 2753
theatre 2753
Stockings 2752
aÂ 2752
cope 2752
eno 2752
watch@@ 2751
ographic 2750
bles 2749
emon 2749
160@@ 2748
Siem 2748
deaths 2748
execute 2748
forests 2748
hungry 2748
pulse 2748
Jes@@ 2747
View@@ 2747
ITE 2746
coo@@ 2746
pregnant 2746
wars 2746
】 2746
Silicon 2745
ession 2745
impression 2745
multitude 2745
Run@@ 2744
doc@@ 2744
vessel 2744
2.6 2743
Cruise 2743
mig@@ 2743
【 2743
Travel@@ 2742
ounds 2742
16th 2741
Gran@@ 2741
talents 2741
converter 2740
loving 2740
dying 2739
open@@ 2739
ump 2739
Rico 2738
agrees 2738
bug 2738
forgot 2738
iTunes 2738
utilization 2738
Piazza 2737
Storm 2737
Sus@@ 2737
activated 2736
hanging 2736
tot@@ 2736
Congo 2735
N-@@ 2735
alter 2735
atur@@ 2735
drawings 2735
pipeline 2735
Fore@@ 2734
LIN@@ 2733
osa 2732
suits 2732
extraction 2731
workplace 2731
Fun 2730
Wu@@ 2730
hopes 2730
revision 2730
tire 2730
52@@ 2729
Bathroom 2729
MOV 2729
QC 2729
blogs 2729
failures 2729
spra@@ 2729
Reap 2728
2.7 2727
sens@@ 2727
Song@@ 2726
denied 2726
scenes 2726
Excellent 2725
Fle@@ 2725
sv@@ 2725
NAME 2724
comprises 2724
lung 2724
p.@@ 2724
Huang@@ 2723
Lap@@ 2723
750@@ 2722
irr@@ 2722
favicon.ico 2721
followers 2721
hand-@@ 2721
ushing 2721
EK 2720
Isaiah 2719
lock@@ 2719
49@@ 2718
simplify 2718
ult@@ 2717
Self-@@ 2716
lers 2716
nos 2716
Mainland 2715
Tuber 2715
Tunisia 2715
ishment 2715
ound@@ 2715
screening 2715
Ball@@ 2714
Sir 2713
gaining 2713
mic@@ 2713
zones 2713
analog 2712
bicycle 2711
lover 2711
mortgage 2711
ologist 2711
passwords 2711
Fir@@ 2710
TT 2710
seminars 2710
undertake 2710
Switch 2709
pad 2709
discontinuance 2708
toys 2708
Renaissance 2707
Commons 2706
angu@@ 2706
separ@@ 2706
CAM 2705
Have 2704
Tumble 2704
rel 2704
findings 2703
free@@ 2702
workflow 2702
Independent 2701
PRE@@ 2701
fel@@ 2701
Anti-@@ 2700
Ear@@ 2700
Ray@@ 2700
bent 2700
duplicated 2700
rivers 2700
shots 2700
Centr@@ 2699
Ever@@ 2699
Wien 2699
adap@@ 2699
cha 2699
grap@@ 2699
World@@ 2698
pit 2698
Vancouver 2697
afford 2697
tac@@ 2697
B.@@ 2696
Kan@@ 2696
WA@@ 2696
uri@@ 2696
Cit@@ 2695
Piraeus 2695
ric 2695
user@@ 2695
Integrated 2694
Tour@@ 2694
Yodot 2694
widespread 2694
Active 2693
IMF 2693
Lotus 2693
zo@@ 2693
13th 2692
89@@ 2692
Saf@@ 2692
tance 2692
Jackie 2691
Nam@@ 2691
Printing 2691
fleet 2691
mates 2691
requ@@ 2690
Markets 2689
dimensional 2689
telecommunications 2689
Af@@ 2688
Mul@@ 2688
Winter 2687
104 2686
Shu@@ 2686
eters 2686
magazines 2686
Cart 2685
handled 2685
qualities 2685
wrath 2684
2016-0@@ 2683
Rad@@ 2683
mas 2683
monuments 2683
Haw@@ 2682
Sustainable 2682
rotary 2682
а@@ 2682
Sheraton 2681
atively 2681
capit@@ 2681
Mode 2680
activate 2680
functioning 2680
guestrooms 2679
pursuit 2679
69@@ 2678
Seville 2678
ald 2678
aves 2678
likes 2678
world@@ 2678
Bosnia 2676
Lighting 2676
Palestinian 2676
character@@ 2676
fled 2676
stretched 2676
106 2675
Kas@@ 2675
conducting 2675
defeat 2675
ections 2675
sively 2675
stre@@ 2675
Naples 2674
circular 2674
nation@@ 2674
Kenya 2673
ing.com 2673
stein 2673
OTHERWISE 2671
lightweight 2671
o.aspx 2671
resorts 2671
upcoming 2671
Marseille 2670
bow@@ 2670
cell@@ 2670
dental 2670
solving 2670
07@@ 2669
in-house 2669
lip@@ 2669
occupation 2669
15-25 2668
cure 2668
socket 2668
130@@ 2667
EB@@ 2667
Isaac 2667
toolbar 2667
uck@@ 2667
800@@ 2666
utter 2666
OPC 2665
essentially 2664
harvest 2664
Sl@@ 2663
chat@@ 2663
combinations 2663
infant 2663
mic 2663
musical 2663
pour 2663
ere@@ 2662
Portal 2661
STR@@ 2661
deposits 2661
KS 2660
alike 2660
AB 2659
CONSEQUENTIAL 2659
ffs 2659
iler 2659
quietly 2659
fli@@ 2658
translations 2658
Bangladesh 2657
Laundry 2657
PRO 2657
prevents 2656
sely 2656
uid 2656
Philadelphia 2655
compilation 2655
mapping 2655
Chrome 2654
courtyard 2654
ordin@@ 2654
stakeholders 2654
CHAN@@ 2652
ush 2652
201 2651
aggregate 2651
128 2650
Chen@@ 2650
Romanian 2650
qualification 2650
GE@@ 2649
Tibet 2649
consistency 2649
Gateway 2648
HA@@ 2648
jewellery 2648
non-smoking 2648
secured 2648
societies 2648
floral 2647
Backup 2646
dium 2646
ians 2646
1986 2645
Yu 2645
TECH 2644
Fish 2643
Real@@ 2643
anga 2643
backpackers 2643
room@@ 2643
world-class 2643
Adv@@ 2642
GN@@ 2642
Mike 2642
PR 2642
Verona 2642
WEB 2642
tar 2642
violates 2642
Fair@@ 2641
combat 2641
fulness 2641
symbols 2641
Mechanical 2640
Wildlife 2640
inn 2640
irs 2640
ja@@ 2640
patented 2640
LY 2639
boarding 2639
subcontractors 2639
Painting 2638
Retail 2638
lic 2638
pursuant 2638
und 2638
in-depth 2637
inclusion 2637
Consumer 2636
Kai@@ 2636
SV@@ 2636
arch 2636
landing 2636
trials 2636
Nigeria 2635
asse 2635
check@@ 2635
encounter 2635
webcam 2635
exported 2634
investigate 2634
Ray 2633
cies 2633
memorable 2633
header 2632
ram@@ 2632
regulated 2632
Guard 2631
barbecue 2631
ministry 2631
sh 2631
inde@@ 2630
wards 2630
Dal@@ 2629
Harvard 2629
One@@ 2629
bab@@ 2629
coins 2629
transformed 2629
nodes 2628
washed 2628
3.3 2627
plates 2627
450 2626
AV 2626
Kevin 2626
Vietnamese 2626
cent@@ 2626
enrich 2626
tern@@ 2626
Bob 2625
Stars 2625
olive 2625
DF@@ 2624
extensions 2624
warming 2624
ext@@ 2623
nur@@ 2623
theater 2623
vent 2623
world-@@ 2623
Ice 2622
asser@@ 2622
contacting 2622
es.com 2622
memories 2622
1984 2621
COR@@ 2621
Documentation 2621
leaf 2621
PSD 2620
Secure 2620
e-commerce 2620
itable 2620
stretch 2620
à 2620
Come 2619
Dhabi 2617
ement@@ 2617
introducing 2617
kou 2617
conten@@ 2616
deficit 2616
excluding 2616
provincial 2616
rein@@ 2616
surveys 2616
170 2615
scenic 2615
tolerance 2615
-M@@ 2614
Scientific 2614
open-@@ 2614
Joint 2613
Rep@@ 2613
friction 2613
Ja@@ 2612
Marco 2612
Yong@@ 2612
complaint 2612
elders 2612
end-@@ 2612
moderate 2612
1990s 2611
Benjamin 2611
Fab@@ 2611
Hawaii 2611
highway 2611
Zh@@ 2610
inning 2610
oe 2610
trigger 2610
ARISING 2609
attracted 2609
ing.aspx 2609
sanc@@ 2609
ased 2608
Mexican 2607
floating 2607
till@@ 2607
HLMP-@@ 2606
posed 2606
Ow@@ 2605
durability 2605
exploration 2605
Cards 2604
Tropical 2603
site@@ 2602
¥ 2602
glance 2601
lean 2601
pers 2601
confused 2600
handles 2600
revenues 2600
tool@@ 2600
SG@@ 2599
Transportation 2599
人@@ 2599
Macedonia 2598
fla@@ 2598
Multi-@@ 2597
characterized 2597
drill 2597
polymer 2597
territories 2597
Exp@@ 2596
actor 2596
divisions 2596
offshore 2596
Novotel 2594
Under 2594
ails 2594
ares 2594
ond 2594
quotes 2594
Os@@ 2593
algorithms 2593
arguments 2593
itting 2593
valentine-@@ 2593
AU 2592
Jones 2592
motor@@ 2592
CMS 2591
IND@@ 2591
hin@@ 2591
lawyer 2591
Explore 2590
Hardcore 2590
Perfect 2590
binary 2590
fifty 2589
ic-@@ 2589
weekly 2589
wr@@ 2589
PP 2588
VE@@ 2588
ld@@ 2588
eland 2587
impose 2587
municipal 2587
pper 2587
Fur@@ 2586
hadn 2586
zer@@ 2586
240 2585
Crown 2585
acle 2585
anny 2585
preach 2585
projection 2585
sovereignty 2585
urgent 2585
assumed 2584
determines 2584
har 2584
saf@@ 2584
Stephen 2583
bed@@ 2583
Mongolia 2582
breaks 2582
deployed 2582
ingo 2582
readily 2582
ven 2582
Custom 2581
Soft 2581
foam 2581
ik 2581
strip 2581
Cri@@ 2580
restrict 2580
zes 2580
Screen 2579
Condo 2578
Ontario 2578
Theater 2578
ESS 2577
Regulations 2577
vet@@ 2577
mystery 2576
Standards 2575
aviation 2574
explicitly 2574
compounds 2573
TER 2572
cad@@ 2572
integrating 2572
transi@@ 2572
108 2571
afterwards 2571
navigate 2571
poses 2571
tura 2571
wines 2571
0,@@ 2569
Asi@@ 2569
burst 2569
т@@ 2569
mos 2567
rooftop 2567
Limassol 2566
Pom@@ 2566
Ye@@ 2566
scre@@ 2566
scrip@@ 2566
bot 2565
demo 2565
fitting 2565
Jac@@ 2564
Y-@@ 2563
emerged 2563
Chang 2562
Creek 2562
R. 2562
Thus 2562
awesome 2562
rue 2562
IK@@ 2561
Mercure 2561
concert 2561
expiration 2561
JavaScript 2560
double-@@ 2560
amateur 2558
anonymous 2558
nitrogen 2558
calculate 2557
g-@@ 2557
short-term 2557
year@@ 2557
ELECTRONICS 2556
KE@@ 2556
blogging 2556
nestled 2556
Day@@ 2555
sink 2555
Macao 2554
inos 2553
exhaust 2552
know-how 2552
nom@@ 2552
puzzle 2552
logging 2551
atable 2550
uro 2550
whispered 2550
beverage 2549
bones 2549
FT 2548
Securities 2548
heart@@ 2548
tain 2548
ferred 2547
popul@@ 2547
Emperor 2546
Shows 2546
ei 2546
ez@@ 2546
apple 2545
eline 2545
lit 2545
school@@ 2545
Ve@@ 2544
clip 2544
determining 2544
ole@@ 2544
retrieve 2544
9001 2543
Campsite 2543
consultants 2543
negligence 2543
chicken 2542
̃ 2542
Animal 2541
Arch@@ 2541
Brun@@ 2541
neutr@@ 2541
sixth 2541
stance 2541
Au@@ 2540
Respon@@ 2540
SON 2540
Soul 2540
direc@@ 2540
Monaco 2539
Territory 2539
ean 2539
mit 2538
Il 2537
NE 2537
Vill@@ 2537
8.4 2536
Intelligence 2536
af 2536
furnishings 2536
queries 2536
writes 2536
Administrator 2535
BM@@ 2535
Gall@@ 2535
yourselves 2535
RS@@ 2534
Vin@@ 2534
colombia 2534
egg 2534
stering 2534
zy@@ 2534
Blonde 2533
FI@@ 2533
GA@@ 2533
Mod@@ 2533
analytical 2533
dre@@ 2533
rotation 2533
allies 2532
blame 2532
FS@@ 2531
ector 2531
malicious 2531
Mem@@ 2530
axial 2530
extends 2530
los@@ 2530
smallest 2530
MP4 2529
beliefs 2529
stric@@ 2529
Silk 2528
literally 2528
scripts 2528
temp@@ 2528
CN 2527
alert 2527
synthetic 2527
tender 2527
thrown 2527
Art@@ 2526
LP 2526
enjoyable 2526
fought 2526
spo@@ 2526
pickup 2525
seminar 2525
RELIGION 2524
aqu@@ 2524
hereinafter 2524
overnight 2524
Motorola 2522
suspended 2522
drops 2521
subsequently 2521
suppl@@ 2521
Landscape 2520
Opens 2520
Teen 2520
inviting 2520
organizational 2520
winners 2520
0000 2519
Hil@@ 2519
atin 2519
jadeite 2519
liqu@@ 2519
Om@@ 2518
SSL 2518
THESE 2518
ann 2518
barriers 2518
drove 2518
locking 2518
phot@@ 2518
uter@@ 2518
ón 2518
ür@@ 2518
8.1 2517
encrypted 2517
Monitoring 2516
loyalty 2516
uncertainty 2516
uro@@ 2516
ADDRESS 2515
Block 2515
Pad@@ 2515
bell 2515
compressed 2515
doctrine 2515
resin 2515
Romantic 2514
Sport 2514
annually 2514
permissions 2514
surcharge 2514
Apt 2513
attachment 2513
checkout 2513
hero 2513
hills 2513
大@@ 2513
Artec 2512
Compl@@ 2512
Hay@@ 2512
Payment 2512
enters 2512
107 2511
Commun@@ 2510
Corp 2510
fut@@ 2510
ool 2510
ya@@ 2510
Fro@@ 2509
Madagascar 2509
tray 2509
SHO@@ 2508
broker 2508
1970 2507
FerryTO 2507
Political 2507
assure 2507
crew 2507
unt 2507
2011-@@ 2506
GBP 2506
Kiss 2506
dancing 2506
oured 2506
Groups 2505
BL@@ 2504
Cisco 2504
crop 2503
entrepreneurs 2503
materi@@ 2503
1500 2502
retention 2502
Flickr 2501
districts 2501
heavens 2501
Entire 2500
listened 2500
Christianity 2499
esa 2499
gation 2499
inten@@ 2499
lovers 2499
saints 2499
sequ@@ 2499
aria 2498
eigh@@ 2498
fs 2498
stocks 2498
minority 2497
Bot@@ 2496
best@@ 2496
gor@@ 2496
nel 2496
59@@ 2495
Chap@@ 2495
Roma 2495
instances 2495
Drying 2494
Taipei 2493
Rap@@ 2492
formerly 2492
isolation 2492
rainfall 2492
â-oÂ 2491
79@@ 2490
Rectifier 2490
Run 2490
She 2488
ario 2488
beneath 2488
maj@@ 2488
rendering 2488
美@@ 2488
Anal 2487
EMS 2487
P. 2487
meth@@ 2487
predic@@ 2487
comforts 2486
viol@@ 2486
Basler 2485
databases 2485
lah 2485
ounce 2485
cio 2484
3.2 2482
4.5 2482
Gang@@ 2482
ITY 2482
crafted 2482
journeys 2482
puri@@ 2482
staring 2482
ule 2482
pension 2481
CNY 2480
KO@@ 2480
TED 2480
anim@@ 2480
infections 2480
whoever 2480
е@@ 2480
hes@@ 2479
Lima 2478
Tit@@ 2478
aro 2478
oration 2478
ty-@@ 2478
Alex 2477
W. 2477
assembled 2477
eck 2477
enclose 2477
24-@@ 2476
breasts 2476
couples 2476
devoted 2476
shouldn 2476
asc@@ 2475
feng 2475
Advertising 2474
Centers 2474
Feedback 2474
billing 2474
queen 2474
somebody 2474
Sap@@ 2473
Serv@@ 2473
gesture 2473
Integration 2472
bun@@ 2472
emission 2472
governor 2472
ice@@ 2472
roll@@ 2472
ç@@ 2472
Band@@ 2471
GO 2471
fers 2471
marital 2471
Deals 2470
RG4 2470
illustration 2469
refreshed 2469
atten@@ 2468
gauge 2468
ova 2468
TIC 2467
Therefore 2467
night@@ 2467
objectionable 2467
ds@@ 2466
Sarah 2465
charts 2465
resolutions 2465
special@@ 2465
н@@ 2465
oh@@ 2464
treasure 2464
unexpected 2464
中文版 2464
SEC@@ 2463
cel@@ 2463
terror 2463
Traditional 2462
wrapped 2462
Bang 2461
Termin@@ 2461
involvement 2461
Dance 2460
beast 2460
exhibitions 2460
Stri@@ 2459
Trinity 2459
impacts 2459
inn@@ 2459
Growth 2458
PO 2458
performs 2458
gan 2457
illness 2457
0x@@ 2456
lik@@ 2456
religions 2456
stand@@ 2456
Arti@@ 2455
Bow@@ 2455
casual 2455
Friends 2454
Motion 2454
finest 2454
inputs 2454
Trust 2453
analy@@ 2453
cooperate 2453
pane 2452
rush 2452
Ä 2452
Illinois 2451
cone 2451
preaching 2451
ranks 2451
tas@@ 2451
thesis 2451
var 2451
assistant 2450
crash 2450
dressing 2450
Sofitel 2449
bot@@ 2449
cease 2449
mandatory 2449
Comb@@ 2448
commodity 2448
eption 2448
gorgeous 2448
dirty 2447
bands 2444
sia 2444
Basketball 2443
drum 2443
promoted 2443
Hur@@ 2442
Seasons 2442
Theme 2442
capita 2442
elite 2442
mach@@ 2442
toxic 2442
AA 2441
Rail 2441
affecting 2441
bold 2441
eting 2441
Sof@@ 2440
adapter 2440
colored 2440
18.@@ 2439
Off 2439
locally 2439
neighbors 2439
► 2439
10-30 2438
Models 2437
Navy 2437
prizes 2436
8.8 2435
Intelligent 2435
TVs 2435
Taylor 2435
colorful 2435
grocery 2435
ange 2434
carpet 2434
haulers 2434
recipient 2434
spirits 2434
Monitor 2433
accessibility 2433
Benefits 2432
baptism 2432
clean@@ 2432
dealer 2432
dynamics 2432
ht@@ 2432
lan 2432
partnerships 2432
skaya 2432
childhood 2431
induc@@ 2431
porter 2431
Site@@ 2430
Som@@ 2430
cruise 2430
mall 2430
2013-@@ 2429
bedding 2429
Buddhism 2428
cru@@ 2428
encountered 2428
packed 2428
BBC 2427
dirt 2427
pleas@@ 2427
Shel@@ 2426
Tibetan 2426
po 2426
threshold 2426
Gran 2425
Shared 2425
aux 2425
lip 2425
preliminary 2425
Danish 2424
gray 2424
ordering 2424
vendor 2424
̈ 2424
Import 2423
Veeam 2423
airlines 2423
crossed 2423
gravity 2423
mented 2423
product@@ 2423
Gab@@ 2422
Sle@@ 2422
compromised 2422
inquiry 2422
tery 2422
visualization 2421
repository 2420
Indi@@ 2419
Ret@@ 2419
fic 2419
grams 2418
BBQ 2417
Intersil 2417
M.@@ 2417
Blvd 2416
bility 2416
compilations 2416
factories 2416
meaningful 2416
DIN 2415
KA 2415
couch 2415
eu 2415
intend 2415
.com.@@ 2414
Falun 2414
lov@@ 2414
och@@ 2414
ories 2414
sacred 2414
akers 2413
gar 2413
17.@@ 2412
ICT 2412
Wood 2412
weapon 2412
WikiProject 2411
aching 2411
appearing 2411
consequence 2411
dou@@ 2411
united 2411
115 2410
LIMITATION 2410
aders 2410
applicants 2410
Pun@@ 2408
dramatic 2408
inches 2408
-R@@ 2407
umes 2407
aran@@ 2406
desires 2406
psych@@ 2406
sync 2406
unprecedented 2406
compete 2405
resold 2405
Cop@@ 2404
Movies 2404
nightlife 2404
winds 2404
yo 2404
Aud@@ 2403
ecosystem 2403
essions 2403
glob@@ 2403
prayed 2403
sciences 2403
115@@ 2402
Corfu 2402
Gong 2402
creatures 2402
Easy 2401
Freedom 2401
RISK 2400
adhere 2400
may@@ 2400
Chongqing 2399
demonstration 2399
evol@@ 2399
Beautiful 2398
Boo@@ 2398
collaborative 2398
experiencing 2398
Lec@@ 2397
Max@@ 2397
Sli@@ 2397
ador 2397
gmail.com 2397
legi@@ 2397
Auckland 2396
palm 2396
220 2395
ligh@@ 2395
ambient 2394
assignment 2394
observations 2394
IEC 2393
door@@ 2393
fav@@ 2393
flour 2393
nan 2393
passive 2393
Genre 2392
coupon 2392
disp@@ 2392
hyperlink 2392
shame 2392
Dep@@ 2391
orgasm 2391
quad@@ 2391
Zhong@@ 2390
uri 2390
ury 2390
相关电子零件 2390
repeatedly 2389
seeds 2389
Bentley 2388
OUT 2388
differ 2388
vari@@ 2388
Wyndham 2386
iny 2386
as-@@ 2385
develops 2385
theoretical 2385
Cell 2384
age-@@ 2384
iller 2384
sisters 2384
Olympics 2383
Wr@@ 2383
Eve 2382
Phot@@ 2382
SPECIAL 2382
aca 2382
associate 2382
Plat@@ 2381
need@@ 2381
spir@@ 2381
Milk 2380
Rh@@ 2380
compound 2380
idi@@ 2380
Tetra 2379
ku@@ 2379
15th 2378
Stu@@ 2378
essing 2378
workshops 2378
Hill@@ 2377
Resolution 2377
conjunction 2377
ground@@ 2377
itary 2377
settle 2377
aud@@ 2376
Intl 2375
Sexy 2375
rail@@ 2375
17th 2374
Jim 2374
Junior 2374
Controls 2373
bare 2373
notified 2373
pulling 2373
in-room 2372
iss 2372
§ 2372
Cottage 2371
asi 2371
bg@@ 2371
earthquake 2371
maintains 2371
WR@@ 2370
Yan@@ 2370
abandoned 2370
aids 2370
beverages 2370
congregation 2370
mail@@ 2370
mass@@ 2370
resist 2370
Pte 2369
dramatically 2369
ine-@@ 2369
logged 2369
Atlanta 2368
Unity 2368
Build 2367
gel 2367
tiles 2367
Good@@ 2366
achievement 2366
adhesive 2366
ise@@ 2366
lap 2366
resume 2366
upgrading 2366
CK@@ 2365
cabin 2365
ethical 2365
tensions 2365
ultrasonic 2365
Rolex 2364
ø@@ 2364
INCIDENTAL 2363
Owner 2363
Wan 2363
dge 2363
ug 2363
anne 2362
arriving 2362
bang 2361
bis@@ 2361
calories 2361
corporation 2361
corrupted 2361
photograph 2361
render 2361
scalable 2361
stranger 2361
COM 2360
footprint 2360
THE@@ 2359
contractual 2359
onian 2359
painted 2359
cleaner 2358
igh 2358
pap@@ 2358
Ath@@ 2357
Post@@ 2357
SOFTWARE 2357
thoroughly 2357
asses 2356
elev@@ 2356
nov@@ 2355
voting 2355
mesh 2354
vic 2354
Brand@@ 2353
Rav@@ 2353
bal 2353
offset 2353
ure-@@ 2353
122 2352
GT 2352
Tian@@ 2352
hung 2352
search@@ 2352
sky@@ 2352
tre 2352
FA 2351
frac@@ 2351
Republican 2350
influenced 2350
Downloads 2349
forcing 2349
sinners 2349
slight 2349
5,@@ 2348
Bell@@ 2348
Leo 2348
MI@@ 2348
gateway 2348
mp@@ 2348
ong-@@ 2348
proxy 2348
testi@@ 2348
virtu@@ 2348
Item 2347
Reduc@@ 2347
Santiago 2347
Sao 2347
agon@@ 2347
toaster 2347
Kennedy 2346
ORS 2346
asing 2346
ept 2346
guilty 2346
continent 2345
preceding 2345
prince 2345
1982 2344
TB 2344
combustion 2344
ile@@ 2344
preservation 2344
welcomed 2344
Hanting 2343
ele 2343
exhibit 2343
liv@@ 2343
priorities 2343
rarely 2343
timing 2343
6th 2342
Jer@@ 2342
Police 2341
Praha 2341
boot@@ 2341
profound 2341
destructive 2340
ANCE 2339
Because 2339
Cairo 2339
Metropolitan 2339
Nepal 2339
Sound 2338
electr@@ 2338
RC 2337
Rapporteur 2337
Superior 2337
Sak@@ 2336
Survey 2336
bubble 2336
speci@@ 2336
temper@@ 2336
Graphics 2335
assing 2335
ests 2335
maxim@@ 2335
terminals 2335
Relation 2334
Sm@@ 2334
flowing 2334
molecular 2334
threatened 2334
train@@ 2334
Background 2333
Monte@@ 2333
Wat 2333
probability 2333
FL@@ 2332
GD@@ 2332
NAS 2332
Rest@@ 2332
condens@@ 2332
elect 2332
founding 2332
notifications 2332
winding 2332
Countries 2331
acker 2331
retro@@ 2331
Ulitsa 2330
sunny 2330
En 2329
autom@@ 2329
blank 2329
disclaims 2329
Uzbekistan 2328
asting 2328
attorney 2328
thes@@ 2328
Boat 2327
Book@@ 2327
fix@@ 2327
P.@@ 2326
TEC 2326
Hanwha 2325
Map@@ 2325
attacked 2325
chro@@ 2325
thermo@@ 2325
apparent 2324
RA 2323
WS 2323
endless 2322
Bru@@ 2321
Class@@ 2321
ailing 2321
diagram 2321
xi 2321
Mining 2320
RAN@@ 2320
letting 2320
observation 2320
regards 2320
Stop 2319
FIN@@ 2318
Phil@@ 2318
Tech@@ 2318
accepts 2318
council 2318
Wedding 2317
acids 2317
disappeared 2317
fucked 2317
pants 2317
water-@@ 2317
Miss@@ 2316
wet@@ 2316
SP 2315
Vil@@ 2315
bom@@ 2315
sliding 2315
Ford 2314
aia 2314
municipality 2314
Pink 2313
instruc@@ 2313
AND@@ 2312
Clariant 2312
feast 2312
installations 2312
Cs 2311
copying 2311
dose 2311
exclusion 2311
prompt 2311
Senate 2310
Faculty 2309
Free@@ 2309
bridges 2309
conditioned 2309
criticism 2309
environmentally 2309
constraints 2308
ind 2308
scar@@ 2308
sustained 2308
cocktails 2307
distr@@ 2307
registering 2307
19.@@ 2306
Liberty 2306
2-8 2305
Canon 2305
Portsmouth 2305
asia 2305
chin@@ 2305
detention 2305
hui 2305
Sierra 2304
Stre@@ 2304
compassion 2304
pregnancy 2304
trucks 2304
iser 2303
prayers 2303
Cover 2302
mond 2302
owns 2302
wick 2302
Author 2301
Pennsylvania 2301
privately 2301
shr@@ 2301
1983 2300
Ubuntu 2300
balancing 2300
experiments 2300
grey 2300
heading 2300
toy 2300
wellness 2300
17-@@ 2299
Bai@@ 2299
Playa 2299
cast@@ 2299
lining 2299
pile 2299
pop 2299
purple 2299
7th 2298
Cin@@ 2298
LT 2298
Sant 2298
highlighted 2298
mir@@ 2297
Managing 2296
-related 2295
CV@@ 2294
Unclassifed 2294
Yemen 2294
dioxide 2294
intermediate 2294
scholars 2294
hoped 2293
oper@@ 2293
.j@@ 2292
chips 2292
dare 2292
portions 2292
Easter 2291
remedy 2291
u-@@ 2291
1980s 2290
Tennis 2290
chron@@ 2290
cycling 2290
dot@@ 2290
ful@@ 2290
lenses 2290
regi@@ 2290
terminates 2290
43@@ 2289
tech@@ 2289
implications 2288
Projects 2287
Wuxi 2287
if@@ 2287
2.9 2286
Banking 2286
Over 2286
fascinating 2286
ignore 2286
projector 2286
Connec@@ 2285
Method 2285
Product@@ 2285
aks 2285
grab 2285
graduated 2285
restoration 2285
ICAL 2284
ION 2284
Sudan 2284
UM@@ 2284
aba 2284
admitted 2284
ple 2284
profitable 2284
unparalleled 2284
zoom 2284
Cafes 2283
Chil@@ 2283
Massachusetts 2283
Mountains 2283
→ 2283
EE 2282
Rates 2282
Shipping 2282
Wallpapers 2282
cozy 2282
icks 2282
indicating 2282
pitch 2282
varied 2282
stupid 2281
uba 2281
vicinity 2281
1979 2280
Alice 2280
Tex@@ 2280
Initiative 2279
ORY 2279
calcium 2279
embrace 2279
eri 2279
preserved 2279
Five 2278
forty 2278
sle@@ 2278
uploaded 2278
vs. 2278
Py@@ 2277
embr@@ 2277
hang@@ 2277
kidney 2277
victim 2277
Delete 2276
flood 2276
Infinity 2275
neighbourhood 2275
190 2274
Cash 2274
PARTY 2274
Sample 2274
evident 2274
painful 2274
usa 2274
Stat 2273
Inv@@ 2272
Quick@@ 2272
ae@@ 2272
mask 2272
Dan 2271
Jiang 2271
shi 2271
Sor@@ 2270
Um@@ 2270
Venezuela 2270
atri@@ 2270
demo@@ 2270
gie 2270
keyword 2270
SAR 2269
gem@@ 2269
ARD 2268
Fed 2268
Model@@ 2268
ist@@ 2268
sail@@ 2268
construc@@ 2267
ican 2267
restart 2267
Corning 2266
Harbor 2266
gle@@ 2266
house@@ 2265
multimedia 2265
tutorial 2265
Michigan 2264
foundations 2264
spr@@ 2264
wished 2264
MD 2263
believing 2263
Michel@@ 2262
NUMBER 2262
ced 2262
malware 2262
showers 2262
blonde 2261
Mark@@ 2260
Pow@@ 2260
reli@@ 2260
install@@ 2259
venues 2259
Rou@@ 2258
mun@@ 2258
Inspection 2257
Intern@@ 2257
fort 2257
Condition 2256
IB 2256
ango 2256
lot@@ 2256
occasionally 2256
refin@@ 2256
Common 2255
UE 2255
Orchestra 2254
oke 2254
perform@@ 2254
dering 2253
efs 2253
gu 2253
kindly 2253
kn@@ 2253
scal@@ 2253
substantially 2253
accidents 2252
concentrated 2252
seafood 2252
NG 2251
Siemens 2251
ech 2251
reliably 2251
ART 2250
Bell 2250
Commissioner 2250
Promotion 2250
gla@@ 2250
Hos@@ 2249
cinema 2249
respon@@ 2249
shine 2249
shorter 2249
Pedro 2248
momentum 2248
mul@@ 2248
ologists 2248
py 2248
Wife 2247
ashing 2247
second-@@ 2247
stry 2247
Lucas 2246
distributors 2246
journalists 2246
respects 2246
rever@@ 2246
searches 2246
canal 2245
cosy 2244
112 2243
java 2243
start@@ 2243
Est@@ 2242
writers 2242
Ohio 2241
Viol@@ 2241
Operating 2240
pipes 2240
slip 2240
spar@@ 2240
rocks 2239
viewer 2239
Emerald 2238
ardi@@ 2238
bless 2238
funded 2238
galleries 2238
shit 2238
Cand@@ 2237
Coo@@ 2237
Hus@@ 2237
line@@ 2237
ouse 2237
Bud@@ 2236
Bus@@ 2236
Final 2236
Guatemala 2236
Languages 2236
importantly 2236
pes 2236
teachings 2236
Blo@@ 2235
Mature 2235
arrested 2235
ation.aspx 2235
perceived 2235
ACE 2234
Distrito 2234
Stor@@ 2234
accomplished 2234
aked 2234
fuels 2234
Austrian 2233
Oct 2233
infringing 2233
outputs 2233
Configuration 2232
Racing 2232
celebrated 2232
predict 2232
AA@@ 2231
aggressive 2231
5,000 2230
Staff 2230
aa 2230
announce 2230
buil@@ 2230
subtle 2230
toler@@ 2230
Gold@@ 2229
Powered 2229
Surface 2229
Yoga 2229
virtualization 2229
agr@@ 2228
F. 2227
Lu 2227
asian 2227
好@@ 2227
Cutting 2226
WACKER 2226
discre@@ 2226
wins 2226
dive 2225
encouraging 2225
insi@@ 2225
locales 2225
MORE 2224
band@@ 2224
celebration 2224
fatigue 2224
ing.@@ 2224
san 2224
Gos@@ 2223
ICE 2223
Spo@@ 2223
Ecuador 2222
Pul@@ 2222
accused 2222
crown 2222
kan 2222
amended 2221
commandments 2221
grow@@ 2221
vin 2221
wai@@ 2221
DN@@ 2220
Eye 2220
Should 2220
prints 2220
road@@ 2220
Pop@@ 2219
TD@@ 2219
associations 2219
excluded 2219
gang 2219
insulin 2219
Hard 2218
News@@ 2218
behaviour 2218
dominant 2218
jurisdictions 2218
preference 2218
psychological 2218
MATERIAL 2217
Sid@@ 2217
Window 2217
Yardi 2217
ashi 2217
consecutive 2217
sexy@@ 2217
slot 2217
AIDS 2216
Kowloon 2216
facial 2216
neuro@@ 2216
standardized 2216
1978 2215
Customs 2215
EXTENT 2215
Fis@@ 2215
asp 2215
rotating 2215
torture 2215
Fujitsu 2214
TMre 2214
ladies 2214
succeeded 2214
tomb 2214
tron@@ 2214
CP 2213
SCHOOL 2213
ador@@ 2213
reproduction 2213
sig@@ 2213
-in 2212
Chubby 2212
Socialist 2212
cos@@ 2212
inequality 2212
protocols 2212
Qatar 2211
Xu@@ 2211
human@@ 2211
ister 2211
minerals 2211
Zhongshan 2210
Mam@@ 2209
Sexy@@ 2209
TRADING 2209
cooperative 2209
is-@@ 2209
nal 2209
Â@@ 2209
BR 2208
canvas 2208
cin@@ 2208
ministers 2208
ples 2208
pneumatic 2208
reck@@ 2208
tide 2208
9.2 2207
genital 2207
2,000 2206
ers@@ 2206
races 2206
Pafos 2205
boss 2205
delicate 2205
employers 2205
Dominican 2204
HIGHEST 2204
crushing 2204
iconic 2204
Protec@@ 2203
Radi@@ 2203
Six 2203
Text 2203
sty 2203
KL@@ 2202
fu 2202
paintings 2202
revocable 2202
DFDS 2201
aerospace 2201
20.@@ 2200
Marie 2200
chin 2200
premises 2200
ï1 2200
Rent 2199
Scott 2199
enders 2199
thir@@ 2199
virgin 2199
migrants 2198
Antwerp 2197
Cont@@ 2197
Nav@@ 2197
Volvo 2197
baths 2197
broader 2197
pled 2197
Asset 2196
PROPORTION 2196
fence 2196
ious 2196
uation 2196
121 2195
5.00 2195
GRE@@ 2195
Mong@@ 2195
Ukrainian 2195
absorption 2195
decor 2195
sr@@ 2195
Chu@@ 2194
Dafa 2194
Leading 2194
Main@@ 2194
households 2194
mandate 2194
meditation 2194
quantities 2194
Voice 2193
bench 2193
blocked 2193
xy 2193
Enterprises 2192
ATIONS 2191
civilization 2191
fan@@ 2191
striking 2191
Buc@@ 2190
Hin 2190
competitors 2190
volunteers 2190
ks@@ 2189
respected 2189
tun@@ 2189
10th 2188
Confucius 2188
Crystal 2188
spi@@ 2188
Plan@@ 2187
Weiqi 2187
cn 2187
118 2186
AF 2186
Oli@@ 2186
cho 2186
elderly 2186
hen@@ 2186
Prophet 2185
WuZheng 2185
oes 2185
portray 2185
Rub@@ 2184
Thir@@ 2184
demanded 2184
nuts 2184
orange 2184
shipment 2184
-and-@@ 2183
-free 2183
Exclusive 2183
antenna 2183
colonial 2183
dairy 2183
safer 2183
ão 2183
20-minute 2182
BEST 2182
Sha 2182
cub@@ 2182
mother@@ 2182
1945 2181
7.6 2181
advances 2181
microphone 2181
publicity 2181
compromise 2180
ru 2180
Bonus 2179
aluminium 2179
ento 2179
non-smoker 2179
unch 2179
whi@@ 2179
Guil@@ 2178
altered 2178
attempted 2178
nav@@ 2178
poker 2178
rup@@ 2178
RU@@ 2177
chen 2177
error-free 2177
fi 2177
newest 2177
24.@@ 2176
8th 2176
END@@ 2176
EP 2176
MAX 2176
VM@@ 2176
cum@@ 2176
nowadays 2176
ss 2176
wheat 2176
aer@@ 2175
backs 2175
recognised 2175
sanctuary 2175
geographical 2174
lon@@ 2174
baptized 2173
geography 2173
tubes 2173
unnecessary 2173
clause 2172
permits 2172
ruled 2172
Arthur 2171
Coat 2171
dated 2171
lob@@ 2171
referring 2171
short@@ 2171
Ces@@ 2170
Clar@@ 2170
Quar@@ 2170
anta 2170
outlet 2170
responding 2170
wei@@ 2170
UM 2169
delegation 2169
dignity 2169
ped@@ 2169
pt 2169
refined 2169
retailers 2169
Historic 2168
sponsor 2168
streams 2168
whis@@ 2168
小@@ 2168
Moo 2167
Wol@@ 2167
ettes 2167
techn@@ 2167
ventilation 2167
Resid@@ 2166
amen@@ 2166
edicts 2166
shake 2166
Fon@@ 2165
contributing 2165
kis@@ 2165
parti@@ 2165
princes 2165
MBA 2164
collects 2164
decom@@ 2164
distinguished 2164
frozen 2164
patience 2164
skiing 2164
stop@@ 2164
swee@@ 2164
transc@@ 2164
Bun@@ 2163
Gir@@ 2163
dragon 2163
revi@@ 2163
Bla@@ 2162
CONTACT 2162
Caterpillar 2162
Foshan 2162
produc@@ 2162
DISCLAIMS 2161
THER@@ 2161
masters 2161
1960 2160
idity 2160
invasion 2160
INT@@ 2159
Ransomware 2159
aver@@ 2159
coated 2159
100,000 2158
Permanent 2158
consequently 2158
immer@@ 2158
Brooklyn 2157
Generation 2157
rol 2157
Breakfasts 2156
God@@ 2156
Head@@ 2156
Labour 2156
carries 2156
distant 2156
lam 2156
pain@@ 2156
wondered 2156
14-@@ 2155
avoiding 2155
imagination 2155
amid 2154
mini-@@ 2154
phrase 2154
Autom@@ 2153
Band 2153
INDIRECT 2153
Las@@ 2153
Mai@@ 2153
Th 2153
foreigners 2153
justified 2153
strengthened 2153
classroom 2152
Corn@@ 2151
JE@@ 2151
Well-positioned 2151
etta 2151
intake 2151
workforce 2151
Wit@@ 2150
word@@ 2150
Mosque 2149
manifest 2149
progres@@ 2149
rie 2149
sburg 2149
Contract 2148
Philistines 2148
merchant 2148
poured 2148
realization 2148
Picture 2147
bending 2147
defines 2147
fever 2147
Elec@@ 2146
obstacles 2146
ulating 2146
xed 2146
Grand@@ 2145
Joe 2145
nes@@ 2145
shu@@ 2145
9,@@ 2144
H. 2144
Mansion 2144
RM 2144
deserve 2144
lla 2144
Acts 2143
BS 2143
aim@@ 2143
anca 2143
barrier 2143
beloved 2143
320@@ 2141
Photography 2141
assemble 2141
economists 2141
135 2140
Dell 2140
Lex@@ 2140
Steve 2140
anxiety 2140
sla@@ 2140
124@@ 2139
font 2139
initiated 2139
650 2138
JMP 2138
Partnership 2138
model@@ 2138
Hebrew 2137
Jiang@@ 2137
Quantity 2137
anytime 2137
life-@@ 2137
Brow@@ 2136
Messenger 2136
River@@ 2136
outline 2136
amendment 2135
progressive 2135
Verde 2134
alignment 2134
relatives 2134
sz@@ 2134
Crescent 2133
Informatica 2133
Secretary-General 2133
Some 2133
enses 2133
ray 2133
rid@@ 2133
tam@@ 2133
Yam@@ 2132
alternatives 2132
physically 2132
1968 2131
NATO 2131
persistent 2131
1975 2130
las 2130
licence 2130
simplified 2130
Zo@@ 2129
hus@@ 2129
maritime 2129
supplements 2129
barely 2128
booth 2128
bottled 2128
evolving 2128
ician 2128
multilateral 2128
Tut@@ 2127
attending 2127
sphere 2127
Mars 2126
Philip 2126
GB@@ 2125
Municipal 2125
edited 2125
meg@@ 2125
remarks 2125
Haz@@ 2124
Indiana 2124
jumped 2124
voluntary 2124
Jean 2123
Lion 2123
heavenly 2123
shaking 2123
triple 2123
127 2122
Lesbian 2122
defining 2122
9.0 2121
Noah 2121
curious 2121
disputed 2121
isi 2121
past@@ 2121
recruitment 2121
NV 2120
cyber 2120
delight 2120
greenhouse 2120
DT 2119
HA 2119
K. 2119
atics 2119
departed 2119
stro 2119
throughput 2119
vet 2119
244@@ 2118
4.1 2118
Cast@@ 2118
Flight 2118
Hongqiao 2118
Specifications 2118
constitution 2118
electrode 2118
enh@@ 2118
examined 2118
favorable 2118
statutory 2118
Brighton 2117
Fire@@ 2117
INE 2117
jack 2117
03@@ 2116
Jazz 2116
Snow 2116
fortunately 2116
frag@@ 2116
solved 2116
ecological 2115
fro@@ 2115
accomplish 2114
nominal 2114
well-equipped 2114
CI 2113
Conver@@ 2113
turbine 2113
Contin@@ 2112
Hell 2112
Mastercard 2112
Person@@ 2112
achi 2112
calculations 2112
exigent 2112
rier 2112
scared 2112
smartphones 2112
stopping 2112
D.@@ 2111
Dead 2111
claiming 2111
creature 2111
crops 2111
recep@@ 2111
And@@ 2110
Anhui 2110
Guidelines 2110
Ling@@ 2110
evangel@@ 2110
existed 2110
ags 2109
eliminating 2109
Bold 2108
iah 2108
insured 2108
listings 2108
pixel 2108
SIM 2107
hof 2107
GROUP 2106
Scre@@ 2106
Squ@@ 2106
habit 2106
hunger 2106
tick 2106
vir@@ 2106
Connection 2105
Electro@@ 2105
old@@ 2105
stressed 2105
summar@@ 2105
tune 2105
4K 2104
porting 2104
towel 2104
Assessment 2103
CAN 2103
Ind@@ 2103
Mun@@ 2103
Lip@@ 2102
attribute 2102
elli 2102
flooring 2102
smo@@ 2102
ud 2102
Remove 2101
educ@@ 2101
ores 2101
Or 2100
Palma 2100
Sichuan 2100
Vila 2100
additives 2100
capitalism 2100
communicating 2100
god@@ 2100
oom 2100
refine 2100
struc@@ 2100
CAS@@ 2099
aug@@ 2099
coding 2099
esp@@ 2099
interruption 2099
reinforced 2099
segments 2099
Documents 2098
Norwegian 2098
RAR 2098
Scripture 2098
Zhu@@ 2098
comparable 2098
laughing 2098
periodically 2098
recommendation 2098
tries 2098
North@@ 2097
Worldwide 2097
closest 2097
span 2097
ñ@@ 2097
Hand 2096
Need 2096
Weather 2096
ander 2096
bel 2096
singing 2096
wives 2096
Cart@@ 2095
Woo@@ 2095
intentions 2095
phil@@ 2095
tor-@@ 2095
AE@@ 2094
Dual 2094
Sing@@ 2094
business@@ 2094
thine 2094
Grafisk 2093
alty 2093
electromagnetic 2093
failing 2093
mes@@ 2093
recru@@ 2093
tremendous 2093
Kingston 2092
coupled 2092
lad@@ 2092
NER 2091
purification 2091
worn 2091
Modules 2090
SN74ALS@@ 2090
YS 2090
extr@@ 2090
hoping 2090
relate 2090
supplement 2090
tra-@@ 2090
Zimbabwe 2089
se-@@ 2089
tian 2089
tion-@@ 2089
4.2 2088
While 2088
realm 2088
terminated 2088
generous 2087
gir@@ 2087
worlds 2087
Kansas 2086
You@@ 2086
avail 2086
crow@@ 2086
extending 2086
mill@@ 2086
sqm 2086
AZ@@ 2085
Bed@@ 2085
Vac@@ 2085
pointing 2085
Brid@@ 2084
Glasgow 2084
Richmond 2084
ance@@ 2084
prev@@ 2084
scroll 2084
Walk 2083
hips 2083
一@@ 2083
Mass@@ 2082
Measurement 2082
SUN@@ 2082
izz@@ 2082
shield 2082
able@@ 2081
receiver 2081
02@@ 2080
Holdings 2080
judges 2080
mou@@ 2080
1972 2079
KA@@ 2079
Rid@@ 2079
bases 2079
itude 2079
wildlife 2079
Bucharest 2078
POPULATION 2078
rendered 2078
160x240 2077
YU@@ 2077
cave 2077
detector 2077
ects 2077
isa 2077
necessity 2077
5000 2076
Complex 2076
Nova 2076
Nuclear 2076
ather 2076
broadband 2076
Continental 2075
Gas@@ 2075
Herzegovina 2075
promising 2075
subj@@ 2075
tioned 2075
woods 2075
Argent@@ 2074
Nag@@ 2074
Strip 2074
administrators 2074
centralized 2074
thrust 2074
Bak@@ 2073
Quarter 2073
approached 2073
melt 2073
ption 2073
CITY 2072
appe@@ 2072
call@@ 2072
free-@@ 2072
milli@@ 2072
punitive 2072
sound@@ 2072
Ghost 2071
Listing 2071
Scar@@ 2071
up-to-date 2071
Ibis 2070
Mes@@ 2070
T. 2070
sunlight 2070
weakness 2070
Choice 2069
EMC 2069
NA 2069
correspondence 2069
mechanics 2069
printers 2069
Disk 2068
arbitral 2068
spite 2068
All-@@ 2067
Asia-Pacific 2067
SN74ACT@@ 2067
Ton@@ 2067
125@@ 2066
Compact 2066
SDK 2066
forgiveness 2066
Fran@@ 2065
invisible 2065
kov 2065
resid@@ 2065
J-@@ 2064
Light@@ 2064
UPS 2064
argued 2064
child@@ 2064
interpre@@ 2064
weighing 2064
š@@ 2064
index@@ 2063
strap 2063
-time 2062
Hav@@ 2062
WAY 2062
counsel 2062
Down 2061
Standing 2061
generates 2061
varieties 2061
ag 2060
1N@@ 2059
Form@@ 2059
inging 2059
Tran@@ 2058
touching 2058
Charter 2057
borg 2057
bre 2057
eps 2057
lou@@ 2057
perception 2057
Mill@@ 2056
Tallinn 2056
ached 2056
anced 2056
buffer 2056
quantum 2056
fting 2055
guitar 2055
pel 2055
promotes 2055
Jin 2054
R2 2054
accommodatıon 2054
wondering 2054
Beer 2053
Xinjiang 2053
verses 2053
Baptist 2052
Kis@@ 2052
neg@@ 2052
strikes 2052
withstand 2052
号 2052
aan 2051
mal 2051
team@@ 2051
theft 2051
time-@@ 2051
Investors 2050
Lyrics 2050
Shell 2050
breeding 2050
Lock 2049
Non@@ 2049
PET 2049
bia 2049
hammer 2049
milit@@ 2049
prospect 2049
softly 2049
40-@@ 2048
Bei@@ 2048
Kings 2048
architect 2048
dent 2048
intimate 2048
mainstream 2048
pale 2048
Eg@@ 2047
Mach@@ 2047
Practice 2047
Verified 2047
ound 2047
sponsored 2047
INTERNET 2046
cost-@@ 2046
exquisite 2046
ple-@@ 2046
Collins 2045
Wild 2045
collabor@@ 2045
tractor 2045
trailers 2045
8.6 2044
Chal@@ 2044
Cry@@ 2044
Jump 2044
appreciation 2044
ci 2044
ense 2044
lecture 2044
360@@ 2043
Buddhists 2043
Indie 2043
Want 2043
deactivate 2043
distinctive 2043
high-level 2043
ousness 2043
presentations 2043
thinks 2043
AVAILABLE 2042
Levites 2042
Pope 2042
differently 2042
event@@ 2042
Liability 2041
RAID 2041
Sea@@ 2041
consumed 2041
corners 2041
job@@ 2041
prisoners 2041
construct 2040
coordinate 2040
easing 2040
graduates 2040
pro-@@ 2040
voices 2040
Wire 2039
illi@@ 2039
eding 2038
filtration 2038
ret 2038
triangle 2038
tron 2038
velocity 2038
Beta 2037
Tai 2037
Students 2036
akh@@ 2036
inevitable 2036
thick@@ 2036
veter@@ 2036
Blue@@ 2035
Enjoy 2035
Split 2035
Trial 2035
incentives 2035
m3 2035
Clear 2034
Dark 2034
Slots 2034
aton 2034
index.aspx 2034
Stainless 2033
iling 2033
invasive 2033
territorial 2033
113 2032
Alicante 2032
Any@@ 2032
Brit@@ 2032
Gur@@ 2032
fired 2032
kno@@ 2032
stat@@ 2032
Niagara 2031
aller@@ 2031
commun@@ 2031
copyrights 2031
cow@@ 2031
expressions 2031
MO 2030
biology 2030
Browser 2029
HOTEL 2029
Stats 2029
UT 2029
costly 2029
exterior 2029
fears 2029
glanced 2029
treaties 2029
210 2028
Duke 2028
Feb 2028
Fri@@ 2028
Kuwait 2028
adjustments 2028
alien 2028
cam 2028
seeks 2028
countryside 2027
lessly 2027
photo@@ 2027
warned 2027
wid@@ 2027
1981 2026
BI 2026
WHOIS 2026
surprising 2026
tractors 2026
ue@@ 2026
AST 2025
Aviation 2025
Belfast 2025
Compliance 2025
hop 2025
bolt 2024
innocent 2024
playground 2024
tabernacle 2024
Wenzhou 2023
acti@@ 2023
cit@@ 2023
picturesque 2023
router 2023
substitute 2023
24-hr 2022
Han 2022
Tat@@ 2022
Thou 2022
arily 2022
chil@@ 2022
exceptions 2022
experimental 2022
sublicensable 2022
test@@ 2022
Publisher 2021
filtering 2021
tek 2021
.asp 2020
Desert 2020
Engineer 2020
lev@@ 2020
membrane 2020
titled 2020
Animation 2019
Francis 2019
remedies 2019
Friendly 2018
Ramada 2018
clearance 2018
diff@@ 2018
employ 2018
upgrades 2018
flav@@ 2017
woven 2017
Wai@@ 2016
sovereign 2016
tum@@ 2016
bec@@ 2015
react 2015
Colombo 2014
Wo@@ 2014
bets 2014
ef 2014
protest 2014
py@@ 2014
retained 2014
tIn 2014
tains 2014
Arm@@ 2013
bore 2013
Accep@@ 2012
Big@@ 2012
VC 2012
serv@@ 2012
神@@ 2012
7.8 2011
Jadeite 2011
cus@@ 2011
jac@@ 2011
rays 2011
folding 2010
imply 2010
informal 2010
obedience 2010
pris@@ 2010
refer@@ 2010
Choose 2009
onom@@ 2009
vid@@ 2009
wastewater 2009
83@@ 2008
Aer@@ 2008
consum@@ 2008
gal 2008
ould 2008
.co.uk 2007
Workers 2007
wash@@ 2007
OS@@ 2006
policymakers 2006
seals 2006
Homes 2005
Vall@@ 2005
agn@@ 2005
dozens 2005
paradise 2005
ALL@@ 2004
bears 2004
124 2003
kind@@ 2003
Priv@@ 2002
charity 2002
fig@@ 2002
grades 2002
ologies 2002
stered 2002
ANG@@ 2001
Blu@@ 2001
Bras@@ 2001
Dinner 2001
Labor 2001
agers 2001
eCommerce 2001
logy 2001
presenting 2001
FDA 2000
Monument 2000
Sz@@ 2000
commitments 2000
dest@@ 2000
donâ 2000
mines 2000
ms@@ 2000
Fa 1999
Lyn@@ 1999
Tha@@ 1999
13-@@ 1998
banner 1998
jing 1998
f-@@ 1997
mand@@ 1997
tou@@ 1997
Hz 1996
Institu@@ 1996
Organisation 1996
DAMAGE 1995
excuse 1995
phases 1995
scores 1995
derogatory 1994
edy 1994
reserv@@ 1994
secretary 1994
119 1993
Motor@@ 1993
Pak 1993
Shin@@ 1993
craw@@ 1993
debit 1993
fabrics 1993
Eurocampings 1992
Sabbath 1992
Silver@@ 1992
Toshiba 1992
arc 1992
consume 1992
emo@@ 1992
illo 1992
lest 1992
origin@@ 1992
chlor@@ 1991
hazardous 1991
ignored 1991
pairs 1991
pos 1991
Families 1990
Milano 1990
Song 1990
grasp 1990
hid 1990
uals 1990
Conduct 1989
desirable 1989
sci@@ 1989
zers 1989
62@@ 1988
Concer@@ 1988
Pousada 1988
ady 1988
needle 1988
ority 1988
scattered 1988
well-being 1988
Heat 1987
Kom@@ 1987
Lum@@ 1987
earnings 1987
encourages 1987
ig 1987
mixer 1987
organised 1987
radical 1987
Architec@@ 1986
Eth@@ 1986
Interior 1986
Zion 1986
dim@@ 1986
lectures 1986
stroll 1986
OST 1985
ethics 1985
fatty 1985
refrigeration 1985
age.@@ 1984
convince 1984
og 1984
witnesses 1984
McAfee 1983
Wars 1983
adi 1983
aper 1983
educated 1983
terrorist 1983
HY@@ 1982
babies 1982
Administrative 1981
Advisory 1981
BT@@ 1981
Basel 1981
displaying 1981
qiao 1981
ras 1981
risen 1981
speciality 1981
Comm@@ 1980
ashamed 1980
dio 1980
honour 1980
originated 1980
thy@@ 1980
Major 1979
blow@@ 1979
internation@@ 1979
vulnerabilities 1979
Å 1979
.biz 1978
anese 1978
treating 1978
EVEN 1977
empire 1977
fet@@ 1977
negotiation 1977
obliged 1977
prefix 1977
Pir@@ 1976
valu@@ 1976
Reading 1975
Round 1975
Torch 1975
Bern@@ 1974
LC 1974
hose 1974
immigrants 1974
knock 1974
PI 1973
Teacher 1973
distinction 1973
seamlessly 1973
Drama 1972
ISE 1972
tribes 1972
Command 1971
Croatian 1971
Dav@@ 1971
arbitrator 1971
有限公司 1971
Carlo 1970
Q-@@ 1970
abad 1970
ord 1970
pause 1970
varies 1970
grows 1969
kr 1969
sensing 1969
wand@@ 1969
Check@@ 1968
Scan@@ 1968
ale@@ 1968
extrusion 1968
SYSTEM 1967
acute 1967
lined 1967
plat@@ 1967
uting 1967
6,@@ 1966
Guaranteed 1966
zen 1966
Kel@@ 1965
Navi@@ 1965
addic@@ 1965
edges 1965
english 1965
liquidity 1965
quantitative 1965
waist 1965
9th 1964
Lower 1964
Ot@@ 1964
condition@@ 1964
industri@@ 1964
reactions 1964
tribunal 1964
upgraded 1964
Average 1963
arbitrary 1963
orial 1963
per-@@ 1963
Acc@@ 1962
Leave 1962
integrates 1962
journal 1962
lawful 1962
versus 1962
14th 1961
Bahrain 1961
Newcastle 1961
plac@@ 1961
silicon 1961
Snow@@ 1960
cot@@ 1960
indigenous 1960
masses 1960
sha 1960
urge 1960
G. 1959
Wu 1959
aco 1959
lier 1959
o.com 1959
parliament 1959
profitability 1959
sq. 1959
th-century 1959
Christ@@ 1958
Dresden 1958
VER 1958
ailed 1958
bon 1958
cancelled 1958
rugged 1958
Acupuncture 1957
Andre@@ 1957
Calendar 1957
Custom@@ 1957
swing 1957
Concept 1956
Quinta 1956
sit@@ 1956
stit@@ 1956
toll 1956
Fiber 1955
Moder@@ 1955
abusive 1955
attendance 1955
familiarise 1955
reside 1955
FF 1954
Normal 1954
arrest 1954
boundaries 1954
downtime 1954
planted 1954
superb 1954
TOR@@ 1953
amps 1953
borough 1953
conscience 1953
economical 1953
stolen 1953
ting@@ 1953
wich 1953
Savior 1952
Wei 1952
Wilson 1952
correc@@ 1952
cosmetics 1952
delighted 1952
rab@@ 1952
5.1 1951
Ming 1951
kon@@ 1951
seri@@ 1951
tedly 1951
DPRK 1950
Eden 1950
azz@@ 1950
engraving 1950
iti@@ 1950
noble 1950
outlets 1950
Eva 1949
NH 1949
Riding 1949
betting 1949
duplicate 1949
eased 1949
utes 1949
air-conditioning 1948
gene 1948
murder 1948
2016-@@ 1947
Cros@@ 1947
Produc@@ 1947
conductivity 1947
countless 1947
recipe 1947
typ@@ 1947
Mathematics 1946
Town@@ 1946
interpreted 1946
114 1945
Expl@@ 1945
Inclu@@ 1945
Islam@@ 1945
Lowest 1945
Submission 1945
alling 1945
approaching 1945
concentrate 1945
considerably 1945
exceeds 1945
Rock@@ 1944
public@@ 1944
12th 1943
Ali 1943
DEL@@ 1943
Miller 1943
innov@@ 1943
other@@ 1943
strengths 1943
Q. 1942
cathedral 1942
decorative 1942
est-@@ 1942
hil@@ 1942
medieval 1942
unions 1942
Hebei 1941
IW@@ 1941
Sti@@ 1941
damn 1941
gin@@ 1941
side@@ 1941
volunteer 1941
Maldives 1940
antic 1940
cyber@@ 1940
fusion 1940
By@@ 1939
Salt 1939
injuries 1939
lum@@ 1939
ull 1939
usted 1939
4.3 1938
Layer 1938
Reply 1938
Years 1938
analyses 1938
butter 1938
dage 1938
dealt 1938
etric 1938
round@@ 1938
ains 1937
buff@@ 1937
Jamaica 1936
bla@@ 1936
retired 1936
accelerated 1935
bad@@ 1935
injured 1935
uch 1935
1967 1934
320 1934
TRAN@@ 1934
rich@@ 1934
480 1933
Fu 1933
Rentals 1933
info@@ 1933
rewards 1933
suck 1933
tear 1933
126 1932
Cir@@ 1932
Cost 1932
preached 1932
tram 1932
Historical 1931
NVIDIA 1931
blocking 1931
electronically 1931
gated 1931
gur@@ 1931
ign 1931
love@@ 1931
occup@@ 1931
Bird 1930
Gay 1930
Woman 1930
gun@@ 1930
sided 1930
1973 1929
Laboratory 1929
THIRD 1929
ever@@ 1929
opponents 1929
retreat 1929
zip 1929
IFS 1928
Jane 1928
babe 1928
boundary 1928
closures 1928
pool@@ 1928
revival 1928
117 1927
Hope 1927
opol@@ 1927
expenditure 1926
impressed 1926
凤凰 1926
Daten 1925
ancing 1925
clever 1925
firmware 1925
see@@ 1925
subsidies 1925
utmost 1925
Clinton 1924
Lag@@ 1924
MATERIALS 1924
nab@@ 1924
Yi@@ 1923
decision-making 1923
fron@@ 1923
idation 1923
teaches 1923
21-@@ 1922
Broadway 1922
Cul@@ 1922
indication 1922
thorough 1922
tol@@ 1922
4u 1921
Dancing 1921
Lin 1921
Truck 1921
defamatory 1921
izations 1921
stra 1921
1969 1920
8.5 1920
Botanical 1920
Pav@@ 1920
defect 1920
formulated 1920
stake 1920
vegetable 1920
Hab@@ 1919
Hair 1919
melting 1919
AutoCAD 1918
Internal 1918
entertained 1918
essed 1918
wis@@ 1918
10.0 1917
BAS@@ 1917
Success 1917
diver@@ 1917
pumping 1917
tioning 1917
turn@@ 1917
р@@ 1917
1977 1916
Avenida 1916
Kath@@ 1916
divide 1916
sweet@@ 1916
thouse 1916
acceleration 1915
crack 1915
engineered 1915
reco@@ 1915
Categories 1914
Covenant 1914
Hai 1914
Newsletter 1914
Nur@@ 1914
cs 1914
fifteen 1914
lakes 1914
lifecycle 1914
passionate 1914
patch 1914
variations 1914
Aff@@ 1913
Keep 1913
Threesome 1913
steering 1913
Carlos 1912
Nippon 1912
insur@@ 1912
peri@@ 1912
л@@ 1912
Labs 1911
infinite 1911
Bachelor 1910
DES@@ 1910
paper@@ 1910
pt@@ 1910
spreading 1910
Lak@@ 1909
Vehicle 1909
allocated 1909
decisive 1909
terri@@ 1909
Apollo 1908
Jeremiah 1908
Morgan 1908
Shangri-La 1908
notebook 1908
traditionally 1908
vis 1908
gig@@ 1907
org@@ 1907
right-@@ 1907
ysis 1907
H.@@ 1906
Kim@@ 1906
Nokia 1906
Portland 1906
Programs 1906
Requirements 1906
design@@ 1906
inity 1906
spake 1906
stresses 1906
Clean 1905
N. 1905
Santorini 1905
ocr@@ 1905
soap 1905
sourcing 1905
vil@@ 1905
Mei@@ 1904
Than 1904
Turin 1904
X-ray 1904
alog@@ 1904
asha 1904
bronze 1904
eman 1904
partially 1904
renewed 1904
thumb@@ 1904
vely 1904
Cream 1903
remind 1903
Dynamic 1902
Transi@@ 1902
calcul@@ 1902
detail@@ 1902
physi@@ 1902
susp@@ 1902
House@@ 1901
aus 1901
eable 1901
rational 1901
sampling 1901
512 1900
Fas@@ 1900
belonging 1900
responsive 1900
von 1900
Alex@@ 1899
DJ 1899
TCP 1899
explosion 1899
renovation 1899
rope 1899
targeting 1899
trailer 1899
Chelsea 1898
Cher@@ 1898
Sign@@ 1898
SkyTeam 1898
chy 1898
fingerprint 1898
forklifts 1898
guardian 1898
keywords 1898
pressures 1898
surplus 1898
116 1897
1976 1897
ISL@@ 1897
Whi@@ 1897
ais@@ 1897
collaborate 1897
sincere 1897
Bicycle 1896
infl@@ 1896
panic 1896
picking 1896
bath@@ 1895
dd@@ 1895
licking 1895
113@@ 1894
easy-to-use 1894
nurse 1894
variant 1894
Nak@@ 1893
Regi@@ 1893
disclaim 1893
enjoyment 1893
mark@@ 1893
privileges 1893
v. 1893
Archive 1892
Lamb 1892
Lun@@ 1892
ost 1892
plugin 1892
smoothly 1892
Dream@@ 1891
Millennium 1891
Sex@@ 1891
distinguish 1891
oot 1891
pric@@ 1891
Broad@@ 1890
Ds 1890
SSD 1889
Follow 1888
Moldova 1888
escal@@ 1888
explicit 1888
fuc@@ 1888
introduces 1888
pup@@ 1888
APIs 1887
Contrac@@ 1887
Foot@@ 1887
Tagged 1887
adverse 1887
boots 1887
companion 1887
evolved 1887
len@@ 1887
wound 1887
Hellenic 1886
Pes@@ 1886
Strategic 1886
eton 1886
mild 1886
surgical 1886
tax@@ 1886
232 1885
Kelly 1885
Your@@ 1885
climb 1885
considers 1885
04-@@ 1884
FOOD 1884
Grade 1882
Leader 1882
coupling 1882
mits 1882
practitioners 1882
z-@@ 1882
Immigration 1881
Infineon 1881
delays 1881
eph@@ 1881
sits 1881
ACCESS 1880
Kun@@ 1880
amend 1880
deeds 1880
exploitation 1880
det@@ 1879
micro 1879
slipped 1879
CMOS 1878
award-winning 1878
dominated 1878
persecution 1878
Am 1877
Per 1877
Photo@@ 1877
anci@@ 1877
disciplinary 1877
erous 1877
gger 1877
herpes 1877
yan@@ 1877
Bit 1876
Cum@@ 1876
Lind@@ 1876
cattle 1876
glorious 1876
itted 1876
qualify 1876
formatted 1875
system@@ 1875
systematic 1875
variation 1875
Platinum 1874
alised 1874
gment 1874
seated 1874
Vatican 1873
depart 1873
distances 1873
swim 1873
utilities 1873
1974 1872
63@@ 1872
balconies 1872
gin 1872
hesitate 1872
rulers 1872
spac@@ 1872
tooth 1872
wood@@ 1872
87@@ 1871
Hamilton 1871
TW@@ 1871
northeast 1871
pepper 1871
waterproof 1871
301 1870
Give 1870
Optical 1870
Qin@@ 1870
Track 1870
dimin@@ 1870
inquiries 1870
ph 1870
visions 1870
Bob@@ 1869
Gentiles 1869
agreeing 1869
altogether 1869
laying 1869
生@@ 1869
Early 1868
Hard@@ 1868
analyzing 1868
ACH 1867
Grace 1867
Hit@@ 1867
Safari 1867
aying 1867
poll@@ 1867
230 1866
750 1866
Applic@@ 1866
Bad 1866
Liter@@ 1866
Tamat 1866
bride 1866
ARY 1865
Sharing 1865
Sheets 1865
alph@@ 1865
ambitious 1865
apostles 1865
mour@@ 1865
oos 1865
unlock 1865
yards 1865
Clo@@ 1864
Fig@@ 1864
Iranian 1864
avoided 1864
joints 1864
1970s 1863
Summary 1863
Vincent 1863
opera 1863
spot@@ 1863
taxation 1863
Ener@@ 1862
Towers 1862
tailor 1862
Elevator 1861
adaptation 1861
easiest 1861
hunting 1861
hygiene 1861
slaves 1861
Andr@@ 1860
Gon@@ 1860
M4@@ 1860
MAILING 1860
Oper@@ 1860
ance-@@ 1860
anybody 1860
caring 1860
fications 1860
must-see 1860
DRE@@ 1859
bongamodels.com 1859
swear 1859
tious 1859
Corner 1858
Fit 1858
Lingerie 1858
clarity 1858
graphy 1858
motivation 1858
Guang@@ 1857
Loft 1857
aus@@ 1857
polic@@ 1857
Ethiopia 1856
formally 1856
reveals 1856
esco 1855
ns@@ 1855
rene 1855
voc@@ 1855
wholly 1855
Hem@@ 1854
Tim 1854
allocation 1854
relay 1854
tee 1854
Ann 1853
Louisiana 1853
ML 1853
auxiliary 1853
blin@@ 1853
elegance 1853
encies 1853
nesses 1853
Computing 1852
Membership 1852
Terr@@ 1852
basics 1852
eye@@ 1852
incoming 1852
lau@@ 1852
miracle 1852
oid 1852
troubleshooting 1852
HI 1851
SuperChan 1851
acking 1851
dried 1851
earliest 1851
.wi@@ 1850
WMV 1850
XX 1850
cred@@ 1850
ible 1850
state-owned 1850
statue 1850
Algeria 1849
Ama@@ 1849
cup@@ 1849
50,000 1848
Does 1848
Hop@@ 1848
Tenerife 1848
climbing 1848
commandment 1848
provo@@ 1848
routing 1848
-off 1847
Jen@@ 1847
Religion 1847
Salzburg 1847
diplom@@ 1847
som@@ 1847
zen@@ 1847
Brittany 1846
Christie 1846
hated 1846
Bella 1845
Mou@@ 1845
Sicily 1845
commodities 1845
indemnity 1845
Acronis 1844
ELL@@ 1844
farms 1844
strasse 1844
technicians 1844
1900 1843
IRF@@ 1843
SG 1843
portrait 1843
.svg 1842
Conf@@ 1842
Housing 1842
Jack@@ 1842
Much 1842
Traffic 1842
eria 1842
iCloud 1842
TY@@ 1841
fake 1841
gham 1841
ime@@ 1841
profession 1841
155 1840
Lot@@ 1840
accumulated 1840
adver@@ 1840
constitutional 1840
life@@ 1840
Registrar 1839
enhancement 1839
fasc@@ 1839
perf@@ 1839
prin@@ 1839
sport@@ 1839
ADVISED 1838
Jacuzzi 1838
Linda 1838
Path 1838
Vas@@ 1838
ilia 1838
lighter 1838
rigid 1838
xiang 1838
Folk 1837
contamination 1837
multilingual 1837
ogy 1837
pursuing 1837
transmitter 1837
å@@ 1837
Not@@ 1836
ate-@@ 1836
dness 1836
Alg@@ 1835
Corsica 1835
FM@@ 1835
Sofia 1835
cocktail 1835
discard 1835
74AC@@ 1834
Cert 1834
Ground 1834
Healthcare 1834
Mot@@ 1834
Nov 1834
Squir@@ 1834
TOU 1834
Weight 1834
effected 1834
eliminated 1834
menu@@ 1834
uninstall 1834
07-@@ 1833
Potter 1833
iDate@@ 1833
rested 1833
credits 1832
itan 1832
tail@@ 1832
drunk 1831
photographer 1831
11th 1830
Analy@@ 1830
metadata 1830
Campus 1829
MR@@ 1829
draws 1829
attempting 1828
best-@@ 1828
dong 1828
plex 1828
coll@@ 1827
eager 1827
fam@@ 1827
lon 1827
Barbara 1826
Wide 1826
blu@@ 1826
program@@ 1826
seas@@ 1826
trav@@ 1826
Apostle 1825
Asp@@ 1825
complement 1825
expan@@ 1825
fool 1825
fortune 1825
fts 1825
lush 1825
metallic 1825
pays 1825
salon 1825
ADA 1824
acceler@@ 1824
chan@@ 1824
end-to-end 1824
esâ 1824
gotten 1824
manages 1824
own@@ 1824
tends 1824
145 1823
3G 1823
6.0 1823
Mix@@ 1823
pu 1823
remainder 1823
stir 1823
Divine 1822
Input 1822
Respondent 1822
2030 1821
Lady@@ 1821
POSSIBILITY 1821
ViewRead 1821
Yang@@ 1821
eled 1821
heater 1821
Particip@@ 1820
Ping@@ 1820
Armenia 1819
Fos@@ 1819
GS 1819
Mom@@ 1819
Montreal 1819
antibody 1819
atomic 1819
boom 1819
laboratories 1819
EVENT 1818
Governor 1818
HAVE 1818
Simulation 1818
cooper@@ 1818
lrhru.ru 1818
recession 1818
vian 1818
CM 1817
City@@ 1817
Uruguay 1817
fis@@ 1817
phen@@ 1817
3.4 1816
Disneyland 1816
Pan 1816
Rhodes 1816
invoice 1816
Made 1815
Orthodox 1815
V. 1815
acknowledged 1815
counted 1815
kill@@ 1815
mom@@ 1815
studios 1815
yâ 1815
20EP 1814
Networks 1814
counts 1814
slept 1814
well@@ 1814
í 1814
Backpackers 1813
endeav@@ 1813
springs 1813
teen@@ 1813
1971 1812
MED@@ 1812
Vul@@ 1812
incredibly 1812
ited 1812
predicted 1812
rin@@ 1812
socialism 1812
Chair 1811
Structure 1811
ever-@@ 1811
first-class 1811
hurry 1811
nea 1811
pop-up 1811
schemes 1811
surge 1811
888 1810
NX 1810
Usa 1810
stor 1810
1949 1809
Conc@@ 1809
Karl@@ 1809
Porn@@ 1809
Animals 1808
TIVE 1808
merger 1808
seized 1808
Look 1807
Strom@@ 1807
air-@@ 1807
praying 1807
ration@@ 1807
rent@@ 1807
visi@@ 1807
ISO@@ 1806
Inform@@ 1806
Pharisees 1806
Fujian 1805
Wishlist 1805
agen 1805
compar@@ 1805
cycl@@ 1805
dial@@ 1805
exhibits 1805
isol@@ 1805
mould 1805
ub 1805
139 1804
Arkitektur 1804
Wuhan 1804
disciple 1804
exceeding 1804
reads 1804
Clear@@ 1803
Mao 1803
about@@ 1803
sorts 1803
Heights 1802
Reader 1802
Vegetarian 1802
XI 1802
applic@@ 1802
farming 1802
micro-@@ 1802
ologically 1802
tort 1802
240@@ 1801
5.5 1801
7,@@ 1801
Exception 1801
Fellow 1801
Gh@@ 1801
Slippers 1801
VI@@ 1801
classi@@ 1801
eded 1801
gli@@ 1801
pack@@ 1801
AO@@ 1800
Removal 1800
ipp@@ 1800
Jonathan 1799
VII 1799
WW@@ 1799
atically 1799
grad@@ 1799
longest 1799
wool 1799
129 1798
Emer@@ 1798
Ny@@ 1798
Palestine 1798
Word@@ 1798
discussing 1798
litigation 1798
Flor@@ 1797
Penh 1797
pounds 1797
timber 1797
Ai@@ 1796
Fra@@ 1796
cleaned 1796
disorder 1796
enforced 1796
CREATE 1795
Columbus 1795
Hydro@@ 1795
mothers 1795
ograph 1795
shut@@ 1795
Nig@@ 1794
haus 1794
load@@ 1794
organisms 1794
tial 1794
Short 1793
Whit@@ 1793
ital 1793
wer@@ 1793
Lor@@ 1792
Signal 1792
self-catering 1792
win-win 1792
Alber@@ 1791
Interactive 1791
Phnom 1791
lead@@ 1791
8,@@ 1790
Almighty 1790
Atlas 1790
Circuit 1790
Hack 1790
Step 1790
TMve 1790
supporters 1790
Operation 1789
delegates 1789
firewall 1789
weigh@@ 1789
4.0.30319.1 1788
Contracting 1788
GM 1788
Nap@@ 1788
disabilities 1788
hotel@@ 1788
ive 1788
salary 1788
storing 1788
ushi 1788
pigeons 1787
Horse 1786
Ran@@ 1786
Roy@@ 1786
Wen@@ 1786
market@@ 1786
misuse 1786
senses 1786
talented 1786
03-@@ 1785
accredited 1785
ruler 1785
seasons 1785
usado 1785
arly 1784
bind 1784
clicks 1784
pati@@ 1784
Eric 1783
Soundproofing 1783
formatting 1783
inking 1783
stove 1783
Income 1782
Provin@@ 1782
Rewards 1782
eping 1782
exclude 1782
mills 1782
practically 1782
prevented 1782
с@@ 1782
Cancun 1781
virtue 1781
Aegean 1780
Alexandria 1780
Had@@ 1780
Madison 1780
Sol 1780
afflic@@ 1780
recipes 1780
Disco 1779
Tsui 1779
VIS@@ 1779
Wiki 1779
Zhou 1779
Esp@@ 1778
Sep 1778
contradic@@ 1778
faculty 1778
jie 1778
merge 1778
Bukit 1777
PowerPoint 1777
inserted 1777
programmable 1777
tation 1777
eaten 1776
geographic 1776
southwest 1776
staff@@ 1776
tment 1776
Iâ 1775
JR 1775
builds 1775
lish 1775
lowered 1775
merged 1775
qi@@ 1775
Cock 1774
documented 1774
generic 1774
iner@@ 1774
odd 1774
sellers 1774
ves@@ 1774
vik 1774
constitu@@ 1773
defence 1773
ju 1773
sewing 1773
‐ 1773
Park@@ 1772
Venezia 1772
Zi@@ 1772
substrate 1772
1950 1771
COMM@@ 1771
Cayman 1771
Feng 1771
Fishing 1771
TC1303C-@@ 1771
categor@@ 1771
closure 1771
mud 1771
Sunset 1770
batt@@ 1770
dg@@ 1770
seven@@ 1770
trade@@ 1770
Deep 1769
Johannesburg 1769
Shen@@ 1769
fast-@@ 1769
planes 1769
swi@@ 1769
138 1768
acres 1768
clari@@ 1768
loyal 1768
luc@@ 1768
lumin@@ 1768
organizing 1768
synchron@@ 1768
ía 1768
2012-@@ 1767
Lisa 1767
Tob@@ 1767
alerts 1767
breathe 1767
chang 1767
dip 1767
illy 1767
tract 1767
trail 1767
upset 1767
.de 1766
BP 1766
Quad@@ 1766
Trinidad 1766
badly 1766
navi@@ 1766
replacing 1766
struggling 1766
ADVICE 1765
Alere 1765
FTA 1765
alt 1765
kindness 1765
kt 1765
paused 1765
Alpha 1764
Optimization 1764
Vector 1764
cooked 1764
demonstrates 1764
dex@@ 1764
exotic 1764
inter-@@ 1764
patri@@ 1764
steadily 1764
tour@@ 1764
&apos;clock 1763
Challenge 1763
Nero 1763
PORT 1763
Salesforce 1763
Uganda 1763
Vor@@ 1763
everlasting 1763
matched 1763
tify 1763
aine 1762
assemblies 1762
embar@@ 1762
mers 1762
900@@ 1761
Alexand@@ 1761
Areas 1761
Viewer 1761
defeated 1761
max@@ 1761
stereo 1761
where@@ 1761
bonuses 1760
corrected 1760
molecules 1760
straigh@@ 1760
theories 1760
。 1760
19-@@ 1759
Agricultural 1759
M74HC@@ 1759
SIG@@ 1759
Sainte-@@ 1759
Tou@@ 1759
constructive 1759
ective 1759
outlook 1759
retirement 1759
rides 1759
umi 1759
Activity 1758
Hairy 1758
Pictures 1758
Proc@@ 1758
Riviera 1758
tv 1758
Copy 1757
Greenlight 1757
monitored 1757
phpBB 1757
prosec@@ 1757
rol@@ 1757
Apply 1756
HDMI 1756
Tang@@ 1756
am-@@ 1756
sucking 1756
trem@@ 1756
implies 1755
registry 1755
shel@@ 1755
Arctic 1754
Buyer 1754
dine 1754
sighed 1754
sodium 1754
trades 1754
wri@@ 1754
Cairns 1753
JW 1753
Manage 1753
brick 1753
colleges 1753
stown 1753
anism 1752
eves 1752
wall@@ 1752
6.5 1751
Ce@@ 1751
aker 1751
divorce 1751
far@@ 1751
friend@@ 1751
skyline 1751
ASE 1750
Availability 1750
Pit@@ 1750
Scal@@ 1750
bach 1750
comprehen@@ 1750
pillow 1750
175 1749
Effects 1749
Latest 1749
Reports 1749
dot 1749
itate 1749
kissing 1749
kov@@ 1749
organ@@ 1749
wonders 1749
xy@@ 1749
Heroes 1748
STAR 1748
eli 1748
rat 1748
ss@@ 1748
thor@@ 1748
Contemporary 1747
WHO 1747
asts 1747
decreased 1747
tents 1747
unwanted 1747
Ancona 1746
BRICS 1746
Brian 1746
ORD 1746
adi@@ 1746
infobox 1746
ometric 1746
165 1745
FT@@ 1745
Treasury 1745
Utah 1745
conservative 1745
decent 1745
mentation 1745
7.5 1744
Format 1744
competence 1744
contacted 1744
identifies 1744
protests 1744
4000 1743
Al-@@ 1743
Consulate 1743
Exper@@ 1743
Fut@@ 1743
KING 1743
crucified 1743
disasters 1743
protec@@ 1743
restructuring 1743
wishing 1742
Hoo@@ 1741
Sau@@ 1741
after@@ 1741
foreign-@@ 1741
integr@@ 1741
silk 1741
valued 1741
700@@ 1740
Linear 1740
TY 1740
harmon@@ 1740
nâ 1740
planets 1740
tees 1740
Every 1739
Mess@@ 1739
Universe 1739
acon 1739
addle 1739
curse 1739
exec@@ 1739
news@@ 1739
orus 1739
yoga 1739
Height 1738
catalogue 1738
iri 1738
lions 1738
nationality 1738
out-@@ 1738
rem@@ 1738
ults 1738
Archi@@ 1737
Nick@@ 1737
Tony 1737
Vec@@ 1737
five-@@ 1737
inda 1737
lubrication 1737
zhuang 1737
198@@ 1736
PLUS 1736
Rosa 1736
Shang@@ 1736
Udløbet 1736
amaz@@ 1736
considerations 1736
tightly 1736
Hydr@@ 1735
arg@@ 1735
beans 1735
boobs 1735
dealers 1735
excav@@ 1735
gaze 1735
inar 1735
refreshing 1735
worth@@ 1735
Physics 1734
Thi@@ 1734
pedi@@ 1734
ski@@ 1734
uncle 1734
G20 1733
Planet 1733
Regency 1733
Textile 1733
UNG 1733
Valentine 1733
abundant 1733
circuits 1733
crane 1733
tops 1733
towers 1733
Campsites 1732
GC 1732
issa 1732
keeper 1732
kne@@ 1732
oss 1732
princess 1732
redemption 1732
shocked 1732
woo@@ 1732
Aston 1731
Debian 1731
Group@@ 1731
Response 1731
SpringHill 1731
aters 1731
av 1731
rub 1731
trick 1731
Captain 1730
abe@@ 1730
attach 1730
cription 1730
destiny 1730
itter 1730
rejection 1730
Blu 1729
Drug 1729
Provi@@ 1729
bite 1729
eiver 1729
neighbor 1729
Mob@@ 1728
Nelson 1728
angular 1728
bouquet 1728
credentials 1728
interval 1728
quest 1728
wipe 1728
Far 1727
Maison 1727
NBA 1727
breakthrough 1727
declined 1727
equation 1727
mb@@ 1727
user-@@ 1727
Amber 1726
Beverly 1726
Die 1726
Ultra 1726
preparations 1726
Basilica 1725
External 1725
bikes 1725
bills 1725
grip 1725
nowhere 1725
psychology 1725
Population 1724
Ship 1724
Si 1724
brow@@ 1724
orph@@ 1724
rotor 1724
ubs 1724
ype 1724
ün@@ 1724
-made 1723
Physical 1723
SR 1723
White@@ 1723
acre 1723
ius 1723
knee 1723
scales 1723
trap 1723
Sensors 1722
ava 1722
cot 1722
delayed 1722
repairs 1722
ACK@@ 1721
Gy@@ 1721
OO@@ 1721
igni@@ 1721
influential 1721
suc@@ 1721
1940 1720
Laos 1720
Monetary 1720
Peri@@ 1720
Symphony 1720
pub 1720
Ko 1719
RS 1719
Stage 1719
anic 1719
ogen@@ 1719
unclean 1719
Ban 1718
Krai 1718
Spl@@ 1718
conceived 1718
nm 1718
user-friendly 1718
Aub@@ 1717
Nazi 1717
Palermo 1717
eo 1717
freshwater 1717
small-@@ 1717
tiz@@ 1717
08-@@ 1716
A1 1716
Core@@ 1716
Literature 1716
enthusiast 1716
fted 1716
notable 1716
occurring 1716
trails 1716
ABS 1715
atter@@ 1715
catering 1715
demons 1715
influences 1715
quit 1715
Excellence 1714
MAN 1714
Sector 1714
ache 1714
dozen 1714
ushes 1714
AX@@ 1713
Passover 1713
cons 1713
ex-@@ 1713
mess 1713
third-@@ 1713
Malaga 1712
Person 1712
TOR 1712
accompl@@ 1712
rant 1712
spect@@ 1712
Brad@@ 1711
Conditioning 1711
Forces 1711
Ober@@ 1711
Since 1711
optimizing 1711
propose 1711
wounded 1711
501 1710
Leica 1710
Manor 1710
Patio 1710
Patrick 1710
Solid 1709
converters 1709
minded 1709
motiv@@ 1709
ook 1709
rum@@ 1709
开始 1709
Co-@@ 1708
Pound 1708
enthusiasm 1708
generators 1708
locals 1708
magical 1708
tek@@ 1708
varying 1708
Hunter 1707
overhead 1707
privilege 1707
vibrations 1707
Bike 1706
Tol@@ 1706
lending 1706
less@@ 1706
payable 1706
simplicity 1706
sne@@ 1706
ABOUT 1705
Lom@@ 1705
Saigon 1705
TITLE 1705
consultant 1705
lor@@ 1705
snack 1705
Beat@@ 1704
COM@@ 1704
O-@@ 1704
RIETI 1704
Ventures 1704
compiled 1704
splendid 1704
174@@ 1703
RESPONSIBLE 1703
ooth@@ 1703
regulators 1703
uniquely 1703
Harv@@ 1702
Riverside 1702
SIL@@ 1702
badge 1702
angzhou 1701
supermarket 1701
terrain 1701
550 1700
Info@@ 1700
Matrox 1700
Raj@@ 1700
marketplace 1700
sustain 1700
treas@@ 1700
Jean-@@ 1699
Riad 1699
conclude 1699
forehead 1699
voted 1699
Agenda 1698
Amaz@@ 1698
Matt 1698
Sightseeing 1698
Tsim 1698
aser 1698
ather@@ 1698
crude 1698
foster 1698
sharply 1698
tariffs 1698
č@@ 1698
PCs 1697
SEM@@ 1697
quick@@ 1697
trad@@ 1697
woke 1697
Her 1696
Search@@ 1696
Vacation 1696
discerning 1696
heal 1696
infectious 1696
wang@@ 1696
Cow@@ 1695
ceramics 1695
institute 1695
nonetheless 1695
有@@ 1695
DP@@ 1694
PROFITS 1694
Seri@@ 1694
Sunshine 1694
entation 1694
gentleman 1694
messaging 1694
sticks 1694
Birthday 1693
UNIC@@ 1693
ologi@@ 1693
CF 1692
ITT 1692
quanti@@ 1692
sooner 1692
Mang@@ 1691
Rain@@ 1691
pick@@ 1691
soldier 1691
Appro@@ 1690
Tun@@ 1690
appliance 1690
counsel@@ 1690
domin@@ 1690
enz@@ 1690
prototype 1690
qing 1690
Dog 1689
Licensing 1689
advisory 1689
cks 1689
how@@ 1689
predictable 1689
Antigua 1688
Brochure 1688
Gen 1688
Maryland 1688
feared 1688
horizon 1688
northwest 1688
oxidation 1688
uta 1688
wires 1688
Debit 1687
Portfolio 1687
SL 1687
ary-@@ 1687
bitter 1687
debts 1687
gourmet 1687
marvel@@ 1687
Kris@@ 1686
Truth 1686
Charlotte 1685
Invest 1685
eva 1685
mysterious 1685
pity 1685
refl@@ 1685
sponsors 1685
stimulate 1685
Natur@@ 1684
compulsory 1684
Bren@@ 1683
MIS@@ 1683
Month 1683
Tanzania 1683
Xin 1683
fancier 1683
hacking 1683
pal 1683
pending 1683
termin@@ 1683
Bot 1682
Shift 1682
Chinatown 1681
legendary 1681
rit@@ 1681
Deb@@ 1680
Halloween 1680
PRODUCT 1680
adjusting 1680
benchmark 1680
bend 1680
coup 1680
critic@@ 1680
startup 1680
Fried@@ 1679
civilian 1679
dh@@ 1679
er.@@ 1679
store@@ 1679
vain 1679
Pep@@ 1678
Phase 1678
astronom@@ 1678
emotion 1678
endorsement 1678
ications 1678
CRE@@ 1677
Cache 1677
Driving 1677
Kn@@ 1677
WAR@@ 1677
noon 1677
uss 1677
&apos;i 1676
168 1676
BT 1676
Has@@ 1676
Limasol 1676
advis@@ 1676
civilians 1676
gard@@ 1676
Alaska 1675
Hip@@ 1675
OL@@ 1675
Param@@ 1675
allo@@ 1675
citation 1675
dan 1675
esi@@ 1675
fossil 1675
hip 1675
Hall@@ 1674
Hebrews 1674
Qing@@ 1674
Rua 1674
acies 1674
converting 1674
induction 1674
Jing 1673
Sac@@ 1673
automate 1673
depic@@ 1673
stic@@ 1673
subjected 1673
syndrome 1673
tices 1673
FP@@ 1672
IZ@@ 1672
Styles 1672
centric 1672
cool@@ 1672
visu@@ 1672
Libya 1671
Organic 1671
dense 1671
revelation 1671
sors 1671
ugs 1671
vids 1671
FerryTO.@@ 1670
Messiah 1670
mix@@ 1670
tu 1670
BD@@ 1669
Douglas 1669
Four@@ 1669
Shi 1669
amplifier 1669
bie 1669
flour@@ 1669
inte@@ 1669
remin@@ 1669
soft@@ 1669
777 1668
Penthouse 1668
boring 1668
intern@@ 1668
Tren@@ 1667
Wiktionary 1667
chal@@ 1667
emia 1667
honored 1667
20,000 1666
Egyptians 1666
Indonesian 1666
Origin 1666
committees 1666
legend 1666
shelter 1666
slavery 1666
troubled 1666
MAIN 1665
NASA 1665
Santo 1665
Searches 1665
Skin 1665
aven 1665
demographic 1665
qualifications 1665
tendency 1665
Ancient 1664
Discovery 1664
Grill 1664
Inner 1664
Wellington 1664
plain@@ 1664
quot@@ 1664
sever@@ 1664
cross-border 1663
cups 1663
ruins 1663
seaside 1663
tox@@ 1663
Customers 1662
Elis@@ 1662
revise 1662
solicitation 1662
AUTO@@ 1661
Sheng 1661
Wy@@ 1661
coil 1661
ews 1661
icial 1661
ring@@ 1661
timer 1661
ICA 1660
RT@@ 1660
Wake 1660
kits 1660
scrap@@ 1660
short-@@ 1660
APPLICABLE 1659
Balance 1659
Nevada 1659
distributor 1659
euros 1659
follow-up 1659
gad@@ 1659
gged 1659
lane 1659
lun@@ 1659
underwater 1659
Suzuki 1658
appoint 1658
cliff 1658
emergence 1658
Drivers 1657
Jason 1657
centered 1657
guiding 1657
normal@@ 1657
notably 1657
Cook 1656
Corinthians 1656
During 1656
conce@@ 1656
confess 1656
memor@@ 1656
skirt 1656
tobacco 1656
Cru@@ 1655
Gemini 1655
SKF 1655
SM320CC6713@@ 1655
cafes 1655
garbage 1655
healed 1655
iBooked.ca 1655
nau@@ 1655
Emergency 1654
data-@@ 1654
disorders 1654
motivated 1654
Coral 1653
RPG 1653
appreciated 1653
casinos 1653
circles 1653
shoe 1653
Count 1652
Types 1652
ZuluTrade 1652
dging 1652
nat@@ 1652
onds 1652
surfing 1652
vation 1652
к@@ 1652
ECH 1651
Install 1651
jects 1651
mur@@ 1651
nominated 1651
shining 1651
undertaken 1651
Boy 1650
Girl@@ 1650
Patri@@ 1650
Write 1650
dys@@ 1650
ision 1650
pole 1650
proceeding 1650
Branson 1649
Nathan 1649
birth@@ 1649
briefly 1649
good-@@ 1649
reconstruction 1649
spectro@@ 1649
vering 1649
viral 1649
Dim@@ 1648
cab 1648
fif@@ 1648
incidence 1648
know@@ 1648
Announ@@ 1647
Mau@@ 1647
More@@ 1647
Others 1647
TON 1647
amb@@ 1647
amendments 1647
severely 1647
Aug 1646
Degree 1646
Eri@@ 1646
Pyr@@ 1646
housed 1646
prophecy 1646
Jinjiang 1645
disrup@@ 1645
frontend 1645
nets 1645
para 1645
Belize 1644
Ill@@ 1644
Victor 1644
Yahoo 1644
ding@@ 1644
priv@@ 1644
quarters 1644
rang@@ 1644
sinned 1644
t. 1644
tability 1644
tely 1644
148 1643
DH@@ 1643
DL-@@ 1643
analyzer 1643
docking 1643
politically 1643
proteins 1643
tize 1643
250-750 1642
EG@@ 1642
FM 1642
Lavender 1642
PCI 1642
coordinated 1642
jin 1642
traits 1642
Forms 1641
Install@@ 1641
aning 1641
e. 1641
hollow 1641
pir@@ 1641
Massage 1640
Quali@@ 1640
contact@@ 1640
dur@@ 1640
endeavor 1640
oss@@ 1640
venti@@ 1640
4.4 1639
Drink 1639
Genoa 1639
LOWEST 1639
api 1639
fulfilling 1639
leveraging 1639
renal 1639
Contact@@ 1638
for-@@ 1638
liberty 1638
manuals 1638
midnight 1638
molybdenum 1638
projected 1638
EF 1637
Flu@@ 1637
Nike 1637
Outdoors 1637
Registered 1637
Sul@@ 1637
Tiger 1637
Tsu@@ 1637
Waterfront 1637
baking 1637
non-profit 1637
reflecting 1637
slid 1637
ulator 1637
485 1636
Avira 1636
chic 1636
festivals 1636
landmark 1636
realizing 1636
Editing 1635
Facts 1635
Gard@@ 1635
Medic@@ 1635
trendy 1635
1100 1634
7.1 1634
BUSINESS 1634
Bund 1634
ge-@@ 1634
reflective 1634
CAP@@ 1633
Contributors 1633
L.@@ 1633
Swe@@ 1633
alled 1633
bg 1633
dedication 1633
pointer 1633
quer@@ 1633
sapphire 1633
sprink@@ 1633
Hindus 1632
Howard 1632
Jon@@ 1632
Lobby 1632
Neg@@ 1632
RFEM 1632
ary@@ 1632
company@@ 1632
horn 1632
invented 1632
judged 1632
rough@@ 1632
206 1631
Artist 1631
Diet 1631
achi@@ 1631
amm@@ 1631
clay 1631
imperial 1631
pler 1631
tricks 1631
upward 1631
athy 1630
farm@@ 1630
fibers 1630
fires 1630
Mozilla 1629
Pump 1629
Seychelles 1629
bli@@ 1629
hiding 1629
mons 1629
opponent 1629
Cad@@ 1628
Differ@@ 1628
Mill 1628
Tow@@ 1628
citizenship 1628
ensus 1628
erc@@ 1628
ill-@@ 1628
impeccable 1628
investigations 1628
town@@ 1628
Eiffel 1627
Scr@@ 1627
inct 1627
poin@@ 1627
suicide 1627
1965 1626
Matrix 1626
Rainbow 1626
admir@@ 1626
blue@@ 1626
cross@@ 1626
fit@@ 1626
meantime 1626
owe 1626
rolls 1626
temples 1626
East@@ 1625
LOW 1625
Liquid 1625
Scriptures 1625
aste 1625
ena@@ 1625
futures 1625
lightly 1625
monster 1625
cler@@ 1624
m.@@ 1624
novel@@ 1624
numbered 1624
pub@@ 1624
restriction 1624
uphold 1624
202 1623
Bolivia 1623
Pip@@ 1623
advancing 1623
ego 1623
girl@@ 1623
light-@@ 1623
premise 1623
romance 1623
stringent 1623
Oasis 1622
cats 1622
symbol@@ 1622
tournament 1622
Din@@ 1621
communist 1621
crises 1621
das 1621
regul@@ 1621
tasting 1621
Heng@@ 1620
Persian 1620
Selection 1620
coff@@ 1620
legislative 1620
sinner 1620
Alternative 1619
Cars 1619
Cran@@ 1619
Elijah 1619
aesthetic 1619
lightning 1619
Test@@ 1618
XL 1618
auto@@ 1618
recommends 1618
resting 1618
1964 1617
Amenities 1617
Linked 1617
Scan 1617
cutter 1617
exemplary 1617
warmth 1617
Ã3n 1617
BN@@ 1616
Buff@@ 1616
Gibraltar 1616
Mauritius 1616
color@@ 1616
wardrobe 1616
141 1615
51@@ 1615
Barco 1615
IA@@ 1615
Liber@@ 1615
Til@@ 1615
acqu@@ 1615
coalition 1615
inspire 1615
municipalities 1615
perfection 1615
polishing 1615
vitamins 1615
4.6.1069.1 1614
Chec@@ 1614
Kos@@ 1614
Prest@@ 1614
beads 1614
disks 1614
inherent 1614
25.@@ 1613
DU@@ 1613
FU@@ 1613
Isab@@ 1613
arena 1613
inappropriate 1613
intentionally 1613
sian 1613
teners 1613
transferring 1613
Aberdeen 1612
Albums 1612
Formula 1612
Lucia 1612
insist 1612
iv@@ 1612
repaired 1612
resol@@ 1612
vine 1612
Overseas 1611
cutting-edge 1611
gladly 1611
guns 1611
notwithstanding 1611
shipped 1611
Apr 1610
Consult@@ 1610
Jet 1610
Jol@@ 1610
Ltd.@@ 1610
Papua 1610
breathtaking 1610
counting 1610
dawn 1610
descendants 1610
gloves 1610
investigated 1610
μ@@ 1610
185 1609
Dar 1609
Ministers 1609
Oak 1609
Pub@@ 1609
card@@ 1609
middle-@@ 1609
successor 1609
typing 1609
9.6 1608
ABLE 1608
Impact 1608
LinkedIn 1608
Publishing 1608
ancer 1608
esc@@ 1608
hem 1608
itations 1608
liquids 1608
traction 1608
Krakow 1607
Kyrgyzstan 1607
MAG@@ 1607
POR@@ 1607
Principles 1607
appealing 1607
billions 1607
fullest 1607
transformer 1607
280@@ 1606
3A 1606
Face 1606
Simulator 1606
Vladimir 1606
anticipated 1606
confirmations 1606
didnâ 1606
pois@@ 1606
possessed 1606
validate 1606
É@@ 1606
REG@@ 1605
cros@@ 1605
playback 1605
stimulus 1605
synagogue 1605
APK 1604
According 1604
Each 1604
GOD 1604
Sub-@@ 1604
isted 1604
nails 1604
BY@@ 1603
Circuits 1603
Homestay 1603
Mechan@@ 1603
Supplies 1603
WebSphere 1603
elastic 1603
one-stop 1603
oscill@@ 1603
sewage 1603
struction 1603
tiers 1603
132 1602
Option 1602
Tas@@ 1602
Walking 1602
accession 1602
editions 1602
gonna 1602
qi 1602
usable 1602
ELECTRIC 1601
Talk 1601
absorb 1601
blessings 1601
contrac@@ 1601
es.Â 1601
gel@@ 1601
panties 1601
ó 1601
One-Bedroom 1600
emailed 1600
lap@@ 1600
mA 1600
specializing 1600
vens 1600
Analyzer 1599
Cinema 1599
ICS 1599
INR 1599
Rubber 1599
Servic@@ 1599
Zagreb 1599
atic@@ 1599
chill 1599
fulfillment 1599
mutually 1599
ored 1599
understands 1599
utions 1599
BEEN 1598
Furn@@ 1598
LIS@@ 1598
displacement 1598
enne 1598
issuing 1598
lottery 1598
syntax 1598
tles 1598
ulous 1598
viable 1598
Between 1597
Hu 1597
bull 1597
consolidation 1597
vaccine 1597
Andro@@ 1596
Canary 1596
ECU 1596
Ghana 1596
Length 1596
athers 1596
camps 1596
careers 1596
found@@ 1596
rushed 1596
willingness 1596
136 1595
CES 1595
DM 1595
FTP 1595
launching 1595
rio 1595
rises 1595
state@@ 1595
GPU 1594
Pizza 1594
conversations 1594
platz 1594
pression 1594
Å@@ 1594
Barack 1593
Sophi@@ 1593
Zer@@ 1593
inconvenience 1593
kel@@ 1593
non-commercial 1593
recur@@ 1593
right-click 1593
Fron@@ 1592
conveniences 1592
strongest 1592
wee@@ 1592
BER@@ 1591
Diesel 1591
Hurricane 1591
MPEG 1591
USING 1591
gent 1591
wealthy 1591
Pie@@ 1590
Submissions 1590
hiring 1590
manip@@ 1590
negotiate 1590
testo 1590
viewers 1590
金@@ 1590
Fit@@ 1589
Gun@@ 1589
Havana 1589
SMA@@ 1589
conviction 1589
curves 1589
super-@@ 1589
tackle 1589
tale 1589
wizard 1589
JP@@ 1588
desperate 1588
eal 1588
economically 1588
inks 1588
oir 1588
polar@@ 1588
3,000 1587
AM26LS@@ 1587
Accounting 1587
Bahamas 1587
ELECTRONIC 1587
Exc@@ 1587
cc 1587
nerve 1587
ogenic 1587
remotely 1587
Princeton 1586
jum@@ 1586
makeup 1586
部分名称 1586
.com@@ 1585
Kuta 1585
absorbed 1585
mated 1585
HB@@ 1584
Jakarta 1584
andÂ 1584
cooled 1584
emerge 1584
fang 1584
lowing 1584
norms 1584
Kiev 1583
MC 1583
attribu@@ 1583
DAY 1582
Galilee 1582
Iz@@ 1582
Laptop 1582
abundance 1582
lee 1582
oblig@@ 1582
ported 1582
relying 1582
09-@@ 1581
Persons 1581
Required 1581
Zen@@ 1581
complications 1581
discrimin@@ 1581
emented 1581
footage 1581
simultaneous 1581
transmitters 1581
256 1580
Berkeley 1580
Bishop 1580
GI 1580
INGS 1580
Rotterdam 1580
Stanley 1580
authentic@@ 1580
commissioning 1580
link@@ 1580
pi 1580
strings 1580
а 1580
1962 1579
C6@@ 1579
Complainant 1579
MC14@@ 1579
MID@@ 1579
Many 1579
Tehran 1579
deliveries 1579
help@@ 1579
synchronization 1579
viscosity 1579
å 1579
包括 1579
如同 1579
结尾 1579
angles 1578
athon 1578
diagnosed 1578
disappear 1578
fluids 1578
kal@@ 1578
non-refundable.@@ 1578
statutes 1578
CK 1577
Grove 1577
Kate 1577
Ryan 1577
Specialist 1577
Sync 1577
knocked 1577
tionary 1577
205 1576
Courses 1576
aken 1576
anner 1576
folded 1576
guards 1576
notion 1576
perfume 1576
4.jpg 1575
Arch 1575
Holidays 1575
Join 1575
alloys 1575
approve 1575
c.@@ 1575
dashboard 1575
directional 1575
intervals 1575
memorial 1575
ofÂ 1575
rh@@ 1575
year-@@ 1575
NetBeans 1574
Techn@@ 1574
Trail 1574
awa@@ 1574
buck@@ 1574
exceeded 1574
hired 1574
humble 1574
ints 1574
nick@@ 1574
1961 1573
Ms 1573
Norton 1573
Prof 1573
Proj@@ 1573
dee 1573
equations 1573
mediation 1573
phosph@@ 1573
Care@@ 1572
Non-Smoking 1572
String 1572
basement 1572
ogue 1572
pine 1572
sie 1572
utilized 1572
日@@ 1572
133 1571
MER@@ 1571
Sino-@@ 1571
U.S.@@ 1571
Width 1571
Williams 1571
arbitr@@ 1571
machine-@@ 1571
titanium 1571
ر@@ 1571
1948 1570
7.0 1570
8.3 1570
Fairfield 1570
Grundfos 1570
Lay@@ 1570
Protect 1570
Tax@@ 1570
Tian 1570
pharm@@ 1570
HKIAC 1569
Jess@@ 1569
Sym@@ 1569
ambience 1569
barrel 1569
disciplines 1569
fountain 1569
itated 1569
raz@@ 1569
Det@@ 1568
Eur@@ 1568
vSphere 1568
Hak@@ 1567
Heatmaps 1567
analysts 1567
keen 1567
9.00 1566
Down@@ 1566
Layout 1566
Roses 1566
Seven 1566
Thre@@ 1566
body@@ 1566
escaped 1566
hen 1566
purely 1566
海@@ 1566
Kid@@ 1565
Voith 1565
attracts 1565
flew 1565
leys 1565
witnessed 1565
Chaoyang 1564
HF 1564
Nixon 1564
appro@@ 1564
ond@@ 1564
right@@ 1564
tigh@@ 1564
3.6 1563
Angkor 1563
Praia 1563
Wind 1563
Zip 1563
dam 1563
ester@@ 1563
ا@@ 1563
fantasy 1562
illa@@ 1562
loader 1562
280 1561
Cool@@ 1561
Nom@@ 1561
Period 1561
Zhang@@ 1561
cris@@ 1561
hm 1561
iced 1561
lodge 1561
Gaza 1560
Gig@@ 1560
Sco@@ 1560
Susan 1560
adul@@ 1560
dev 1560
screen@@ 1560
sub 1560
ée 1560
Dang@@ 1559
Reform 1559
Stream 1559
VEN@@ 1559
Wonder@@ 1559
asy 1559
chassis 1559
girlfriend 1559
hic 1559
Commonwealth 1558
DP 1558
Domestic 1558
Leadership 1558
Lite 1558
Windsor 1558
chess 1558
commander 1558
ence-@@ 1558
puzzles 1558
stres@@ 1558
Indianapolis 1557
overwhelming 1557
presses 1557
scans 1557
AFFILIATES 1556
Alis@@ 1556
BIO@@ 1556
GeForce 1556
orbit 1556
rowing 1556
us-@@ 1556
vig@@ 1556
your@@ 1556
Café 1555
Ferrari 1555
favour 1555
fittings 1555
likelihood 1555
oa 1555
Israelites 1554
Kamp@@ 1554
V1@@ 1554
capac@@ 1554
commissioned 1554
contributes 1554
enna 1554
lid 1554
motorcycle 1554
tangible 1554
260 1553
Chem@@ 1553
inver@@ 1553
sermon 1553
undoubtedly 1553
3-minute 1552
inspiring 1552
level@@ 1552
ushed 1552
Tier 1551
bear@@ 1551
labs 1551
rain@@ 1551
whereby 1551
Asked 1550
Coc@@ 1550
Esti@@ 1550
Making 1550
agile 1550
ample 1550
inders 1550
mortal 1550
ower 1550
32.@@ 1549
Wikimedia 1549
granting 1549
ratification 1549
wallpapers 1549
Napoleon 1548
Ou@@ 1548
POLICY 1548
Poc@@ 1548
VP 1548
Valent@@ 1548
competing 1548
conditional 1548
dead@@ 1548
gaps 1548
industry-@@ 1548
quoted 1548
shareholder 1548
uncertain 1548
wo@@ 1548
Adults 1547
Ast@@ 1547
Bag 1547
Turks 1547
brook 1547
mming 1547
petroleum 1547
prote@@ 1547
adventures 1546
alright 1546
sauce 1546
sid@@ 1546
144 1545
Cleveland 1545
showcase 1545
specifies 1545
Freight 1544
Mut@@ 1544
Policies 1544
deepen 1544
hatred 1544
loft 1544
merchants 1544
rage 1544
soccer 1544
tition 1544
149 1543
Bes@@ 1543
Chart 1543
Yugoslavia 1543
cheek 1543
congratulations 1543
harv@@ 1543
spiral 1543
tang@@ 1543
workloads 1543
100-@@ 1542
28-@@ 1542
Fan@@ 1542
Tang 1542
Wifi 1542
bishop 1542
bowed 1542
fiers 1542
mys@@ 1542
recipients 1542
contr@@ 1541
deformation 1541
squares 1541
beforehand 1540
cultivate 1540
fixing 1540
forbidden 1540
gi 1540
heav@@ 1540
medium-sized 1540
Rochester 1539
ood 1539
synthesis 1539
Bin 1538
Focus 1538
Hyper@@ 1538
anie 1538
emble@@ 1538
shred@@ 1538
Click@@ 1537
Dean 1537
ECB 1537
LIN 1537
Nex@@ 1537
accounted 1537
blades 1537
observ@@ 1537
rehabilitation 1537
rement 1537
tention 1537
vor@@ 1537
TOP 1536
assisted 1536
auto-@@ 1536
bucket 1536
depend@@ 1536
gic 1536
immense 1536
MK@@ 1535
Muang 1535
Vacuum 1535
disappointed 1535
в@@ 1535
167 1534
Curators 1534
assuming 1534
dun@@ 1534
eFinancialCareers 1534
iii 1534
incorporates 1534
Attorney 1533
TEK 1533
aint 1533
ml@@ 1533
pling 1533
1A 1532
Com 1532
Embedded 1532
PG 1532
cafe 1532
fraudulent 1532
ino@@ 1532
ition 1532
outlined 1532
pret@@ 1532
AI@@ 1531
CHINA 1531
Colon@@ 1531
Hou@@ 1531
PUNITIVE 1531
intermedi@@ 1531
laun@@ 1531
refriger@@ 1531
stipulated 1531
Cagliari 1530
Religious 1530
bg.jpg 1530
climbed 1530
exchanged 1530
frightened 1530
209 1529
Apart 1529
Bathrobe 1529
Championship 1529
Leon@@ 1529
exi@@ 1529
[...]
