的 13286121
, 12573601
。 7261010
和 2867524
在 2692959
: 2380944
、 2094246
. 1967233
) 1915422
( 1897345
&quot; 1811551
- 1766659
是 1747822
了 1645657
您 1490048
你 1192508
/ 1166975
我 1152832
我们 1144722
或 1106183
酒店 820615
他 810304
有 727738
一个 699094
提供 679017
与 660726
为 653889
中 653187
? 646252
不 640506
上 602100
可以 600976
将 598662
使用 583612
并 569791
服务 568337
也 540818
对 536787
到 505693
她 479109
人 458588
任何 456159
就 441400
年 441151
网站 439724
这 431181
从 422957
都 421978
他们 406736
会 391975
所有 385530
请求 370432
1 367078
本 358883
可 357716
更 354777
URL 353260
被 348168
， 341882
! 338807
其他 334152
信息 328936
请 326555
以 315817
而 314585
; 313900
说 313820
多 310349
2 301698
如果 296322
要 289179
但 288638
及 285019
公司 283262
没有 283196
以及 278438
来 277511
通过 277235
工作 274989
其 272392
它 270813
地 269782
显示 266462
着 262599
时 262423
产品 261625
该 256536
等 254356
于 253633
3 253193
时间 251761
中国 249051
4 248742
所 246341
自己 244671
包括 239469
这些 237002
还 229850
重要 229765
aspx 228809
进行 227840
地图 226904
可能 226668
下 226465
选择 224139
月 223226
价格 214208
让 213867
需要 213538
有限公司 209739
最 205617
这个 203542
什么 202037
查看 201877
很 201065
com 201058
第 199996
_ 197512
5 195361
内容 189344
系统 187738
新 186666
数据表 185526
后 185499
美国 184433
10 183741
问题 183086
给 179867
免费 179810
国家 178566
已经 177217
能 176434
去 175696
设计 173401
由 170056
向 168056
数据 167496
个 166083
把 165965
预订 164529
技术 163684
用户 163334
内 162618
Datasheet 161586
公寓 159933
设备 159217
里 158123
好 157400
Page 157287
帮助 154995
距离 154773
知道 153145
因为 151989
大 149923
用 149201
日 148405
国际 148227
位于 148166
中心 146510
公里 146163
那 145829
&#93; 144669
世界 144351
&#91; 143289
相关 142705
详情 142456
关于 142243
做 141984
使 141945
章 141727
企业 139437
情况 139115
想 137584
这样 137281
获得 136691
你们 136648
客房 136364
吗 134076
6 133804
视频 133140
&apos; 131885
能够 131053
当 130934
就是 130921
已 129951
住宿 129687
方式 129524
又 129265
@ 126330
不是 126321
或者 126281
如何 125807
客户 125712
开始 125580
要求 125058
现在 124989
支持 124518
7 124425
必须 124119
此 123244
下载 123141
「 123016
安全 122493
8 122249
活动 121739
渡轮 119903
设施 119762
标准 118717
&gt; 118449
· 117712
项目 117436
类型 117203
」 117005
% 116524
协议 116291
管理 115799
访问 115722
同意 115621
页面 115620
之 115227
过 114980
客人 114905
软件 114263
文件 113479
浏览 113174
附近 113011
s 112903
生产 111393
发展 111388
主要 110501
以下 110431
应用 110405
作为 109827
性 109677
这是 109630
至 109225
有关 109193
地区 108964
则 108505
这里 108043
地方 107915
网络 106141
船票 105935
a 105489
带 105379
一 104918
9 104180
家 104105
接受 103252
Hotel 102611
用于 102165
如 102003
一些 101800
市场 101614
机场 101405
不会 101357
不同 101314
功能 101142
大@@ 100937
成为 100367
小时 100312
得 100311
一@@ 100308
保护 100024
拥有 99398
但是 99091
$ 97587
位置 97482
条款 97412
分钟 97392
时候 97319
完成 96843
区 96766
&#124; 96404
非常 96379
前 96056
了解 95874
继续 95789
最新 95511
在线 95099
高 94393
经济 93961
11 93307
P@@ 93293
间 93246
12 93002
因此 92703
T@@ 92466
照片 92329
一种 92226
《 92101
全球 91918
版本 91886
之间 91715
20 91606
》 91304
B@@ 91176
同时 91116
规定 90783
吧 90758
24 90689
呢 90643
D@@ 90518
这种 90092
根据 90085
神 89512
对于 89395
者 89360
H@@ 89115
网 88965
保证 88635
联系 88576
A 88391
法律 88120
控制 87672
政策 87652
看 87645
不@@ 87257
供货商 87237
不能 86642
15 86554
然后 86254
N@@ 86047
最大 85991
M@@ 85880
发生 85439
为了 85431
自由 85374
城市 84453
表示 84424
汽车 84369
in 84309
因 83988
解决方案 83976
权利 83904
研究 83598
游戏 83521
部分 83495
并且 83484
R@@ 82979
K@@ 82878
计划 82420
km 82222
L@@ 82069
实现 81205
材料 81148
of 80853
出 80454
房 80117
* 79907
C@@ 79905
们 79897
连接 79868
若 79232
发现 79221
30 78734
生活 78650
组织 78040
on 78011
&amp; 77892
具有 77610
F@@ 77420
分析 77154
G@@ 77018
旅游 77012
S@@ 76884
欧洲 76881
找到 76866
环境 76813
i 76810
V@@ 76667
存在 76515
许多 76270
更改 76262
确保 76135
C 76000
资料 75985
再 75745
to 75644
方法 75637
英国 75608
发布 75580
影响 75152
日期 75099
事 74850
处理 74775
适合 74462
过程 74304
超过 74080
注册 73580
设有 73574
方面 73282
无法 73240
认为 73069
s@@ 72902
法国 72576
创建 72560
条件 72448
啊 72411
仅 72118
例如 71868
最佳 71745
只 71598
是否 71083
工具 70957
式 70757
得到 70612
均 70141
还是 70111
地址 70053
来自 69896
小@@ 69664
政府 69395
能力 68965
点 68765
其中 68744
编辑 68711
个人 68694
搜索 68463
适用 68427
却 68239
安装 68146
私人 68070
比 68010
子 67815
4@@ 67708
点击 67684
m@@ 67555
之前 67503
结果 67142
餐厅 67089
t@@ 67045
所以 66950
看到 66771
怎么 66699
由于 66471
号 66218
小 66147
应该 65907
I 65737
各种 65701
大学 65687
21 65571
合作 65400
那么 65375
两个 65320
业务 65203
中@@ 64975
o 64779
机 64522
房间 64495
and 64438
它们 64259
d@@ 64113
+ 64012
希望 63934
及其 63911
应 63538
关系 63345
J@@ 63302
简单 63250
像 63236
维基百科 63200
B 63121
离 63049
行业 63046
完全 63025
浴室 62968
范围 62918
注意 62179
2016 62169
需 62057
喜欢 61985
一切 61955
起来 61747
ing 61468
线 61462
直接 61440
快速 61392
社会 61258
正在 61065
出现 60668
之一 60265
领域 60103
开发 59979
享受 59927
走 59699
利用 59684
E@@ 59465
米 59287
18 59231
c@@ 59204
e@@ 59077
交易 58919
那些 58833
S 58782
投资 58782
p@@ 58562
16 58481
会议 58335
且 58299
特别 58299
b@@ 58281
W@@ 57944
25 57900
空房 57797
n@@ 57761
一样 57744
水 57721
责任 57681
设置 57642
才 57599
语言 57533
多@@ 57487
名 57428
状况 57372
而且 57282
程序 57131
主 57082
h@@ 56981
5@@ 56943
达 56805
系列 56798
资源 56796
专业 56618
链接 56524
意大利 56523
进入 56514
站 56493
6@@ 56449
只是 56436
历史 56385
统计 56385
天 56313
每个 56295
需求 56252
f@@ 56213
建议 56181
提高 56145
爱 56111
谁 56008
执行 55918
y 55879
目标 55835
y@@ 55763
描述 55683
耶稣 55570
k@@ 55561
The 55546
一起 55199
决定 55080
采用 55034
机构 54963
第三方 54956
员工 54936
提出 54882
很多 54774
D 54748
最低 54673
13 54652
其它 54596
无@@ 54564
测试 54440
道 54391
l@@ 54212
那里 54192
包含 53990
整个 53935
报告 53910
14 53840
产生 53767
还有 53679
起 53672
质量 53657
de 53513
体验 53503
损失 53473
只有 53358
错误 53356
住 53255
g@@ 53133
an 53123
自动 53102
登录 53007
3@@ 52772
检查 52755
工业 52739
约 52667
i@@ 52364
旅馆 52326
en 52196
股份 52097
购买 51954
e 51925
行为 51860
集团 51846
允许 51808
家庭 51806
建立 51769
目的 51758
受 51752
移动 51550
之后 51520
海滩 51515
早餐 51416
不要 51258
80 51210
正确 51183
日本 51179
申请 51081
想要 51046
上海 51026
平台 50769
区域 50740
按 50634
删除 50562
德国 50359
非 50254
评论 50110
型 50009
经验 49896
斯 49887
承诺 49883
满足 49852
上帝 49812
文化 49810
高@@ 49780
增加 49685
无 49665
出来 49659
19 49580
the 49503
帐户 49475
市 49235
卡 49204
应用程序 49143
销售 49096
成功 48979
负责 48972
2@@ 48966
学习 48840
操作 48778
空调 48737
耶和华 48730
8@@ 48719
最后 48715
教育 48662
用途 48633
制造商 48508
50 48475
一直 48382
r@@ 48253
阅读 48246
最好 48155
德 48045
运行 48041
头 47957
的话 47841
器 47809
即 47776
孩子 47691
100 47680
收集 47539
法 47443
导致 47397
每 47386
化 47328
images 47178
百科全书 47128
一次 47110
原因 47096
儿童 47091
费用 47033
er@@ 46985
Y@@ 46980
人们 46965
目前 46901
妈妈 46826
A@@ 46816
广告 46738
200 46629
旅客 46503
17 46479
7@@ 46443
配有 46429
X@@ 46406
全部 46393
人@@ 46304
通知 46208
阿@@ 46180
es 46167
Z@@ 46141
事情 46127
O@@ 46068
修改 46050
er 45938
Texas 45901
cookie 45805
拉@@ 45770
健康 45756
a@@ 45731
结束 45709
有效 45679
Instruments 45620
隐私 45539
说明 45491
服务器 45489
未来 45369
列表 45332
车 45302
形式 45276
考虑 45231
保持 45148
密码 45116
准备 45078
E 44993
手 44991
基于 44987
特 44968
in@@ 44926
一定 44904
更新 44865
0@@ 44805
电子邮件 44732
为什么 44705
团队 44660
9@@ 44652
刷新 44627
性能 44605
告诉 44524
路 44518
M 44514
al@@ 44436
j@@ 44432
期间 44282
香港 44204
没 44185
代表 44099
以此 44022
一下 43952
® 43887
虽然 43824
条 43805
行 43779
获取 43647
持续 43620
自 43538
拉 43530
舒适 43505
声明 43467
2015 43406
跟 43368
v@@ 43363
媒体 43347
电话 43188
NET 43081
过去 43044
之@@ 42980
商业 42960
旅舍 42934
is 42809
曾 42741
此外 42693
X 42639
制造 42493
轮渡 42465
图 42403
电子 42321
入住 42185
东西 42184
建筑 42128
运动 42078
22 41973
添加 41955
许可 41928
特定 41783
机会 41739
传统 41698
西班牙 41659
造成 41627
甚至 41569
这一 41559
z@@ 41509
努力 41485
公园 41450
名称 41392
独立 41365
水@@ 41349
门 41329
游泳池 41304
人员 41284
优惠 41270
旅行 41133
解决 41126
成 41083
作品 41046
科技 41027
G 41013
T 40975
限制 40868
0 40831
空间 40807
感觉 40696
带来 40689
如此 40642
w@@ 40633
位 40610
增长 40496
长 40461
岁 40450
音乐 40418
作 40406
星级 40401
有@@ 40358
18@@ 40335
明确 40302
新@@ 40280
个人信息 40246
O 40242
较 40241
品牌 40132
1@@ 40112
电视 40101
支付 40081
学生 40053
上@@ 40009
问 40008
西@@ 40006
供应商 39980
心 39962
L 39935
便宜 39928
一部分 39927
朋友 39888
承担 39846
基础 39833
步行 39611
马@@ 39594
死 39582
加 39533
en@@ 39524
符合 39455
一家 39429
首页 39428
40 39401
自@@ 39389
便 39259
三@@ 39251
真正 39151
另 39133
结构 39116
未 38923
以色列 38897
减少 38847
提交 38823
叫 38821
寻找 38819
成本 38796
图片 38767
数字 38748
可@@ 38739
委员会 38734
低 38679
测量 38676
Agriaffaires 38638
完整 38632
an@@ 38627
今天 38605
改变 38529
模式 38472
P 38369
2014 38301
创新 38296
K 38283
套房 38039
克 38013
地@@ 37964
输入 37911
授权 37838
ed 37814
供求信息 37781
应当 37758
u 37727
x@@ 37707
北京 37671
不过 37662
org 37503
合作伙伴 37498
专家 37487
身体 37477
一点 37458
艺术 37440
翻译 37382
通常 37313
这么 37261
分享 37113
卡@@ 37005
风险 36994
外 36986
儿子 36967
真的 36964
加入 36940
岛 36925
选项 36894
英语 36889
USD 36745
不断 36682
互联网 36678
银行 36573
10@@ 36564
城 36438
听 36340
I@@ 36275
t 36228
当地 36228
食品 36224
jpg 36202
回答 36184
达到 36165
恢复 36148
R 36139
Microsoft 36124
U@@ 36078
00 36035
受到 35945
然而 35937
斯@@ 35898
展示 35804
多个 35743
介绍 35732
同 35721
23 35717
当前 35668
地点 35664
值 35660
见 35648
亚 35627
车辆 35590
Windows 35535
生命 35514
u@@ 35488
金@@ 35472
厨房 35459
配置 35432
F 35350
当然 35346
乘客 35335
水平 35328
ar@@ 35288
书 35231
新闻 35145
价值 35083
al 35079
成员 35068
相信 35018
确定 34980
类 34911
参加 34898
无线网络 34889
现代 34767
山 34761
at 34746
相同 34743
V 34723
o@@ 34714
力 34708
打开 34703
最高 34578
网上 34577
天@@ 34574
前往 34504
for 34440
学校 34435
违反 34433
世纪 34426
工程 34425
从而 34390
娱乐 34247
以上 34135
ia 34123
Inc 34106
终止 34074
电脑 34065
it@@ 34007
心@@ 33928
治疗 33844
不得 33831
参与 33811
罗@@ 33780
一般 33763
机械 33747
特殊 33735
海@@ 33716
政治 33682
实时 33670
内部 33664
发送 33639
容易 33620
课程 33613
供应 33607
b 33596
限于 33574
来说 33547
d 33543
c 33534
国 33526
最近 33505
除了 33413
利 33383
部 33379
光 33378
理想 33296
女人 33277
ch@@ 33263
更加 33263
as 33210
行动 33135
台 33108
两@@ 33098
浏览器 33078
状态 33054
m 32993
贸易 32918
比较 32849
作用 32758
分 32720
基督 32684
自然 32683
看着 32596
离开 32583
压力 32574
博物馆 32572
圣@@ 32537
账户 32520
is@@ 32518
现场 32517
26 32516
度 32512
花园 32464
理解 32463
按照 32444
度假 32440
人类 32375
未经 32368
尔 32362
am@@ 32356
吃 32348
会员 32341
检测 32251
2012 32213
男人 32195
n 32182
2017 32161
2013 32155
N 32094
变化 32094
处 32086
板 32036
on@@ 31998
认证 31952
PDF 31921
实施 31871
某些 31821
量 31819
工作人员 31776
（ 31743
ar 31723
酒吧 31719
） 31717
el@@ 31635
存储 31581
额外 31562
正 31526
社区 31489
查询 31439
出口商 31385
一天 31371
立即 31371
欢迎 31366
无论 31354
觉得 31342
记录 31308
Technology 31297
27 31212
那个 31164
28 31154
重新 31144
有些 31125
不可 31115
Street 31065
网页 31060
俄罗斯 31049
培训 31049
同样 31019
那@@ 30952
找 30950
开@@ 30949
计算 30936
el 30931
纳 30878
at@@ 30769
计算机 30656
维护 30636
H 30622
下@@ 30603
返回 30594
大量 30573
配备 30551
广场 30546
特@@ 30539
下列 30525
数量 30481
图像 30474
Facebook 30454
保留 30449
域名 30441
ad@@ 30411
有权 30400
确认 30376
美@@ 30373
印度 30360
亚洲 30331
花 30314
德@@ 30310
面 30268
速度 30229
Template 30205
利@@ 30186
准确 30131
数 30112
降低 30094
版 30038
png 29977
业 29964
这家 29947
= 29942
针对 29930
进一步 29909
制作 29894
60 29813
轻松 29782
效果 29766
加工 29734
即使 29706
随着 29702
物 29684
re@@ 29634
部门 29580
点评 29579
各 29571
最终 29504
保存 29503
这@@ 29488
遵守 29473
方便 29451
skin 29425
豪华 29410
by 29401
内@@ 29315
云 29264
来到 29249
不仅 29242
创造 29231
卧室 29226
授予 29189
美丽 29141
经过 29128
模型 29100
商标 29099
不到 29030
更好 29007
US 28997
or 28992
市中心 28982
安@@ 28896
规则 28895
取得 28758
加@@ 28732
公共 28706
父亲 28657
荷兰 28646
南@@ 28609
淋浴 28599
事件 28596
讨论 28596
Ch@@ 28578
采取 28538
Inn 28516
高级 28511
任务 28452
or@@ 28415
商 28415
我@@ 28381
州 28376
室 28311
科学 28307
电影 28273
2018 28272
拒绝 28267
意见 28259
加拿大 28258
Bid 28220
路程 28216
宗教 28213
声音 28204
Avg 28201
喜爱 28186
亚@@ 28119
出@@ 28083
纽约 28053
出售 28040
年轻 28032
传感器 27941
收到 27937
PHP 27933
组 27912
本@@ 27892
尽管 27869
全@@ 27839
Road 27787
关联 27783
发@@ 27779
生 27763
巴@@ 27734
话 27722
车程 27688
ers 27683
优化 27662
广泛 27634
手机 27632
拿 27623
必要 27619
可是 27598
几个 27513
真实 27494
享有 27478
钱 27478
h 27454
万@@ 27432
一位 27431
主@@ 27425
g 27401
意味着 27387
基本 27380
几乎 27349
仍然 27300
29 27296
W 27274
白@@ 27260
提升 27255
到达 27225
代码 27212
x 27205
k 27078
主题 27061
长@@ 27059
Sh@@ 27045
作出 27042
祂 27030
随时 27026
书面 26981
面前 26975
购物 26958
别墅 26948
表 26928
Al@@ 26891
提示 26889
提前 26858
ON 26801
引用 26793
票 26752
es@@ 26746
Last 26741
进 26719
完美 26698
方 26698
风格 26687
大小 26654
率 26651
体 26641
挑战 26615
外@@ 26604
et 26599
开 26578
独特 26573
气 26569
html 26552
金 26528
身上 26518
节 26502
3D 26459
学 26441
变得 26425
ic@@ 26421
left 26403
儿 26400
热@@ 26398
多少 26388
as@@ 26341
个人资料 26328
HTML 26303
场 26279
温度 26189
可用 26185
营销 26185
层 26184
只要 26181
成立 26174
抵达 26147
床 26087
32 26080
停车场 26073
共同 26057
31 26017
伦敦 25977
经 25964
指定 25951
才能 25935
巴黎 25933
教会 25932
学院 25925
ro@@ 25922
丰富 25905
知识 25878
标签 25841
Semiconductor 25803
周围 25803
浴缸 25781
p 25774
改善 25744
国内 25725
措施 25693
属于 25669
单@@ 25663
l 25603
咖啡 25590
买 25585
唯一 25541
商店 25513
打@@ 25508
000 25505
et@@ 25487
总统 25407
评估 25404
马 25385
名字 25384
Q@@ 25372
实际 25359
快 25346
信 25290
us 25262
ol@@ 25209
智能 25202
看见 25200
方案 25161
2.0 25159
大多数 25154
商品 25127
战争 25114
90 25107
长期 25097
分@@ 25096
科@@ 25085
塔 25081
尼 25075
文 25067
调查 25061
认识 25058
it 25027
全面 25016
发 25014
• 24993
口 24946
神@@ 24940
目的地 24938
同@@ 24908
仍 24885
2011 24862
四@@ 24836
商务 24813
先生 24788
证明 24700
U 24688
老师 24664
里面 24625
文龙 24616
关注 24553
损害 24546
写 24529
开放 24517
直到 24512
程度 24500
表面 24459
以后 24447
ag@@ 24433
wikipedia 24422
解释 24381
力量 24359
人权 24358
City 24334
每天 24295
电@@ 24284
告知 24278
35 24258
共享 24253
建设 24228
形成 24209
似乎 24198
流 24176
手@@ 24172
st@@ 24154
2010 24132
良好 24125
相@@ 24124
关闭 24120
# 24107
付出 24099
租赁 24070
可靠 24049
医疗 24048
模块 24013
背景 24005
美食 24003
货币 23993
推荐 23961
调整 23936
以前 23929
另外 23928
表现 23917
西 23915
阳台 23903
WiFi 23872
次 23868
爱尔兰 23868
现有 23815
引起 23803
从@@ 23756
哈@@ 23741
正@@ 23707
管 23703
片 23697
il@@ 23693
z 23672
文章 23668
尼@@ 23661
感到 23642
集成 23618
光@@ 23614
此类 23609
罗马 23608
指 23597
下面 23584
颜色 23584
定义 23573
对@@ 23547
安排 23544
16@@ 23540
放松 23535
大型 23518
流程 23505
法@@ 23469
澳大利亚 23462
举行 23456
战略 23412
老@@ 23412
巨大 23411
三个 23404
承认 23374
稳定 23374
母亲 23357
店 23347
联盟 23279
能源 23230
é 23204
上述 23203
件 23203
优势 23185
入 23183
im@@ 23181
包 23172
当时 23157
权 23096
重@@ 23090
停止 23079
特色 23059
圣 23056
双@@ 23049
级 22994
种 22981
语 22980
sh@@ 22950
各项 22921
避免 22914
联合国 22910
新加坡 22905
王 22893
因素 22879
产业 22871
ab@@ 22870
70 22868
克@@ 22840
再次 22833
欧盟 22824
用品 22795
咨询 22790
意义 22785
12@@ 22770
尺寸 22733
ak@@ 22729
科 22710
至少 22701
五@@ 22691
策略 22687
包装 22678
热门 22672
2008 22669
fm 22620
回到 22617
前@@ 22580
所@@ 22575
类似 22549
装置 22544
无线 22487
this 22485
资产 22470
复制 22446
音乐会 22445
夫 22430
景点 22409
始终 22405
先 22363
太 22353
做出 22347
os 22313
第一次 22307
美 22306
角 22305
称为 22272
以@@ 22229
关键 22227
张 22199
大会 22192
单位 22189
以来 22183
大家 22183
Y 22162
清洁 22162
打 22153
除非 22150
票价 22129
爱@@ 22102
屏幕 22095
冰箱 22077
2009 22057
罗 22057
永远 22052
华@@ 22048
交友 22046
ac@@ 22044
订单 22036
消息 22027
比如 22017
尽 22011
自动化 22011
期 22010
游览 22000
时代 21995
游客 21994
按钮 21992
下来 21989
统计数据 21969
促进 21967
一系列 21949
复杂 21867
鲜花 21844
ic 21839
格 21827
01 21822
室外 21807
St@@ 21801
le 21793
发表 21784
人民 21770
比@@ 21755
论坛 21753
如@@ 21742
精神 21741
先进 21718
扩展 21715
自行 21715
用餐 21707
人口 21684
度假村 21674
俱乐部 21659
三 21641
伊@@ 21636
4.0 21599
理由 21586
东@@ 21583
多种 21581
热 21576
美元 21574
一条 21564
以便 21542
基@@ 21542
船上 21531
干 21511
表格 21490
am 21470
第一 21462
而是 21449
时@@ 21436
File 21431
好@@ 21427
严重 21422
详细 21390
色 21377
国@@ 21361
声 21346
埃及 21345
500 21332
怎样 21326
un@@ 21249
收入 21243
机器 21223
奥@@ 21222
维@@ 21205
表明 21184
有人 21158
费 21155
伟大 21122
工艺 21112
红@@ 21104
le@@ 21102
瑞士 21085
纳@@ 21078
动物 21066
尤其 21060
日@@ 21036
输出 21033
健身 21007
边 20961
ASP 20924
合理 20910
比例 20906
航线 20869
教堂 20861
转@@ 20840
ST@@ 20838
港 20834
哪里 20818
数据库 20817
著名 20813
全 20810
无需 20778
首先 20777
启动 20772
取消 20768
ie 20751
强大 20745
效率 20744
LED 20733
总 20733
监控 20728
45 20719
合同 20711
花@@ 20708
局 20681
看看 20655
十分 20647
工厂 20638
运营 20591
圣经 20583
装饰 20571
利益 20550
构成 20520
33 20495
明白 20477
财产 20473
不想 20451
生@@ 20450
方向 20411
前台 20389
La 20388
r 20373
一项 20350
项 20350
English 20344
诺 20343
id@@ 20336
75 20322
种类 20312
结合 20297
风@@ 20296
目录 20239
信用卡 20223
其实 20214
定制 20208
不再 20206
里@@ 20174
House 20161
将会 20146
分类 20140
家具 20134
集 20131
款 20102
客运 20098
泰国 20079
心里 20075
海 20074
us@@ 20070
近 20063
文档 20055
页 20050
越来越 20048
阶段 20014
街 19996
36 19995
转换 19994
XHamster 19983
眼睛 19979
瓦@@ 19972
哪些 19957
对象 19949
作者 19944
制 19944
奖 19932
明@@ 19927
休闲 19926
步骤 19896
布@@ 19880
17@@ 19866
高度 19859
尔@@ 19858
平均 19845
达@@ 19841
cn 19800
Cookie 19790
15@@ 19779
正常 19759
成@@ 19749
愿意 19739
故事 19720
只能 19700
Framework 19688
党 19678
Ferryto 19668
文@@ 19661
识别 19660
组成 19652
于是 19650
库 19627
格@@ 19609
食物 19600
油 19598
女性 19585
f 19583
玻璃 19582
女 19565
事实 19555
太@@ 19551
ed@@ 19547
CENTURY 19540
派 19539
大部分 19531
河 19522
解答 19518
平板电视 19513
查找 19502
皮@@ 19484
mm 19482
动 19469
预计 19466
台湾 19456
高效 19452
令人 19431
免费音乐 19426
二 19396
J 19392
韩国 19390
站点 19337
十@@ 19332
主页 19331
运输 19318
出口 19304
ent@@ 19297
回 19291
是不是 19287
em@@ 19283
信号 19244
比赛 19240
办公室 19233
co@@ 19225
安 19213
IT 19205
取决于 19205
探索 19180
博@@ 19157
威胁 19151
基 19149
总是 19138
后@@ 19131
Home 19123
消费者 19119
时尚 19078
经常 19078
尝试 19075
知识产权 19066
禁止 19054
萨@@ 19037
经营 19016
通信 19006
波@@ 19002
Park 18997
组合 18970
公开 18961
摩洛哥 18953
疾病 18935
回@@ 18927
金属 18921
核心 18919
而@@ 18918
二@@ 18900
意思 18893
黑@@ 18892
制定 18890
指南 18883
死亡 18869
版本信息 18867
交流 18861
坐在 18846
托@@ 18830
空气 18826
Web 18815
和平 18804
他人 18788
列 18778
he@@ 18749
靠近 18728
受@@ 18727
我要 18719
那样 18716
王@@ 18709
反映 18703
Apartment 18696
邮件 18685
具体 18658
地中海 18657
非@@ 18654
每@@ 18648
协会 18621
和@@ 18612
露台 18598
研发 18570
万 18551
源 18517
原则 18516
林 18515
02 18514
任何人 18510
头@@ 18507
山@@ 18506
户外 18506
人士 18503
ang 18496
讲 18488
电源 18486
一年 18475
付款 18470
致力于 18459
坐落 18455
本地 18437
外部 18405
笑 18387
推动 18344
宽敞 18326
ot@@ 18300
格式 18297
优质 18278
放在 18261
ap@@ 18260
Re@@ 18259
组件 18255
攻击 18254
玩 18226
百@@ 18224
希腊 18197
布 18174
公@@ 18156
航行 18147
index 18123
低@@ 18122
肯定 18097
称 18092
验证 18091
第一个 18084
众多 18067
反应 18050
概念 18039
当@@ 18029
感谢 18015
行政 18013
交通 18009
每晚 17996
品 17984
2007 17980
涉及 17980
恩 17977
ing@@ 17970
意识 17969
罪 17968
参数 17967
即可 17964
为@@ 17951
友好 17950
真 17913
现代化 17911
13@@ 17904
om@@ 17892
姆 17891
Tr@@ 17886
几@@ 17881
争议 17878
鱼 17858
房地产 17822
省 17822
发出 17820
门@@ 17819
充满 17802
€ 17796
ina 17774
赔偿 17762
每年 17747
主义 17745
气@@ 17721
积极 17716
升级 17691
哪 17684
元 17677
防止 17654
登记 17628
0.1 17621
金融 17614
交付 17610
ation 17596
2000 17594
14@@ 17590
试 17585
塔@@ 17581
贝@@ 17575
强 17573
39 17562
ai 17561
34 17557
也许 17535
传输 17526
义务 17524
清楚 17511
迷你 17506
人数 17491
一间 17488
来源 17474
供 17467
非洲 17429
制度 17427
雷@@ 17424
推出 17390
生物 17387
广州 17383
TM 17373
Via 17365
上网 17365
医生 17365
火车站 17364
想法 17337
os@@ 17336
接口 17335
年@@ 17333
患者 17333
带有 17304
感 17294
San 17279
客厅 17269
拼写 17268
吹风机 17264
房子 17258
按摩 17240
激光 17234
往返 17233
Mar@@ 17229
中央 17229
身份 17227
每日 17219
特性 17216
特点 17207
倒 17201
提@@ 17191
身 17178
如今 17169
理论 17153
FileHippo 17132
生成 17126
折扣 17123
会@@ 17121
ian 17116
使得 17114
接触 17099
资金 17098
机@@ 17092
ri@@ 17089
年代 17088
300 17078
专利 17071
命令 17048
令 17046
详细信息 17039
体系 17032
全新 17027
打印 17023
代理 17008
中文 17003
ine 17001
帮 16970
晚上 16962
突然 16962
古@@ 16946
妻子 16946
38 16945
妇女 16936
必 16926
Beach 16912
沙发 16903
一张 16902
很大 16895
首选 16887
旨在 16886
一名 16879
永久 16876
08 16872
领导 16871
定 16856
主席 16852
CD 16839
保险箱 16837
文本 16834
老 16833
风 16830
莱@@ 16829
通 16820
ul@@ 16800
um@@ 16800
该@@ 16789
行李 16778
勒 16770
剂 16758
地球 16757
占 16756
顿 16756
404 16747
开展 16739
兴趣 16731
文字 16727
单 16724
有助于 16719
多年 16706
重 16693
平@@ 16689
回来 16679
或是 16666
优秀 16655
变更 16611
视为 16606
qu@@ 16604
Google 16601
经历 16595
隐藏 16595
混合 16594
求 16581
37 16573
谷歌 16570
用@@ 16564
20@@ 16557
通@@ 16545
医院 16537
通讯 16532
过@@ 16528
联合 16525
00@@ 16520
正式 16518
病 16505
ong 16487
原@@ 16487
全国 16484
料 16449
超@@ 16449
修复 16441
说话 16432
老人 16405
有点 16379
New 16378
聊天 16377
加强 16374
改革 16370
道路 16370
反@@ 16357
牌 16356
北@@ 16352
Airport 16344
衣服 16342
覆盖 16333
net 16323
试图 16317
资讯 16317
交@@ 16295
得@@ 16292
队 16290
总@@ 16274
阿 16273
合@@ 16272
适当 16261
http 16257
电梯 16251
车@@ 16247
举办 16223
火@@ 16223
张贴 16217
流@@ 16213
微波炉 16205
明显 16203
其@@ 16199
Ar@@ 16197
以为 16190
圣灵 16178
大约 16178
往 16178
承担责任 16163
而言 16159
AD@@ 16154
Q 16145
时期 16135
家@@ 16117
吉@@ 16099
南 16094
规划 16093
英文 16089
木@@ 16083
事实上 16076
莫@@ 16063
Instagram 16060
董事 16055
相应 16053
辅导 16050
菜单 16047
教 16043
单击 16024
眼 16017
诺@@ 16011
名@@ 15988
普@@ 15985
办法 15968
品质 15964
后来 15955
充分 15935
真@@ 15935
掉 15930
PC 15928
io 15919
深@@ 15910
av@@ 15909
批准 15904
侵犯 15900
面临 15893
55 15886
灯 15884
根 15882
th@@ 15864
绿色 15858
坐落于 15857
分销 15853
座 15839
出去 15836
性@@ 15823
师 15810
远 15805
应对 15797
波罗的海 15792
代理人 15786
六@@ 15779
地板 15775
news 15754
吸引 15754
意 15751
作@@ 15720
姓名 15716
la 15710
病毒 15707
梅@@ 15691
2005 15661
and@@ 15655
林@@ 15650
个性化 15639
不管 15636
明 15626
ut@@ 15624
社交 15620
ent 15616
巴 15592
类别 15588
龙 15584
领先 15581
协助 15580
托 15580
° 15572
火 15558
员 15557
艾@@ 15548
直@@ 15547
指出 15545
等等 15540
盘 15529
STMicroelectronics 15501
技能 15491
送 15465
未能 15450
驱动 15446
Suites 15440
一旦 15434
ay@@ 15429
奇 15409
球 15409
宣布 15398
听到 15397
ig@@ 15388
过来 15383
标志 15381
~ 15357
专门 15337
团体 15335
高速 15334
连 15312
出发 15304
受欢迎 15297
ate 15296
室内 15289
某个 15289
条目 15286
塞@@ 15267
出版 15266
第一@@ 15266
高兴 15263
女孩 15258
一边 15255
绝对 15250
ai@@ 15229
透过 15223
於 15222
电池 15216
森 15210
共 15204
平衡 15204
东欧 15198
相当 15198
教授 15196
欣赏 15191
装 15182
回复 15166
动态 15161
卫生间 15150
别人 15142
处于 15140
女儿 15137
全世界 15133
确实 15133
入@@ 15124
ur@@ 15118
Linux 15114
洛@@ 15113
危险 15102
寻求 15097
他@@ 15096
改进 15092
脸 15075
IN@@ 15074
北非 15073
必@@ 15063
迅速 15061
细胞 15055
到底 15048
块 15032
48 15022
天气 14978
清单 14978
米@@ 14972
压 14964
本身 14951
反对 14950
属性 14942
很快 14925
赛 14925
行@@ 14913
这次 14906
版权 14903
50@@ 14873
元素 14873
没@@ 14868
饭店 14865
张@@ 14864
细节 14860
框架 14857
刀 14853
Server 14852
中间 14851
干@@ 14850
增强 14846
足够 14832
退款 14819
埃@@ 14817
有限 14815
仲裁 14810
密钥 14806
最@@ 14805
想到 14801
基础设施 14800
屁股 14798
兰 14792
合 14792
点@@ 14790
03 14784
窗口 14782
除 14766
段 14758
苏@@ 14750
各国 14737
说道 14730
选 14730
楼 14724
实验室 14722
移民 14710
Ltd 14702
清@@ 14697
是因为 14693
40@@ 14678
操作系统 14676
预测 14653
保@@ 14650
白色 14644
工 14630
Am@@ 14620
家人 14596
兰@@ 14592
迪@@ 14581
竞争 14580
石@@ 14579
字 14576
部件 14576
冲突 14571
数学 14567
半@@ 14561
分配 14560
参观 14553
毛巾 14549
所在 14547
博客 14534
厂 14528
沙@@ 14519
ip@@ 14516
订阅 14511
签证 14510
场所 14507
证书 14506
迪 14506
对话 14500
船 14491
公民 14486
东 14482
硬件 14462
土地 14458
便利 14455
农业 14455
规模 14442
An@@ 14440
变@@ 14424
一份 14418
有时 14413
塑料 14412
ant@@ 14410
部署 14404
坐 14403
自身 14396
04 14386
来@@ 14385
港口 14384
42 14379
卓越 14371
货物 14370
之外 14367
力@@ 14367
越 14365
曼 14360
亦 14355
动@@ 14354
审查 14346
别 14343
整体 14343
30@@ 14339
相对 14324
须 14324
op@@ 14321
tr@@ 14318
信@@ 14318
图@@ 14311
破坏 14308
Z 14305
中华人民共和国 14300
肉 14299
既 14297
任 14295
地上 14286
体@@ 14281
content 14277
css 14268
压@@ 14255
有线电视 14254
St 14253
伤害 14249
用来 14237
双方 14219
顶级 14210
她们 14209
宣传 14207
面对 14203
博士 14193
油@@ 14186
Villa 14185
ana 14185
International 14175
认可 14159
今年 14149
波 14134
Th@@ 14132
居民 14131
以外 14111
本站 14104
05 14086
上市 14086
办理 14073
09 14071
之中 14070
方@@ 14058
县 14042
花店 14040
js 14039
世界各地 14033
仔细 14028
0.2 14021
自行车 14017
妈 14015
样子 14015
看@@ 14013
双人间 14010
IP 14006
架 13993
观看 13977
保险 13976
物流 13963
好像 13954
通道 13954
ID 13945
蒙@@ 13943
原 13938
专用 13936
转 13934
USB 13930
正是 13930
如下 13921
情 13918
早 13916
30.00 13900
v 13898
转移 13897
分别 13890
2006 13885
撤销 13865
故障 13865
军 13860
给予 13850
基金 13846
八@@ 13845
听课 13840
披露 13839
灵活 13835
De 13834
少 13833
福 13825
指导 13811
气体 13808
失去 13807
ay 13795
呀 13793
相比 13790
离@@ 13786
趋势 13783
250 13778
电 13775
Microchip 13758
帕@@ 13758
展 13753
地理位置 13749
感受 13742
洗衣 13741
物品 13738
变成 13731
气候 13728
有趣 13727
帐号 13722
系 13722
Admin 13710
不错 13703
瓦 13699
酒 13694
困难 13685
皮 13682
原始 13681
视 13681
巴塞罗那 13678
07 13673
价 13665
湾 13657
愉快 13645
Cl@@ 13640
及时 13640
精@@ 13623
切@@ 13622
担保 13622
属 13617
可能性 13616
口@@ 13609
ion 13604
路@@ 13603
下降 13601
物质 13598
顾客 13594
年龄 13593
龙@@ 13593
危机 13592
读 13590
或许 13585
平面 13581
年度 13580
航班 13578
控制器 13576
第二 13576
eb@@ 13570
飞@@ 13563
具备 13562
大门 13548
ou@@ 13546
Free 13545
ir@@ 13537
别@@ 13531
Adobe 13527
应@@ 13527
扫描 13524
制@@ 13522
小型 13521
完 13520
ad 13513
with 13512
梅 13506
某 13502
能量 13502
木 13498
单独 13488
父母 13480
损坏 13463
模拟 13460
eg@@ 13458
印刷 13457
洗浴 13453
互动 13448
ob@@ 13440
事@@ 13439
灵 13437
血@@ 13435
网@@ 13433
ex@@ 13422
预@@ 13418
推@@ 13414
构建 13409
沟通 13409
MAC 13403
一场 13396
华 13396
利润 13384
营办 13384
一台 13377
律师 13374
星 13374
观点 13374
收费 13367
喝 13363
AN@@ 13362
41 13360
AM@@ 13358
投资者 13358
巴西 13356
一流 13350
斯特 13337
或@@ 13334
ah@@ 13333
虚拟 13331
安全性 13327
定牌 13325
植物 13321
Fl@@ 13320
快乐 13319
欧@@ 13313
实业 13302
接@@ 13300
HYIP 13297
储存 13292
Br@@ 13288
曾经 13288
访客 13288
实际上 13285
资本 13281
CO@@ 13278
法规 13268
地位 13267
58 13266
镇 13261
担任 13260
根本 13258
评分 13256
接收 13241
必填 13240
脚 13235
展览 13234
现实 13232
Booking 13230
黄@@ 13226
AS@@ 13207
届 13206
相反 13205
土耳其 13199
担心 13193
犹太人 13193
© 13185
定@@ 13164
湖 13154
飞机 13153
有着 13148
DVD 13143
利率 13141
25@@ 13138
思想 13138
Name 13135
放弃 13129
60@@ 13128
info 13128
世 13123
言 13123
合适 13122
脸上 13114
泵 13109
立 13100
公众 13097
运用 13090
传播 13085
综合 13085
上面 13073
靠 13068
固定 13064
旧 13062
间接 13054
形 13045
{ 13040
四 13029
ang@@ 13024
训练 13019
Station 13015
希@@ 13012
机制 13005
泰@@ 13005
日子 13004
享用 12996
az@@ 12994
q@@ 12994
转让 12983
&lt; 12974
身@@ 12974
先@@ 12973
深圳市 12970
ter 12921
轮 12908
贡献 12902
团 12897
响应 12889
火车 12889
形状 12886
防@@ 12881
值得 12875
Mac 12865
空@@ 12862
带@@ 12854
51 12848
规范 12844
瑞@@ 12839
跑 12839
干净 12838
44 12828
树 12826
差 12819
长度 12816
常见 12807
扩大 12803
两种 12799
指数 12790
赢得 12789
od@@ 12788
么 12782
收益 12777
丢失 12774
停车 12773
备份 12767
进@@ 12761
含 12759
频道 12758
从事 12754
National 12753
收@@ 12750
宝 12739
共和国 12737
放@@ 12734
乐 12732
即时 12732
援助 12726
耶路撒冷 12726
大陆 12725
连@@ 12719
波兰 12718
相 12713
保障 12704
数@@ 12690
一致 12686
0.@@ 12684
BlackBerry 12682
发挥 12682
击败 12678
群岛 12672
RE@@ 12671
反馈 12671
鼓励 12671
同一 12667
无论是 12664
轻@@ 12661
将来 12660
伯@@ 12658
难 12649
面@@ 12646
Android 12644
七@@ 12633
ferryto 12628
约翰 12628
ec@@ 12624
证据 12622
下去 12621
原来 12620
职业 12607
end@@ 12604
景 12602
评价 12599
端 12597
柏林 12593
曼谷 12591
石 12586
官方 12583
开关 12583
撒 12579
当事人 12575
06 12573
基督徒 12553
远程 12534
流量 12522
赌场 12519
In@@ 12515
适应 12515
其他人 12508
路线 12508
机票 12505
易@@ 12499
暂停 12490
经理 12485
福音 12484
起@@ 12480
Sp@@ 12470
千@@ 12470
放 12464
床上 12459
红色 12457
电机 12454
红 12453
极@@ 12443
j 12439
tw 12439
航空 12439
1.@@ 12432
AC@@ 12429
不锈钢 12429
并非 12425
法院 12425
结@@ 12423
Hostel 12422
码头 12421
88 12418
保密 12407
模板 12407
约束 12403
答案 12397
平方米 12394
49 12392
在于 12390
仅仅 12387
维持 12383
凯@@ 12382
统一 12379
监测 12377
可靠性 12376
收取 12376
设立 12376
变 12371
hotel 12367
词 12365
编程 12362
对此 12361
欧元 12351
监管 12349
大卫 12345
CH@@ 12343
包@@ 12337
索@@ 12329
跳转 12326
1000 12321
65 12320
门票 12318
米兰 12315
ow@@ 12311
严格 12296
芬兰 12295
连续 12295
实践 12294
领导人 12285
调@@ 12282
邀请 12279
规格 12275
在@@ 12271
表达 12271
43 12259
WINDOWS 12258
Flash 12253
宾馆 12252
乌@@ 12246
出租车 12246
99 12245
子@@ 12243
要@@ 12241
代@@ 12238
环保 12231
跟踪 12230
工程师 12220
─ 12216
真是 12208
ov@@ 12207
象 12207
权限 12203
64 12202
um 12201
抗@@ 12200
第三 12189
物理 12186
one 12185
权力 12183
无效 12179
坚持 12173
情@@ 12173
套 12169
证 12167
一篇 12166
潜在 12164
图形 12160
Be@@ 12154
李@@ 12148
Taiwantrade 12147
民@@ 12146
马上 12142
色@@ 12141
餐馆 12140
两 12137
pl@@ 12134
福@@ 12131
海洋 12129
taiwantrade 12127
AT@@ 12126
Center 12114
错 12113
400 12108
轴 12107
顶 12105
产品名称 12104
女@@ 12100
子公司 12098
怀疑 12095
标题 12094
抱歉 12086
血 12074
葡萄酒 12073
选举 12061
住宅 12051
杀 12037
乐@@ 12035
有线 12035
雅@@ 12032
深圳 12030
重大 12027
单元 12022
特征 12016
清除 12014
左侧 12003
消除 12003
ib@@ 12001
墨西哥 11999
麽 11992
经营者 11988
新西兰 11986
立@@ 11978
教@@ 11977
因@@ 11974
参考 11972
are 11967
出租 11963
完善 11954
接近 11954
宝@@ 11949
80@@ 11939
面积 11939
税 11938
为此 11933
微@@ 11928
未@@ 11925
弄 11923
化学 11919
性质 11919
一件 11916
普 11907
经典 11905
配件 11902
理念 11901
例子 11897
温@@ 11893
抱 11891
布拉格 11887
档案 11887
手段 11883
望 11880
桥 11878
普通 11867
消费 11864
阻止 11854
节省 11850
观察 11849
公约 11848
有用 11842
Email 11841
债务 11841
角色 11835
穿 11832
渡船 11829
约定 11828
Avenue 11811
西方 11811
强调 11810
47 11798
AR@@ 11795
ep@@ 11795
版权所有 11795
鸡巴 11795
： 11789
联邦 11786
函数 11785
首次 11785
精品 11781
失@@ 11772
租车 11764
黑色 11757
定期 11752
礼物 11750
否则 11731
资格 11730
AL@@ 11723
界 11722
CA@@ 11721
核@@ 11717
Le@@ 11715
死@@ 11711
46 11707
标记 11707
机票价格 11704
El@@ 11703
祷告 11703
自定义 11702
药物 11701
信仰 11698
民主 11693
常@@ 11688
钻石 11685
更@@ 11684
旁边 11681
一款 11672
音频 11671
age 11668
据 11655
驱动器 11655
英@@ 11654
案例 11653
损害赔偿 11648
等待 11644
依然 11635
ell@@ 11628
一座 11621
道@@ 11620
鲁@@ 11619
指示 11613
能@@ 11612
整@@ 11604
皇家 11600
信心 11598
药 11597
IT@@ 11596
太阳能 11593
堡 11589
风景 11586
此@@ 11581
800 11573
明示 11572
萨 11569
菜 11564
液 11563
ev@@ 11562
动力 11555
暗示 11552
LE@@ 11548
id 11540
动作 11537
工@@ 11534
副 11533
正如 11529
实@@ 11528
厘米 11527
士 11522
满意 11519
威@@ 11518
失败 11514
Spa 11512
m2 11507
播放 11501
标识 11501
相机 11500
诊断 11491
学@@ 11487
汇率 11487
照明 11480
记 11477
箱 11470
me 11465
论 11464
est@@ 11463
大酒店 11457
MA@@ 11456
白 11456
强@@ 11455
报 11455
村 11455
整合 11441
接入 11437
列@@ 11431
54 11427
重点 11427
电压 11422
University 11420
电缆 11418
有没有 11415
53 11413
质 11409
› 11408
伦 11396
^ 11395
伊 11391
采购 11388
re 11387
铁@@ 11378
默认 11378
List 11367
快递 11366
Co 11365
青年 11365
TripAdvisor 11359
排名 11357
各个 11352
不用 11351
China 11350
传送 11347
万一 11340
感染 11324
感兴趣 11323
业余 11322
52 11318
Company 11318
引导 11318
进口 11316
客户服务 11311
雪@@ 11310
战 11301
城堡 11296
th 11294
黑 11293
居住 11289
荣耀 11287
空 11280
秒 11279
化@@ 11274
杂志 11269
革命 11264
Apartments 11263
底 11263
大道 11261
aw@@ 11258
【 11256
59 11240
各@@ 11238
设定 11238
活 11231
2004 11230
每间 11229
平板 11228
早期 11228
饮料 11224
尊重 11221
军@@ 11217
贷款 11214
院 11214
照 11208
Pl@@ 11202
维 11202
哥 11201
遇到 11198
ant 11197
导航 11196
施@@ 11186
满 11181
恩@@ 11174
修订 11167
眼@@ 11164
SP@@ 11156
Steam 11155
库@@ 11147
这项 11143
se 11140
假期 11133
精确 11132
实体 11128
24@@ 11120
远@@ 11120
家里 11117
刺激 11106
排@@ 11105
茶 11102
半 11086
首@@ 11082
创意 11077
宇宙 11075
顾问 11075
怎么样 11073
然 11070
蒂 11068
此处 11066
就要 11057
智慧 11057
小册子 11056
】 11055
狗 11054
晚 11050
一步 11049
终于 11044
56 11041
交换 11040
提 11038
意外 11036
森林 11033
人才 11032
卷 11032
机器人 11030
II 11023
ee 11023
屋 11022
雷 11015
修@@ 11013
穆斯林 11012
功率 11010
取@@ 11009
蓝色 11007
国王 10986
打算 10984
管@@ 10982
map 10978
青@@ 10978
云@@ 10975
发动机 10972
性别 10972
ao 10971
还要 10963
维修 10953
酸 10949
地铁站 10935
ER 10932
EN@@ 10930
优良 10927
集中 10923
95 10921
推广 10918
部份 10902
联@@ 10897
分布 10895
冷@@ 10893
BC 10890
愿 10890
可用性 10887
英寸 10886
IS@@ 10885
w 10879
事务 10877
文件夹 10875
近似 10875
越南 10872
150 10869
Player 10867
倍 10864
是从 10864
用户名 10864
怎么办 10860
经@@ 10855
事先 10852
RO@@ 10846
短 10845
装@@ 10845
ik@@ 10837
石油 10836
战@@ 10832
落 10829
ug@@ 10828
每次 10827
中国@@ 10807
休息区 10794
购物中心 10789
下午 10786
co 10781
世@@ 10781
往往 10774
书桌 10773
本书 10772
奥 10768
ch 10767
渠道 10745
意@@ 10744
色情 10744
公布 10738
外国 10723
iz@@ 10721
技巧 10721
哦 10720
园 10719
等级 10718
ra 10711
反 10710
ara 10703
OS 10694
通用 10690
0.3 10685
利亚 10685
轴承 10680
成人 10676
显著 10675
Bar@@ 10671
美国@@ 10668
达成 10664
57 10647
职员 10637
难道 10637
雅 10637
建造 10634
体育 10633
all 10629
进程 10626
NE@@ 10621
康@@ 10618
期待 10618
看起来 10618
宫 10617
奥地利 10615
处理器 10610
含有 10606
缺乏 10598
发行 10592
ub@@ 10591
具 10587
from 10586
确保您 10576
洛杉矶 10575
af@@ 10574
忘记 10561
SE@@ 10560
第三者 10558
军队 10553
贴牌 10552
痛苦 10551
ue 10524
all@@ 10522
九@@ 10522
许可证 10518
man 10516
杜@@ 10513
态度 10509
普遍 10506
Skip 10505
cookies 10503
ton 10499
布达佩斯 10498
难@@ 10498
il 10497
Gr@@ 10496
iPhone 10493
专注 10493
码 10493
民 10488
心中 10487
成就 10487
ong@@ 10483
履行 10480
主机 10479
预算 10479
司法 10478
启用 10477
图表 10472
事业 10456
加以 10455
循环 10447
Bl@@ 10446
亲@@ 10442
list 10437
铁路 10433
那时 10431
满@@ 10430
og@@ 10418
2003 10396
管理员 10388
国际@@ 10382
赛@@ 10370
餐饮 10368
34@@ 10367
损毁 10367
身边 10364
留下 10360
症状 10358
Par@@ 10354
创作 10354
当中 10352
∶ 10340
重量 10340
澳门 10333
取代 10332
Resort 10320
做到 10316
IP@@ 10314
ass@@ 10311
永@@ 10309
á 10304
图书馆 10303
替代 10302
塞 10299
View 10297
product 10296
联络 10296
衣柜 10295
在内 10286
群 10283
同步 10280
谈判 10279
科技股份 10274
听见 10273
公公 10270
简介 10268
补充 10267
我会 10266
平 10259
先知 10256
打造 10256
机关 10256
密@@ 10252
左右 10240
iv@@ 10239
安静 10239
成长 10237
随后 10237
成果 10232
份 10228
幸福 10226
任意 10224
乌克兰 10210
尽可能 10209
休息 10205
活@@ 10201
IC 10194
智能手机 10187
零件 10184
异@@ 10182
乐趣 10179
理 10178
工人 10176
洗@@ 10174
索赔 10172
瑞典 10165
型号 10164
flower 10161
老公 10161
角度 10158
父 10151
ale 10144
一只 10143
超级 10142
真理 10141
职位 10138
何@@ 10136
嘴 10136
义 10133
好处 10131
财富 10128
ud@@ 10125
邦 10124
订购 10122
悉尼 10119
29@@ 10117
黄金 10115
亿美元 10109
优越 10105
啦 10104
上升 10103
复@@ 10100
迷人 10097
快@@ 10095
五 10093
EN 10085
Java 10080
注 10080
附加 10078
宠物 10077
灵活性 10066
后果 10063
诉讼 10060
提到 10058
Le 10055
接送 10054
预定 10052
睡 10050
ion@@ 10047
看来 10045
线路 10042
User 10040
香@@ 10038
出于 10033
强度 10030
依据 10021
耶稣基督 10020
愿望 10019
财务 10015
出色 10014
杯 10006
电力 10004
露营地 10003
永恒 10000
赫@@ 9997
维也纳 9996
到@@ 9994
步 9993
观光 9993
麦@@ 9991
时刻 9989
表@@ 9989
葡萄牙 9985
pro@@ 9984
奇@@ 9983
江@@ 9980
玛@@ 9980
孔 9979
亿 9978
旅程 9977
ica 9974
克斯 9973
36@@ 9972
键 9966
电子@@ 9965
管辖 9965
第二@@ 9964
前述 9963
关 9957
拍摄 9955
投入 9953
马来西亚 9951
if@@ 9950
四个 9949
拯救 9947
试验 9945
领@@ 9944
皮肤 9943
ino 9942
转换器 9938
膜 9929
Studio 9926
手册 9919
旋转 9916
物业 9915
电邮 9915
专@@ 9914
娜 9913
ard 9912
好好 9912
阳光 9912
佛罗伦萨 9911
仪器 9909
灵魂 9908
待 9901
转变 9900
沃@@ 9894
霍@@ 9887
} 9881
聚@@ 9880
画 9878
促销 9876
重复 9876
取 9864
水疗 9862
Car@@ 9860
苏联 9860
玩家 9858
客 9855
爸爸 9855
流行 9847
民族 9845
运作 9844
茨 9843
莫斯科 9835
指标 9826
表演 9824
现象 9823
Ad@@ 9822
索 9822
联系方式 9819
界面 9813
摩西 9810
坏 9801
收藏 9801
暖气 9800
若@@ 9799
显然 9796
冰@@ 9795
回应 9794
向@@ 9791
冲@@ 9789
签署 9786
理@@ 9784
足球 9780
报道 9777
商@@ 9774
成熟 9772
基地 9766
奖励 9766
想@@ 9758
oc@@ 9753
状 9752
情形 9750
双 9749
太阳 9747
预期 9744
ell 9741
局部性 9740
伊朗 9734
精密 9732
传@@ 9728
分公司 9728
吻 9728
所谓 9724
两人 9721
莱 9721
面向 9721
族 9720
去年 9719
69 9718
钢 9714
实在 9710
兄弟 9706
实用 9695
54@@ 9693
这时 9689
EUR 9687
丈夫 9682
积分 9673
WordPress 9672
液体 9667
un 9662
27@@ 9661
28@@ 9653
Un@@ 9652
比利时 9647
借助 9644
ly 9643
ph@@ 9623
竟然 9619
26@@ 9617
CA 9617
合并 9614
阿尔@@ 9609
极 9608
试@@ 9607
齐全 9607
Gu@@ 9604
级别 9604
尼亚 9595
毛@@ 9594
门徒 9593
ca 9591
纸 9589
或本 9588
场合 9585
ok@@ 9582
纳入 9579
洛 9570
核 9566
stars 9560
些 9558
71 9553
main 9553
烤箱 9553
推进 9550
英里 9548
fl@@ 9547
连接器 9545
次数 9543
地面 9539
凡 9538
接待 9537
平面设计 9533
墨尔本 9532
于@@ 9516
模具 9515
eng@@ 9513
阀 9509
旧金山 9504
600 9494
负 9492
总部 9490
接 9487
衍生 9486
护理 9484
球@@ 9483
班 9480
要是 9480
ian@@ 9479
最小 9479
自助 9478
ak 9477
谷 9477
简化 9474
内存 9471
头发 9471
环 9470
携带 9468
ex 9465
事项 9463
军事 9461
Su@@ 9459
像素 9459
ER@@ 9455
兹 9447
车客 9446
身心 9443
66 9441
黑暗 9437
API 9436
ey 9433
盒 9431
由@@ 9430
再@@ 9426
条约 9424
威 9423
所有人 9414
电动 9407
85 9405
投诉 9405
天使 9404
美好 9392
Ma@@ 9390
求@@ 9387
释放 9377
蒂@@ 9376
兼容 9375
公告 9373
强烈 9373
周 9365
更换 9357
中方 9356
11@@ 9355
圈 9354
已@@ 9353
保罗 9349
一眼 9345
Sch@@ 9344
外观 9343
基金会 9341
ist@@ 9340
63 9339
调用 9339
叙利亚 9338
不好 9331
30319 9324
年前 9323
切 9321
贵 9319
换@@ 9317
救 9316
慢慢 9313
ISO 9311
Profile 9310
后面 9310
剧院 9309
加密 9300
接着 9300
深入 9299
各类 9292
实验 9289
样品 9289
卫星电视 9288
手动 9288
海外 9288
研讨会 9288
信任 9287
Pro@@ 9278
En@@ 9273
盖 9272
学会 9267
射 9262
排除 9258
调节 9258
Registrant 9257
凭借 9257
紧@@ 9257
调 9254
办 9250
88@@ 9249
共@@ 9247
时间表 9245
自我 9244
ies 9237
� 9236
ah 9231
最初 9231
舒服 9227
命 9219
重定向 9219
不得不 9217
show 9209
腿 9207
二手 9201
硬盘 9198
视图 9198
号码 9192
入口 9186
86 9184
几年 9184
zh@@ 9179
独@@ 9176
什 9171
灵@@ 9168
\ 9166
典型 9166
额 9161
决策 9160
浪漫 9160
网址 9158
订立 9155
走@@ 9153
十字架 9152
客户端 9152
查@@ 9151
泳池 9149
ill@@ 9147
台@@ 9147
Ag@@ 9146
进步 9146
曼@@ 9137
馆 9137
最多 9135
0.5 9130
ice 9130
定位 9130
细@@ 9130
兑换 9123
频率 9123
制品 9122
壁纸 9121
西班牙语 9117
做法 9115
城@@ 9114
建@@ 9111
ia@@ 9105
追求 9104
丽@@ 9103
生产线 9101
秘密 9101
au 9100
书@@ 9099
柜 9095
负载 9087
前面 9086
son 9085
you 9085
协调 9083
漂亮 9083
见@@ 9081
差异 9080
弗@@ 9080
United 9078
更大 9075
人生 9071
联系人 9068
复活 9064
cl@@ 9063
× 9062
收购 9057
端口 9055
Manager 9053
躺 9053
房屋 9052
DL 9049
安全@@ 9049
对不起 9041
习惯 9037
加速 9036
74@@ 9031
Av@@ 9030
中断 9027
排放 9025
AP@@ 9015
进去 9014
摸 9008
南非 9006
land 9002
越@@ 9002
警告 8989
所说 8986
分发 8984
ki@@ 8982
成员国 8979
圆@@ 8978
洗衣机 8976
刚才 8970
博 8969
遭受 8969
众人 8966
大厦 8966
记住 8964
说@@ 8963
议会 8955
帝国 8954
1.5 8951
为何 8948
配@@ 8948
68 8947
请参阅 8946
变量 8944
婴儿 8944
sc@@ 8934
陈@@ 8933
Sc@@ 8931
哪个 8931
ro 8926
ka 8923
架构 8922
之旅 8921
门口 8915
campsite 8909
桌面 8909
逐渐 8905
ya 8904
Pr@@ 8899
威尼斯 8896
Cor@@ 8889
氛围 8889
首席 8889
ma 8885
袋 8875
Blogger 8874
非法 8872
断@@ 8870
2002 8866
US@@ 8864
路径 8859
高性能 8854
72 8852
依照 8851
从来 8847
墙 8847
申请人 8845
掌握 8843
37@@ 8838
LA@@ 8832
富@@ 8817
松@@ 8816
北 8813
大理石 8811
呈现 8810
样 8807
造@@ 8805
案件 8798
人民法院 8796
代 8789
算 8786
62 8782
众 8775
报@@ 8769
侯龙涛 8764
集@@ 8764
ter@@ 8760
金额 8759
速 8757
设 8754
电流 8753
经销商 8752
官员 8750
star 8748
街道 8747
产地 8744
技术@@ 8744
装修 8744
汉@@ 8742
SO@@ 8741
边缘 8740
即将 8736
De@@ 8735
董事会 8735
咖啡机 8733
玛 8733
vs 8732
书籍 8730
常 8724
口头 8722
海岸 8721
英特尔 8720
In 8718
航空公司 8714
Redirecting 8712
ot 8710
苹果 8710
指@@ 8709
配合 8707
想象 8701
部长 8701
驾驶 8701
切割 8700
清洗 8697
大规模 8693
刚 8691
中亚 8688
参见 8685
办事处 8683
int@@ 8682
ers@@ 8679
喷@@ 8679
家庭式 8677
距 8672
检验 8669
母@@ 8669
ST 8668
加上 8667
思考 8666
优点 8664
协作 8661
答 8660
北部 8659
乱 8657
构架 8657
周@@ 8656
美景 8653
暂时 8650
报价 8648
Se@@ 8644
ID@@ 8641
选@@ 8641
顶部 8636
ico 8635
依赖 8634
余@@ 8631
热情 8630
群体 8624
ew@@ 8622
Technologies 8621
吩咐 8618
身子 8617
预防 8604
对方 8599
view 8597
迪拜 8597
景观 8596
犯罪 8589
优雅 8588
天然 8585
泰 8583
about 8582
考试 8582
罗马尼亚 8577
Min@@ 8576
ie@@ 8575
全包 8570
仪 8569
SM@@ 8567
环@@ 8567
丽 8566
2019 8560
ou 8559
特朗普 8558
脱@@ 8557
61 8553
捷克 8551
ind@@ 8549
计 8547
201@@ 8545
素 8544
污染 8542
Club 8538
费@@ 8531
耶@@ 8530
Rue 8529
引@@ 8526
武器 8526
首 8526
was 8525
日常 8525
燃料 8514
技术支持 8510
附件 8508
怕 8506
IA 8505
耐@@ 8504
IC@@ 8503
小组 8491
演示 8490
TS 8486
that 8486
就@@ 8485
暴力 8483
说完 8482
高品质 8480
银@@ 8479
Drive 8477
清晰 8476
遵循 8473
Game 8470
当前情况 8470
隆 8469
监督 8457
听@@ 8454
吸烟 8454
67 8453
交 8452
填写 8451
雪 8445
艺术家 8443
房@@ 8440
农@@ 8438
手指 8437
100@@ 8434
up@@ 8434
投选 8433
Javascript 8431
易于 8431
撒@@ 8430
男性 8429
古老 8428
归 8428
Centre 8425
卫生 8425
武@@ 8417
敏感 8416
一声 8414
维尔 8413
手中 8412
人物 8407
平等 8406
Central 8405
Bo@@ 8402
卖 8400
解@@ 8400
获 8397
高层 8394
ier 8392
匈牙利 8392
线@@ 8385
成分 8381
记得 8374
根@@ 8373
来看 8372
Ex@@ 8371
融合 8367
120 8363
做好 8360
Live 8359
案 8359
水壶 8351
Mon@@ 8349
OR@@ 8349
更为 8349
DE@@ 8346
丝 8346
Pro 8343
产@@ 8342
Apple 8335
教师 8332
miles 8327
Em@@ 8326
Cr@@ 8320
gif 8320
朝 8316
障碍 8316
此时 8314
胡@@ 8313
很@@ 8311
编辑器 8311
伤 8302
38@@ 8299
合法 8297
被@@ 8296
史 8295
高质量 8294
收 8289
； 8288
音 8287
土@@ 8286
sp@@ 8282
名单 8280
展开 8280
加热 8279
联 8277
田 8275
晚餐 8273
优@@ 8272
独家 8272
情绪 8269
花束 8268
图标 8262
2.@@ 8261
新鲜 8255
勒@@ 8253
就业 8253
铁艺 8251
EL@@ 8250
二十@@ 8250
人家 8249
作业 8247
梦 8246
零部件 8240
Co@@ 8235
声@@ 8235
理事会 8233
投票 8230
过滤器 8228
印@@ 8226
思@@ 8222
蒙 8222
脚@@ 8218
得以 8215
per@@ 8214
0.4 8210
SQL 8204
da 8197
巴士 8194
投@@ 8191
洗 8189
接下来 8188
味 8186
专业人士 8185
摄像头 8185
仆人 8182
那种 8181
ive 8180
炉灶 8174
持有 8173
2001 8154
印 8149
粉 8147
亿@@ 8144
网络@@ 8140
ge 8137
ist 8137
列出 8136
汽车旅馆 8136
设计师 8136
总理 8132
进来 8132
劳@@ 8128
现金 8128
结婚 8127
洗碗机 8126
上传 8125
逻辑 8123
锁 8123
TS@@ 8117
这篇 8112
男@@ 8111
78@@ 8109
39@@ 8105
物@@ 8105
这位 8102
马德里 8100
Blog 8099
ast@@ 8098
ü 8097
彼此 8088
照顾 8086
期望 8085
超 8082
TR@@ 8081
art@@ 8081
ash@@ 8079
见证 8079
钢@@ 8079
缺陷 8076
延长 8073
链 8073
硬 8071
饼 8071
77 8070
卢@@ 8069
App 8068
谢@@ 8068
？ 8065
予以 8062
回家 8062
见到 8060
首都 8058
est 8056
UN@@ 8053
糖 8049
统治 8049
询问 8049
审判 8047
对本 8043
祭司 8042
传 8033
Ph@@ 8026
深度 8024
Discover 8023
登 8021
结 8017
CD@@ 8016
近@@ 8014
存放 8010
Dr 8007
MO@@ 8006
色彩 8006
这座 8006
融资 8004
夜 8001
退出 8001
日志 7996
体现 7995
Cams 7994
Product 7993
松 7991
data 7986
测@@ 7983
滑@@ 7979
音@@ 7977
gu@@ 7974
ath@@ 7971
并@@ 7970
les 7969
劳动 7968
印象 7967
KB 7965
bl@@ 7965
前提 7965
70@@ 7963
兵 7961
出席 7961
Man@@ 7960
十年 7959
卫星 7959
效应 7958
2.5 7956
32@@ 7954
广@@ 7950
分离 7947
内置 7944
小厨房 7943
河@@ 7943
合金 7940
归@@ 7935
彻底 7931
祭 7929
Qu@@ 7927
SA@@ 7926
分子 7926
俄罗斯联邦 7920
草 7919
飞行 7917
Con@@ 7915
del 7914
West 7913
久 7912
出生 7912
华盛顿 7912
各自 7910
中东 7904
伯 7904
ano 7901
吸@@ 7901
天主 7901
嘛 7898
市@@ 7898
简称 7897
插入 7893
讲@@ 7892
1.1 7891
深刻 7890
程 7888
韦@@ 7884
便捷 7883
ance 7882
必需 7881
可爱 7869
竞争力 7867
常常 7866
报纸 7866
领 7865
ity 7863
别的 7859
护@@ 7859
Chinese 7852
MC@@ 7852
回去 7850
洞 7848
进展 7848
先前 7846
官 7845
放置 7841
条例 7840
0.0 7839
嘉@@ 7838
标@@ 7838
刚刚 7837
纤维 7835
写作 7834
夫人 7833
设备齐全 7831
伦@@ 7830
增@@ 7830
天堂 7830
底@@ 7828
53@@ 7827
第三@@ 7825
背@@ 7825
客@@ 7823
谢谢 7823
主动 7822
匹配 7822
糖尿病 7816
ra@@ 7815
家族 7814
域 7813
视觉 7813
跳 7810
TE@@ 7809
关@@ 7809
从未 7807
漏洞 7806
库存 7805
一套 7803
Labels 7800
教学 7800
周期 7797
惊@@ 7796
眼前 7796
菲律宾 7796
容量 7792
律法 7792
酒@@ 7792
焊接 7790
刘@@ 7789
害怕 7789
目 7788
侵害 7782
78 7781
迷@@ 7777
丹麦 7772
软@@ 7770
ens@@ 7769
透明 7768
亮 7767
hr 7765
our 7763
not 7762
1.2 7760
南部 7758
第二十@@ 7758
消失 7755
道德 7751
ur 7747
支出 7747
紧 7744
Tech 7742
百姓 7741
沙滩 7737
偏@@ 7736
te 7735
隐私权 7732
呼吸 7724
食 7723
Search 7721
医学 7720
藏 7719
冒险 7716
关心 7714
今日 7713
行程 7709
升@@ 7706
珺 7706
双手 7705
班@@ 7705
至关重要 7703
形@@ 7700
辅助 7698
香 7697
友 7696
车站 7690
单一 7687
No 7686
未找到 7686
运营商 7686
不了 7674
热带 7673
无限 7671
衣 7671
重要性 7670
其余 7666
初@@ 7666
明亮 7666
微 7664
NY 7659
果@@ 7659
池 7658
登@@ 7658
教练 7656
ne 7654
气候变化 7650
兴@@ 7644
信赖 7642
一句 7640
倘若 7630
生效 7630
考@@ 7630
这件 7627
无障碍 7626
准确性 7622
纸@@ 7621
涵盖 7620
短@@ 7620
新兴 7619
佛@@ 7617
ure 7614
货 7613
der 7606
第十@@ 7605
协定 7603
沏茶 7600
中有 7596
瓶 7595
回收 7593
旅行者 7592
叶 7590
财政 7590
IN 7586
不行 7586
改@@ 7586
uc@@ 7585
新型 7585
伙伴 7584
症 7584
乘坐 7580
女士 7580
不知 7578
哭 7572
途径 7569
熟悉 7568
经济@@ 7563
蓝@@ 7561
抽烟 7560
可见 7558
期限 7555
组@@ 7547
场景 7542
CAD 7539
MySQL 7535
培养 7532
主任 7530
干什么 7530
笔 7530
假 7528
倒@@ 7527
博彩 7525
杰@@ 7517
恶@@ 7515
假日 7514
俯瞰 7507
服 7507
阳 7506
星@@ 7505
爸 7505
月份 7503
零@@ 7503
判断 7494
留@@ 7494
层面 7493
领袖 7493
IS 7492
姐 7489
疑问 7488
Gl@@ 7484
问@@ 7484
市区 7483
ess@@ 7480
神圣 7479
Toronto 7478
钨 7478
餐桌 7478
Hostelworld 7476
Grand 7472
q 7470
月@@ 7469
有所 7467
临时 7463
棒 7463
天然气 7462
Corporation 7461
了@@ 7461
轻轻 7460
伊斯兰 7459
帕 7447
yl@@ 7446
造 7444
面板 7444
装备 7443
果 7442
地毯 7436
引发 7436
name 7435
ol 7432
食@@ 7432
基督教 7431
随@@ 7431
up 7430
敌人 7428
模特 7427
熨斗 7427
Green 7426
ary 7422
痛 7422
im 7421
磨@@ 7418
谈 7418
边@@ 7417
液压 7416
币 7414
ir 7413
韩@@ 7413
吉 7412
齐@@ 7411
Di@@ 7407
主张 7404
区别 7403
盖@@ 7403
Express 7402
my 7402
eng 7401
会议室 7398
传递 7396
阿姆斯特丹 7392
48@@ 7385
VMware 7385
减@@ 7384
适销 7382
算法 7379
外面 7378
Place 7377
TA@@ 7377
研究所 7376
落@@ 7374
做@@ 7371
激活 7370
烧烤 7368
过滤 7367
游 7362
饮食 7359
实 7358
由此 7356
立刻 7356
74 7355
上次 7355
ada 7354
天上 7350
协商 7349
查 7348
Square 7346
庆祝 7342
联网 7339
热水 7337
不少 7335
提及 7335
Behance 7333
赐给 7329
ek@@ 7327
日至 7326
尼斯 7325
33@@ 7324
乳@@ 7324
诸如 7315
摩@@ 7310
Mont@@ 7307
后续 7307
房价 7307
微软 7305
著 7303
动画 7302
杆 7300
却是 7297
GB 7294
各方 7294
游@@ 7293
One 7291
概述 7290
难以 7290
MB 7289
总体 7286
存 7280
犹大 7276
吃@@ 7272
一同 7266
步@@ 7266
论文 7266
解 7263
State 7262
数字化 7262
药@@ 7258
紧张 7257
赫 7251
BO@@ 7247
布局 7246
ME@@ 7245
ek 7245
亲 7242
节@@ 7239
各地 7235
德语 7233
ey@@ 7226
采@@ 7226
服装 7225
备 7222
SI@@ 7217
Mal@@ 7216
之下 7215
病人 7213
老婆 7213
原理 7204
召开 7203
Optoway 7201
船@@ 7200
沉@@ 7199
拍 7197
致@@ 7197
管理系统 7196
超越 7195
采集 7195
AN 7194
ical 7194
暗@@ 7192
int 7190
牛 7190
及@@ 7188
社会主义 7188
96 7186
依@@ 7186
节目 7183
烤面包机 7182
76 7181
宿舍 7181
修 7180
拉斯维加斯 7180
衣橱 7180
租 7176
尽@@ 7174
六 7173
稳定性 7172
ens 7171
ite 7171
堂 7169
打印机 7169
零 7168
di 7159
有机 7159
运@@ 7159
沙 7158
迈阿密 7158
实惠 7156
警察 7156
ts 7155
有所不同 7155
供@@ 7154
列车 7154
股东 7152
移除 7150
产 7148
心脏 7148
胜利 7146
击 7140
干扰 7133
视@@ 7133
课 7131
提醒 7129
季节性 7128
our@@ 7126
民众 7126
缓存 7126
管道 7123
ick@@ 7122
切换 7120
兴奋 7119
Rd 7116
Ro@@ 7115
oo 7115
System 7114
开启 7108
模@@ 7108
抓住 7105
不必 7103
引擎 7103
战斗 7102
era 7099
str@@ 7099
佩@@ 7099
na 7098
防 7096
与其 7095
News 7092
主人 7092
夏季 7092
States 7090
极大 7090
Group 7087
治理 7084
公平 7077
79 7076
手续 7071
感@@ 7069
走进 7069
数据中心 7065
埃 7064
Bu@@ 7063
Shanghai 7062
供应链 7062
aj@@ 7061
99@@ 7059
一会儿 7059
低于 7059
两年 7057
折@@ 7056
li@@ 7054
声称 7054
扣 7054
班车 7051
坐@@ 7050
UR@@ 7048
彼得 7048
除@@ 7048
con@@ 7044
ann@@ 7043
ac 7042
地铁 7042
炉 7038
侵权行为 7037
所述 7036
本款 7034
no 7030
耳 7030
招聘 7029
降@@ 7029
古 7026
下榻 7025
几天 7024
展会 7024
吸引力 7023
思 7021
退@@ 7018
康 7017
电气 7016
华沙 7013
导@@ 7013
科学家 7013
加载 7012
We@@ 7006
伊拉克 7005
播放机 7005
Santa 7003
干预 7001
容器 6997
陆@@ 6996
ON@@ 6991
多次 6990
很少 6990
到来 6989
第二个 6989
约@@ 6989
TO@@ 6987
一片 6987
送到 6987
do 6985
多么 6979
休息室 6977
加快 6976
换 6976
骨@@ 6975
控制系统 6974
90@@ 6973
South 6971
易 6971
一阵 6970
Fi 6969
JPG 6969
GDP 6967
建 6964
惠@@ 6963
居 6959
祝福 6956
门票价格 6955
义@@ 6954
像是 6952
73 6951
专有 6949
影 6947
荣誉 6947
玩具 6944
0.6 6943
一半 6943
代理商 6943
景色 6942
另有 6941
分区 6939
户 6936
35@@ 6934
乡村 6934
尔斯 6931
TE 6928
含@@ 6927
翻@@ 6925
be@@ 6922
全权 6922
啤酒 6922
Pol@@ 6918
瑞 6917
桑@@ 6916
大众 6912
假设 6911
脚本 6911
节能 6910
午餐 6909
早@@ 6906
注册名 6903
高达 6903
冠军 6901
潜力 6901
LO@@ 6898
多数 6898
现@@ 6896
零售 6895
个@@ 6894
用作 6894
Bed 6892
TV 6890
年轻人 6890
营 6889
高清 6888
嗯 6884
股票 6882
AB@@ 6878
软 6876
au@@ 6874
撰写 6874
巴基斯坦 6872
hu@@ 6871
more 6869
ES@@ 6865
记者 6863
奇怪 6862
绿@@ 6862
物料 6860
草@@ 6860
答应 6857
呼吁 6854
清 6851
转向 6850
太平洋 6849
DC 6848
br@@ 6848
总数 6847
Country 6843
证券 6843
World 6842
国外 6841
停 6839
不敢 6837
大概 6837
慕尼黑 6837
深 6836
决议 6835
季 6834
姊妹 6833
读@@ 6832
投 6830
ks 6828
估计 6826
98 6820
手术 6818
Wi 6817
East 6814
Visa 6814
朗 6814
共有 6813
中等 6811
记@@ 6810
不足 6808
ach@@ 6807
优先 6807
鞋 6807
摄影 6796
ley 6795
转型 6794
病@@ 6793
默@@ 6791
任@@ 6790
准则 6788
om 6785
概览 6785
we@@ 6779
创@@ 6779
ler 6777
异常 6777
成绩 6777
节点 6776
这场 6775
ore 6772
此次 6772
法语 6770
真空 6770
魅力 6770
即@@ 6769
Canada 6767
东京 6767
材 6766
耳@@ 6765
顺@@ 6764
尚未 6761
表情 6760
相互 6759
end 6755
某种 6755
创 6753
本人 6751
上午 6749
肉@@ 6749
幅 6746
菲@@ 6745
补@@ 6745
本来 6744
旅游景点 6741
升 6740
一把 6737
限度 6735
姆@@ 6734
质@@ 6734
使徒 6733
贴 6724
700 6720
公路 6718
available 6716
进口商 6716
Skype 6713
Cam@@ 6712
海滨 6712
猫 6712
IL@@ 6709
高潮 6709
早上 6708
电子商务 6708
退房 6706
燃油 6704
COM 6702
Bay 6701
回报 6700
断 6697
树@@ 6697
元件 6696
演出 6693
一部 6692
源代码 6691
瓷砖 6689
ix 6688
弗 6688
立场 6687
任命 6684
Beijing 6681
密封 6680
精彩 6680
鲁 6674
挺 6670
秒杀 6670
少@@ 6669
美味 6668
轮@@ 6668
1999 6667
ij@@ 6667
欧 6667
留在 6664
示例 6663
穆@@ 6662
容纳 6661
共用 6659
we 6658
Me@@ 6656
分为 6653
停@@ 6652
轨道 6652
EC@@ 6651
For@@ 6648
熨烫 6648
SS@@ 6647
承受 6647
Electronics 6646
还会 6645
都柏林 6645
89 6644
建筑物 6638
高尔夫 6636
还@@ 6633
梦想 6631
星期 6630
冲击 6627
夫@@ 6627
Sal@@ 6624
编码 6624
白素贞 6621
符号 6621
使@@ 6620
直径 6619
91 6618
侧 6616
排 6615
寿命 6614
显示器 6611
iss@@ 6608
气氛 6605
哈 6603
境 6603
该国 6603
ef@@ 6602
行使 6601
爆发 6600
彩@@ 6599
私@@ 6599
副本 6598
安保 6598
受益 6592
密度 6592
毫米 6592
屋顶 6590
朗@@ 6589
81 6586
因而 6583
type 6577
光学 6576
精选 6574
厅 6573
EM@@ 6571
练习 6570
温泉 6569
如同 6567
直达 6566
0.7 6565
ner 6564
系统@@ 6563
冷 6562
发明 6561
North 6558
婚礼 6556
Cal@@ 6552
使命 6551
ow 6550
挂 6547
ja 6546
拉斯 6545
阿根廷 6545
样式 6541
Best 6540
ans 6540
几分钟 6538
web 6534
橡胶 6531
IR@@ 6530
发言 6529
男孩 6529
懂 6528
记忆 6527
宽 6526
形象 6523
CS@@ 6522
冰毒 6521
卷@@ 6518
ec 6517
大街 6517
毕竟 6512
TI 6510
ard@@ 6510
产量 6508
纯@@ 6508
ini 6507
旁 6505
特拉 6504
Contact 6503
ain 6502
ys@@ 6502
只@@ 6502
不仅仅 6500
品@@ 6496
一段时间 6495
ide 6490
水果 6489
响 6487
延迟 6486
着@@ 6486
磁盘 6486
男子 6485
唐@@ 6482
冷却 6480
海景 6480
追踪 6479
击@@ 6478
br 6475
高尔夫球场 6474
ions 6472
image 6471
充电 6471
干燥 6470
但@@ 6465
当局 6463
我国 6458
灵性 6458
强化 6456
日益 6456
观@@ 6451
字@@ 6450
至于 6450
东方 6449
ha 6448
und@@ 6445
温暖 6443
祈祷 6440
境内 6439
de@@ 6438
突出 6438
一块 6434
原料 6433
Mo@@ 6432
卫星频道 6430
极端 6430
缤客 6430
等@@ 6429
足 6429
长时间 6426
留言 6425
ö 6423
画@@ 6421
影片 6418
湿@@ 6418
酸@@ 6415
主管 6414
折 6414
下述 6412
运 6412
流动 6411
生存 6409
往@@ 6405
Kelowna 6403
í 6401
跨 6401
生成器 6399
干洗 6396
手工 6395
支@@ 6394
have 6393
暴@@ 6392
低价 6390
SH@@ 6389
94 6388
宪法 6388
不久 6380
救@@ 6379
归档 6378
角@@ 6377
农场 6375
花费 6375
Che@@ 6374
电烧 6373
oy@@ 6370
人民币 6369
给出 6369
se@@ 6368
依法 6368
牛@@ 6368
驻 6368
And 6367
Com@@ 6366
Pal@@ 6365
RA@@ 6363
当天 6363
事物 6358
ala 6355
完整性 6354
岛屿 6353
Saint 6352
相似 6352
out 6350
曲@@ 6348
阴@@ 6348
路上 6347
1.6 6345
胶@@ 6342
命名 6341
北美 6340
追@@ 6340
领土 6338
brand 6337
背后 6336
大使 6334
恐惧 6334
曲 6334
指令 6333
Twitter 6332
叶@@ 6330
得救 6329
丁 6327
送餐 6327
able 6324
维基 6324
国会 6322
领导者 6322
公寓式 6321
宁@@ 6321
ust@@ 6318
1998 6314
小心 6312
七月 6311
www 6309
一段 6307
1.3 6304
ip 6303
转化 6302
鬼 6301
演讲 6300
贝 6300
例 6299
免受 6299
Ed@@ 6294
碳 6294
佛 6292
大楼 6291
LE 6290
插件 6290
麻织品 6290
或车 6288
殿 6288
维生素 6286
写@@ 6285
如需 6282
舔 6282
Singapore 6275
枪 6275
甘@@ 6274
电话号码 6274
影响力 6273
耶 6272
Bel@@ 6266
劳动力 6264
导入 6263
res@@ 6262
心理 6261
一百@@ 6260
海上 6260
ver@@ 6256
请@@ 6255
打击 6254
CP@@ 6252
Room 6252
思维 6250
走向 6250
江 6249
小姐 6248
对比 6247
Island 6243
至@@ 6241
镜头 6241
ó 6240
sk@@ 6236
实行 6234
用力 6234
微笑 6233
飞 6232
十 6231
大厅 6231
22@@ 6223
mar@@ 6222
散 6222
想起 6219
兴 6217
每周 6214
ber@@ 6213
Click 6209
半岛 6207
官方网站 6206
毕业 6206
保 6203
麻@@ 6201
羊 6197
害 6196
照@@ 6196
提供者 6195
的确 6194
看法 6192
潜水 6189
脂肪 6186
大堂 6182
铁 6180
0.8 6179
养@@ 6179
镜 6179
乳房 6178
犯 6178
阿拉伯 6178
购 6177
93 6176
巨@@ 6176
交易所 6175
惊讶 6175
Internet 6172
工资 6172
bo@@ 6170
花卉 6169
素@@ 6162
卫生纸 6159
合作者 6159
绘制 6158
职 6157
83 6156
em 6156
尽快 6155
依靠 6153
吸收 6152
混@@ 6152
平安 6149
扎@@ 6149
之内 6148
110 6146
ma@@ 6145
振动 6145
宁静 6144
西部 6143
同事 6142
藏@@ 6141
骨 6141
硬@@ 6140
春@@ 6135
Ver@@ 6133
盛@@ 6133
Mor@@ 6132
胶 6132
SS 6128
送@@ 6128
不停 6126
ence 6125
MA 6124
光纤 6124
假@@ 6123
He@@ 6121
英雄 6121
之日起 6120
较大 6120
货@@ 6118
MP@@ 6117
实力 6117
对应 6116
航 6116
Suite 6113
坦@@ 6113
朝@@ 6112
ick 6111
Mat@@ 6109
桑拿 6109
石头 6109
全套 6108
语@@ 6107
大西洋 6106
Garden 6105
ator 6105
青少年 6105
MS 6104
人群 6102
言@@ 6100
经文 6096
所有者 6094
时刻表 6091
纪念 6091
走路 6091
buy 6089
探@@ 6088
Museum 6087
健身房 6087
矿@@ 6087
透露 6087
事故 6081
发展中国家 6081
不论 6080
压缩 6080
抽象 6077
远离 6074
ics 6073
绝@@ 6073
Limited 6072
最为 6072
斗争 6071
老板 6070
As@@ 6069
第二天 6069
芯片 6068
3.@@ 6065
This 6064
服务提供商 6064
赋予 6064
搜索引擎 6062
之地 6061
更是 6060
守@@ 6058
盛 6057
忙 6055
招@@ 6055
实例 6054
疯狂 6053
每月 6051
HD 6050
USA 6050
版权法 6050
引入 6045
滑雪 6044
交给 6040
厨房用具 6040
商城 6040
ax@@ 6038
目光 6037
补偿 6034
Casa 6033
股 6032
ich@@ 6031
雨 6031
仪式 6028
杀@@ 6028
SC@@ 6027
SEO 6027
be 6026
编@@ 6025
上去 6024
套件 6024
My 6022
Colombia 6016
办公 6016
术 6016
显@@ 6015
oo@@ 6014
杭州 6014
uk@@ 6013
乔@@ 6007
鸟 6006
终端 6004
Office 6003
盘@@ 6003
Col@@ 6002
内心 6001
跟着 6001
社会@@ 6000
Hotels 5999
化工 5998
含量 5997
温 5997
st 5996
发出通知 5996
bg 5995
脱离 5993
92 5989
紧紧 5988
给@@ 5987
控制@@ 5984
axd 5982
45@@ 5981
陶瓷 5981
钥匙 5980
本质 5977
篇 5977
常规 5976
AM 5973
知@@ 5973
麻烦 5973
何时 5971
牛奶 5971
ade 5969
CSS 5968
精度 5967
左@@ 5964
日历 5962
与此同时 5961
法律责任 5961
Guest 5960
地标 5960
睡眠 5959
伤@@ 5958
Intel 5957
教导 5956
胡志明市 5955
IG@@ 5953
ern@@ 5953
所有权 5953
餐 5953
万豪 5951
制成 5949
阿富汗 5943
明星 5942
PhotoFunia 5941
座位 5941
生产率 5941
甲@@ 5939
层@@ 5935
吨 5933
夜@@ 5933
赌博 5930
条@@ 5929
横@@ 5929
Business 5928
朝鲜 5928
盐 5927
仓库 5926
遭到 5924
Returns 5921
买@@ 5921
直播 5921
Casino 5920
常用 5920
enn@@ 5919
即便 5919
世界@@ 5918
200@@ 5913
摄像机 5913
涂层 5913
国家@@ 5912
服务商 5911
观众 5909
AS 5908
accepted 5906
hn@@ 5905
奖金 5901
卡车 5899
施工 5899
与@@ 5898
爱丁堡 5897
雅典 5895
amp@@ 5894
便是 5894
田@@ 5893
PO@@ 5892
提取 5891
for@@ 5889
名为 5889
床位 5889
地理 5888
不够 5887
戈@@ 5882
法案 5882
Code 5881
Natural 5880
art 5878
开心 5878
肌肉 5878
什么样 5877
球员 5875
国务院 5874
阁下 5874
Unisonic 5872
之遥 5871
持 5871
直 5865
嘴里 5864
除此之外 5863
外壳 5860
守 5860
岭 5860
舍@@ 5860
天空 5859
挪威 5858
容 5856
对待 5856
SAP 5855
众@@ 5853
旧@@ 5852
惊人 5847
部队 5847
恶 5846
愤怒 5846
容@@ 5845
斯里兰卡 5842
富 5839
腕表 5839
84 5835
务 5835
AL 5834
Service 5834
付 5834
分辨率 5831
ings 5830
插@@ 5830
Win@@ 5822
拿@@ 5822
Lake 5817
Devices 5816
专属 5815
人体 5814
野@@ 5814
me@@ 5813
ors 5810
森@@ 5810
可怕 5808
erm@@ 5807
三年 5807
动物园 5806
鼠标 5806
Town 5804
.@@ 5803
ago 5803
建模 5803
已知 5802
筛选 5801
各种各样 5800
散@@ 5798
去过 5796
重建 5795
ry 5794
已有 5792
汉 5792
成千上万 5791
跳@@ 5790
恩典 5788
WebResource 5786
现状 5786
续费 5786
ans@@ 5784
附属 5784
ung 5783
GmbH 5778
Fairchild 5777
My@@ 5777
另一方面 5777
第三十@@ 5774
Holiday 5772
芝加哥 5772
飓风 5772
Ros@@ 5769
TC@@ 5769
高压 5769
透@@ 5767
ea 5766
合成 5764
手里 5761
围绕 5760
审核 5760
ta 5757
管理@@ 5757
存款 5756
El 5753
编号 5753
aya 5751
朱@@ 5751
信用 5750
扎 5749
没想到 5749
早晨 5747
副@@ 5746
Fr@@ 5745
既然 5743
养 5742
专业知识 5740
弹@@ 5740
政权 5739
Agoda 5737
菲 5736
忘 5733
乃是 5732
算@@ 5730
NO@@ 5727
单个 5725
认真 5723
电热水壶 5722
键盘 5722
各处 5721
DR@@ 5716
久@@ 5713
画面 5713
生产商 5712
俩 5708
心情 5708
ville 5707
叉车 5706
珠宝 5704
改造 5703
教训 5701
55@@ 5698
Online 5697
Sk@@ 5696
login 5688
底部 5687
Ac@@ 5686
典雅 5685
Link 5683
毛 5681
知名 5681
PL@@ 5680
校准 5680
ero 5678
凤凰 5675
迁移 5672
举@@ 5671
乐园 5671
爱好者 5671
善@@ 5670
重视 5670
发送到 5668
椅子 5668
铺 5668
态 5666
HO@@ 5665
数据@@ 5665
明天 5664
荷@@ 5664
Plus 5661
字符 5660
ella 5659
制造业 5658
莫 5658
经由 5657
唤醒 5655
杂@@ 5651
app 5650
西亚 5650
配 5650
临床 5649
上主 5648
CRM 5647
留 5647
肯 5646
自由@@ 5646
att@@ 5645
显示屏 5643
img 5641
哪@@ 5641
投注 5641
Or@@ 5640
玉@@ 5640
量@@ 5640
陈述 5640
究竟 5639
订房 5639
ain@@ 5637
Kr@@ 5636
托管 5635
开业 5634
当代 5633
赫尔辛基 5633
剩下 5629
繁荣 5628
ish@@ 5626
梦@@ 5625
液晶电视 5625
针 5625
停止使用 5623
八 5623
怪 5622
ile 5621
ena 5619
爱好 5619
拖鞋 5618
社 5617
度过 5615
97 5613
苦@@ 5611
遍及 5611
高温 5611
你@@ 5610
停留 5610
卫@@ 5609
雇员 5608
证实 5607
骑 5607
1997 5606
事务所 5603
吴@@ 5603
Star 5598
不幸 5595
尽情 5592
顶@@ 5591
假日酒店 5588
公主 5588
累 5588
然@@ 5586
英 5586
曲线 5585
付费 5582
机床 5582
Pre@@ 5581
Dr@@ 5577
民间 5577
话题 5577
Bur@@ 5574
全景 5574
Mac@@ 5570
per 5568
ut 5567
消@@ 5567
令人@@ 5564
封@@ 5564
品种 5563
炎 5563
AR 5562
政@@ 5562
希 5561
蒸汽 5561
上来 5560
控 5560
静@@ 5560
府 5558
聚会 5558
Category 5549
营@@ 5549
雇用 5549
BR@@ 5548
经济体 5546
ä 5545
临@@ 5545
九月 5545
土 5544
射@@ 5543
冬季 5542
广播 5541
聚集 5540
ost@@ 5539
这话 5538
Azure 5537
燃烧 5537
ake 5534
anal 5534
ations 5533
多达 5531
业@@ 5529
呆 5529
破碎机 5526
86@@ 5525
360 5520
将@@ 5520
带到 5519
事宜 5517
脑@@ 5516
之上 5514
半导体 5514
认定 5509
iPod 5508
输入您 5508
峰 5506
破@@ 5506
Ab@@ 5501
显得 5501
IBM 5500
IF@@ 5498
TC1313 5495
Per@@ 5494
哲学 5494
发电 5493
省@@ 5491
搞 5489
82 5488
way 5488
环境@@ 5488
放心 5487
片@@ 5486
Ap@@ 5485
完@@ 5485
弹 5484
Design 5483
Ev@@ 5482
咖啡厅 5482
承@@ 5482
现 5482
紧急 5482
驱动程序 5482
夏天 5481
足@@ 5481
ix@@ 5480
Tor@@ 5479
空中 5477
办公桌 5476
评级 5475
端@@ 5474
露出 5472
港@@ 5470
陷入 5470
商务中心 5469
住所 5468
灭 5467
窗户 5467
沙发床 5465
渴望 5465
一路 5464
依 5461
Plaza 5460
蛋白 5460
圣诞节 5459
SA 5457
抽@@ 5457
本文 5456
而已 5454
虚假 5453
禁用 5450
1995 5449
游泳 5449
Residence 5448
Hanzi 5447
2.2 5446
廉价 5446
宝贝 5445
般 5444
铜 5444
五年 5443
19@@ 5442
ach 5442
载 5442
湿 5441
盯 5441
神秘 5440
简@@ 5439
邪恶 5438
学家 5437
Mc@@ 5436
丹@@ 5434
士@@ 5434
Web@@ 5432
女子 5430
101 5429
ap 5429
使用寿命 5429
木材 5429
基因 5427
浮@@ 5426
DS 5425
遍布 5425
08@@ 5424
水族馆 5424
当今 5422
缩短 5421
势 5420
六月 5419
茶@@ 5418
魔@@ 5418
亲自 5417
息 5417
菜肴 5417
湖@@ 5416
至今 5413
吹@@ 5412
汇@@ 5412
税收 5410
首尔 5409
效益 5404
玫瑰 5402
Ne@@ 5400
尚@@ 5399
3.5 5398
主教 5398
毗邻 5394
Life 5393
右@@ 5393
置 5392
跨@@ 5391
轻 5391
地处 5390
大幅 5390
希尔顿 5389
Sol@@ 5388
生态 5386
良@@ 5386
备@@ 5383
王国 5383
努@@ 5382
眼中 5382
奥巴马 5381
标 5380
区间 5377
邮箱 5377
顺利 5377
目@@ 5375
五月 5371
庭院 5371
灾难 5371
峰会 5369
预言 5368
很难 5367
豪华酒店 5366
一体 5364
恨 5364
哥@@ 5363
ins 5362
消耗 5362
Excel 5359
London 5359
两次 5358
宽度 5358
特大号 5358
第二次 5358
TH@@ 5356
后者 5353
PR@@ 5351
lin@@ 5351
除外 5350
IM@@ 5349
一会 5348
多伦多 5347
物体 5347
ium 5346
栏 5345
日内瓦 5342
证@@ 5342
地说 5341
ff@@ 5338
组成部分 5338
Er@@ 5336
姐姐 5333
苏黎世 5333
今后 5332
本市 5332
法律法规 5330
简体中文 5327
John 5325
Manufacturers 5325
桌子 5325
ery 5324
Photoshop 5322
server 5320
DE 5319
Uk 5317
氏 5317
开发者 5316
福利 5315
铝 5315
AG 5314
急 5314
1.8 5313
我能 5313
get 5310
禁烟 5310
衣@@ 5310
Gar@@ 5309
Is@@ 5307
大脑 5307
节日 5306
品尝 5305
刀具 5304
免 5303
营养 5303
PS@@ 5302
前景 5302
木地板 5301
Lodge 5300
ata 5298
就算 5298
恒@@ 5298
探讨 5298
洁净 5298
Hu@@ 5296
Unclassifed 5296
位@@ 5296
专 5295
缔约国 5293
问道 5292
高端 5292
聚 5291
举 5290
富有 5290
弹性 5290
CE@@ 5288
Trans@@ 5286
摆@@ 5285
真相 5285
裁定 5285
Kar@@ 5284
学术 5283
礼 5283
元@@ 5282
周末 5281
景致 5281
雅各 5280
本网页 5279
虫 5278
什@@ 5277
隔音 5277
ft 5273
附@@ 5271
75@@ 5270
腰 5270
免责 5269
PM 5268
烧@@ 5267
礼品 5267
87 5266
五个 5266
文件大小 5266
周年 5265
少数 5263
巧克力 5262
开发人员 5262
沿着 5262
语音 5262
Paris 5260
侵权 5260
丝@@ 5258
走出 5256
Bedroom 5255
开源 5254
滚@@ 5253
税务 5253
乱@@ 5251
器件 5251
七 5250
country 5247
man@@ 5247
刚@@ 5241
加州 5239
期@@ 5238
ama 5237
批评 5237
校@@ 5237
垂直 5236
财@@ 5236
赛车 5235
box 5233
资 5229
光线 5228
模 5228
金钱 5228
3.0 5227
负责人 5227
很棒 5226
Fre@@ 5225
000@@ 5223
Data 5222
粗@@ 5222
签名 5221
line 5220
密 5220
区@@ 5216
对面 5216
交通@@ 5215
倾向 5215
隔@@ 5215
多功能 5214
鱼@@ 5214
围@@ 5213
亚伯拉罕 5212
转身 5212
AV@@ 5210
navigation 5210
宝宝 5210
ING 5209
爱情 5209
负@@ 5209
els 5208
习近平 5208
学者 5208
椅 5208
辐射 5206
found 5203
毒@@ 5203
苦 5202
彩色 5196
校 5196
防护 5196
肯@@ 5195
of@@ 5193
Analog 5191
种族 5188
GA 5186
中心地带 5186
去@@ 5184
地下 5184
无缝 5184
黄色 5182
ES 5181
呼叫 5181
职责 5178
自主 5176
美容 5174
Show 5173
偏好 5173
卡尔 5173
Blue 5172
1990 5171
Cojak 5170
小屋 5168
oll@@ 5167
detail 5164
超出 5164
SD 5163
总监 5163
按@@ 5163
真主 5163
难民 5161
Western 5160
体内 5160
边界 5160
AG@@ 5159
汉堡 5158
夏@@ 5157
环球 5157
世上 5156
司机 5155
启示 5155
支撑 5154
布鲁塞尔 5153
York 5152
专题 5152
生气 5151
税@@ 5150
All 5149
Project 5149
佳 5149
1.4 5148
拓展 5148
难忘 5147
顺序 5147
戒指 5145
传真 5144
画廊 5143
min 5142
生长 5142
片段 5139
聪明 5139
触@@ 5138
23@@ 5137
东部 5136
快捷 5136
舞 5136
收音机 5134
活跃 5134
ace 5133
数据保护 5133
弟兄 5132
楼层 5132
摆脱 5130
种@@ 5130
VR 5129
ment 5129
主意 5129
全球化 5129
ru 5127
沃 5125
字母 5123
笔记本电脑 5123
0000 5121
垃圾 5121
yp@@ 5120
味道 5120
随 5120
紧密 5119
板@@ 5118
Hot 5116
警@@ 5113
顾@@ 5111
史@@ 5110
积@@ 5110
ise 5109
尔德 5108
歌 5108
900 5107
烟@@ 5107
ons 5104
仔细阅读 5101
柯@@ 5101
管理局 5101
颗粒 5101
怀@@ 5100
一生 5097
咖啡馆 5097
国民 5097
Cloud 5096
gr@@ 5096
危害 5095
ere 5094
急@@ 5094
框 5090
著作 5089
权@@ 5086
精美 5086
秩序 5084
使用者 5083
Phoenix 5081
出版社 5080
柱 5080
登陆 5080
弟子 5078
差@@ 5076
带给 5074
罗斯 5074
讯 5074
哥哥 5073
薄@@ 5072
伊斯兰教 5071
将军 5069
母 5069
温柔 5068
往来 5067
ert@@ 5062
基本@@ 5062
英格兰 5062
Palace 5061
麦 5061
施 5060
槽 5060
Bal@@ 5059
UC@@ 5059
账号 5057
信徒 5056
文明 5056
Ser@@ 5053
ron 5053
故意 5053
抓 5052
会计 5051
iPad 5049
柔@@ 5047
port 5045
ss@@ 5044
DO@@ 5041
TA 5040
Copyright 5039
亚马逊 5038
修炼 5038
公 5038
机遇 5038
丁@@ 5035
扬 5034
结论 5034
妹妹 5033
成型 5032
LM@@ 5031
Hol@@ 5028
奖项 5027
体育场 5026
配置文件 5026
亚历山大 5025
穿着 5025
ond@@ 5023
感情 5023
村庄 5023
眼神 5023
城市地图 5021
激烈 5021
0.9 5017
最快 5015
附加费 5015
分开 5014
短期 5014
待@@ 5012
AC 5011
ne@@ 5010
ung@@ 5009
粉@@ 5009
忽然 5008
替换 5008
读取 5008
杨@@ 5007
克罗地亚 5006
绝佳 5005
可视化 5000
男 5000
否认 4998
Restaurant 4997
以往 4997
竞赛 4997
佛教 4995
总经理 4994
一页 4992
By 4991
均匀 4990
婚姻 4989
岩 4988
房产 4986
160 4985
债券 4982
隐@@ 4982
维多利亚 4980
MIME 4979
不但 4978
闭@@ 4978
鸡尾酒 4978
CC 4977
ial 4977
Content 4975
杰 4975
雨@@ 4975
ill 4974
高于 4974
120@@ 4973
欢@@ 4973
治 4972
短信 4972
can 4971
que 4971
晶@@ 4971
奈@@ 4970
Gerber 4969
细 4968
lo@@ 4967
柏@@ 4966
蔬菜 4966
参@@ 4965
风暴 4964
一体化 4963
1.0 4961
ii 4961
ET@@ 4960
银 4959
俄语 4955
ais 4954
疼痛 4954
纯 4954
选定 4952
般的 4951
合约 4950
监@@ 4949
需@@ 4949
胜 4947
认@@ 4945
最具 4944
负担 4944
new 4942
政 4942
简便 4942
Har@@ 4941
act@@ 4941
助@@ 4939
涂料 4938
Str@@ 4937
牙@@ 4936
跟随 4936
集合 4936
Ks 4935
支援 4934
插 4932
一道 4931
吃饭 4931
不予 4929
2.1 4927
学员 4927
ari 4926
惩罚 4926
载@@ 4926
玩@@ 4922
观 4921
这方面 4920
爬 4918
一室 4917
内裤 4917
推 4917
样本 4917
划@@ 4916
阴茎 4916
极其 4914
法兰克福 4914
脱 4914
本法 4913
ov 4912
歌曲 4912
尚 4911
起身 4911
话语 4909
ford 4906
哥伦比亚 4906
汽车@@ 4905
相结合 4905
楼梯 4904
sl@@ 4903
全年 4903
周边 4903
瀑布 4903
iOS 4902
腐败 4900
anc@@ 4899
所示 4896
皮革 4896
不住 4894
工作室 4894
精致 4894
业界 4893
群@@ 4893
齐 4893
刺@@ 4891
互相 4887
喜@@ 4884
奢华 4881
总结 4881
心灵 4880
充@@ 4879
景@@ 4878
che@@ 4877
新闻@@ 4877
贵@@ 4877
衣架 4876
CR@@ 4873
The@@ 4872
肛门 4872
名义 4869
丰@@ 4868
SD@@ 4867
癌症 4867
绘画 4867
神经 4866
口交 4864
锁@@ 4863
XXX 4861
床单 4861
振@@ 4860
介质 4859
蓝牙 4859
治@@ 4858
宁 4857
诗 4857
楼@@ 4856
通往 4855
委托 4851
致 4851
3000 4849
政党 4849
会展中心 4847
混凝土 4847
认知 4847
犹太 4846
主权 4845
烹饪 4844
类@@ 4844
Boutique 4842
度@@ 4842
预 4841
ys 4839
崩溃 4837
该项 4837
PS 4836
违法 4835
材质 4832
宝贵 4831
谢 4829
高速公路 4829
谈论 4828
俄国 4827
ane 4825
参与者 4823
初 4822
Bar 4820
its 4820
型@@ 4820
ura 4818
摇@@ 4818
内在 4816
露@@ 4816
Jo@@ 4815
amb@@ 4814
事儿 4814
再说 4814
孙@@ 4814
世人 4813
5000 4811
180 4809
聖 4809
中华 4808
克服 4806
集体 4806
垫 4805
献 4805
upload 4804
莉 4803
势力 4801
pr@@ 4800
商务酒店 4800
过度 4800
阀门 4799
Outlook 4798
签订 4798
饭 4798
skip 4795
法庭 4795
闹钟 4795
共产党 4791
厚度 4791
戴@@ 4791
代价 4790
痛@@ 4789
个人@@ 4788
善 4787
舞蹈 4785
并未 4782
降 4782
百分比 4779
LC@@ 4778
词典 4778
丹 4777
任一 4777
那天 4777
分数 4776
商业@@ 4776
脸@@ 4776
Camp@@ 4775
歌@@ 4775
IV@@ 4773
性感 4773
ab 4772
熨衣 4772
Comp@@ 4771
双人床 4771
彼得堡 4770
有利于 4770
贝尔 4768
输@@ 4768
延伸 4767
泽 4767
宾@@ 4765
兼 4764
Del@@ 4763
戈 4763
厂家 4762
昂贵 4762
电路 4761
管理人员 4761
血液 4761
露 4761
坛 4759
有名 4759
墙壁 4758
展览会 4758
寺 4756
影@@ 4753
找出 4753
输送 4753
甲 4750
种植 4748
Cas@@ 4747
Pet@@ 4745
原本 4745
预约 4745
Kh@@ 4738
贸易@@ 4738
便@@ 4736
要素 4735
远远 4735
经济学 4734
突@@ 4733
锻炼 4732
船舶 4730
1996 4728
几何 4727
隔离 4726
子孙 4725
科隆 4725
反而 4723
提供商 4723
指引 4722
・ 4721
感谢您 4721
示@@ 4720
党@@ 4719
百 4719
价值观 4717
碎 4716
宗旨 4714
兽 4711
舒适度 4711
文学 4710
min@@ 4709
建于 4709
智@@ 4708
温哥华 4708
灯光 4708
ik 4706
媒介 4706
您好 4705
灰@@ 4703
下方 4700
委 4699
迈@@ 4699
互@@ 4698
卢森堡 4698
官网 4698
裁决 4696
面包 4696
外交 4695
没什么 4694
ani 4693
ster 4693
潮 4693
IL 4692
Tag 4692
仿真 4691
人花 4690
提起 4690
挂牌 4689
许@@ 4688
读者 4687
ets 4686
鼓@@ 4686
苏格兰 4684
马耳他 4683
山脉 4682
op 4681
page 4680
贫困 4680
韦 4680
套@@ 4679
娇@@ 4679
苏 4678
保养 4677
蛋糕 4677
轮胎 4677
ona 4674
主义者 4674
存@@ 4673
时光 4673
yn@@ 4671
罪孽 4671
Sam@@ 4669
尾 4669
百万 4669
4.@@ 4668
ag 4668
噪音 4668
恶意 4668
休@@ 4667
牧师 4667
com@@ 4664
刊登 4664
欲 4664
机械@@ 4662
父@@ 4662
农民 4661
文件系统 4660
尤@@ 4659
舞台 4658
灯@@ 4657
审计 4654
演@@ 4653
Video 4652
保健 4649
颁发 4648
保险@@ 4646
农村 4646
清理 4646
als 4645
仅@@ 4644
波士顿 4642
浪费 4641
du 4640
处@@ 4637
尽量 4637
效力 4637
知 4637
卖@@ 4635
袭击 4635
拜@@ 4634
任何理由 4631
计@@ 4631
兹@@ 4630
激励 4630
这儿 4630
弱 4629
东莞市 4626
天气预报 4625
封装 4625
多家 4624
应许 4624
虚@@ 4624
Motorola 4623
一个月 4623
坚定 4623
直至 4623
代替 4622
展@@ 4622
牺牲 4622
精 4622
ms 4621
排名第 4621
彩 4619
同一个 4618
珠 4618
Mobile 4615
风扇 4615
ht@@ 4614
壳 4613
层次 4613
厚@@ 4611
Organization 4608
厂商 4608
CO 4607
一周 4607
搜寻 4606
敢 4606
狂@@ 4605
ñ 4604
仿佛 4604
罪恶 4603
宫殿 4602
数值 4599
检索 4599
购物车 4599
球队 4597
Posted 4596
自从 4596
2.4 4595
万美元 4594
矿 4594
We 4593
命运 4593
体积 4592
戴 4592
亲爱 4591
替 4589
主体 4586
储蓄 4584
印度尼西亚 4583
近期 4583
col@@ 4582
dis@@ 4582
报表 4581
街@@ 4578
二氧化碳 4577
本次 4576
IB@@ 4575
公共@@ 4575
钉 4575
宽@@ 4574
软件包 4574
测试@@ 4573
浙江 4573
一丝 4572
打电话 4572
一方 4571
ez@@ 4570
Lin@@ 4565
强制 4565
舱 4564
虚拟机 4564
Im@@ 4563
Wal@@ 4563
支 4563
术语 4563
Val@@ 4562
ated 4562
称@@ 4562
药品 4562
全方位 4560
积累 4560
佳@@ 4559
Enterprise 4558
睡@@ 4555
美妙 4555
ty 4554
厕所 4554
观赏 4553
净@@ 4552
教徒 4552
默 4551
SE 4550
工会 4550
赛事 4550
Ol@@ 4549
电信 4549
93@@ 4548
150@@ 4547
喊 4547
7.@@ 4546
ita 4546
命@@ 4546
Al 4544
乘 4542
章@@ 4542
Las 4541
三种 4541
吊@@ 4541
外汇 4541
辆 4540
舌头 4539
生物@@ 4538
葡萄牙语 4537
场地 4536
残@@ 4534
杨明 4532
美女 4532
舍 4532
失望 4531
磁@@ 4529
买家 4528
例外 4528
毒 4528
访问者 4528
Dropbox 4527
活力 4527
讲座 4526
法定 4525
句 4524
师@@ 4524
退还 4523
1994 4521
变革 4520
选中 4519
演员 4517
汇 4516
PC@@ 4515
地震 4515
团结 4514
1993 4512
署 4511
京都 4510
PP@@ 4509
Store 4508
激@@ 4508
诸@@ 4508
创立 4507
PA 4506
烟 4504
Art 4503
自然@@ 4503
● 4497
将要 4497
海军 4497
较@@ 4496
xxx 4495
Type 4494
衡量 4494
谨慎 4493
配套 4493
PE 4491
加利福尼亚州 4491
展现 4489
睡觉 4488
魔鬼 4488
ua 4485
派@@ 4485
New@@ 4484
使者 4482
净 4480
开放式 4479
编写 4479
订@@ 4479
Taiwan 4476
前来 4476
Top 4474
三维 4473
压缩机 4472
资助 4471
对手 4470
止@@ 4470
.0 4468
Old 4468
Sl@@ 4468
保护@@ 4468
第四十@@ 4468
预先 4468
Breakfast 4467
道理 4467
阳@@ 4467
bu@@ 4466
跳舞 4465
ora 4464
受害者 4464
SAS 4463
珍@@ 4463
主耶稣 4462
拜 4462
伊斯坦布尔 4461
所得 4461
Open@@ 4460
咱们 4460
团@@ 4460
Po@@ 4459
树脂 4459
spa 4458
摩托车 4458
青岛 4457
Gre@@ 4456
ight 4456
复印 4456
凯 4454
早就 4454
负担得起 4454
恐怖 4452
姓氏 4451
98@@ 4449
GHz 4449
my@@ 4449
服务@@ 4449
Dis@@ 4446
千 4446
也就是说 4445
喜悦 4445
影像 4443
念 4443
连锁 4443
Chat 4442
独一无二 4442
so@@ 4440
同性恋 4440
效 4440
苏州 4440
错过 4439
禁@@ 4437
线性 4433
圣地亚哥 4431
城镇 4431
温馨 4429
床@@ 4427
全身 4426
CPU 4425
免@@ 4424
奥兰多 4424
手表 4424
AD 4423
德尔 4422
监视 4422
交互 4421
注册商标 4421
减轻 4420
穆罕默德 4420
莎 4416
ã 4415
诚信 4415
有时候 4414
充分利用 4413
再也 4413
系列产品 4412
岸 4411
护 4411
行事 4411
阿尔巴尼亚 4411
候选人 4410
受本 4410
Manual 4406
一组 4406
陪 4406
欢迎您 4405
蛋白质 4405
Si@@ 4404
旗帜 4403
public 4402
瑟@@ 4402
闻 4402
抑制 4401
洋 4401
44@@ 4400
看出 4400
PD@@ 4399
ack 4399
保加利亚 4398
刀@@ 4398
作家 4396
1.7 4394
八月 4391
王子 4388
偷@@ 4387
9.@@ 4386
Cap@@ 4386
某@@ 4386
士兵 4385
客服 4384
钓鱼 4384
打破 4383
顺 4382
『 4381
扩张 4381
暴露 4381
直观 4381
零售商 4381
Cookies 4380
冲 4380
缅甸 4380
议题 4379
ax 4377
gl@@ 4377
Red@@ 4375
抬起 4374
凡@@ 4372
Lu@@ 4370
家伙 4370
Inter@@ 4369
住房 4369
慢 4369
间@@ 4369
住@@ 4368
儿@@ 4368
铜@@ 4368
企业家 4366
指向 4365
商场 4363
冰 4362
水上 4362
计算机@@ 4362
uan 4361
天下 4361
预览 4361
G4 4360
为主 4360
便于 4360
弹簧 4358
相当于 4356
落实 4356
美术馆 4355
丘 4354
庞大 4353
和谐 4352
DS@@ 4351
劳 4351
宣@@ 4351
针@@ 4351
有害 4349
播放器 4348
IO 4347
CN 4346
ke 4346
时段 4345
爆炸 4345
奉 4343
持@@ 4343
1992 4341
2.3 4341
坚固 4340
极为 4340
浓度 4340
听力 4339
移 4338
退 4338
So@@ 4337
瓦尔 4337
DA@@ 4336
一面 4336
磨损 4336
放入 4335
TO 4334
听说 4334
益@@ 4333
你好 4332
倍@@ 4332
search 4331
居然 4331
装配 4330
齿轮 4330
只好 4329
Lisboa 4324
ast 4324
说法 4323
野生动物 4322
去除 4321
入侵 4319
嵌入式 4319
套餐 4318
转售 4317
讨厌 4315
Mag@@ 4313
垂@@ 4312
安慰 4312
激动 4311
ç 4310
成像 4309
豪@@ 4309
LTD 4307
洋@@ 4307
dr@@ 4306
琳 4306
par@@ 4305
仁 4305
疗法 4305
750 4304
泡沫 4304
突破 4304
获@@ 4304
护照 4303
兵@@ 4302
胜@@ 4302
ave 4301
号@@ 4301
这份 4298
不可@@ 4296
嘴唇 4296
模块化 4296
罪人 4295
销 4295
ole 4293
风味 4292
性爱 4291
毫升 4290
AUD 4289
den 4288
标准化 4288
租用 4288
罩 4287
Royal 4286
细则 4286
采访 4286
拍卖 4285
At@@ 4284
改写 4284
采取行动 4284
生产力 4282
只会 4281
季节 4281
论@@ 4281
LA 4280
置@@ 4280
简直 4279
And@@ 4277
全体 4276
home 4274
za 4274
藉 4274
储备 4273
塞浦路斯 4273
遗产 4273
ory 4272
夹 4272
自制 4272
American 4270
助 4270
强迫 4270
电器 4270
觉 4270
钢琴 4270
Pan@@ 4268
合规 4266
矛盾 4265
刺 4263
木质 4263
决@@ 4262
博览会 4262
大大 4262
Cam 4261
More 4261
够 4261
伸手 4259
部@@ 4259
分散 4258
管理器 4258
赞 4258
Ave 4257
舞@@ 4257
HP 4256
ez 4256
service 4256
剧 4255
壁 4254
激情 4251
ce 4249
zz@@ 4249
测 4249
数目 4248
穿过 4248
之选 4247
得出 4247
里斯本 4247
带领 4246
Ant@@ 4245
iy@@ 4245
Akamai 4244
Python 4243
ail@@ 4243
前进 4242
总裁 4242
盈利 4242
di@@ 4241
传来 4240
能否 4237
制药 4236
ha@@ 4235
DM@@ 4234
志@@ 4234
教程 4234
行政@@ 4233
姿势 4232
灵感 4232
Rob@@ 4231
AP 4230
安卓 4230
终@@ 4230
乘@@ 4228
教育@@ 4227
穿越 4227
适用法律 4227
enc@@ 4224
斗 4223
诸多 4223
巴厘岛 4221
昨天 4221
温和 4219
皇@@ 4219
寄存 4218
赶紧 4218
old 4217
雇主 4217
eo 4216
圆 4216
抓@@ 4216
桑拿浴 4215
怎 4214
抗 4214
调试 4214
幸运 4213
port@@ 4212
感激 4212
虎 4212
发起 4209
体制 4208
邮编 4208
回忆 4207
套装 4207
过期 4202
ri 4201
货运 4201
1.9 4200
十月 4200
摘要 4200
它会 4198
汉语 4198
键入 4198
永生 4196
否 4195
Hot@@ 4194
21@@ 4192
vi@@ 4192
基本上 4191
桶 4190
一层 4189
次@@ 4189
Li@@ 4188
之星 4188
伴随 4188
Point 4183
66@@ 4182
GR@@ 4180
res 4180
医@@ 4180
不安 4179
井 4179
种子 4178
海湾 4177
Index 4175
your 4175
切割机 4175
监狱 4175
申@@ 4174
iang 4173
开车 4173
混乱 4173
Global 4172
欲望 4172
独自 4171
三十@@ 4170
多久 4170
导 4170
葡萄 4169
Province 4168
ial@@ 4168
包裹 4166
减 4165
符 4165
ve 4164
疫苗 4163
免遭 4162
发送给 4161
初始 4160
Cat 4159
IE@@ 4159
不适 4159
充足 4159
受伤 4158
方针 4158
锁定 4158
会话 4157
毫无 4157
III 4156
业绩 4156
双床间 4156
瑟 4156
5.@@ 4155
』 4155
双腿 4154
肉棒 4154
融入 4153
TL@@ 4152
图案 4152
征@@ 4152
望@@ 4152
背 4152
地狱 4151
群众 4151
River 4149
air 4149
any@@ 4148
逃@@ 4148
美洲 4147
轴@@ 4147
园@@ 4146
微微 4145
ola 4144
侧@@ 4144
分析仪 4144
夏 4143
有效性 4143
Vista 4142
对抗 4142
Ind@@ 4141
sale 4141
公正 4141
历 4141
斯德哥尔摩 4141
Cre@@ 4140
大海 4139
窗帘 4139
导出 4137
强制执行 4137
粒 4137
Te@@ 4136
搭乘 4136
原材料 4134
TC 4132
象征 4132
Sun@@ 4131
镶 4131
West@@ 4130
大使馆 4130
提名 4130
MB@@ 4129
大师 4127
泡 4127
拉脱维亚 4126
糟糕 4125
CE 4124
烘干机 4124
控@@ 4122
CL@@ 4121
und 4120
助听器 4120
滤@@ 4120
复兴 4119
中学 4118
剑 4118
回归 4117
夹@@ 4117
末 4117
观念 4117
ZIP 4116
庭 4116
GPS 4115
邮寄 4115
阿尔泰 4115
85@@ 4114
分裂 4114
评@@ 4114
General 4113
穴 4112
ous 4111
仙@@ 4111
常见问题 4111
ass 4110
化学品 4109
黄 4109
赞助 4108
卖方 4107
竟 4107
Hill 4106
紧凑 4106
学位 4105
专长 4104
年底 4104
搭配 4104
ect 4103
联机 4103
移@@ 4102
薄 4101
12.@@ 4100
酒精 4100
Electron 4099
透 4097
四月 4096
TR 4093
Char@@ 4092
生命周期 4092
非常适合 4092
全自动 4090
里约热内卢 4090
队伍 4090
Village 4089
中央@@ 4089
占领 4088
建议您 4088
精英 4088
Play 4087
诞生 4087
穿@@ 4086
一支 4085
个体 4085
妇人 4084
歌剧院 4084
77@@ 4083
斯特@@ 4082
曼彻斯特 4082
腐蚀 4082
屏 4081
欣@@ 4081
碗 4081
腾 4081
龙儿 4079
凭 4078
办@@ 4078
肥@@ 4078
6.@@ 4077
mail 4077
发达国家 4075
担忧 4075
部位 4075
对话框 4074
纵@@ 4074
填充 4073
杰出 4073
臂 4073
Les 4072
li 4072
查阅 4072
头上 4069
奉@@ 4069
醒 4068
值@@ 4067
罪@@ 4067
卡拉 4066
无形 4066
Bi@@ 4065
普吉岛 4065
抗议 4064
SK@@ 4062
ette 4062
vis@@ 4062
几步 4062
占据 4062
特此 4062
州市 4061
平静 4061
立法 4061
Bre@@ 4060
Port 4060
想着 4060
Tre@@ 4057
历@@ 4057
130 4056
EX@@ 4056
乌 4056
hi 4055
ress@@ 4055
开设 4055
里斯 4055
Nor@@ 4052
err@@ 4052
合格 4051
哪儿 4050
繁忙 4050
复合 4049
光电 4048
Mil@@ 4046
修正 4045
约瑟 4045
宝石 4044
球场 4044
罐 4042
Semiconductors 4041
到期 4041
沙漠 4041
示 4040
Lane 4039
欧元区 4039
001 4038
CM@@ 4038
FO@@ 4037
Net@@ 4037
万元 4037
年间 4037
century21 4035
TX 4034
XP 4034
ti@@ 4033
72@@ 4032
还原 4032
职@@ 4031
小说 4030
Ge@@ 4029
商标注册 4028
政治@@ 4028
讲话 4028
借@@ 4026
司@@ 4024
载明 4024
ira 4023
天国 4022
ok 4020
大法 4019
海关 4018
CC@@ 4017
柬埔寨 4017
餐@@ 4017
儿童@@ 4016
产品质量 4015
广 4015
夫妇 4014
虚拟化 4014
塞尔维亚 4013
扣@@ 4013
Bro@@ 4012
管理体系 4012
塑@@ 4011
欢迎光临 4011
录 4009
经济学家 4009
AMD 4008
开口 4008
出示 4007
第四 4006
Hilton 4005
铺设 4005
1991 4004
刷 4004
上海市 4003
逐步 4002
QU@@ 3999
so 3999
歧视 3999
秀 3999
无条件 3998
样@@ 3996
小吃 3995
志愿者 3994
秘书 3994
抬头 3992
起到 3992
录制 3989
Boulevard 3987
阿姨 3987
GE 3986
开普敦 3986
正面 3986
今晚 3985
超市 3985
额外收费 3985
寻@@ 3984
文化@@ 3984
足以 3983
两位 3982
ect@@ 3981
贴@@ 3981
分支 3980
家中 3980
破 3979
field 3978
驻@@ 3978
46@@ 3977
uss@@ 3977
专辑 3977
功 3976
式@@ 3976
怀里 3976
检@@ 3976
民主@@ 3976
速@@ 3976
便携式 3975
得天独厚 3975
ova 3973
ym@@ 3973
图书 3973
绝 3973
罚款 3972
供电 3971
削减 3971
古巴 3971
轻轻地 3971
波动 3970
蓝 3970
Met@@ 3969
早已 3969
益 3969
正好 3968
欺诈 3967
配方 3967
酒廊 3967
wood 3966
决心 3966
国内外 3966
焦@@ 3966
xx 3965
忽略 3964
Her@@ 3962
小于 3962
荣获 3961
南方 3960
干嘛 3959
Jun 3958
接头 3958
期权 3958
考 3958
一看 3957
右 3957
学科 3957
生日 3957
India 3956
交易者 3956
化妆品 3955
时钟 3955
第四@@ 3955
缓解 3955
外国人 3954
广东 3954
弯@@ 3954
导演 3951
挑选 3951
1989 3949
窗 3947
过后 3947
骂 3947
95@@ 3946
剧@@ 3945
弄@@ 3945
信息@@ 3943
告@@ 3943
题 3943
比特 3942
活着 3942
礼@@ 3941
Pat@@ 3940
华为 3939
粉末 3939
持久 3937
prodel 3936
川 3936
迷 3935
不满 3932
中国政府 3932
以太网 3931
Zh@@ 3930
Tri@@ 3929
协@@ 3928
情感 3928
执行官 3928
街区 3928
jpeg 3926
差距 3921
NXP 3920
组装 3920
Guadeloupe 3919
高精度 3918
Word 3917
封 3917
艰难 3917
整理 3916
主持 3915
孔@@ 3915
没事 3915
阿拉伯联合酋长国 3915
erv@@ 3914
缓慢 3914
经验丰富 3910
预备 3909
礼宾 3908
fr@@ 3907
尊@@ 3906
一月 3904
克拉 3903
瑜伽 3903
FS 3902
赐 3902
一口气 3901
物种 3900
0.00 3899
厚 3899
渲染 3899
摧毁 3898
澳洲 3898
自愿 3898
Gold 3897
话@@ 3897
On 3896
延@@ 3896
玻璃@@ 3896
买方 3895
挂@@ 3894
公爵 3893
怀孕 3893
肝脏 3893
wh@@ 3892
同学 3892
薄膜 3892
8899shop 3891
ents 3891
Hong 3890
SN74AHCT@@ 3890
生产@@ 3890
太空 3887
内核 3886
日落 3885
一分钟 3884
假如 3884
AT 3883
缺少 3883
桥梁 3882
爷 3882
注意力 3881
辛@@ 3881
律 3880
Vegas 3878
尾@@ 3878
徒 3878
总线 3878
而成 3878
发射 3875
我方 3875
报警 3875
Media 3874
桌 3874
欲@@ 3874
料@@ 3873
正义 3873
相册 3873
筒 3873
范@@ 3873
用户界面 3872
兼容性 3871
岩石 3870
所作 3869
网络连接 3868
语法 3868
九 3867
焦点 3867
舒@@ 3867
Mel@@ 3866
car@@ 3866
102 3865
Jobs 3864
儿女 3864
必然 3864
浴袍 3864
海报 3864
日后 3863
游艇 3862
注入 3861
官@@ 3860
鉴于 3860
数码 3859
占@@ 3858
赚钱 3858
大声 3857
吞@@ 3853
研@@ 3852
AI 3851
不愿 3851
幕 3851
不许 3850
汁 3850
ash 3849
人均 3849
坐下 3849
等于 3849
Soi 3848
电极 3848
略 3847
医药 3845
愿景 3845
Sex 3842
多样性 3840
ui 3839
历史悠久 3838
眼里 3838
临到 3837
è 3836
一人 3836
发电机 3836
捕获 3836
似的 3835
Fe@@ 3834
丰满 3834
纪录 3833
阐述 3833
一处 3832
She@@ 3831
France 3829
辩论 3829
谈@@ 3828
倾@@ 3827
8.@@ 3826
信念 3826
救赎 3826
滑 3826
镇@@ 3826
right 3825
泄漏 3825
ello 3824
寄@@ 3823
规@@ 3823
左 3822
智利 3822
要么 3822
院子 3822
千年 3820
Mod@@ 3819
PH@@ 3819
俄@@ 3819
储@@ 3819
Pendant 3818
呼@@ 3818
oh@@ 3817
引进 3817
渐渐 3816
cre@@ 3815
租@@ 3815
戏 3814
运河 3813
生产总值 3812
意图 3809
140 3806
Can@@ 3806
增长率 3806
求购 3806
IP地址 3803
Ba@@ 3802
ement 3802
小学 3802
熟@@ 3802
TP 3801
被迫 3801
车道 3798
不时 3797
径 3796
後 3796
ase 3794
继承 3794
营业 3794
酒店客房 3794
因子 3793
Reg@@ 3792
单词 3792
吓 3792
轨 3791
遭遇 3790
金属@@ 3790
拷贝 3789
隔 3787
Building 3786
从前 3785
立陶宛 3784
公式 3783
神奇 3783
育 3783
铝@@ 3782
附带 3782
复苏 3781
Love 3780
乡 3780
液@@ 3780
徽标 3779
admin 3778
纠正 3777
送达 3776
一个@@ 3774
King 3773
VPN 3773
他妈的 3772
商人 3772
夜间 3772
天线 3772
秘书长 3772
享 3770
去世 3770
敬请 3770
精液 3770
杀死 3769
蛋 3768
des 3767
Mir@@ 3766
报名 3766
ET 3765
喜 3764
选民 3764
CT 3763
印尼 3763
挺@@ 3763
暗 3763
航@@ 3763
65@@ 3761
严@@ 3761
审议 3761
有限责任 3761
英尺 3761
讲述 3761
婚@@ 3760
菲尔德 3760
350 3759
Paper 3759
颤抖 3759
家长 3758
拍@@ 3758
Development 3756
当作 3755
斗@@ 3755
校园 3755
两国 3754
帖子 3754
浅@@ 3754
ate@@ 3753
志 3753
鹰 3753
帧 3752
破碎 3752
ux@@ 3751
喝@@ 3750
填@@ 3750
巴勒斯坦 3750
创业 3749
优异 3748
珠@@ 3748
十二 3747
布置 3747
牧@@ 3747
粘@@ 3747
何种 3746
当选 3746
最早 3745
125 3744
talk 3744
人力资源 3744
硬盘驱动器 3744
第七@@ 3744
MD@@ 3743
频 3742
world 3741
坏@@ 3740
湿度 3740
全球性 3739
天津 3739
奇迹 3739
隆@@ 3739
sw@@ 3738
一辆 3737
三星 3736
旅@@ 3736
著作权人 3736
own 3735
全文 3734
司 3734
赤@@ 3734
注重 3733
都@@ 3733
AVI 3731
划分 3730
流体 3730
计量 3730
php 3729
纪念碑 3729
向前 3728
回顾 3728
所用 3728
ns 3727
助理 3727
壁炉 3727
意愿 3727
故@@ 3727
Cat@@ 3726
itt@@ 3726
民宿 3726
剪辑 3725
向上 3725
购@@ 3725
这会 3725
熔@@ 3724
白俄罗斯 3724
科技@@ 3723
裤子 3723
网球 3722
乡@@ 3720
或收 3719
泽@@ 3719
呵呵 3718
行星 3718
Air 3716
新增 3716
BE@@ 3715
健@@ 3715
马克 3715
访 3714
FC 3713
HTML5 3713
Med@@ 3712
住客 3712
地产 3710
爱沙尼亚 3709
皆 3709
AU@@ 3708
YouTube 3707
拖@@ 3707
述 3707
密切 3706
拉丁美洲 3706
瞬间 3704
Sydney 3703
依赖于 3702
公有 3702
加床 3702
秘鲁 3702
贡献者 3702
ki 3701
ger 3698
PayPal 3697
sch@@ 3697
创始人 3697
近年来 3696
All@@ 3695
app@@ 3695
所在地 3695
误导 3695
Jade 3693
天前 3693
服务供应商 3693
点头 3693
大桥 3692
权益 3692
pre@@ 3691
格式化 3691
人民政府 3689
太多 3689
重组 3689
多项 3688
热量 3688
邮票 3688
代表团 3687
运费 3687
Rec@@ 3686
上方 3686
乳 3686
粒子 3686
default 3683
两者 3683
权威 3683
说出 3683
叫@@ 3682
运动员 3682
磨 3681
性交 3680
雄@@ 3680
Sw@@ 3679
ink@@ 3679
por@@ 3679
刻 3677
座@@ 3676
摩擦 3676
bit 3675
五星级 3675
贾@@ 3674
Tours 3673
人工智能 3673
区分 3673
市场@@ 3672
讯息 3672
带宽 3671
幼@@ 3671
曾@@ 3671
紫@@ 3671
吹 3670
洁@@ 3670
DNA 3668
惊喜 3668
壮观 3667
帮@@ 3667
随机 3665
Show@@ 3663
友@@ 3663
攻@@ 3663
课@@ 3663
灾 3662
绩效 3662
北京@@ 3661
唇 3661
旗下 3661
残疾 3660
遮@@ 3659
HC@@ 3658
人工 3658
故 3656
环节 3656
comp@@ 3655
成品 3654
伏 3652
做爱 3652
纽@@ 3652
缺@@ 3652
节约 3651
MP3 3650
一根 3650
宣告 3650
Citrix 3649
今@@ 3648
大于 3648
sky 3647
巴比伦 3647
死刑 3647
乐意 3646
无疑 3646
VM 3644
解决问题 3644
马达 3644
圣诞 3643
Sa@@ 3642
提议 3642
CS 3641
钱@@ 3641
鲜@@ 3641
Market 3640
土壤 3640
想想 3640
速率 3640
su@@ 3639
伸@@ 3639
无比 3639
300@@ 3638
字面 3637
都市 3637
不见 3636
高档 3636
氧 3634
那儿 3634
Gen@@ 3633
下次 3633
予 3633
1500 3632
主流 3632
共识 3632
滴 3631
防御 3631
DNS 3630
ish 3630
OP@@ 3629
化合物 3629
销售@@ 3629
About 3628
mat@@ 3628
肿瘤 3628
迹象 3628
显 3627
DA 3626
Wh@@ 3626
纺织 3626
脱颖而出 3626
产能 3625
111 3624
RF 3624
牵@@ 3624
过渡 3624
sa 3623
争取 3623
局势 3623
聚合物 3623
进化 3622
国际化 3621
工件 3621
情景 3619
暖@@ 3619
甜@@ 3619
形势 3618
有利 3618
牙 3618
anda 3617
post 3617
岛上 3616
法官 3616
笔@@ 3616
癌 3614
双人 3613
军事@@ 3612
3.1 3611
过于 3610
静 3609
Tweet 3608
议@@ 3608
钻 3608
£ 3607
大腿 3606
Certified 3605
专利权 3605
墨@@ 3605
开支 3605
Tur@@ 3604
ado 3604
肉体 3604
Kong 3601
功@@ 3601
马尔@@ 3600
84@@ 3599
Ber@@ 3599
毁灭 3599
疼 3599
笑容 3599
千万 3598
放到 3598
ull@@ 3596
袭 3596
进出口 3594
Luxury 3593
ures 3593
操 3593
边境 3593
价@@ 3592
GNU 3591
奶 3591
许 3591
Max 3589
含义 3589
赶@@ 3589
EL 3588
业主 3588
旨意 3588
阻碍 3588
Stand 3587
标准@@ 3587
可行 3586
帽 3586
War@@ 3585
其次 3585
米尔 3585
Pe@@ 3583
gt@@ 3583
Ben@@ 3580
elle 3580
闲@@ 3580
无数 3579
阻@@ 3578
降临 3577
高科技 3577
幻想 3576
执@@ 3576
La@@ 3575
好评 3575
诚@@ 3575
供给 3574
筹@@ 3573
ds 3572
垃圾邮件 3570
扫描仪 3569
ei 3568
product@@ 3568
资本主义 3568
萨斯 3567
宣言 3566
online 3565
上海@@ 3565
从中 3565
启@@ 3565
Pi@@ 3564
ba 3563
迎接 3562
宁波 3561
ji 3560
另@@ 3559
本国 3559
版@@ 3559
sm@@ 3558
广告商 3558
沉默 3558
英国@@ 3558
沿 3557
闪@@ 3557
关税 3555
特惠 3555
保时捷 3554
散步 3554
黑客 3553
宏@@ 3552
小镇 3552
副总裁 3551
营造 3551
服@@ 3550
乐队 3549
黎巴嫩 3549
忙碌 3548
详尽 3548
05@@ 3547
96@@ 3547
Day 3547
付@@ 3547
土豆 3547
是@@ 3547
选项卡 3547
修道院 3545
柔软 3545
河流 3545
车间 3545
EC 3544
产品@@ 3544
应力 3544
限 3544
昌 3543
赢 3543
皇帝 3542
凝@@ 3541
触摸 3541
Res@@ 3540
居@@ 3539
ond 3538
写道 3538
滴@@ 3538
离线 3538
news@@ 3537
审 3537
WE@@ 3532
尼泊尔 3532
忍不住 3532
自信 3532
Sub@@ 3531
requested 3531
定价 3530
缴纳 3530
判@@ 3529
尊敬 3529
ali 3528
发达 3528
此刻 3528
单人床 3527
吉隆坡 3527
On@@ 3526
向导 3526
使用权 3524
排序 3524
斯洛文尼亚 3524
晓@@ 3524
广泛应用 3523
哈萨克斯坦 3522
坎@@ 3522
Mer@@ 3521
而定 3521
退休 3519
金融@@ 3519
style 3518
一群 3518
沉 3518
矩阵 3518
频繁 3518
旷野 3517
江苏 3517
系数 3517
匿名 3515
钟@@ 3515
中止 3514
安拉 3514
上下 3513
公司简介 3513
市场营销 3513
365 3511
act 3511
操作员 3511
记载 3510
4000 3509
lin 3509
rig@@ 3509
ux 3509
感动 3509
鸡 3509
棉 3508
童@@ 3508
Deutsch 3507
och@@ 3507
扩散 3507
he 3506
川@@ 3506
捷 3506
Info 3505
季@@ 3505
EP@@ 3504
嵌入 3504
恶化 3504
ul 3502
扔 3502
泡@@ 3502
角落 3501
反射 3500
管辖权 3500
耳朵 3500
议程 3500
所行 3499
核武器 3499
繁@@ 3499
促使 3498
遗@@ 3498
宇 3497
饮品 3497
莱恩 3496
熟 3493
细菌 3493
锦@@ 3492
屏蔽 3491
男士 3491
尊贵 3490
猪 3490
LC 3489
准 3488
涂@@ 3488
CT@@ 3487
翻新 3487
si 3486
迫害 3486
凌@@ 3485
止 3485
ien 3484
信息网 3484
奥运会 3483
序列 3483
股权 3482
布宜诺斯艾利斯 3481
或经 3481
谱 3481
有力 3480
市长 3479
引领 3479
羽@@ 3478
舰 3478
荡 3478
Rom@@ 3477
佩 3477
年份 3477
程序@@ 3477
亮度 3475
姑娘 3475
冠 3474
货车 3474
fr 3473
top 3473
争@@ 3473
洁 3473
确切 3473
征服 3472
des@@ 3471
mon@@ 3471
丰 3471
商誉 3471
市景 3470
重庆 3470
留宿 3469
交货 3468
胆@@ 3468
收获 3467
解析 3467
迹 3467
Oracle 3466
inn@@ 3466
显现 3466
IE 3465
同志 3465
这句 3464
字符串 3463
艺 3463
RAM 3462
纹 3462
谷@@ 3461
Don@@ 3460
勤 3459
只不过 3459
che 3458
敬@@ 3458
website 3457
仪表 3457
开发商 3457
无与伦比 3457
电阻 3457
察 3456
村@@ 3456
ates 3455
倡议 3455
华丽 3454
青 3454
多媒体 3453
迦@@ 3452
尖@@ 3451
潘@@ 3450
牙齿 3450
Est@@ 3449
Ke@@ 3449
国际贸易 3449
一颗 3448
千米 3448
导向 3448
总额 3448
捷@@ 3448
劳动者 3447
扮演 3446
特价 3446
内识 3445
跟@@ 3445
Dec 3444
委员 3444
锡@@ 3444
山东 3443
演 3443
职务 3443
UL@@ 3442
收听 3440
金融服务 3440
苏丹 3439
贴现 3439
发票 3438
子女 3438
狠狠 3438
几十年 3437
Sand@@ 3436
oth@@ 3436
告 3436
当年 3436
为止 3435
斯克 3435
SN74ALS@@ 3433
ins@@ 3433
ito 3433
门锁 3433
house 3432
患 3432
淫@@ 3432
滚筒式 3432
噪声 3431
恰@@ 3431
沙特阿拉伯 3431
理性 3431
算是 3431
结算 3431
耳机 3431
out@@ 3430
洞@@ 3430
策划 3430
use 3429
Xbox 3428
恶劣 3428
熊 3428
适配器 3428
PST 3427
古代 3427
电脑@@ 3427
ock@@ 3426
签@@ 3426
一整天 3425
精力 3425
进而 3425
四周 3424
幽默感 3424
浸@@ 3424
琴 3424
碳@@ 3424
Red 3423
人会 3423
携手 3423
章节 3423
公斤 3421
NS@@ 3420
go 3420
离婚 3420
建筑风格 3418
Lo@@ 3416
哼 3416
束 3416
评语 3416
酷 3416
105 3415
MHz 3415
inc@@ 3415
犹豫 3415
信息技术 3414
几次 3414
传说 3413
浦@@ 3413
注明 3412
运转 3412
HD@@ 3411
new@@ 3411
Pletronics 3409
唱 3407
多样 3406
央行 3406
明智 3406
谈到 3406
1200 3404
mer 3404
tools 3403
会谈 3403
胸部 3403
Gal@@ 3402
错@@ 3402
一带 3400
广大 3400
红帽 3400
译 3400
Du@@ 3398
berg 3398
淡@@ 3398
No.@@ 3397
let@@ 3397
Gi@@ 3396
ris 3396
today 3394
剩余 3393
尔特 3393
Ir@@ 3392
闻名 3392
设@@ 3391
BA 3390
数据恢复 3390
雷斯 3390
Air@@ 3389
code 3389
ess 3389
成都 3389
飞往 3389
ame 3388
粮食 3388
损伤 3387
浓@@ 3387
中世纪 3386
诚实 3386
席 3385
初步 3384
痕 3384
站@@ 3384
日起 3383
隧道 3382
耐用 3381
科学@@ 3379
aka 3378
一本 3378
起源 3378
赛季 3377
ink 3376
优惠券 3376
Nov@@ 3375
圣洁 3375
女王 3373
暂@@ 3373
骗 3371
不变 3370
地圖 3370
枪@@ 3370
HTTP 3369
列入 3369
围墙 3369
宗 3369
工具栏 3369
莱斯 3369
齿 3369
防水 3368
几 3367
校长 3367
工作组 3366
Gro@@ 3365
ern 3365
ord@@ 3364
You 3363
这张 3363
Main 3362
圆形 3362
Antonio 3361
SB@@ 3360
大奖 3360
静态 3360
Porn 3359
清洁用品 3359
瓦克 3359
金融危机 3359
一代 3358
浆 3358
day 3357
64@@ 3356
一大 3356
ation@@ 3355
一股 3355
万人 3355
秀@@ 3355
1980 3354
怒 3354
人为 3353
意志 3353
举报 3351
京@@ 3351
ank@@ 3350
sd@@ 3350
抚摸 3350
纯粹 3350
稀@@ 3349
domain 3347
贴心 3347
2020 3346
HT@@ 3346
WIPO 3346
厄@@ 3346
洛斯 3346
会见 3345
院@@ 3345
代客 3344
器@@ 3344
貌 3344
弯曲 3343
强劲 3342
aut@@ 3341
微型 3340
索引 3340
里亚 3340
威尔 3337
瓦伦西亚 3337
缘 3337
处罚 3336
试验机 3336
红十字国际委员会 3335
震@@ 3335
南京 3334
平方英尺 3334
硬度 3333
Far@@ 3331
背包客 3331
蛇 3330
FS@@ 3329
对外 3329
导游 3329
脑袋 3329
ays 3328
自豪 3328
斯洛伐克 3327
茨@@ 3327
厉害 3326
擦 3326
烈 3326
Sea 3325
发展@@ 3325
Hand@@ 3324
洲 3324
gi@@ 3323
井@@ 3323
大连 3323
这间 3323
慈善 3322
鞋@@ 3322
cor@@ 3321
男女 3321
弃 3320
日元 3320
更高 3319
负荷 3319
纠纷 3318
阿塞拜疆 3318
名叫 3317
Dar@@ 3316
ines 3316
子民 3316
滥用 3315
一对 3314
误@@ 3314
伙伴关系 3313
妻 3313
属@@ 3313
福德 3313
Cast@@ 3311
券 3311
form@@ 3310
势@@ 3310
扫@@ 3310
制动 3309
逐@@ 3309
限@@ 3309
ock 3308
怪@@ 3308
指着 3307
见解 3307
ech@@ 3306
乔治 3305
夜晚 3304
炼@@ 3303
ert 3302
押 3299
这事 3299
鼻@@ 3299
Ak@@ 3298
季度 3298
资@@ 3298
163 3297
呈 3297
3.3 3296
Sim@@ 3296
判决 3296
审@@ 3296
末@@ 3296
相连 3295
Key@@ 3294
osh@@ 3294
手上 3294
member 3293
叹 3293
增 3293
Power 3292
Sur@@ 3292
漫@@ 3292
陶@@ 3292
弟弟 3291
Vol@@ 3290
妮 3290
案@@ 3290
Bangkok 3289
采取任何 3289
阴道 3289
可怜 3288
四十@@ 3288
MP 3287
考察 3287
Unicode 3286
超声波 3286
500@@ 3285
Du 3285
款项 3285
乐于助人 3284
南海 3284
缩@@ 3284
网络服务 3284
CF@@ 3283
交叉 3283
确@@ 3283
脉冲 3283
David 3282
减肥 3282
design 3281
摇 3281
翼 3281
呆@@ 3280
崇拜 3280
芬@@ 3280
化学@@ 3279
可持续性 3279
在家 3279
To 3278
悬@@ 3277
温室 3277
处理@@ 3276
过时 3276
1988 3274
新一代 3273
一方面 3272
摩 3272
私隐 3272
诉 3272
变动 3271
该软件 3271
四星级 3269
奖学金 3269
找@@ 3269
Wi@@ 3268
能源@@ 3268
Berlin 3267
阿联酋 3267
准@@ 3266
建成 3266
押金 3266
LV@@ 3265
eh@@ 3265
rid@@ 3265
科尔 3265
自助式 3265
欢乐 3263
Cont@@ 3262
SU@@ 3262
荣@@ 3262
选取 3262
air@@ 3261
右侧 3261
圣彼得堡 3261
ection 3260
ô 3259
耐心 3259
邮政 3259
哥斯达黎加 3258
扑克 3258
波尔图 3258
佛教徒 3257
呻吟 3257
大自然 3257
销售额 3257
起诉 3256
慢@@ 3255
ipp@@ 3254
ition 3254
差不多 3253
捐赠 3253
门户 3252
阿尔及利亚 3252
紧急情况 3251
韩 3251
后裔 3250
坦 3250
2.8 3249
400@@ 3249
Post 3249
ire 3249
ly@@ 3249
同行 3249
路由器 3249
over 3248
仓储 3248
牌@@ 3248
side 3247
护士 3247
攻击者 3247
硅 3247
xvideos 3246
哀@@ 3246
奖@@ 3246
小子 3245
生态系统 3244
Hall 3243
他会 3243
冬天 3243
吕@@ 3243
批发商 3243
考验 3243
书报摊 3242
人人 3241
议定书 3240
鬼@@ 3240
发邮件 3239
放大器 3239
有效期 3238
高中 3238
Court 3237
中部 3237
拖拉机 3237
每人 3237
inter@@ 3236
合伙人 3236
钟 3236
颗 3235
ney 3233
净化 3233
平时 3233
抢@@ 3233
Website 3231
遗憾 3231
Dev@@ 3230
射击 3230
公交车 3229
评审 3229
RFID 3228
ko 3228
树木 3228
泛@@ 3228
缝 3228
课题 3228
锅 3227
略@@ 3226
SL@@ 3225
涅@@ 3225
盐@@ 3225
Prot@@ 3224
此后 3224
ERP 3223
这点 3223
靠@@ 3222
右边 3221
射精 3221
打发 3221
烧 3221
战役 3220
篇文章 3220
这才 3220
外交部 3219
怀 3218
架@@ 3218
Camping 3217
XML 3217
一致性 3217
研究@@ 3217
离子 3217
天主教 3216
挣扎 3216
清真寺 3216
第五@@ 3216
ED@@ 3215
BL@@ 3214
Kn@@ 3214
ort 3214
沿@@ 3214
撞 3213
洪@@ 3213
淡 3213
豆@@ 3213
胃@@ 3212
bi@@ 3211
截@@ 3211
浪 3211
谈话 3211
反正 3210
外币 3210
把手 3210
叫做 3209
Ha@@ 3208
为期 3208
基础架构 3208
孟买 3208
无力 3208
ml 3207
处在 3207
BA@@ 3206
AK@@ 3205
ICP 3205
光明 3205
很长 3205
IDE 3204
丘@@ 3204
Sem@@ 3203
Tableau 3203
fe@@ 3203
插座 3203
星期一 3203
肚子 3203
起居室 3201
丶 3200
氧化 3199
钻@@ 3199
农 3198
临 3197
锡 3197
分校 3196
艾 3196
蒙特@@ 3196
险 3196
不让 3195
It 3194
年来 3194
DB 3193
Instant 3193
甚@@ 3192
白天 3192
继@@ 3192
见面 3191
ante 3190
illa 3190
霜 3190
小孩 3189
置于 3189
腔 3189
other 3188
宽带 3188
600@@ 3187
好莱坞 3187
说服 3187
添加剂 3186
快照 3185
灰色 3185
二月 3184
废@@ 3184
座椅 3184
最长 3184
庆 3182
旁@@ 3182
构造 3182
举措 3181
精心 3181
time 3180
建筑@@ 3180
Kl@@ 3179
the@@ 3179
两天 3179
个别 3179
违约 3179
67@@ 3178
缺点 3178
洗衣房 3177
ote 3176
奇妙 3176
猎@@ 3175
Sar@@ 3174
法老 3174
马卡娜 3174
一副 3173
丢 3173
玉 3173
疲劳 3173
深深 3172
菌 3172
link 3171
ska 3171
销@@ 3171
RE4 3170
伯爵 3170
开发@@ 3170
Bridge 3169
ight@@ 3169
店@@ 3169
新建 3169
晚@@ 3169
极限 3169
董事长 3169
妳 3168
ine@@ 3167
服务中心 3167
College 3166
Dan@@ 3165
功能@@ 3165
职业生涯 3165
原创 3164
erry 3163
野 3163
Domain 3162
ith@@ 3162
个性 3162
蒙特 3162
MI 3161
硅@@ 3161
勇气 3160
唯@@ 3160
指挥 3160
ack@@ 3159
适用性 3159
观测 3158
声誉 3157
敬 3157
星期六 3157
走廊 3157
客栈 3156
音乐@@ 3156
第@@ 3155
Pa@@ 3154
ze 3154
家庭@@ 3154
PER@@ 3153
数据处理 3153
节奏 3153
项目管理 3153
Box 3152
著作权 3152
过敏 3152
喀@@ 3149
玛利亚 3149
忽视 3147
疯 3147
送花 3147
3.2 3146
Sec@@ 3146
日语 3146
浪@@ 3146
佐@@ 3145
奉献 3145
浦 3145
第六@@ 3145
iano 3144
脖子 3144
109 3143
啥 3143
抱@@ 3143
Realty 3142
仓 3141
关键字 3140
动机 3140
厦门 3140
奈 3139
OR 3138
脑 3138
再生能源 3137
宣称 3137
致电 3137
VO@@ 3136
赞美 3136
mi 3135
体重 3135
少女 3135
行驶 3135
金融机构 3135
徐@@ 3133
壮丽 3132
大气 3132
行走 3132
补贴 3132
后悔 3131
象@@ 3131
镜子 3131
Fil@@ 3130
公义 3130
嫩 3130
快要 3130
最大化 3129
某一 3129
Mad@@ 3128
布尔 3128
殖民地 3128
潜@@ 3128
if 3127
支派 3127
第一位 3127
裂 3127
一所 3126
栖息地 3125
武装 3125
手淫 3122
CB@@ 3121
公认 3121
娶 3121
级@@ 3121
骄傲 3121
英镑 3120
管制 3119
Sm@@ 3116
变形 3116
塞维利亚 3116
拼@@ 3116
郡 3116
Error 3115
Sil@@ 3115
祈求 3115
企业@@ 3114
瓜@@ 3114
uck@@ 3113
操作@@ 3113
正确性 3113
身后 3113
巩固 3111
笑@@ 3111
Information 3110
雇佣 3110
快感 3109
毁 3109
鸡蛋 3109
126 3108
扬@@ 3108
MAR@@ 3107
中文版 3107
乳头 3107
亚伦 3107
广告@@ 3107
新约 3107
映射 3106
ild@@ 3105
光伏 3105
fa 3104
gen@@ 3104
剂量 3104
消灭 3104
顶尖 3104
IK@@ 3103
Log@@ 3103
东盟 3103
意大利语 3103
缩 3103
武 3102
注释 3101
eth@@ 3100
不可思议 3100
斯坦 3100
受理 3099
春天 3099
玛丽 3099
cm 3097
清迈 3097
肩膀 3097
里昂 3097
北方 3096
敌 3096
大学@@ 3095
放开 3095
book 3094
丝袜 3094
我来 3093
研究员 3093
耐 3092
acc@@ 3091
腾@@ 3090
避@@ 3089
High 3088
CON@@ 3087
配送 3087
务@@ 3086
家园 3086
慢性 3086
美联储 3086
阴影 3086
不然 3085
变为 3085
ota 3084
失业 3083
裔 3083
49@@ 3082
多元化 3082
ams 3081
迫使 3081
ique 3080
生活@@ 3080
火山 3079
BB@@ 3078
ME 3078
医疗保健 3078
大多 3078
sub@@ 3077
火焰 3077
统@@ 3077
ABCDE 3076
视野 3076
iao 3075
产品描述 3075
Dor@@ 3074
Mall 3074
奴隶 3074
绿 3074
岛@@ 3073
砂 3073
莉@@ 3073
项@@ 3073
FGHIJ 3072
反复 3072
服从 3072
糖@@ 3072
前所未有 3071
喂 3071
民主党 3071
硬币 3071
左边 3070
感应 3070
制裁 3069
约会 3069
声音文件 3068
21st 3067
堆 3066
等到 3065
hu 3064
ria 3064
新年 3064
之所以 3063
拔 3063
档 3063
赞@@ 3062
基座 3061
aul@@ 3060
器官 3060
多种多样 3060
揭示 3060
果然 3060
福特 3060
一下子 3059
过境 3059
Luc@@ 3058
第三个 3058
编 3058
Ben 3057
eta 3057
分割 3056
帘 3056
祭@@ 3056
均@@ 3055
ML 3054
oli 3053
生意 3053
调出 3053
Hor@@ 3052
排列 3052
Brokerage 3051
ker 3051
存储空间 3051
床间 3050
短暂 3050
EV@@ 3049
固体 3049
遇见 3049
水中 3048
红外 3048
疏@@ 3047
8.2 3046
不好意思 3046
篮球 3045
精神@@ 3045
聚焦 3045
220 3044
桥@@ 3044
Rel@@ 3043
在世界上 3043
虽 3043
魔 3043
冲浪 3042
几种 3042
破产 3042
不妨 3041
助手 3041
此前 3041
职能 3041
鉴定 3041
2.7 3040
reg@@ 3040
埋@@ 3040
奶酪 3040
burg 3039
争论 3039
稿 3039
邦@@ 3039
Time 3038
有益 3038
济@@ 3038
EA 3037
星球 3037
特权 3037
刻@@ 3036
og 3035
工坊 3035
利马 3033
卸载 3033
Calle 3032
地带 3032
欣 3031
透明度 3031
06@@ 3030
东南亚 3030
无须 3030
back 3029
rol@@ 3029
普京 3029
像@@ 3028
壮@@ 3028
籍 3028
Marina 3027
更正 3027
十二@@ 3026
56@@ 3025
work 3024
残疾人 3024
多人 3023
控制台 3023
企 3022
导师 3022
旋@@ 3022
波特 3022
稍后 3022
8.0 3021
DB@@ 3021
viewspace 3021
愿@@ 3020
首相 3020
2SC@@ 3019
制冷 3019
拣选 3019
te@@ 3018
六个 3018
卓@@ 3018
截至 3018
敬畏 3018
羊@@ 3018
通风 3018
Atmel 3017
孤@@ 3016
拘留 3016
施行 3015
未知 3015
手臂 3014
白皮书 3014
冰岛 3013
日常生活 3012
长老 3012
青睐 3012
king 3011
TP@@ 3010
搬运 3010
畅@@ 3010
波罗 3009
爽 3009
Corp 3008
75.0 3007
Systems 3007
议员 3007
赤字 3007
无关 3006
胸@@ 3006
240 3005
向下 3005
搅拌 3005
怜悯 3004
诱惑 3004
Francisco 3003
MC 3003
尽力 3003
海水 3003
肠 3003
Of 3002
Rev@@ 3002
三条 3002
口中 3002
播@@ 3002
桑 3002
123 3001
不信 3001
全都 3001
矢量 3001
SN@@ 3000
咨询服务 3000
bar@@ 2999
害@@ 2999
2.6 2998
制备 2998
欺骗 2998
爬@@ 2998
4.5 2997
IM 2997
ots 2997
ress 2997
把@@ 2997
解除 2997
ox@@ 2996
晶 2996
英语@@ 2996
链@@ 2996
ene 2995
阶级 2995
复杂性 2994
威廉 2994
450 2993
上涨 2993
重置 2993
James 2992
LS@@ 2992
Tower 2992
安息日 2992
一级 2991
cont@@ 2990
云端 2990
企图 2990
塑料@@ 2990
拿出 2990
整 2990
腰@@ 2990
起居 2990
原文 2989
拉尔 2989
饲料 2989
No@@ 2988
Sweet@@ 2988
工作者 2988
招 2988
相互@@ 2988
email 2987
信托 2987
字体 2987
热闹 2987
13.@@ 2986
Lab@@ 2986
业内 2986
Del 2985
Vishay 2985
各大 2984
香港@@ 2984
那位 2983
那边 2983
Port@@ 2982
量身 2982
阿拉@@ 2982
难题 2982
雄 2982
听从 2980
质疑 2980
Win32 2979
园林 2979
邻近 2979
醉 2979
OPC 2978
ally 2978
婚 2978
软件@@ 2978
val@@ 2977
喜乐 2977
润 2977
〕 2976
诽谤 2975
勤@@ 2974
泥@@ 2974
Visit 2972
满意度 2972
迟@@ 2972
借着 2971
辛 2971
酶 2971
Photos 2970
包装机 2970
独奏 2970
我必 2969
水晶 2969
伟@@ 2968
日本@@ 2968
天花板 2967
彩票 2967
不利 2966
每位 2966
失 2965
组和 2965
身份验证 2965
〔 2964
回头 2964
设在 2964
Not 2963
世界遗产 2963
产品组合 2963
优 2963
ling 2962
一章 2962
精准 2962
天内 2961
微信 2961
迪士尼 2961
偶尔 2960
继电器 2960
出错 2959
荣 2959
Components 2958
庄 2958
际 2958
繁华 2957
信贷 2956
冬@@ 2956
ft@@ 2955
DR 2954
伯格 2954
册 2954
圣母 2954
漆 2954
germany 2953
Products 2952
bur@@ 2952
激发 2952
uid 2951
探头 2951
ika 2950
建筑师 2950
技术人员 2950
自动@@ 2950
触发 2950
通胀 2950
Az@@ 2949
口袋 2949
盟 2949
Mark 2947
gn@@ 2947
宫@@ 2947
指控 2947
web@@ 2946
一口 2946
加盟 2946
缘故 2946
赦免 2946
厂@@ 2945
毫无疑问 2945
佛罗里达州 2943
充满活力 2943
切削 2943
大国 2943
山上 2943
服务公司 2943
应付 2941
Peace 2940
不如 2940
乙@@ 2940
损 2940
深处 2940
丧失 2939
亲密 2939
克朗 2939
Nu@@ 2938
PRO@@ 2938
VA 2938
ox 2938
aff@@ 2937
仇敌 2937
检 2937
ct@@ 2936
关上 2936
忍受 2936
编译 2936
再生 2935
吸 2935
拥@@ 2935
海鲜 2935
Ven@@ 2934
售后服务 2934
英文翻译 2934
资源@@ 2934
SUSE 2933
猛@@ 2933
试用 2933
有个 2932
170 2931
批发 2931
支持者 2931
柴油 2931
流动性 2930
菜@@ 2930
VIP 2929
zh 2929
照着 2929
KM 2928
PLC 2928
Dictionary 2927
并于 2927
洗澡 2927
灌@@ 2927
膏 2927
充电器 2926
温度传感器 2926
识 2926
LCD 2925
播 2925
一番 2924
交易@@ 2924
修理 2924
卫生@@ 2924
城区 2922
市镇 2921
送货 2921
返@@ 2920
一辆车 2919
赖@@ 2918
DG@@ 2917
口气 2917
应用领域 2917
放大 2917
Aqu@@ 2916
料理 2916
西藏 2915
Power@@ 2914
伸出 2914
我爱你 2913
献@@ 2913
ED 2912
Siliconix 2912
石油@@ 2912
重新@@ 2912
14.@@ 2911
分歧 2911
诫命 2911
ute 2910
泉 2910
皇后 2910
直流 2910
编制 2910
轻易 2910
抵押 2909
改为 2909
渔@@ 2909
车库 2909
LS 2908
下跌 2908
出差 2908
CEO 2907
屋@@ 2907
拨打 2907
测定 2907
难以@@ 2907
Dubai 2906
sol@@ 2906
多样化 2906
娱乐场 2905
效@@ 2905
关键词 2904
扫 2904
操@@ 2904
外出 2903
支架 2903
恐怖主义 2902
氧气 2902
眼镜 2902
练 2902
贫穷 2902
White 2901
代尔 2901
崛起 2901
汽@@ 2901
车票 2901
1970 2900
仅为 2900
add@@ 2898
概况 2898
随意 2898
Daten 2897
十一月 2897
祖@@ 2897
等离子 2897
麦克风 2897
递@@ 2896
Cro@@ 2895
私有 2895
首个 2895
log@@ 2894
描绘 2894
双眼 2893
抵@@ 2893
秋@@ 2893
辉 2893
AF@@ 2892
PCB 2892
ure@@ 2891
山谷 2891
线程 2891
罗媚 2891
奶@@ 2890
电台 2890
家居 2889
那不勒斯 2889
黑山 2889
劳动@@ 2887
之际 2885
圣殿 2885
学士学位 2885
ru@@ 2884
无意 2884
据@@ 2883
摄影师 2883
热线 2883
Tro@@ 2881
ille 2881
字典 2881
GL@@ 2880
一切都是 2879
主办 2879
显微镜 2879
盈@@ 2879
辉煌 2879
众议院 2877
met@@ 2876
omb@@ 2876
汗 2876
Packard 2875
传动 2875
医疗器械 2875
数字@@ 2875
yt@@ 2874
不必要 2874
务必 2874
逆@@ 2874
交谈 2873
生于 2873
出版物 2872
营地 2872
诊所 2872
词@@ 2872
ose 2871
伴 2871
基准 2871
活性 2871
性格 2870
8.4 2869
RS 2869
炉@@ 2869
网络安全 2869
联赛 2869
鼠 2869
awa 2868
0x@@ 2867
功能强大 2867
突尼斯 2867
Management 2866
不负 2866
封闭 2866
焊@@ 2866
答复 2866
char@@ 2865
传达 2865
砂@@ 2865
Guesthouse 2864
续@@ 2864
郎 2864
巴斯 2863
时机 2863
Firefox 2862
bar 2862
传染 2862
斜@@ 2862
沃尔@@ 2862
California 2861
Gallery 2861
ias 2861
失踪 2861
相等 2861
租金 2861
联合会 2860
阁 2860
una 2859
卫 2859
搭 2859
不应 2858
很赞 2858
扩@@ 2858
SSL 2857
SW@@ 2857
亚当 2857
抽 2857
正当 2857
浴池 2857
自由软件 2857
败 2857
Maria 2856
ear@@ 2856
uk 2856
关键@@ 2856
通话 2856
场@@ 2855
壁@@ 2855
岗位 2855
弥@@ 2855
房车 2855
昏@@ 2855
研究生 2855
备件 2854
IV 2853
固@@ 2853
桌上 2853
宗@@ 2852
尖 2852
恋 2852
魂 2852
video 2851
跑@@ 2851
主管部门 2850
人间 2850
戛纳 2850
北京市 2849
Hewlett 2848
差别 2848
很小 2848
128 2847
Art@@ 2847
BC@@ 2847
大胆 2847
苦难 2847
课堂 2847
锐@@ 2847
Super 2846
oto 2846
win 2846
可惜 2846
端子 2846
尿@@ 2845
砖 2845
Default 2844
Public 2844
Star@@ 2844
某人 2844
沟 2844
110@@ 2843
一脸 2843
现今 2843
裁@@ 2843
Ann@@ 2842
GO 2842
well 2842
救援 2842
芯 2842
荒@@ 2842
Nice 2841
anj@@ 2841
cr@@ 2841
公共汽车 2841
恰当 2841
请勿 2841
黑人 2841
多名 2840
智 2840
起初 2840
Centro 2839
难以置信 2839
异 2838
看上去 2838
艺术@@ 2838
ual 2837
UL 2836
布拉@@ 2836
ign@@ 2835
uck 2835
系@@ 2835
雾 2835
一次性 2834
板块 2834
发动 2833
头脑 2833
抹 2833
波多黎各 2832
电力@@ 2832
硬质合金 2832
Girl 2831
iana 2830
主导 2830
单人间 2830
ark 2827
han 2827
ington 2827
慕@@ 2827
社@@ 2827
世界杯 2826
特区 2826
国籍 2825
工程@@ 2825
顾 2825
漫步 2824
炼 2824
箱@@ 2824
ete 2823
铸造 2823
ean 2822
ius 2822
反抗 2822
气息 2822
shipping 2821
四年 2821
解放 2821
Riv@@ 2820
公共交通 2820
录@@ 2820
悔改 2820
笔记本 2820
饰 2820
ott@@ 2819
中期 2819
加剧 2819
好友 2819
延 2819
语气 2819
领取 2819
尼克 2818
非凡 2818
好奇 2817
宜@@ 2817
出行 2816
ader 2815
保守 2815
收拾 2815
94@@ 2814
SY@@ 2814
激素 2814
视窗 2814
Cur@@ 2813
sales 2813
有意 2813
马丁 2813
唉 2812
夺@@ 2812
服务台 2812
间隔 2812
ning 2811
卖家 2811
卡片 2811
高分辨率 2811
旺 2810
TF@@ 2809
iel@@ 2809
ato 2808
备用 2808
审批 2808
献给 2808
用以 2807
醇 2807
rel@@ 2806
奔 2806
竞@@ 2806
系统管理 2806
Explorer 2805
NC 2805
原有 2805
大哥 2805
提问 2805
数组 2805
此项 2805
纹理 2805
ats 2804
oy 2804
盎司 2804
防火墙 2804
肯尼亚 2802
野生 2802
锯@@ 2802
Leg@@ 2801
奥克兰 2801
屈@@ 2801
签 2800
冰淇淋 2799
到处 2799
浅 2799
Bon@@ 2798
IR 2798
cat@@ 2798
gre@@ 2798
婴儿床 2798
春 2798
特拉维夫 2798
绝缘 2798
罕见 2798
逼 2798
Precision 2797
的@@ 2797
昂 2796
平民 2795
房门 2795
得知 2794
波斯 2794
经济型 2794
光盘 2793
加大 2793
硕士 2793
50727.5420 2792
傻 2791
咬 2791
获奖 2791
钢铁 2791
Unit 2790
ston 2790
依旧 2790
合伙 2790
并购 2790
上班 2789
汤 2789
老虎机 2789
赠@@ 2789
酒店设施 2789
闹 2789
ae 2788
征 2788
常驻 2787
赎罪 2787
竞选 2786
Edge 2785
七个 2785
坚@@ 2785
运送 2785
contact 2784
宜必思 2784
DI 2783
ism 2783
四季 2783
山区 2783
稳@@ 2783
辊 2783
Jun@@ 2782
古典 2782
四条 2782
尼亚@@ 2781
按着 2781
鸽 2781
坦克 2780
峡谷 2780
zi 2779
一日 2779
國 2778
扶@@ 2778
词汇 2778
HS 2777
十个 2777
捕捉 2777
Games 2776
ice@@ 2776
宾至如归 2776
汽油 2776
biz 2775
girl 2775
共和党 2775
表单 2775
ION 2774
得益于 2774
街头 2774
力学 2773
恕 2773
谋@@ 2773
钙 2773
Shar@@ 2772
三月 2772
鑫 2772
传奇 2770
塔林 2770
逊 2770
人气 2769
停机 2769
吓@@ 2769
Vi@@ 2768
会员资料 2768
免除 2768
原型 2768
科学院 2768
裤 2768
奋@@ 2767
旧约 2767
普吉 2767
寺庙 2766
截止 2766
车型 2766
Share 2764
let 2764
任期 2764
削弱 2764
原子 2764
衬@@ 2764
ye 2763
一杯 2763
yn 2762
部落 2762
BI@@ 2761
IX 2761
Mas@@ 2761
ht 2761
汪洋 2761
乐器 2760
信誉 2760
妇 2760
十二月 2759
州@@ 2759
捷克语 2759
宾客 2758
个人身份 2757
洪水 2757
调解 2757
CH 2756
买卖 2756
Jul@@ 2755
丰盛 2755
延续 2755
软件开发 2755
Go@@ 2754
Bor@@ 2753
San@@ 2753
派对 2752
Downtown 2751
yd@@ 2751
君王 2751
权柄 2751
纽约市 2751
辩@@ 2750
坟墓 2748
待遇 2748
缸 2748
艾滋病 2747
MS@@ 2746
特尔 2746
睡着 2745
认同 2745
燔 2744
警 2744
Mar 2743
Nav@@ 2743
Op@@ 2743
不当 2743
境外 2743
少量 2743
Black 2742
狮子 2742
圣徒 2741
烦恼 2741
计算@@ 2741
铺@@ 2741
Phuket 2740
保修 2740
放下 2740
星期五 2740
财务@@ 2740
RSS 2739
摇头 2739
第八@@ 2738
Apache 2737
弯 2737
畔 2737
翻 2737
之处 2736
专利申请 2734
俗 2734
脏 2734
马里 2734
Archives 2733
原谅 2732
露营 2732
ail 2731
夜生活 2731
服务员 2731
Valley 2730
冠@@ 2730
豆 2730
逗留 2730
Services 2729
三角 2729
Ass@@ 2728
户@@ 2728
韦斯特 2728
Bas@@ 2727
News@@ 2727
esh@@ 2727
移植 2725
聊天室 2725
very 2724
抵抗 2724
约翰福音 2724
幻@@ 2723
广州市 2723
偶然 2722
河内 2722
确信 2722
Metro 2721
erg@@ 2721
pe 2721
any 2720
开奖 2720
简历 2720
CAM 2719
cam@@ 2719
墙上 2719
水泥 2719
西安 2719
长大 2719
本土 2718
EP 2717
HLMP 2717
挑@@ 2717
选用 2717
DW@@ 2716
把握 2716
按钮图标 2716
锦标赛 2716
老年人 2715
诚 2715
豪 2715
DI@@ 2714
sidebar 2714
源@@ 2714
醉@@ 2714
1985 2713
Converter 2713
介@@ 2713
内战 2713
ont 2712
律师费 2712
教室 2712
篮 2712
Fu@@ 2711
二人 2710
亮点 2710
局面 2710
润滑 2710
超链接 2710
ett@@ 2709
Ger@@ 2708
几下 2708
初期 2708
yst@@ 2707
不受 2707
入门 2707
数百家 2706
ech 2705
logo 2705
触摸屏 2705
马其顿 2705
传媒 2704
芭堤雅 2704
月亮 2703
滨海 2703
绝大多数 2703
Di 2702
润@@ 2702
马利亚 2702
PVC 2701
open 2701
冻结 2701
法人 2701
街上 2701
― 2700
群集 2700
姐妹 2699
教义 2699
无人 2699
穷人 2699
棉@@ 2698
谴责 2698
下一代 2697
讲师 2697
HPE 2695
kg 2695
习 2695
何处 2694
District 2693
ENT@@ 2693
晕 2693
叔叔 2692
女生 2691
研究院 2691
三天 2690
市民 2690
总和 2689
热带风暴 2689
Agilent 2688
Hel@@ 2688
Rose 2688
展出 2688
继 2688
lis@@ 2687
oon 2687
à 2687
仲裁员 2687
免疫 2687
炮@@ 2687
Family 2686
二世 2686
利息 2686
宏伟 2686
巡@@ 2686
更具 2686
柳@@ 2686
Ste@@ 2685
Wat@@ 2685
娘 2685
机械网 2685
桃@@ 2684
违背 2683
bor@@ 2682
导弹 2682
favicon 2681
ig 2681
桌@@ 2681
9.0 2680
Michael 2680
商家 2680
葡萄园 2680
周五 2679
城里 2679
投资@@ 2679
折磨 2679
湖泊 2679
8.1 2678
Cle@@ 2678
失效 2678
58@@ 2677
Download 2677
utt@@ 2677
旅行社 2677
Melbourne 2676
数据分析 2676
电风扇 2676
Me 2675
ber 2675
写入 2675
哥本哈根 2675
均衡 2675
实质 2675
开玩笑 2675
模糊 2675
言论 2675
244@@ 2674
竞争对手 2674
角色扮演 2674
逃离 2674
金色 2674
概率 2673
经纪人 2673
Mus@@ 2672
我司 2672
最高@@ 2672
直线 2672
SP 2671
数百@@ 2671
看待 2671
硫@@ 2671
1987 2670
发光 2670
两张 2669
碰到 2669
title 2668
合意 2668
汇编 2668
Forex 2667
Hub 2667
五金 2667
诗@@ 2667
逮捕 2667
非正式 2667
key 2666
亡 2666
关节 2666
批 2666
螺栓 2666
后期 2665
国立 2665
局长 2665
产权 2664
取出 2664
疏忽 2664
视频@@ 2664
书记 2663
沙龙 2663
洗礼 2663
76@@ 2662
Micro@@ 2662
电视@@ 2662
邻居 2661
103 2659
od 2659
奥斯陆 2659
荣幸 2659
Next 2658
pe@@ 2657
首领 2657
FOR@@ 2656
ny 2656
Back 2655
Yodot 2655
聊 2655
警方 2655
emp@@ 2653
保险公司 2653
Ang@@ 2652
GS 2652
宾 2652
禁 2652
警报 2652
Vis@@ 2651
家用 2651
新款 2651
航空@@ 2651
临近 2650
商标局 2650
救恩 2650
OK 2649
委会 2649
惨@@ 2649
执法 2649
更快 2649
运输@@ 2649
Edinburgh 2648
SC 2648
新德里 2648
监护人 2648
脂 2648
Fer@@ 2647
一遍 2647
斯塔 2647
量化 2647
mod@@ 2645
回事 2645
数据管理 2645
辞 2645
操纵 2644
益处 2644
ck@@ 2643
争 2643
充分@@ 2643
起重机 2643
闪存 2643
Castle 2642
Mill@@ 2642
part@@ 2642
运动@@ 2641
纽 2640
视角 2640
电话@@ 2639
第一步 2639
功能性 2637
复合材料 2637
庄园 2637
指责 2637
涛 2637
叛@@ 2636
ck 2635
询 2635
ional 2634
保管 2632
反向 2632
法令 2632
劲 2631
瓜 2631
Item 2630
OEM 2630
似@@ 2630
标志性 2630
线上 2630
惜 2629
星期日 2629
田歌 2629
纸张 2629
车轮 2629
抽奖 2628
肌肤 2628
锋 2628
← 2627
古迹 2627
累@@ 2627
言语 2627
Light 2626
Member 2626
存档 2626
德拉 2626
飘@@ 2626
西雅图 2625
海港 2624
窗@@ 2624
缩小 2624
释出 2624
Miami 2623
周一 2623
文献 2622
BR 2621
En 2621
free 2621
审理 2621
改 2621
看不到 2621
For 2620
彼@@ 2620
Federal 2619
jo@@ 2619
勇 2619
ga 2618
甚 2618
莎@@ 2618
变送器 2617
人心 2616
瓶@@ 2616
皇宫 2616
绝不 2616
Hal@@ 2615
Ob@@ 2615
Rem@@ 2615
弱@@ 2615
必将 2615
Motel 2614
可选 2614
屑 2614
底层 2614
肩 2614
Sweet 2613
ous@@ 2612
产业@@ 2612
无线电 2612
245@@ 2611
冷静 2611
趟 2611
Florence 2610
浩@@ 2610
腹@@ 2609
Cab@@ 2608
作战 2608
包围 2608
戏剧 2608
覆@@ 2608
1986 2607
Line 2607
比率 2607
水族箱 2607
盆 2607
cs 2606
仇恨 2606
bro@@ 2605
SF@@ 2604
ush@@ 2604
约旦 2604
ham 2603
可达 2603
扫罗 2603
Sun 2602
ith 2602
碰 2602
user 2601
克莱@@ 2601
大阪 2601
煤@@ 2601
面料 2601
高校 2601
Sn@@ 2600
skaya 2600
stra 2600
卡路里 2600
紫外线 2600
不良 2599
实习 2599
GBP 2598
sex@@ 2598
svg 2598
价格@@ 2598
困境 2598
干涉 2598
形态 2598
目前为止 2598
FL 2597
抽插 2597
曼哈顿 2597
有何 2597
胶囊 2597
进度 2597
HE@@ 2596
con 2596
广阔 2596
情报 2596
果汁 2596
转速 2596
8.8 2595
HK 2595
詹姆斯 2595
酷@@ 2595
缺 2594
FR@@ 2593
商用 2593
堆@@ 2593
遗传 2593
称之为 2592
资产阶级 2592
序@@ 2591
Paul 2590
能耗 2590
设计@@ 2590
get@@ 2589
楚 2589
碰@@ 2589
因本 2588
潮流 2588
疑@@ 2588
Ash@@ 2587
敬拜 2587
票务 2587
ness 2586
格鲁吉亚 2586
约书亚 2586
股市 2586
裂@@ 2586
杀害 2585
环绕 2585
入境 2584
吐 2584
空白 2584
门外 2584
ty@@ 2583
体育馆 2583
只见 2583
色调 2582
Route 2581
勇@@ 2581
许可权 2581
新窗口 2580
竹@@ 2580
起誓 2580
JR 2579
着手 2579
芬 2579
Control 2578
Marriott 2578
仲裁庭 2578
安理会 2578
怎么回事 2578
换句话说 2578
生物学 2578
HA 2577
Net 2577
enh@@ 2577
尼日利亚 2577
年初 2577
所罗门 2577
现代@@ 2577
Korea 2575
上诉 2575
华人 2575
珍贵 2575
同情 2574
报告员 2574
晋@@ 2574
ards 2573
友谊 2573
可为 2573
皇冠 2573
icon 2572
pp@@ 2572
文化遗产 2572
若干 2572
三次 2571
专业@@ 2571
持有人 2571
eon 2570
各位 2570
响起 2570
如欲 2570
宝座 2570
工业@@ 2569
梁 2569
这部 2569
送给 2569
Your 2568
PA@@ 2567
cu@@ 2567
ove 2567
两间 2567
搬@@ 2567
洒 2567
裸体 2567
重新启动 2567
Bay@@ 2566
Girls 2566
pdf 2566
Hills 2565
一趟 2565
不去 2564
仰@@ 2563
接到 2563
Add@@ 2562
一世 2562
害羞 2562
捐@@ 2562
网格 2562
Device 2561
娱乐城 2561
患有 2561
搂 2561
比亚 2561
贵族 2561
Tim@@ 2560
ming 2560
选手 2560
安全措施 2559
盗@@ 2559
cd 2558
廷 2558
拖 2558
源于 2558
紧缩 2558
阴户 2558
107 2557
Asiahotels 2557
口味 2557
核实 2557
狼 2557
皇 2557
Tel@@ 2556
tags 2556
干细胞 2556
精油 2556
赖 2556
非政府 2555
偶像 2554
arr@@ 2553
ree 2553
气动 2553
ida 2552
膨胀 2552
LU@@ 2551
ce@@ 2551
help 2551
一站式 2551
惠 2551
Big 2550
mg 2550
rop@@ 2550
性价比 2550
批量 2550
Fi@@ 2549
Source 2549
信件 2549
注@@ 2549
燃@@ 2549
设法 2549
顿@@ 2549
7.8 2548
PSD 2548
like 2548
令@@ 2547
评为 2547
Basler 2546
作物 2546
剑桥 2546
脆弱 2546
旗 2545
坚决 2544
同等 2543
扭@@ 2543
FA@@ 2542
烤@@ 2542
上限 2540
不确定性 2540
安置 2540
号线 2539
周日 2539
累积 2539
与否 2538
单身 2538
射频 2538
织@@ 2538
缝@@ 2538
亭 2537
保安 2537
108 2536
格尔 2536
植物园 2536
泄露 2536
五十 2535
货币政策 2535
1N@@ 2534
Tuber 2534
波斯尼亚 2534
范畴 2534
太太 2533
当下 2533
机型 2533
起点 2533
伴侣 2532
废物 2532
行政区划 2532
趣 2532
Sav@@ 2531
必不可少 2531
捕鱼 2531
汤@@ 2531
特种 2531
hen 2530
办公@@ 2530
双重 2530
簿 2529
Chan 2528
废除 2528
开采 2528
现已 2528
这时候 2528
附 2528
52@@ 2527
Cube 2527
jadeite 2527
一大@@ 2527
神话 2527
康宁 2525
Exp@@ 2524
丢弃 2524
低成本 2524
描写 2524
香格里拉 2524
Des@@ 2523
Tom@@ 2523
ashx 2523
交通工具 2523
好多 2523
诉@@ 2523
Int@@ 2522
exe 2522
iTunes 2522
后台 2522
固态 2522
寒@@ 2522
自治区 2522
Out@@ 2521
不同于 2521
分解 2521
文稿 2521
沈@@ 2521
erb@@ 2520
头部 2520
氢 2520
注销 2520
oi 2519
pic 2519
毕业生 2519
擦@@ 2518
独有 2518
等候 2518
47@@ 2517
孟@@ 2517
广东省 2517
第五十@@ 2517
岩@@ 2516
植@@ 2516
忍 2515
有所@@ 2515
鸟@@ 2515
MP4 2514
已过期 2514
遵从 2514
随便 2514
随即 2514
4.1 2513
互联 2513
揭露 2513
真诚 2513
一行 2512
劝@@ 2512
君 2512
源自 2512
线圈 2512
资质 2512
Radisson 2511
ila 2511
投影 2511
织物 2511
帐篷 2510
斯顿 2510
Green@@ 2509
RM@@ 2509
利比亚 2509
当初 2509
绝望 2509
赵@@ 2509
GO@@ 2508
mb@@ 2508
共产主义 2508
具体@@ 2508
极具 2508
毒品 2508
高等教育 2508
201 2507
Kal@@ 2507
ps 2507
服用 2507
李 2507
888 2506
Shop 2506
中医 2506
夜总会 2506
模样 2506
注射 2506
游人 2506
爆@@ 2506
解开 2506
5.1 2505
水分 2505
Ari@@ 2504
服饰 2504
淫秽 2504
胰岛素 2504
104 2503
手套 2503
暖 2503
ss 2502
tra 2502
亮@@ 2502
家政 2502
拆@@ 2502
申报 2502
uy@@ 2501
蛋@@ 2501
战士 2500
神经@@ 2500
Detail 2499
状@@ 2499
缓@@ 2499
驾@@ 2499
出发点 2498
留学 2498
第二次世界大战 2498
31@@ 2497
MT@@ 2497
堂@@ 2497
第九@@ 2497
粘贴 2497
Browse 2496
UI 2496
人民@@ 2496
掌 2496
碰撞 2495
圣保罗 2494
外观设计 2494
尘@@ 2494
紫色 2494
4.2 2493
97@@ 2493
Guangzhou 2493
ters 2493
困扰 2493
Premium 2492
件@@ 2492
布什 2492
所属 2492
时所 2492
Ban@@ 2491
确立 2489
106 2488
卡塔尔 2488
哈利 2488
来讲 2488
邮箱地址 2488
comm@@ 2487
ich 2487
respond 2487
¥ 2487
保证金 2486
Veeam 2485
三分之一 2484
右手 2484
Cu@@ 2483
Pop 2483
So 2483
诗歌 2483
1984 2482
AB 2482
Comm@@ 2482
尴尬 2482
扶 2482
生殖器 2482
board 2481
占有 2481
最有 2481
November 2480
两名 2480
二战 2480
最优 2480
航运 2479
鼎@@ 2479
亿元 2478
名人 2478
庆@@ 2478
滚动 2478
off 2477
份额 2477
指针 2476
工序 2475
排放量 2475
诺斯 2475
高尔夫球 2475
Artec 2474
GN@@ 2474
一时 2474
妹 2474
启发 2473
托盘 2473
play 2472
嘅 2472
建材 2472
letter 2471
侵@@ 2471
另行通知 2471
振 2471
Sy@@ 2470
shi 2470
联合国教科文组织 2470
Super@@ 2469
file 2469
her@@ 2469
乌兹别克斯坦 2469
出国 2469
布雷 2469
海边 2469
格兰德 2468
火箭 2468
电影节 2468
偿 2467
Rad@@ 2466
农业@@ 2466
安娜 2466
第五 2466
运输商 2466
ult@@ 2465
司法@@ 2465
小蚂蚁 2465
己 2465
标的 2465
绒 2465
装载 2465
5.0 2464
十大 2464
变压器 2464
阵 2464
oria 2463
68@@ 2462
Orlando 2462
ads 2462
报复 2462
映像 2462
UR 2461
局@@ 2461
帽子 2461
更长 2461
电视台 2461
严肃 2460
亚美尼亚 2460
圆锥 2460
复 2460
市内 2460
电网 2460
表中 2459
铝合金 2459
Alt@@ 2458
仿造 2458
税率 2458
马赛 2458
无法控制 2457
电动工具 2457
萧@@ 2457
ely 2456
丝毫 2456
Christ@@ 2455
timeline 2455
伟 2455
列祖 2455
总之 2455
斯坦@@ 2455
顿时 2455
发现自己 2454
尿 2453
搬 2453
段时间 2453
碧@@ 2453
遇 2453
前后 2452
工作@@ 2452
棒@@ 2452
丢@@ 2451
撤回 2451
眠 2451
应急 2450
还好 2450
light 2449
周边地区 2449
夫妻 2449
感知 2449
十三 2448
应用@@ 2448
photos 2447
报酬 2447
Digital 2446
ony 2446
东亚 2446
剥夺 2446
欺@@ 2445
纪念品 2445
跪 2445
umb@@ 2444
余额 2444
化石 2443
友善 2443
烤 2443
Mic@@ 2442
剪@@ 2442
嘉 2442
委内瑞拉 2442
控制面板 2442
集中@@ 2442
楚@@ 2441
order 2440
oun@@ 2440
扭矩 2440
百年 2440
邪@@ 2440
春季 2439
摆 2438
负面 2438
PP 2437
分布式 2437
备有 2437
杂 2437
艺术品 2437
7.6 2435
meta 2435
低温 2435
售 2435
批@@ 2435
普及 2435
炮 2435
ge@@ 2434
握 2434
肩@@ 2434
NA 2433
河畔 2433
自行决定 2433
非排 2433
SOLIDWORKS 2432
布朗 2432
店铺 2432
off@@ 2431
凉 2431
无可@@ 2431
程@@ 2431
讲究 2431
ati 2430
幽@@ 2430
成年人 2430
指明 2430
混合@@ 2430
行政部门 2430
Gam@@ 2429
明文规定 2429
毕@@ 2429
三大 2428
煮 2428
芭@@ 2428
PET 2427
class 2427
救主 2427
FL@@ 2426
LLC 2426
世间 2426
滑动 2426
Asia 2425
su 2425
ular 2425
力度 2425
men 2424
始@@ 2424
肖@@ 2424
说明书 2423
EX 2422
今 2422
分支机构 2422
探险 2421
科研 2421
面部 2421
光源 2420
来临 2420
润滑油 2420
男朋友 2420
雕塑 2420
42@@ 2419
Post@@ 2419
ois 2419
国度 2419
愉悦 2419
演奏 2419
车载 2419
1EMFTR 2418
昂@@ 2418
深化 2418
遇@@ 2418
Peter 2417
ust 2417
下称 2417
致命 2417
骑@@ 2417
咬@@ 2416
就让 2416
布鲁@@ 2416
秋 2416
采 2416
Tal@@ 2415
一刻 2415
无奈 2415
紧凑型 2415
Dec@@ 2414
Queen 2414
Status 2414
unt@@ 2414
升高 2414
珊 2414
界@@ 2414
微妙 2413
恶意软件 2413
搭@@ 2413
矿业 2413
格里 2412
漫长 2412
蓬@@ 2412
Ast@@ 2411
Bab@@ 2411
Space 2411
shop 2411
商业区 2411
灭绝 2411
转动 2411
院校 2411
Japan 2410
ark@@ 2409
七条 2409
铅 2409
122 2408
好事 2408
订 2408
olog@@ 2407
挺不错 2407
臭@@ 2407
骚扰 2407
健 2406
灭@@ 2406
苏维埃 2406
较为 2406
115 2405
仿@@ 2405
卢 2405
符合@@ 2405
纳税 2405
DIN 2404
Stay 2404
余 2404
俄 2404
抛光 2404
赚取 2404
中将 2403
巧 2403
Mes@@ 2402
tt@@ 2402
伞 2402
去处 2402
赶 2402
浴 2401
潮@@ 2401
JavaScript 2400
Young 2400
59@@ 2399
灰 2399
第六十@@ 2399
羞@@ 2399
麻 2399
瓶装水 2398
iv 2397
天天 2397
精细 2397
1960 2396
210 2396
兆 2396
布里斯班 2396
抛@@ 2396
超快 2396
鸿@@ 2396
艇 2395
阿拉伯语 2395
Dem@@ 2394
闭 2394
吉他 2393
民族@@ 2393
甜 2393
ering 2392
room 2390
一类 2390
搞@@ 2390
翁 2390
酷刑 2390
Th 2389
后代 2389
开门 2389
注意事项 2389
2D 2388
磁 2388
chat 2387
全能 2387
误差 2387
劳力士 2386
用水 2386
Pack 2385
敏 2385
发掘 2384
遵行 2384
客轮 2383
渡口 2383
山景 2382
EF@@ 2381
PE@@ 2381
勾@@ 2381
地段 2381
大城市 2381
盟友 2381
erson 2380
滩 2380
Rio 2379
ative 2379
新奥尔良 2379
LD@@ 2378
Lar@@ 2378
中央银行 2378
而来 2378
决 2377
圣安东尼奥 2377
气旋 2377
难受 2377
伊特 2376
一楼 2375
刀片 2375
另一@@ 2375
车子 2375
一点点 2374
夏威夷 2374
废 2374
数额 2374
极了 2374
粉红色 2374
螺纹 2374
轻微 2374
遗址 2374
铭@@ 2374
不肯 2373
乐观 2373
chinese 2372
仁@@ 2372
Curve 2371
here 2371
ize 2371
受损 2371
抱怨 2371
窝 2371
Pu@@ 2370
创造性 2370
魔法 2370
1000@@ 2369
Software 2369
iu 2369
利士 2369
坊 2369
宽松 2369
王朝 2369
船只 2369
空气质量 2368
罢工 2368
专为 2367
先后 2367
股@@ 2367
脉 2367
育@@ 2366
Comfort 2365
债 2365
利物浦 2365
灾@@ 2365
CMS 2364
HA@@ 2364
Vienna 2364
途 2364
Han@@ 2363
ector 2363
万军 2363
为准 2363
墙@@ 2363
挥@@ 2363
疲惫 2363
捆绑 2362
1982 2361
VE 2361
古兰经 2361
率@@ 2361
从此 2360
关怀 2360
墓 2360
震惊 2360
岂 2359
ICE 2358
人子 2358
悟 2358
才@@ 2358
演变 2358
肏 2358
补 2358
15.@@ 2357
Lat@@ 2357
Logo 2357
Nat@@ 2357
不上 2357
鲍@@ 2357
ald 2356
中午 2356
凤@@ 2356
商业中心 2356
国防 2356
布拉 2356
挖掘 2356
辣 2356
Chicago 2355
Mu@@ 2355
大能 2355
平均@@ 2355
2.9 2354
尽管如此 2354
捍卫 2354
池@@ 2354
Mart@@ 2353
ONE 2353
尊严 2353
巴里 2353
验@@ 2353
Cer@@ 2351
hai 2351
va 2351
交换机 2351
伍@@ 2351
掌控 2351
眼光 2351
Pen@@ 2350
惯例 2350
瞪 2350
转发 2350
Real@@ 2349
财政@@ 2349
Tar@@ 2348
ire@@ 2348
之家 2348
供选择 2348
孕 2348
捷克共和国 2348
格拉 2348
ios 2347
嘿嘿 2347
环境保护 2347
积极@@ 2347
Doc@@ 2346
序 2346
应予 2346
戏@@ 2346
救济 2346
Lor@@ 2345
ency 2345
kh@@ 2345
懂得 2345
艳@@ 2345
雕刻 2345
DV@@ 2344
itz 2344
亲吻 2344
卡塔 2344
塑 2344
收回 2344
谋 2344
局部 2343
16.@@ 2342
CN@@ 2342
Ren@@ 2342
wan 2342
QC 2341
ento 2341
会为 2341
小小的 2341
重生 2341
酯 2340
大奶 2339
污@@ 2339
Access 2338
Ci@@ 2338
迎@@ 2338
侯 2337
注册@@ 2337
eria 2336
ips 2336
奠定 2336
融@@ 2336
轮廓 2336
世界银行 2335
中心地段 2335
混 2334
佩戴 2333
掩@@ 2333
组建 2333
血糖 2333
非洲@@ 2333
包容 2332
忘@@ 2332
巴拿马 2331
幻灯片 2331
新疆 2331
天地 2330
威尔士 2329
沙特 2328
辅@@ 2328
ars 2327
周六 2327
液晶 2327
玉米 2327
电路板 2327
118 2326
Open 2326
Ulitsa 2326
live 2326
外套 2326
心梅 2326
第一天 2326
第三次 2326
超值 2326
Hire 2325
微生物 2325
谎言 2325
塑造 2324
脉@@ 2324
详细资料 2324
5.5 2323
TH 2323
亚太地区 2323
单纯 2323
昨晚 2323
棕榈 2323
老城区 2323
不禁 2322
体会 2322
副作用 2322
征收 2322
终 2322
07@@ 2321
妥协 2321
比尔 2321
游行 2321
址 2320
Sky 2319
年纪 2319
弦 2319
战胜 2319
黎@@ 2319
aki 2318
开头 2318
Exchange 2317
倾斜 2317
刊 2317
沉浸 2317
花园酒店 2317
走上 2317
采矿 2317
Ay@@ 2316
bids 2316
全天候 2316
好不好 2316
律@@ 2316
不便 2315
FT 2314
跨越 2314
雷德 2314
佐 2313
呼 2313
整间 2313
欠 2313
猜 2313
膜@@ 2313
降低成本 2313
btn 2312
斯岛 2312
Details 2311
FerryTO 2311
mini 2311
眼泪 2311
维拉 2311
Fin@@ 2310
ania 2310
适@@ 2310
郭@@ 2310
创世 2309
敏@@ 2309
雕 2309
Son@@ 2308
屋里 2308
探测 2308
抱住 2307
无党派 2307
萨尔瓦多 2307
这使 2307
4.6 2306
点点头 2306
tel 2305
肌@@ 2305
MOV 2304
据为己有 2304
漏 2304
纳米 2304
航站楼 2304
阿布扎比 2304
ISO@@ 2303
折叠 2303
AA 2302
har@@ 2302
搜集 2302
空军 2302
121 2301
elli 2301
伊丽莎白 2301
忠诚 2301
草案 2301
针对性 2301
Cape 2300
GH@@ 2300
GLD 2300
Porto 2300
Silver 2300
德斯 2300
斯科@@ 2300
December 2299
好象 2299
尺 2299
114 2298
FA 2298
cal@@ 2298
ni 2298
体育@@ 2298
只想 2298
希尔 2298
Charles 2297
医 2297
期货 2297
血管 2297
135 2296
优美 2296
恐怕 2296
旋 2296
火灾 2295
绍@@ 2295
Go 2294
Wien 2294
内外 2294
宿@@ 2294
聚餐 2294
LP 2293
ski 2293
停车位 2293
执政 2293
每种 2293
Double 2292
小孩子 2292
本月 2292
纺织品 2292
果子 2291
浑身 2291
Af@@ 2290
Apt 2290
录音 2290
看作 2290
规律 2290
Real 2289
世俗 2289
图形@@ 2289
orn 2288
所在区域 2288
祖先 2288
耗@@ 2288
124@@ 2287
lands 2287
北约 2287
圣诞老人 2287
范 2287
AND 2286
业务@@ 2286
多边 2286
杜布罗夫尼克 2286
氧化@@ 2286
电子科技 2286
Hy@@ 2285
刑 2285
直升机 2285
粒@@ 2285
责令 2285
票@@ 2284
违@@ 2284
Ku@@ 2283
全天 2283
埃塞俄比亚 2283
施加 2283
非营利 2283
脸色 2282
Train 2281
CO2 2280
RG4 2280
Tam@@ 2279
Washington 2279
yk@@ 2279
两大 2279
仅限 2279
处女 2279
德里 2279
纽卡斯尔 2279
马太福音 2279
abl@@ 2278
占用 2278
食用 2278
Wood@@ 2277
埋 2277
西海岸 2277
1900 2276
刘 2276
可供 2276
热爱 2276
ART 2275
Bed@@ 2275
ding 2275
密封@@ 2275
海峡 2275
热点 2275
之类 2274
大号 2274
怪物 2274
里奥 2274
Costa 2273
Land@@ 2273
裙 2273
UPS 2272
针灸 2272
附有 2272
BS 2271
Det@@ 2271
ont@@ 2271
曝光 2271
月球 2271
狂 2271
project 2270
凉@@ 2270
担@@ 2270
Studios 2269
僵尸 2269
集群 2269
OO@@ 2268
亨@@ 2268
学到 2268
晾衣架 2268
载荷 2268
Wil@@ 2267
Xvideos 2267
旅 2267
认 2267
迈 2267
重型 2267
最终用户 2266
机械设备 2266
涌 2266
上周 2265
路由 2265
Writing 2264
法律@@ 2264
觉@@ 2264
低头 2263
大力 2263
康复 2263
斑 2263
樟宜 2263
营养@@ 2263
取得成功 2262
噢 2262
弥补 2262
账 2262
UV 2261
tre@@ 2261
字段 2261
寻常 2261
栋 2261
氢@@ 2261
石材 2261
资深 2261
逸 2261
250@@ 2260
Dong@@ 2260
av 2260
→ 2260
盒子 2260
膳食 2260
衰退 2260
计算器 2260
Ur@@ 2259
发货 2259
商会 2259
愈@@ 2259
拔@@ 2259
提案 2259
提示信息 2259
握住 2259
气味 2259
酱 2259
Ram@@ 2258
海姆 2258
决赛 2257
控股 2257
祭坛 2257
App@@ 2256
Aut@@ 2256
ima 2256
传输@@ 2256
冶金 2256
合法性 2256
器材 2256
揭@@ 2256
未曾 2256
Ta@@ 2255
喷涂 2255
机电 2255
欧洲@@ 2255
August 2254
冷冻 2254
终结 2254
9.2 2253
pH 2253
Des 2252
μ 2251
侠 2251
比喻 2251
漫画 2251
笔记 2251
闻@@ 2251
VM@@ 2250
光滑 2250
刷@@ 2250
帝@@ 2250
彭@@ 2250
承包商 2250
收缩 2250
灌装 2250
这条 2250
骑士 2250
IoT 2249
WA 2249
款式 2249
马尼拉 2248
AND@@ 2247
INE 2247
mp@@ 2247
不远 2247
洞察 2247
释@@ 2247
20EP 2246
GT 2246
Standard 2246
ison 2246
serv@@ 2246
坑 2246
星期二 2246
注定 2246
罪行 2246
Thomas 2245
UC 2245
监督管理 2245
维克 2244
sec@@ 2243
une 2243
孔子 2243
数据传输 2243
格拉纳 2243
清新 2243
牢@@ 2243
city 2242
女孩儿 2242
如云 2242
饥饿 2242
Kor@@ 2241
极高 2241
电磁@@ 2240
免得 2239
始于 2239
拥抱 2239
rue 2238
借 2238
决策者 2238
鼻子 2237
1979 2236
1983 2236
FX 2236
Professional 2236
yc@@ 2235
勃@@ 2235
轰@@ 2235
Bat@@ 2234
Cyprus 2234
Ubuntu 2234
ome 2234
sir 2234
割@@ 2234
察@@ 2234
风力 2234
7.5 2233
Collection 2233
RS@@ 2233
will 2233
氧@@ 2233
澳@@ 2233
饭@@ 2233
Ham@@ 2232
Li 2232
Sel@@ 2232
cap@@ 2232
何 2232
cc@@ 2231
参照 2231
惧怕 2231
美式 2231
贪@@ 2231
java 2230
拿到 2230
疑 2230
神迹 2230
Kam@@ 2229
asp 2229
以内 2229
西北 2229
Golden 2228
Ni@@ 2228
Ter@@ 2228
仅限于 2228
宗教@@ 2228
身份证 2228
Bold 2227
iii 2227
外邦 2227
潮湿 2227
时代广场 2226
网关 2226
虐待 2226
冒 2225
囊 2225
金融市场 2225
写下 2224
函 2224
医治 2224
统称 2224
ji@@ 2223
出手 2223
动荡 2223
喘 2223
机械制造 2223
190 2222
Client 2222
东北 2222
犯@@ 2222
脚步 2222
辈 2222
不可避免 2221
消费@@ 2221
耐磨 2221
Mos@@ 2220
blog 2220
ady 2219
录像 2219
现行 2219
研磨 2219
顺从 2219
马里奥 2219
Gh@@ 2218
会晤 2218
侧面 2218
客观 2218
最少 2218
稍微 2218
Budapest 2217
ENT 2217
冲动 2217
老化 2217
联合@@ 2217
六郎 2216
兴起 2216
博士学位 2216
Bir@@ 2215
折叠床 2215
滚 2215
神情 2215
馆@@ 2215
74AC@@ 2214
Apps 2214
佣金 2214
差遣 2214
恶人 2214
散布 2213
连线 2213
香水 2213
89@@ 2212
Book 2212
School 2212
亚麻 2212
升降机 2212
契约 2212
获益 2212
阵@@ 2212
RA 2211
祝 2211
维奇 2211
赴 2211
Mass@@ 2210
可信 2210
模拟器 2210
淋@@ 2210
320 2209
8.6 2209
ATE 2209
商务旅行 2209
室@@ 2209
车身 2209
重大@@ 2209
高管 2209
出口@@ 2208
消费品 2208
聆听 2208
Area 2207
慈爱 2207
朝着 2207
卸@@ 2206
随之 2206
Bit@@ 2205
Images 2205
az 2205
ew 2205
巴特 2205
强有力 2205
新娘 2205
鸡@@ 2205
140@@ 2204
Designer 2204
沉重 2204
精心设计 2204
Div@@ 2203
George 2203
Los 2203
Mur@@ 2203
Pos@@ 2203
Pri@@ 2203
To@@ 2203
iz 2203
牙科 2203
羔羊 2203
龟头 2203
Loc@@ 2202
NAS 2202
Pay 2202
pol@@ 2202
press 2202
uan@@ 2202
你家 2202
地为 2202
拉美 2202
产品设计 2201
幕@@ 2201
开幕 2201
数控 2201
电子邮箱 2201
112 2200
57@@ 2200
人来 2200
巴尔@@ 2200
经营@@ 2200
首要 2200
Franc@@ 2199
HKD 2199
Read 2199
onic 2199
让@@ 2199
ELE@@ 2198
May@@ 2198
每当 2198
溶@@ 2198
自觉 2198
Great 2197
form 2197
mark 2197
产物 2197
加勒比海 2197
印度@@ 2197
辩护 2197
Martin 2196
刮@@ 2196
台北 2196
火星 2196
进攻 2196
Golf 2195
典范 2195
站立 2195
转过 2195
集装箱 2195
习@@ 2194
公司@@ 2194
古董 2194
柱@@ 2194
炸弹 2194
触 2194
一千@@ 2193
公元前 2193
04@@ 2192
LT@@ 2192
show@@ 2192
喜好 2192
扬声器 2192
电子产品 2192
а 2191
斯科 2191
计数 2191
陌生 2191
更佳 2190
注塑 2190
迫@@ 2190
乎 2189
师父 2189
Deluxe 2188
ron@@ 2188
具@@ 2188
尸体 2188
捐款 2188
款@@ 2188
私 2188
调查@@ 2188
转换成 2188
512 2187
February 2187
Solutions 2187
纷纷 2187
168 2186
女朋友 2186
差点 2186
给定 2186
逾越节 2186
闪 2186
Weiqi 2185
WuZheng 2185
乏 2185
产品目录 2185
微控制器 2185
绳 2185
Dol@@ 2184
ages 2184
ke@@ 2183
心理学 2183
Informatica 2182
MIN@@ 2182
Union 2182
佛罗里达 2182
周到 2182
斯堡 2182
洛克 2182
造型 2182
一笑 2181
达尔 2181
Cent@@ 2180
周岁 2180
婚姻状况 2180
投影机 2180
do@@ 2179
pos@@ 2179
午@@ 2179
强力 2179
油墨 2179
PM@@ 2178
增值 2178
简易 2178
sel@@ 2177
平行 2177
阿尔 2177
亦可 2176
慧 2176
连同 2176
JMP 2175
ula 2175
中小企业 2175
偶@@ 2175
奎@@ 2175
ange 2174
中欧 2174
寿@@ 2174
忙@@ 2174
母语 2174
车上 2174
傻@@ 2173
就此 2173
推行 2173
CAN 2172
GE@@ 2172
rip@@ 2172
и 2172
万物 2172
为首 2172
种种 2172
с 2171
业务流程 2171
墨西哥城 2171
推送 2171
茅斯 2171
迪尔 2171
Series 2170
所得税 2170
650 2169
olo 2169
秋季 2169
召 2168
溶剂 2168
高新技术 2168
高水平 2168
参阅 2167
常人 2167
QQ 2166
一批 2166
各级 2166
阻 2166
Hello 2165
yb@@ 2165
工作站 2165
郊区 2165
DM 2164
Lisbon 2164
orn@@ 2164
圈@@ 2164
爵 2164
Distrito 2163
展望 2163
度假胜地 2163
情人 2163
试试 2163
115@@ 2162
TC1303B 2162
扇 2162
溶液 2162
has 2161
淘@@ 2161
绘 2161
菌@@ 2161
醒来 2161
UK 2160
138 2159
ater 2159
iya 2159
lat@@ 2159
五金@@ 2159
对付 2159
讨@@ 2159
R2 2158
XX 2158
mo 2158
comments 2157
遭 2157
骑马 2157
Bank 2156
堡@@ 2156
帮忙 2156
猛 2156
ren 2155
盈 2155
败@@ 2155
风险管理 2155
IO@@ 2154
医师 2154
德国人 2154
Bang@@ 2153
EE 2153
边疆区 2153
乃 2152
围 2152
日记 2152
横幅 2152
看似 2152
露天 2152
Espa 2151
Login 2151
大选 2151
狼@@ 2151
惊奇 2150
极佳 2150
诊 2150
逃 2150
Bentley 2149
Rou@@ 2149
战场 2149
污水 2149
Statistics 2148
不二 2148
公顷 2148
战略@@ 2148
无论如何 2148
短缺 2148
改正 2147
通票 2147
SDK 2146
下文 2146
尽头 2146
答@@ 2146
饮用水 2146
to@@ 2145
变暖 2145
戒 2145
汇总 2145
爽@@ 2145
牲畜 2145
会计师 2144
分析@@ 2144
视频文件 2144
数十@@ 2143
无权 2143
桑雨晨 2143
79@@ 2142
Flat 2142
Moo 2142
国际标准 2142
拨@@ 2142
比雷埃夫斯 2142
珥 2142
First 2141
发放 2141
味@@ 2141
捏 2141
数百万 2141
治愈 2141
臀部 2141
食品@@ 2141
Jadeite 2140
交互式 2140
参 2140
恶魔 2140
锅炉 2140
下车 2139
230 2138
DN@@ 2138
Front 2138
RT@@ 2138
cher 2138
注册表 2138
RC 2137
以致 2137
是否是 2137
破坏性 2137
IMF 2136
Top@@ 2136
â 2136
双床 2136
地形 2136
按键 2136
箭头 2136
ide@@ 2135
工艺品 2135
绕 2135
帆船 2134
ega 2133
一员 2133
偿@@ 2133
境界 2133
要说 2133
PRO 2132
Paradise 2132
SN74ACT@@ 2132
aw 2132
处置 2132
复活节 2132
我该 2132
梯@@ 2132
派遣 2132
配对 2132
间谍 2132
震动 2132
down 2131
帕尔马 2131
Rot@@ 2130
land@@ 2130
应有 2130
摄@@ 2130
经纪商 2130
阶层 2130
Fac@@ 2129
Mountain 2129
单元格 2129
幸@@ 2129
扭曲 2129
斯塔@@ 2129
音乐厅 2129
Por@@ 2128
扯 2128
插头 2128
罗伯特 2128
Jackie 2127
众所周知 2127
住处 2127
晓得 2127
电影院 2127
马拉 2127
Es@@ 2126
IEC 2126
也门 2126
医学@@ 2126
艘 2126
Amsterdam 2125
Bol@@ 2125
线索 2125
肾@@ 2125
背包 2125
Electronic 2124
商务会议 2124
嘴@@ 2124
斯基 2124
格林 2124
犹 2124
维罗纳 2124
1945 2123
典 2123
宋@@ 2123
挑战性 2123
泛 2123
炸@@ 2123
随时随地 2123
人力 2122
发言人 2122
大学生 2122
存储@@ 2122
根源 2122
焊 2122
航道 2122
shan 2121
不止 2121
客户关系 2121
欧陆 2121
职工 2120
塞尔 2119
混合物 2119
里亚@@ 2119
116 2118
争端 2118
卡尔@@ 2118
外形 2118
安特卫普 2118
旺@@ 2118
毛里求斯 2118
澳 2118
示范 2118
联合国@@ 2118
赌@@ 2118
Convention 2117
珀 2117
秋天 2117
递送 2117
3G 2116
NBA 2116
ß 2116
冈 2116
初级 2116
踏@@ 2116
JO@@ 2115
Jean 2115
条码 2115
蜂@@ 2115
行业标准 2115
降雨量 2115
PI 2114
保护区 2114
项链 2114
Blvd 2113
CNY 2113
Mid@@ 2113
company 2112
修行 2112
考古 2112
鼓 2112
113 2111
pat@@ 2111
搬家 2111
127 2110
1978 2110
Us 2110
垂 2110
富士通 2110
愚蠢 2110
甚么 2110
肺癌 2110
似 2109
兼@@ 2109
揉 2109
段落 2109
清醒 2109
AV 2108
曲面 2108
RAR 2107
ost 2107
哭泣 2107
缓缓 2107
缴 2107
革 2107
革@@ 2107
BU@@ 2106
XX@@ 2106
围栏 2106
多元 2106
完全@@ 2106
焦虑 2106
终极 2106
set 2105
伴@@ 2105
ese 2104
增添 2104
拜访 2104
越是 2104
ode 2103
两条 2103
争战 2103
教学@@ 2103
Found 2102
Smart@@ 2102
Tak@@ 2102
Tools 2102
med@@ 2102
天井 2102
敲@@ 2102
霸@@ 2102
Chang@@ 2101
SV@@ 2101
rib@@ 2101
丸 2101
无产阶级 2101
科伦坡 2101
东莞 2100
操控 2100
Italy 2099
wi@@ 2099
屄 2099
枕头 2099
瓜德罗普岛 2099
虎@@ 2099
Tru@@ 2098
ature 2098
亲人 2098
少年 2098
普拉 2098
肉类 2098
韩华 2098
her 2097
弟 2097
星期四 2097
杰克逊 2097
管理者 2097
院长 2097
8.5 2096
SI 2096
Seoul 2096
封面 2096
挪@@ 2096
欠@@ 2096
约束力 2096
颜料 2096
LAN 2095
主持人 2095
山地 2095
深受 2095
Ess@@ 2094
ating 2094
外交政策 2094
混淆 2094
Dur@@ 2093
ext@@ 2093
fre@@ 2093
合规性 2093
艺@@ 2093
阿利 2093
风机 2093
主角 2092
拘@@ 2092
神学 2092
遥远 2092
Micro 2091
amm@@ 2091
减小 2091
厄瓜多尔 2091
庄@@ 2091
强制性 2091
ina@@ 2090
伏@@ 2090
共同@@ 2090
存储卡 2090
制订 2089
滨@@ 2089
螺旋 2089
AE@@ 2088
梦幻般 2088
Cop@@ 2087
Mot@@ 2087
Welcome 2087
冒@@ 2087
挤 2087
Nik@@ 2086
交往 2086
伯特 2086
前方 2086
昌@@ 2086
十八@@ 2085
持续时间 2085
按住 2085
溪 2085
葛@@ 2085
金沙 2085
gar@@ 2084
抗体 2084
Dom@@ 2083
利亚@@ 2083
半个 2083
集团公司 2083
lev@@ 2082
坎昆 2082
推翻 2082
评 2082
141 2081
巴塞尔 2081
年级 2081
气球 2081
风光 2081
lov@@ 2080
六个月 2080
减速 2079
薇 2079
America 2078
UB@@ 2078
bank 2078
图集 2078
心旷神怡 2078
排行榜 2078
眉@@ 2078
结局 2078
Gu 2077
TT@@ 2077
堕落 2077
探测器 2077
生活状况 2077
纽伦堡 2077
ems 2076
war@@ 2076
卡斯特 2076
杀毒 2076
电影@@ 2076
92@@ 2075
喷泉 2075
开发区 2075
矿物 2075
食谱 2075
September 2074
Som@@ 2074
Sum@@ 2074
擅自 2074
改动 2074
汇集 2074
阳具 2074
han@@ 2073
卑@@ 2073
双人房 2073
右键 2073
希尔顿酒店 2073
武汉 2073
水准 2073
Stat 2072
德克萨斯州 2072
网球场 2072
Two 2071
mer@@ 2071
旅友们 2071
百度 2071
硕士学位 2071
胎 2071
漆@@ 2070
稳 2070
0EMFTR 2069
期刊 2069
游乐场 2069
JW 2068
人道 2068
控件 2068
胳膊 2068
Pay@@ 2067
Times 2067
love 2067
和解 2067
明年 2067
纪@@ 2067
缔约方 2067
陷@@ 2067
etc 2066
心思 2066
成效 2066
时会 2066
机组 2066
河南 2066
热处理 2066
维亚 2066
难度 2066
mann 2065
严苛 2065
中共 2065
人口数量 2065
入学 2065
子宫 2065
平均气温 2065
执行@@ 2065
指纹 2065
电磁阀 2065
自我@@ 2065
County 2064
商网 2064
翔 2064
在此期间 2063
宏 2063
西门子 2063
通货膨胀 2063
KO@@ 2062
大宗 2062
肉身 2062
133 2061
Palm 2061
Work@@ 2061
node 2061
pro 2061
三十 2061
消毒 2061
流氓 2060
Alb@@ 2059
ema 2059
分销商 2059
APP 2058
oni 2058
传道 2058
法文 2058
遗漏 2058
水泵 2057
终身 2057
融 2057
请单击 2057
INE@@ 2056
af 2056
ank 2056
bab@@ 2056
开拓 2056
躲 2056
800@@ 2055
仓@@ 2055
碎@@ 2055
视频格式 2055
B2B 2054
NE 2054
Tokyo 2054
信息安全 2054
固件 2054
弗尔 2054
托马斯 2054
移转 2054
龙舌兰 2054
SR@@ 2053
一栋 2053
全家 2053
凶@@ 2053
南美洲 2053
受众 2053
妮@@ 2053
滋味 2053
MM@@ 2052
Van 2052
ood 2052
不论是 2052
ela 2051
据说 2051
秘@@ 2051
便会 2050
划 2050
夸@@ 2050
形容 2050
情人节 2050
棕色 2050
need 2049
功效 2049
国际货币基金组织 2049
大屠杀 2049
富裕 2049
戒@@ 2049
数学家 2049
ML@@ 2048
一贯 2048
创造力 2048
塞内加尔 2048
太阳@@ 2048
能效 2048
Sab@@ 2047
不起 2047
刊载 2047
跃@@ 2047
Entity 2046
Pass@@ 2046
Private 2046
William 2046
挤压 2046
革新 2046
黏@@ 2046
Gardens 2045
RAID 2045
hua 2045
卢比 2045
增大 2045
烈@@ 2045
用户@@ 2045
九龙 2044
刑事 2044
否定 2044
Pte 2043
农产品 2043
滞@@ 2043
语句 2043
闹@@ 2043
Case 2042
Master 2042
current 2042
嫉妒 2042
棚 2042
磷@@ 2042
PT 2041
工作效率 2041
平稳 2041
盾 2041
VS 2040
information 2040
催化剂 2040
安徽 2040
析 2040
登记@@ 2040
衷 2040
Lee 2039
Thailand 2039
惜媛 2039
日程 2039
显而易见 2039
步入 2039
LD 2038
Long 2038
自慰 2038
贸@@ 2038
软管 2038
万吨 2037
奥林匹克 2037
平原 2037
水域 2037
牙买加 2037
绑定 2037
这类 2037
一手 2036
上下文 2036
接吻 2036
老实 2036
WS 2034
bury 2034
做饭 2034
内能 2034
跳至 2034
cc 2033
newslist 2033
停下来 2033
塑胶 2033
杜 2033
动手 2032
命令行 2032
得分 2032
念@@ 2032
贫@@ 2032
men@@ 2031
步伐 2031
素质 2031
厨师 2030
娅 2030
拉伸 2030
4K 2029
跑步 2029
里尼 2029
Mem@@ 2028
Us@@ 2028
ries 2028
交流@@ 2028
出自 2028
索菲特 2028
IB 2027
内地 2027
坎特 2027
遏制 2027
Angel 2026
Ri@@ 2026
Sen@@ 2026
乃至 2026
奔@@ 2026
宴会 2026
席@@ 2026
忠实 2026
橄榄油 2026
独立@@ 2026
电站 2026
装有 2026
输送机 2026
陷 2026
顶层 2026
代谢 2025
再度 2025
总量 2025
手续费 2025
Travel 2024
好消息 2024
婚介 2024
情侣 2023
敌@@ 2023
法利赛 2023
美观 2023
醋 2023
Syn@@ 2022
应变 2022
7.1 2021
卡罗 2021
海洋@@ 2021
BP 2020
fs 2020
以至于 2020
推开 2020
派生 2020
滚子 2020
瞧 2020
薛诺 2020
赚 2020
ier@@ 2019
sex 2019
商学院 2019
字幕 2019
希伯来 2019
打标机 2019
羽 2019
苯@@ 2019
谷物 2019
Amazon 2018
增值税 2018
柄 2018
胡 2018
Social 2017
不已 2017
世界级 2017
嘴巴 2017
寸 2017
神清气爽 2017
篮子 2017
脚下 2017
书写 2016
发生器 2016
吃惊 2016
庭@@ 2016
彻@@ 2016
被动 2016
颤 2016
Kat@@ 2015
Photo 2015
VE@@ 2015
aven 2015
助力 2015
迎来 2015
1950 2014
Kath@@ 2014
Puerto 2014
水下 2014
沈 2014
渗透 2014
爱人 2014
会面 2013
用人单位 2013
贬值 2013
119 2012
Capital 2012
Visual 2012
ente 2012
冲洗 2012
苛刻 2012
螺杆 2012
鹿 2012
CP 2011
Song 2011
二次 2011
制约 2010
因特网 2010
尼茨 2010
自治 2010
雕像 2010
ware 2009
产品开发 2009
发性 2009
敲 2009
星星 2009
燃气 2009
130@@ 2008
多尔 2008
徽章 2008
本条 2008
Sens@@ 2007
Water 2007
也好 2007
大赛 2007
悲@@ 2007
登上 2007
衬衫 2007
面试 2007
一夜 2006
整洁 2006
暨 2006
沮丧 2006
陆地 2006
二百@@ 2005
帐 2005
盼望 2005
高效率 2005
Ret@@ 2004
aur@@ 2004
两家 2004
估算 2004
无法访问 2004
服务设施 2004
Praha 2003
WTO 2003
同伴 2003
园区 2003
有机@@ 2003
肠@@ 2003
解决办法 2003
CAR@@ 2002
各人 2002
增进 2002
无锡 2002
销毁 2002
鸽@@ 2002
osa 2001
退货 2001
Analytics 2000
Bah@@ 2000
site 2000
掌@@ 2000
磅 2000
简短 2000
进口@@ 2000
Bul@@ 1999
iBooked 1999
修建 1999
催@@ 1999
委@@ 1999
气质 1999
连接@@ 1999
play@@ 1998
Ocean 1997
ort@@ 1997
丽筠 1997
协同 1997
扑@@ 1997
斯塔德 1997
检查@@ 1997
注视 1997
疱疹 1997
频@@ 1997
TT 1996
喝酒 1996
廊 1996
息@@ 1996
鸟类 1996
prolist 1995
七年 1995
列为 1995
培@@ 1995
壮 1995
愣 1995
输 1995
骑术 1995
高地 1995
sk 1994
ë 1994
盲@@ 1994
蜜@@ 1994
迄今为止 1994
Condo 1993
奥尔@@ 1993
电动机 1993
音响 1993
list@@ 1992
产品线 1992
账单 1992
递交 1992
伯明翰 1991
前端 1991
心态 1991
糊@@ 1991
钼 1991
Princ@@ 1990
AcsiWebsite 1989
DER 1989
亚太 1989
服务业 1989
素食 1989
280 1988
530@@ 1988
DT 1988
众生 1988
Chrome 1987
Harbour 1987
head 1987
欧洲央行 1987
沃尔沃 1987
淋浴间 1987
稍@@ 1987
纳斯 1987
闪烁 1987
风情 1987
况 1986
BB 1985
BBC 1985
Den@@ 1985
外界 1985
异议 1985
ful 1984
份@@ 1984
欢喜 1984
结构@@ 1984
羞辱 1984
门窗 1984
1981 1983
6000 1983
人能 1983
可调 1983
帖 1983
淫 1983
Tags 1982
冷战 1982
枚 1982
码@@ 1982
试探 1982
拉开 1981
接纳 1981
新闻稿 1981
法兰 1981
法轮功 1981
白颖明 1981
遥@@ 1981
china 1980
colombia 1980
一键 1980
上学 1980
债权人 1980
八条 1980
徒步 1980
必定 1980
拉特 1980
自杀 1980
乌拉圭 1979
臣 1979
蓝线 1979
当日 1978
结构性 1978
边上 1978
阿里 1978
劳工 1977
坡 1977
浴盆 1977
致使 1977
茂 1977
Temple 1976
选出 1976
饿 1976
Sukhumvit 1975
京 1975
钱包 1975
DL@@ 1974
rob@@ 1974
上线 1974
加纳 1974
硬木 1974
蓝宝石 1974
ood@@ 1973
rist@@ 1973
乐团 1972
剧情 1972
仕 1971
佛山市 1971
廉@@ 1971
跨境 1971
赫尔 1970
Archive 1969
enz@@ 1969
fu@@ 1969
勇敢 1969
总共 1969
Sexy 1968
加利福尼亚 1968
je 1967
微波 1967
生涯 1967
老城 1967
莲 1967
History 1966
Vintage 1966
job 1966
不清 1966
做些 1966
坎 1966
妨碍 1966
敦 1966
渐@@ 1966
苗@@ 1966
1975 1965
4.3 1965
仍@@ 1965
值得注意 1965
看过 1965
软弱 1965
顏@@ 1965
高专 1965
Da 1964
ales 1964
article 1964
多余 1964
妖@@ 1964
跳过 1964
165 1963
召唤 1963
屏@@ 1963
工程学 1963
恩赐 1963
污 1963
漏@@ 1963
良心 1963
香料 1963
Whit@@ 1962
iw@@ 1962
会上 1962
光芒 1962
分析师 1962
占地 1962
合资 1962
烟草 1962
综合性 1962
肥 1962
跨国 1962
银河 1962
NH 1961
ike 1961
低压 1961
口腔 1961
抵制 1961
犯罪@@ 1961
补救措施 1961
der@@ 1960
lor@@ 1960
ath 1959
尤 1959
阁楼 1959
3.4 1958
Core 1958
Sign@@ 1958
ious 1958
平方公里 1958
徒@@ 1958
用地 1958
老挝 1958
饼干 1958
Barcelona 1957
McAfee 1957
卡内基 1957
支柱 1957
画家 1957
自驾车 1957
MD 1956
WH@@ 1956
氯@@ 1956
百分之@@ 1956
CR 1955
举动 1955
挡 1955
锯 1955
IST@@ 1954
克鲁@@ 1954
决定性 1954
肺 1954
金砖 1954
Max@@ 1953
九条 1953
电子设备 1953
胸 1953
里程碑 1953
5.2 1952
一侧 1952
城市@@ 1952
手稿 1952
新能源 1952
水上运动 1952
渡@@ 1952
迁@@ 1952
Victoria 1951
ading 1951
令人兴奋 1951
多重 1951
星系 1951
流通 1951
砖@@ 1951
Louis 1950
Play@@ 1950
dates 1950
media 1950
安息 1950
宿 1950
影院 1950
背叛 1950
薪酬 1950
钢管 1950
Aer@@ 1949
AutoCAD 1949
yr@@ 1949
之道 1949
昆@@ 1949
智力 1949
杖 1949
磋商 1948
Houston 1947
Zone 1947
po 1947
书面通知 1947
修正案 1947
困惑 1947
帝 1947
mag@@ 1946
响@@ 1946
瘤 1946
280@@ 1945
冻 1945
历史@@ 1945
钨@@ 1945
Chiang 1944
凸@@ 1944
切斯特 1944
完毕 1944
悦@@ 1944
核准 1944
皮带 1944
礼貌 1944
领受 1944
mit@@ 1943
不太 1943
停用 1943
方可 1943
易用 1943
ardo 1942
van 1942
亨利 1942
孤独 1942
特许 1942
航空航天 1942
Activity 1941
del@@ 1941
lu@@ 1941
抽出 1941
124 1940
Lis@@ 1940
SPA 1940
heim 1940
iam@@ 1940
oz 1940
sexy 1940
support 1940
发生变化 1940
Resid@@ 1939
ship 1939
境@@ 1939
惹 1939
气温 1939
索取 1939
STPS@@ 1938
YO@@ 1938
org@@ 1938
嘲笑 1938
杠杆 1938
2030 1937
Fran 1937
iso 1937
ized 1937
ltd 1937
勉强 1937
失业率 1937
巢 1937
汇款 1937
里程 1937
bs 1936
dem@@ 1936
det@@ 1936
life 1936
ows 1936
尘 1936
视线 1936
队长 1936
1972 1935
Living 1935
介入 1935
先锋 1935
分成 1935
受过 1935
罐@@ 1935
9.4 1934
Sev@@ 1934
oc 1934
以免 1934
婆 1934
纳税人 1934
绒@@ 1934
Press 1933
力气 1933
责@@ 1933
配偶 1933
aker 1932
文件格式 1932
特有 1932
1968 1931
Mak@@ 1931
务实 1931
变换 1931
抛弃 1931
滨 1931
物理学 1931
EMC 1930
本地化 1930
油漆 1930
诱人 1930
阴谋 1930
ECU 1929
ants 1929
trans@@ 1929
卧@@ 1929
忍@@ 1929
ador 1928
anna 1928
兴业 1928
洗手间 1928
肤色 1928
披@@ 1927
缺失 1927
lex 1926
拳@@ 1926
日前 1926
术@@ 1926
珍珠 1926
良 1926
蒙古 1926
须@@ 1926
骑行 1926
APK 1925
不像 1925
伪@@ 1925
爆 1925
追 1925
Church 1924
Travel@@ 1924
人口@@ 1924
层楼 1924
极度 1924
Wifi 1923
喷射 1923
Bos@@ 1922
below 1922
中国共产党 1922
拟合 1922
煤 1922
Limassol 1921
亞 1921
展厅 1921
板材 1921
毫无@@ 1921
灰尘 1921
长久 1921
mg@@ 1920
ori 1920
同年 1920
存取 1920
没错 1920
糖果 1920
除去 1920
陪同 1920
Def@@ 1919
GPU 1919
Ju@@ 1919
years 1919
全额 1919
十二条 1919
怒@@ 1919
灭亡 1919
表达式 1919
迪斯科 1919
ANG@@ 1918
复选框 1918
9001 1917
At 1917
Tw@@ 1917
使本 1917
匠 1917
1976 1916
Ball@@ 1916
Bet@@ 1916
Ru@@ 1916
cn@@ 1916
esp@@ 1916
一节 1916
公元 1916
埃尔@@ 1916
墨 1916
愚@@ 1916
裙子 1916
豁免 1916
amp 1915
普拉@@ 1915
Aspx 1914
ste@@ 1914
會 1914
為 1914
相关联 1914
显明 1913
榜 1913
职业@@ 1913
IAN@@ 1912
TCP 1912
andy 1912
iss 1912
劝 1912
厨具 1912
扣除 1912
梯 1912
Coat 1911
market 1911
候@@ 1911
商业用途 1911
岁月 1911
顺服 1911
Mult@@ 1910
政治家 1910
镜像 1910
CK@@ 1909
ior 1909
oor 1909
rates 1909
凹@@ 1909
巴士站 1909
微小 1909
推移 1909
此等 1909
电车 1909
King@@ 1908
stone 1908
暹粒 1908
林肯 1908
CM 1907
俱@@ 1907
联邦@@ 1907
莱纳 1907
贬毁 1907
Research 1906
带上 1906
烦@@ 1906
鹏 1906
Fun@@ 1905
Mark@@ 1905
动员 1905
合法权益 1905
备注 1905
布加勒斯特 1905
急忙 1905
李大壮 1905
饰@@ 1905
IF 1904
Tu@@ 1904
place 1904
令人惊叹 1904
染 1904
洲际 1904
羊毛 1904
这片 1904
Brand 1903
root 1903
支配 1903
FI@@ 1901
From 1901
可编程 1901
招呼 1901
柔性 1901
涂 1901
盆@@ 1901
Connect 1900
Paulo 1900
tor 1900
ú 1900
大象 1900
惩罚性 1900
洞穴 1900
肝 1900
陷阱 1900
Sat@@ 1899
ider 1899
例@@ 1899
殿@@ 1899
讨 1899
ACE 1898
Clar@@ 1898
kn@@ 1898
ook 1898
一词 1898
产出 1898
召@@ 1898
潜能 1898
自然资源 1898
OST 1897
悠久 1897
aux 1896
亵渎 1896
分组 1896
狗@@ 1896
秦@@ 1896
Haw@@ 1895
伤心 1895
时装 1895
机密 1895
管理层 1895
02@@ 1894
COR@@ 1894
Nap@@ 1894
乔 1894
交易平台 1894
六条 1894
叶子 1894
大地 1894
好看 1894
羞 1894
过分 1894
锐 1894
Form@@ 1893
Pic@@ 1893
gmail 1893
only 1893
哎呀 1893
拆卸 1893
诱@@ 1893
Chi@@ 1892
GD@@ 1892
ental 1891
ven@@ 1891
位数 1891
女神 1891
抬@@ 1891
美国政府 1891
贼 1891
迈克尔 1891
Bern@@ 1890
损耗 1890
首饰 1890
129 1889
1B 1889
Austin 1889
SG 1889
asse 1889
合一 1889
奥斯@@ 1889
极好 1889
疑惑 1889
芝@@ 1889
费城 1889
银行@@ 1889
Rome 1888
pa 1888
狭窄 1888
群交 1888
落后 1888
Kin@@ 1887
发给 1887
流感 1887
激进 1887
纷@@ 1887
通告 1887
Bad@@ 1886
Rock 1886
een 1886
孟加拉国 1886
尊 1886
普尔 1886
生命科学 1886
立式 1886
绕@@ 1886
背部 1886
重申 1886
Trade 1885
柔和 1885
罚 1885
脂@@ 1885
跟前 1885
6.1 1884
aria 1884
etta 1884
游乐园 1884
贾 1884
免费软件 1883
查尔斯 1883
纽约@@ 1883
驶@@ 1883
高雅 1883
Chap@@ 1882
Food 1882
既@@ 1882
树立 1882
Infobox 1881
邻国 1881
Ransomware 1880
贝斯特 1880
Courtyard 1879
一辈子 1879
商务网 1879
19.@@ 1878
Liv@@ 1878
发觉 1878
城墙 1878
底下 1878
oom 1877
乃@@ 1877
切实 1877
开来 1877
手柄 1877
63@@ 1876
UN 1876
好久 1876
甲板 1876
请问 1876
1973 1875
301 1875
俊@@ 1875
剧场 1875
升降 1875
社团 1875
误解 1875
遍 1875
50727.54@@ 1874
OF@@ 1874
ool@@ 1874
列国 1874
十字 1874
大大@@ 1874
AST 1873
Fox 1873
templates 1873
假定 1873
枢纽 1873
留给 1873
纽约州 1873
虚拟现实 1873
遗迹 1873
kr 1872
ros 1872
伸 1872
兰人 1872
发电机组 1872
客气 1871
床边 1871
身处 1871
转子 1871
震 1871
非常简单 1871
市政厅 1870
服务器@@ 1870
涛哥 1870
生产厂家 1870
痕迹 1870
Dream 1869
Ka@@ 1869
一头 1869
宣讲 1869
激光器 1869
短时间 1869
Theatre 1868
备受 1868
野外 1868
iCloud 1867
大人 1867
转账 1867
逃避 1867
Inf@@ 1866
May 1866
Virtual 1866
bo 1866
宣传册 1866
该省 1866
18.@@ 1865
Piazza 1865
偏见 1865
南斯拉夫 1865
巾 1865
役 1865
插槽 1865
雷达 1865
Angel@@ 1864
Kir@@ 1864
商贸 1864
宣传@@ 1864
容忍 1864
所选 1864
无法@@ 1864
更衣室 1864
澳门国际机场 1864
礼拜 1864
马达加斯加 1864
Coo@@ 1863
Smart 1863
inger 1863
Ø 1863
参议院 1863
新泽西州 1863
泥 1863
祖 1863
都灵 1863
高强度 1863
CBD 1862
NG 1862
Network 1862
category 1862
巴尔 1862
心理@@ 1862
恒星 1862
20.@@ 1861
GT@@ 1861
Title 1861
pl 1861
低利率 1861
涅 1861
渴 1861
物理@@ 1861
莲@@ 1861
750@@ 1860
init@@ 1860
扑 1860
挤出 1860
MAX 1859
bongamodels 1859
前沿 1859
同盟 1859
映@@ 1859
威客 1858
虚拟@@ 1858
诊@@ 1858
5.3 1857
总干事 1857
GP@@ 1856
Mini 1856
外科 1856
来源于 1856
69@@ 1855
国际法 1855
收件人 1855
白人 1855
联接 1855
鸽友 1855
KE@@ 1854
MON@@ 1854
NY@@ 1854
Way 1854
候 1854
及本 1854
州立大学 1854
永久性 1854
缓 1854
能为 1854
霍 1854
Dat@@ 1853
海豚 1853
女友 1852
寒 1852
巴塞罗纳 1852
比索 1852
约翰内斯堡 1852
耕@@ 1852
PO 1851
SuperChan 1851
仍旧 1851
困@@ 1851
苏尔 1851
阵列 1851
EM 1850
Mol@@ 1850
m3 1850
代数 1850
光谱 1850
历程 1850
天父 1850
家属 1850
痴@@ 1850
诚意 1850
辉@@ 1850
键@@ 1850
加那利 1849
嘉宾 1849
甜蜜 1849
盖特 1849
绿茶 1849
不出 1848
十年代 1848
奴 1848
心得 1848
Salesforce 1847
what 1847
操管 1847
楼宇 1847
罢 1847
7.2 1846
Active 1846
Flickr 1846
Samsung 1846
eter 1846
创办 1846
宪章 1846
Location 1845
PRE@@ 1845
SpringHill 1845
虹 1845
饮 1845
Enermar 1844
car 1844
pics 1844
一身 1844
培育 1844
奥秘 1844
政变 1844
3.6 1843
Nippon 1843
Torch 1843
VI 1843
ense 1843
享@@ 1843
忍耐 1843
死去 1843
称重 1843
评选 1843
迦 1843
1949 1842
CI 1842
ICS 1842
Part@@ 1842
cent@@ 1842
ground 1842
oot 1842
ub 1842
病例 1842
裤@@ 1842
辰 1842
钠 1842
Article 1841
they 1841
标注 1841
赏 1841
驱@@ 1841
eda 1840
ver 1840
创新型 1840
引人注目 1840
栅极 1840
燃 1840
Not@@ 1839
best 1839
ible 1839
les@@ 1839
rit@@ 1839
相处 1839
驾驶员 1839
MFM 1838
Opera 1838
又@@ 1838
将近 1838
招生 1838
致力 1838
设想 1838
雾@@ 1838
175 1837
version 1837
艳 1837
Emerald 1836
mem@@ 1836
总会 1836
支票 1836
线缆 1836
西南 1836
Cafe 1835
Cond@@ 1835
FDA 1835
dat@@ 1835
ext 1835
偿还 1835
经纪 1835
赞赏 1835
1969 1834
Key 1834
sh 1834
以南 1834
匹 1834
参赛 1834
双边 1834
土著 1834
安宁 1834
格斯 1834
遥控 1834
1967 1833
Angular 1833
Lim@@ 1833
军人 1833
多语种 1833
奶油 1833
密集 1833
招标 1833
粉丝 1833
鞋子 1833
景象 1832
自有 1832
镇压 1832
高频 1832
ues 1831
邮@@ 1831
DF@@ 1830
Good 1830
Hon@@ 1830
Lib@@ 1830
XL 1830
二十年 1830
倡导 1830
储 1830
图纸 1830
天才 1830
存活 1830
并用 1830
灵敏度 1830
索尼 1830
规章 1830
CMOS 1829
■ 1829
时常 1829
1100 1828
304 1828
mov@@ 1828
极致 1828
这笔 1828
陆军 1828
Cit@@ 1827
See 1827
details 1827
ump 1827
伊斯 1827
例证 1827
尔顿 1827
星期三 1827
背面 1827
那一刻 1827
155 1826
Dun@@ 1826
Europe 1826
la@@ 1826
存储器 1826
宣道 1826
缩写 1826
自治@@ 1826
达拉斯 1826
通讯地址 1826
食品安全 1826
AA@@ 1825
Stadium 1825
Vo@@ 1825
共同体 1825
基亚 1825
定量 1825
庙 1825
碑 1825
英文版 1825
2500 1824
Balearia 1824
一笔 1824
奏@@ 1824
希腊语 1824
插图 1824
犬 1824
Kit@@ 1823
RF@@ 1823
ann 1823
cas@@ 1823
xx@@ 1823
念头 1823
散发 1823
树林 1823
祝贺 1823
Image 1822
一般来说 1822
卢卡斯 1822
开罗 1822
无线@@ 1822
未成年人 1822
浙江省 1822
衫 1822
邻@@ 1822
酸盐 1822
银子 1822
HR 1821
ric@@ 1821
word 1821
泉@@ 1821
虹@@ 1821
A1 1820
不可或缺 1820
刑@@ 1820
快捷酒店 1820
球迷 1820
看不见 1820
镀@@ 1820
PAR@@ 1819
可追溯 1819
寿 1819
湾@@ 1819
生病 1819
NV 1818
历史记录 1818
旅途 1818
演唱会 1818
爱德华 1818
lrhru 1817
工商@@ 1817
拖车 1817
车队 1817
ITE 1816
Pok@@ 1816
net@@ 1816
yf@@ 1816
丹吉尔 1816
舒心 1816
颇 1816
117 1815
Class 1815
Pafos 1815
æ 1815
一幅 1815
借口 1815
口号 1815
An 1814
Exc@@ 1814
Highway 1814
Product@@ 1814
ric 1814
句子 1814
消化 1814
葬 1814
HU@@ 1813
red@@ 1813
亲切 1813
危地马拉 1813
赞助商 1813
label 1812
典@@ 1812
SG@@ 1811
256 1810
Cel@@ 1810
eur 1810
摩尔 1810
教宗 1810
Alere 1809
Cryp@@ 1809
inf@@ 1809
tor@@ 1809
天数 1809
方形 1809
无知 1809
无辜 1809
科威特 1809
管辖区 1809
粮 1809
艺术作品 1809
郑@@ 1809
铁艺门 1809
kar@@ 1808
与会者 1808
便利店 1808
倾听 1808
和平@@ 1808
榜样 1808
沿海 1808
符@@ 1808
BI 1807
大王 1807
奶奶 1807
来回 1807
3.7 1806
Australia 1806
Hz 1806
ever 1806
抚@@ 1806
斯普利特 1806
波长 1806
煤炭 1806
甸 1806
登机 1806
马尔 1806
上市公司 1805
敦促 1805
550 1804
FM 1804
Mexico 1804
aine 1804
ping 1804
摸@@ 1804
方程 1804
获胜 1804
蕾 1804
试验@@ 1804
Circuits 1803
广播电台 1803
校友 1803
ph 1802
喷嘴 1802
国家博物馆 1802
坦桑尼亚 1802
度计 1802
挤@@ 1802
虾 1802
遥控器 1802
mins 1801
ye@@ 1801
任职 1801
国旗 1801
锡安 1801
Lan@@ 1800
枯@@ 1800
blogging 1799
yz@@ 1799
孙 1799
溪@@ 1799
物件 1799
货架 1799
还给 1799
Aw@@ 1798
Desktop 1798
Lav@@ 1798
初学者 1798
情节 1798
第一款 1798
IFS 1797
Lux@@ 1797
欲了解 1797
纱 1797
迅@@ 1797
过多 1797
铸@@ 1797
see 1796
包装@@ 1796
启示录 1796
巴林 1796
汽车行业 1796
灯具 1796
爱心 1796
相互作用 1796
穿梭 1796
美的 1796
胸前 1796
188 1795
tion 1795
台式 1795
网络营销 1795
内阁 1794
发作 1794
捕@@ 1794
月底 1794
纹@@ 1794
首位 1794
oe 1793
source 1793
商品@@ 1793
思科 1793
涉@@ 1793
腺 1793
DJ 1792
Run@@ 1792
mont 1792
六年 1792
最高法院 1792
谈谈 1792
阀@@ 1792
首爾 1792
Shenzhen 1791
chi 1791
性命 1791
悲伤 1791
斑@@ 1791
PCI 1790
罕 1790
舌 1790
远足 1790
Dal@@ 1789
Ext@@ 1789
otel 1789
ret@@ 1789
收割 1789
Avira 1788
MT 1788
October 1788
Pot@@ 1788
asc@@ 1788
学术@@ 1788
徒步旅行 1788
Tab@@ 1787
延误 1787
方便快捷 1787
禁令 1787
Financial 1786
Flow 1786
jo 1786
皮埃尔 1786
费尔@@ 1786
身材 1786
4.4 1785
Gate 1785
Rooms 1785
VER@@ 1785
三人 1785
趴在 1785
身为 1785
205 1784
Debian 1784
Il 1784
纽约时报 1784
讲解 1784
Pop@@ 1783
Showing 1783
sb@@ 1783
明确规定 1783
细分 1783
罪犯 1783
Lab 1782
一封 1782
初始化 1782
孕@@ 1782
小巧 1782
教皇 1782
有罪 1782
Milan 1781
乙烯 1781
人道主义 1781
踢 1781
逃脱 1781
ISO9001 1780
lib@@ 1780
杨 1780
歌剧 1780
海域 1780
温水 1780
1974 1779
VB 1779
bas@@ 1779
大臣 1779
摊@@ 1779
科研@@ 1779
萨尔 1779
装潢 1779
贝里 1779
Acronis 1778
TER 1778
zhou 1778
卡特 1778
另一边 1778
87@@ 1777
SIN 1777
躲@@ 1777
IVE 1776
JS 1776
Limasol 1776
Tube 1776
不道德 1776
桩 1775
狱 1775
退回 1775
30319.34280 1774
Ferr@@ 1774
沿岸 1774
50727.3053 1773
8.3 1773
Florida 1773
TC1304 1773
had 1773
古典文学 1773
商业秘密 1773
州长 1773
摇滚乐 1773
法则 1773
该死 1773
10.@@ 1772
Au@@ 1772
吐@@ 1772
恋@@ 1772
纳粹 1772
阿曼 1772
Creek 1771
寨 1771
梁@@ 1771
球轴承 1771
老大 1771
肌 1771
Modern 1770
Quality 1770
Robert 1770
game 1770
望远镜 1770
温州 1770
leg@@ 1769
唐 1769
1600 1768
aire 1768
eller 1768
反过来 1768
氮 1768
起义 1768
139 1767
1977 1767
Ray@@ 1767
吞 1767
尖沙咀 1767
民族主义 1767
贝拉 1767
这边 1767
Ep@@ 1766
Galaxy 1766
Inn@@ 1766
card 1766
hot@@ 1766
外长 1766
模仿 1766
照相机 1766
列举 1765
斯托 1765
概要 1765
溜@@ 1765
省份 1765
账@@ 1765
Phil@@ 1764
phpBB 1764
努 1764
统 1764
6.0 1763
在外 1763
明明 1763
杯@@ 1763
涡轮 1763
途中 1763
BD@@ 1762
Fort 1762
ull 1762
强奸 1762
申请书 1762
社会保障 1762
BD 1761
ord 1761
people 1761
商业性 1761
撕@@ 1761
Cy@@ 1760
Fol@@ 1760
PR 1760
Stor@@ 1760
aga 1760
first 1760
连忙 1760
Fab@@ 1759
Print 1759
复古 1759
存有 1759
宇@@ 1759
教区 1759
比如说 1759
电脑系统 1759
衰@@ 1759
要约 1759
高峰 1759
Dallas 1758
仪表板 1758
浇@@ 1758
线条 1758
花朵 1758
157 1757
401 1757
6.5 1757
Lak@@ 1757
不怕 1757
备案 1757
屁眼 1757
50727.5485 1756
Man 1756
搜@@ 1756
MPEG 1755
group 1755
一旁 1755
同比 1755
性高潮 1755
承运人 1755
拉德 1755
趋@@ 1755
149 1754
North@@ 1754
SSD 1754
yu 1754
世代 1754
摩纳哥 1754
最棒 1754
strasse 1753
本周 1753
残酷 1753
潜水员 1753
点数 1753
9.00 1752
代表大会 1752
坚信 1752
新闻网 1752
连结 1752
ari@@ 1751
就行了 1751
损@@ 1751
GS@@ 1750
电镀 1750
识@@ 1750
贝尔法斯特 1750
ido 1749
price 1749
sen 1749
可不 1749
得罪 1749
限定 1749
aba 1748
家庭成员 1748
敏捷 1748
潘 1748
贯@@ 1748
殊荣 1747
辞@@ 1747
Ant 1746
Conc@@ 1746
FAQ 1746
Toshiba 1746
baidu 1746
大都会 1746
日出 1746
猫@@ 1746
粉碎 1746
首府 1746
sim@@ 1745
旅游业 1745
契 1744
室内设计 1744
寒冷 1744
当场 1744
情愿 1744
抢 1744
约瑟夫 1744
POR@@ 1743
Terr@@ 1743
listing 1743
大致 1743
纯度 1743
缘@@ 1743
解读 1743
两侧 1742
丫头 1742
二十 1742
克隆 1742
哈哈 1742
氏@@ 1742
焦 1742
琴@@ 1742
矿山 1742
穷@@ 1742
纪念@@ 1742
耶利米 1742
舰队 1742
AZ@@ 1741
Previous 1741
inda 1741
ll 1741
两只 1741
奶子 1741
帆 1741
时报 1741
讲道 1741
门前 1741
9.5 1740
不该 1740
技 1740
无聊 1740
机芯 1740
称呼 1740
Cos@@ 1739
not@@ 1739
加泰罗尼亚 1739
硕 1739
萨拉@@ 1739
读书 1739
逾 1739
阶 1739
50727.5491 1738
Cav@@ 1738
Sor@@ 1738
count 1738
反对派 1738
庇护 1738
规 1738
agg@@ 1737
卡斯 1737
同期 1737
留学生 1737
疲@@ 1737
乳腺癌 1736
地向 1736
屋子 1736
德累斯顿 1736
汤姆 1736
理学 1736
结尾 1736
ather 1735
ody 1735
公用事业 1735
分手 1735
猜测 1735
走到 1735
Pin@@ 1734
塞舌尔 1734
碎片 1734
蝴蝶 1734
避开 1734
Mail 1733
Pres@@ 1733
aging 1733
uz@@ 1733
化学物质 1733
可应 1733
宜 1733
幼儿园 1733
这款 1733
长远 1733
Toggle 1732
ê 1732
两倍 1732
咽 1732
思路 1732
截图 1732
指望 1732
祥 1732
1B@@ 1731
台上 1731
增多 1731
学士 1731
工业化 1731
抵御 1731
浆@@ 1731
ARD 1730
Matrox 1730
over@@ 1730
串 1730
发酵 1730
岭南大学 1730
戴尔 1730
文书 1730
玻利维亚 1730
第纳尔 1730
Hun@@ 1729
Sing@@ 1729
fer 1729
roll 1729
厄 1729
朵 1729
磁场 1729
胆 1729
芒 1729
蜡烛 1729
陌生人 1729
三章 1728
导轨 1728
悲剧 1728
攻 1728
模拟@@ 1728
米勒 1728
Brand@@ 1727
Special 1727
幅度 1727
所知 1727
购物@@ 1727
马车 1727
206 1726
Lotus 1726
NEW 1726
Rock@@ 1726
Sainte 1726
伦理 1726
勇士 1726
猴子 1726
防范 1726
餐具 1726
ories 1725
医疗保险 1725
对策 1725
应立即 1725
找回 1725
stein 1724
当地人 1724
忧@@ 1724
拼图 1724
死人 1724
索尔 1724
ACT@@ 1723
床垫 1723
探 1723
碟 1723
9.1 1722
亚特兰大 1722
利斯 1722
地被 1722
比重 1722
献上 1722
耦合 1722
HDMI 1721
Laur@@ 1721
意识形态 1721
罢了 1721
阅读器 1721
480 1720
Athens 1720
eTM 1720
严格@@ 1720
传到 1720
关切 1720
Soph@@ 1719
World@@ 1719
struc@@ 1719
克里斯 1719
布鲁克 1719
按下 1719
蜂蜜 1719
合作@@ 1718
330 1717
oph@@ 1717
sr@@ 1717
分泌 1717
接收器 1717
涨 1717
营运 1717
解锁 1717
202 1716
一顿 1716
下注 1716
中央公园 1716
共享资源 1716
验 1716
services 1715
几秒钟 1715
坚实 1715
慕 1715
童 1715
阻力 1715
难过 1715
Institute 1714
Stud@@ 1714
切断 1714
召集 1714
押@@ 1714
斯诺 1714
牛津 1714
生理 1714
简洁 1714
212 1713
Party 1713
gro@@ 1713
买到 1713
保持@@ 1713
军官 1713
南美 1713
挨@@ 1713
电动汽车 1713
获利 1713
适用於 1713
音量 1713
马尔马 1713
1971 1712
偏差 1712
十八 1712
器械 1712
手下 1712
撞击 1712
理工大学 1712
用到 1712
负债 1712
83@@ 1711
Diamond 1711
保證 1711
压制 1711
无所@@ 1711
Off@@ 1710
真实性 1710
踪@@ 1710
逛 1710
Soul 1709
巧妙 1709
旗@@ 1709
沾@@ 1709
身影 1709
1946 1708
iny@@ 1708
云南 1708
监禁 1708
陈倩 1708
隔绝 1708
Dav@@ 1707
ades 1707
atic 1707
xi 1707
爱琴海 1707
管家 1707
统治者 1707
误 1707
通向 1707
两项 1706
ility 1705
park 1705
内设 1705
卢布 1705
授@@ 1705
GB@@ 1704
SKF 1704
Up 1704
拿破仑 1704
攀@@ 1704
连通 1704
页@@ 1704
一惊 1703
上架 1703
十四 1703
发布会 1703
残障 1703
申 1703
真心 1703
iva 1702
休斯顿 1702
剧烈 1702
填补 1702
布斯 1702
真空@@ 1702
逆 1702
oa 1701
uf@@ 1701
对称 1701
短语 1701
金字塔 1701
Guide 1700
Mah@@ 1700
RU@@ 1700
反感 1700
同类 1700
次日 1700
珊瑚 1700
综合征 1700
远处 1700
Scandlines 1699
case 1699
荧光 1699
拳 1698
长达 1698
阴蒂 1698
Bit 1697
Card 1697
elo 1697
tim@@ 1697
二十世纪 1697
会员@@ 1697
有望 1697
梳@@ 1697
泪@@ 1697
留下来 1697
繁多 1697
顶端 1697
Eg@@ 1696
ug 1696
作王 1696
关爱 1696
在意 1696
小伙子 1696
撤@@ 1696
期限内 1696
苗 1696
采取相应 1696
品牌@@ 1695
唱@@ 1695
绘图 1695
美术 1695
集会 1695
之夜 1694
PLUS 1693
下属 1693
映 1693
流入 1693
相关性 1693
道歉 1693
间隙 1693
驱逐 1693
Oak@@ 1692
po@@ 1692
red 1692
以赛 1692
坐标 1692
明珠 1692
需时 1692
LEX@@ 1691
擅长 1691
胆固醇 1691
衡@@ 1691
闷 1691
EB 1690
ply 1690
态@@ 1690
虚 1690
迎合 1690
ERS 1689
Pack@@ 1689
Shift 1689
fer@@ 1689
贝克 1689
陈曦 1689
144 1688
Shopping 1688
划算 1688
十分@@ 1688
工作日 1688
建设性 1688
朴@@ 1688
构 1688
逃跑 1688
钛 1688
EU@@ 1687
事务@@ 1687
大全 1687
晒 1687
枝@@ 1687
面粉 1687
145 1686
1964 1686
260 1686
9.6 1686
ume 1686
上载 1686
二进制 1686
全局 1686
金发女郎 1686
Od@@ 1685
主轴 1685
猜@@ 1685
Jer@@ 1684
Ng@@ 1684
SK 1684
Sky@@ 1684
不易 1684
受益人 1684
史密斯 1684
回路 1684
抗拒 1684
政客 1684
进出 1684
龄 1684
专业化 1683
伍 1683
县级 1683
怜@@ 1683
礼服 1683
脑海 1683
Powered 1682
发育 1682
电量 1682
相匹配 1682
追溯到 1682
不由得 1681
体育运动 1681
加尔@@ 1681
控制室 1681
梅尔 1681
洗涤 1681
片刻 1681
痒 1681
秉承 1681
香蕉 1681
内衣 1680
劫@@ 1680
四川 1680
浴@@ 1680
空气污染 1680
缔结 1680
裡 1680
DMOZ 1679
所能 1679
Germany 1678
中型 1678
低功耗 1678
商务@@ 1678
管理软件 1678
Mount 1677
卫浴 1677
小区 1677
杀人 1677
毁坏 1677
132 1676
手持 1676
策 1676
飞行员 1676
代表性 1675
周前 1675
海岛 1675
穿戴 1675
陈 1675
BAUNAT 1674
F1 1674
SIM 1674
丛林 1674
主板 1674
恭@@ 1674
深深地 1674
43@@ 1673
CF 1673
Wor@@ 1673
挑逗 1673
水池 1673
默示 1673
二元 1672
伍德 1672
功夫 1672
哭@@ 1672
拍照 1672
联邦政府 1672
Fort@@ 1671
ef 1671
rey 1671
侍@@ 1671
501 1670
下游 1670
剑@@ 1670
孤立 1670
学历 1670
老鼠 1670
Basic 1669
mus@@ 1669
二楼 1669
动力学 1669
密切合作 1669
消防@@ 1669
第一家 1669
调研 1669
With 1668
一双 1668
假装 1668
助您 1668
Greenlight 1667
ites 1667
另行 1667
庆典 1667
此种 1667
流出 1667
电气@@ 1667
胺 1667
陀@@ 1667
安装程序 1666
搭载 1666
散热 1666
ster@@ 1665
全程 1665
十足 1665
受不了 1665
器皿 1665
堡垒 1665
白宫 1665
研制 1665
芳@@ 1665
金边 1665
二极管 1664
在场 1664
搜到 1664
昆虫 1664
毛茸茸 1664
电子游戏 1664
私下 1664
Security 1663
dev@@ 1663
再见 1663
叹@@ 1663
吸烟区 1663
驾车 1663
固化 1662
更名 1662
松开 1662
相邻 1662
纪念馆 1662
胖 1662
贸易组织 1662
靠着 1662
3A 1661
WHOIS 1661
山顶 1661
彰显 1661
渗@@ 1661
生产工艺 1661
骚 1661
凯恩斯 1660
发送至 1660
杯子 1660
清算 1660
MR@@ 1659
剖@@ 1659
131 1658
CK 1658
Ticket 1658
中是 1658
动性 1658
发行商 1658
埃尔 1658
称号 1658
钦@@ 1658
震撼 1658
onia 1657
不算 1657
严厉 1657
八个 1657
展销会 1657
番 1657
硫 1657
颁布 1657
Brun@@ 1656
coun@@ 1656
iff 1656
中文@@ 1656
串@@ 1656
促成 1656
心意 1656
柜台 1656
桂@@ 1656
犹太教 1656
禁食 1656
续 1656
负面影响 1656
马尔代夫 1656
Il@@ 1655
Markham 1655
kr@@ 1655
menu 1655
减缓 1655
参展 1655
品味 1655
殖民 1655
粗 1655
AU 1654
带动 1654
得不到 1654
ender 1653
圣地 1653
Da@@ 1652
Kailestia 1652
Terrace 1652
usa 1652
信靠 1652
发展趋势 1652
控制权 1652
欺负 1652
简报 1652
贸 1652
锻铁 1652
霍尔 1652
魏@@ 1652
得意 1651
接种 1651
搜罗 1651
荡@@ 1651
鱼类 1651
HOME 1650
Wang 1650
kie 1650
vSphere 1650
基尔 1650
拉链 1650
撒母 1650
毫@@ 1650
知晓 1650
离去 1650
适宜 1650
铃 1650
125@@ 1649
aro 1649
posts 1649
原油 1649
点燃 1649
趣@@ 1649
钩 1649
Full 1648
ports 1648
图画 1648
外表 1648
娘@@ 1648
有毒 1648
腺@@ 1648
鸣@@ 1648
118@@ 1647
Ti@@ 1647
expert 1647
к 1647
可不是 1647
喂@@ 1647
器具 1647
怀中 1647
缴@@ 1647
责 1647
质量保证 1647
走过 1647
选择性 1647
Deb@@ 1646
Fal@@ 1646
ZuluTrade 1646
jquery 1646
回馈 1646
服务质量 1646
段@@ 1646
超大 1646
领先地位 1646
Mai 1645
中性 1645
回避 1645
市政 1645
放缓 1645
绩 1645
30319.34209 1644
Tree 1644
hel@@ 1644
与众不同 1644
麦克@@ 1644
1962 1643
ee@@ 1643
合肥 1643
实际@@ 1643
崭新 1643
文森 1643
经常性 1643
缩放 1643
Coll@@ 1642
Ok@@ 1642
Rod@@ 1642
aa@@ 1642
光泽 1642
均值 1642
壁画 1642
备忘录 1642
复合@@ 1642
推特 1642
激光@@ 1642
申请表 1642
电容 1642
粘度 1642
辖区 1642
GU@@ 1641
January 1641
Prague 1641
█ 1641
主题公园 1641
使人 1641
底座 1641
欧洲人 1641
睡衣 1641
著@@ 1641
Bagira96 1640
便携 1640
睿 1640
限期 1640
面上 1640
Pacific 1639
eno 1639
★ 1639
扩充 1639
文物 1639
领导力 1639
5.00 1638
Techn@@ 1638
ital 1638
字节 1638
暴 1638
1G@@ 1637
ART@@ 1637
冯@@ 1637
垄断 1637
好吃 1637
忠 1637
陪@@ 1637
Chal@@ 1636
Mach@@ 1636
String 1636
onics 1636
万民 1636
交响乐团 1636
勃起 1636
压迫 1636
地域 1636
概不负责 1636
科学技术 1636
立法@@ 1636
苑 1636
茂@@ 1636
Conn@@ 1635
ICT 1635
MO 1635
Rac@@ 1635
Register 1635
bai 1635
bit@@ 1635
less 1635
永不 1635
营业时间 1635
贸易协定 1635
高山 1635
146 1634
公会 1634
带走 1634
道格拉斯 1634
aph@@ 1633
ih@@ 1633
径@@ 1633
推迟 1633
窄 1633
累计 1633
驴 1633
Support 1632
system 1632
仔 1632
新生 1632
毒素 1632
毫不 1632
海拔 1632
足球@@ 1632
额定 1632
Pav@@ 1631
max 1631
人造 1631
其后 1631
北欧 1631
定时 1631
维度 1631
薪 1631
Branch 1630
Music 1630
Wiki 1630
ibis 1630
ization 1630
侯@@ 1630
固 1630
崇@@ 1630
爵士 1630
Pun@@ 1629
ps@@ 1629
书面形式 1629
得主 1629
担当 1629
查理 1629
耳鸣 1629
肥胖 1629
表决 1629
讽刺 1629
黑塞哥维那 1629
1A 1628
Nero 1628
丧@@ 1628
包装材料 1628
弟兄们 1628
悬挂 1628
数学@@ 1628
東 1628
苍@@ 1628
近乎 1628
Jess@@ 1627
SIM@@ 1627
了不起 1627
本科 1627
立马 1627
聘请 1627
草原 1627
LIN@@ 1626
Sou@@ 1626
wiki 1626
人身 1626
信息系统 1626
双向 1626
周刊 1626
妇@@ 1626
幻 1626
抬 1626
萨尔茨堡 1626
诺富特 1626
NetBeans 1625
化妆 1625
各样 1625
格兰富 1625
祝@@ 1625
1948 1624
Build 1624
利用率 1624
园艺 1624
uri@@ 1623
珀@@ 1623
用手 1623
矿物质 1623
蒙特利尔 1623
贵宾 1623
远东 1623
Bot 1622
Hyatt 1622
一点儿 1622
优质服务 1622
升值 1622
泰勒 1622
蔓延 1622
PW@@ 1621
pan@@ 1621
技术创新 1621
智能化 1621
禅@@ 1621
递给 1621
10.0 1620
Hom@@ 1620
Lif@@ 1620
Ul@@ 1620
asa 1620
sn@@ 1620
中小型 1620
创新性 1620
捉@@ 1620
污染物 1620
福祉 1620
西欧 1620
车门 1620
Arts 1619
Koh 1619
Map@@ 1619
RD 1619
uo 1619
御@@ 1619
抹@@ 1619
撞@@ 1619
确认信 1619
萧条 1619
辱 1619
Coun@@ 1618
RFEM 1618
Team 1618
善良 1618
恢复@@ 1618
悠@@ 1618
普里 1618
滤波器 1618
第一次世界大战 1618
路加福音 1618
WMV 1617
pt 1617
◆ 1617
供货 1617
十九 1617
慌@@ 1617
法郎 1617
湖北 1617
箭 1617
under 1616
淑@@ 1616
灯泡 1616
质量@@ 1616
驾 1616
黄金海岸 1616
AF 1615
Touch 1615
ication 1615
share 1615
ude 1615
厌恶 1615
弗里@@ 1615
歌词 1615
水面 1615
火热 1615
礁 1615
草药 1615
覆 1615
Bus@@ 1614
Sales 1614
编码器 1614
MC14@@ 1613
fri@@ 1613
中为 1613
布勒 1613
开通 1613
心想 1613
第二章 1613
聚合 1613
养殖 1612
成形 1612
氟@@ 1612
洗净 1612
税费 1612
迟 1612
铃@@ 1612
1940 1611
Black@@ 1611
Rh@@ 1611
Rights 1611
三星级 1611
大祭司 1611
常州 1611
恒 1611
投放 1611
民事 1611
膝盖 1611
阿波罗 1611
Vila 1610
jobs 1610
咨询台 1610
就业机会 1610
摘@@ 1610
日光浴 1610
篮@@ 1610
之物 1609
前者 1609
杏@@ 1609
精灵 1609
胜地 1609
1965 1608
OL@@ 1608
传承 1608
惠普 1608
珺梅 1608
积极参与 1608
西伯利亚 1608
1920 1607
485 1607
Sports 1607
io@@ 1607
sal@@ 1607
不动 1607
安心 1607
我用 1607
横 1607
螺丝 1607
跳到 1607
运算 1607
iki 1606
不带 1606
叶片 1606
弱点 1606
托雷斯 1606
求婚 1606
洛夫 1606
训@@ 1606
谦卑 1606
Alp@@ 1605
Expert 1605
Rap@@ 1605
Wikipedia 1605
愈 1605
抄@@ 1605
申根 1605
蒸@@ 1605
DP 1604
WebSphere 1604
下体 1604
专卖店 1604
互利 1604
劳动合同 1604
敲门 1604
新世界 1604
9.3 1603
Anne 1603
Premier 1603
control 1603
年内 1603
林笑 1603
税款 1603
脂肪酸 1603
镶嵌 1603
龟 1603
Ut@@ 1602
区内 1602
掳 1602
无尽 1602
橙色 1602
one@@ 1601
保全 1601
危@@ 1601
打扮 1601
旭@@ 1601
没关系 1601
试着 1601
资源管理 1601
ba@@ 1600
cons@@ 1600
人性 1600
叉 1600
引力 1600
末日 1600
汉普顿 1600
河北 1600
流失 1600
短途游 1600
绞@@ 1600
解脱 1600
亨 1599
亲近 1599
共同努力 1599
肿 1599
访问@@ 1599
防爆 1599
134 1598
Avenida 1598
Dim@@ 1598
cel@@ 1598
eFinancialCareers 1598
ger@@ 1598
安德@@ 1598
平常 1598
德文 1598
泄 1598
烟雾 1598
熊@@ 1598
赌 1598
240@@ 1597
dn@@ 1597
ime 1597
凭证 1597
厂房 1597
摩尔多瓦 1597
Charl@@ 1596
ky 1596
纤@@ 1596
自然灾害 1596
证人 1596
TB 1595
erc@@ 1595
oma 1595
某种程度 1595
泵@@ 1595
List@@ 1594
NVIDIA 1594
SR 1594
引 1594
氢气 1594
表彰 1594
起始 1594
选购 1594
骆驼 1594
5.6 1593
Que@@ 1593
娃娃 1593
实用新型 1593
接触式 1593
肚@@ 1593
OT@@ 1592
SM 1592
Ventouris 1592
fin@@ 1592
read 1592
rie 1592
中立 1592
俗@@ 1592
爵士乐 1592
责任@@ 1592
赞同 1592
Arch@@ 1591
HK@@ 1591
Unity 1591
没想 1591
128@@ 1590
62@@ 1590
Little 1590
Wol@@ 1590
key@@ 1590
分级 1590
持续性 1590
Kutila 1589
SL 1589
合同@@ 1589
安全更新 1589
白金 1589
诗人 1589
转到 1589
齿@@ 1589
Bud@@ 1588
Language 1588
Marketing 1588
hol@@ 1588
hui 1588
isk 1588
哪怕 1588
好人 1588
枝 1588
活动@@ 1588
筛@@ 1588
钢结构 1588
Hong@@ 1587
Ze@@ 1587
ule 1587
國@@ 1587
夺 1587
文凭 1587
族群 1587
海盗 1587
病房 1587
Radio 1586
UT 1586
ault 1586
燕@@ 1586
辣@@ 1586
Long@@ 1585
PL 1585
just 1585
中非 1585
人文 1585
偶 1585
心脏病 1585
数十年 1585
03@@ 1584
Lum@@ 1584
XVideos 1584
不在乎 1584
剧本 1584
战后 1584
翠@@ 1584
胃 1584
LM25@@ 1583
Lavender 1583
免疫系统 1583
哎 1583
必使 1583
校正 1583
格拉斯哥 1583
竞技场 1583
群组 1583
联大 1583
Watch 1582
Wo@@ 1582
ind 1582
章程 1582
邮 1582
队列 1582
偏 1581
现任 1581
第一百@@ 1581
这套 1581
ement@@ 1580
下滑 1580
优先级 1580
全球通 1580
块@@ 1580
推车 1580
研 1580
HIV 1579
Sex@@ 1579
ien@@ 1579
严峻 1579
小龙 1579
瞬@@ 1579
节省时间 1579
运气 1579
音乐节 1579
riv@@ 1578
出资 1578
受苦 1578
哇 1578
柜@@ 1578
马拉加 1578
不合理 1577
亮相 1577
会幕 1577
对比度 1577
海岸线 1577
绝不会 1577
耳边 1577
落地 1577
轿车 1577
Catal@@ 1576
Om@@ 1576
Salvador 1576
ush 1576
光灯 1576
外汇交易 1576
影子 1576
怨 1576
残留 1576
间距 1576
Sant 1575
iDate@@ 1575
丝绸之路 1575
哈瓦那 1575
天体 1575
津@@ 1575
燕 1575
问候 1575
风险投资 1575
饱和 1575
Euro@@ 1574
Maj@@ 1574
you@@ 1574
减弱 1574
尖端 1574
诗篇 1574
通用@@ 1574
KL@@ 1573
RO 1573
V1@@ 1573
乎@@ 1573
哥德堡 1573
四大 1573
拓扑 1573
生态@@ 1573
背上 1573
偷偷 1572
匹@@ 1572
平滑 1572
消防 1572
辽@@ 1572
148 1571
ele 1571
威力 1571
词语 1571
Cort@@ 1570
Patong 1570
ept@@ 1570
坚硬 1570
宴 1570
普通@@ 1570
沈阳 1570
积 1570
衣物 1570
Add 1569
Ca@@ 1569
Vision 1569
big 1569
不得@@ 1569
小贴士 1569
昆山 1569
CNC 1568
四种 1568
妙 1568
托运 1568
民事@@ 1568
Ah@@ 1567
FR 1567
Heatmaps 1567
Mit@@ 1567
Mozilla 1567
Rol@@ 1567
cat 1567
島 1567
训 1567
Blu@@ 1566
It@@ 1566
ige 1566
tal@@ 1566
yl 1566
元器件 1566
爾@@ 1566
签发 1566
索马里 1566
经费 1566
表述 1566
静电 1566
顺着 1566
麦克 1566
Heart 1565
config 1565
dec@@ 1565
圣人 1565
少于 1565
朝鲜@@ 1565
金属制品 1565
机舱 1564
程式 1564
Appart@@ 1563
总裁兼 1563
搭建 1563
晶体 1563
西门 1563
Call@@ 1562
※ 1562
免费@@ 1562
出卖 1562
刊物 1562
历史博物馆 1562
漂@@ 1562
爷爷 1562
魔术 1562
204 1561
top@@ 1561
yang 1561
取得联系 1561
钉@@ 1561
预见 1561
340 1560
Smith 1560
anner 1560
ques 1560
前身 1560
多多 1560
家电 1560
测试仪 1560
美人 1560
面孔 1560
一新 1559
利乐 1559
夹克 1559
把门 1559
株 1559
气流 1559
玻@@ 1559
科斯 1559
脸颊 1559
国家图书馆 1558
天生 1558
弘@@ 1558
普遍@@ 1558
网上@@ 1558
anch@@ 1557
拐@@ 1557
杰克 1557
根基 1557
横向 1557
脾气 1557
袋@@ 1557
诸 1557
锅@@ 1557
Sant@@ 1556
冈@@ 1556
弧@@ 1556
称赞 1556
缆车 1556
Nam@@ 1555
Oc@@ 1555
大妈 1555
并行 1555
慈@@ 1555
我主 1555
鸿 1555
安哥拉 1554
细胞@@ 1554
辞职 1554
Test@@ 1553
为例 1553
再现 1553
员@@ 1553
腹部 1553
议 1553
Cart 1552
Shop@@ 1552
oz@@ 1552
促 1552
偷 1552
勃 1552
原子@@ 1552
发型 1552
杜塞尔多夫 1552
清晨 1552
狮 1552
1961 1551
Dream@@ 1551
Ins@@ 1551
inder 1551
工具包 1551
怡@@ 1551
手掌 1551
欧美 1551
熟练 1551
ci@@ 1550
mA 1550
vids 1550
前任 1550
十亿 1550
罗马帝国 1550
茶水 1550
证件 1550
验证码 1550
4G 1549
Kol@@ 1549
Prof@@ 1549
prov@@ 1549
传给 1549
唱片 1549
玲 1549
停滞 1548
迷惑 1548
Classic 1547
Mob@@ 1547
Q1 1547
mor@@ 1547
sand@@ 1547
sg 1547
动漫 1547
尼卡 1547
猛地 1547
生育 1547
练@@ 1547
002 1546
THE 1546
age@@ 1546
德罗 1546
无误 1546
萨格勒布 1546
Euroferrys 1545
Gri@@ 1545
TD@@ 1545
无人机 1545
汪@@ 1545
红葡萄酒 1545
绵@@ 1545
里尔 1545
hot 1544
技术参数 1544
特大 1544
驳回 1544
chain 1543
传教 1543
伤口 1543
感官 1543
敞@@ 1543
铬 1543
Var@@ 1542
len@@ 1542
不明 1542
刚好 1542
叫醒 1542
相符 1542
肥料 1542
调度 1542
ool 1541
休 1541
声响 1541
载体 1541
那条 1541
3d 1540
DirectX 1540
Work 1540
ape 1540
wa 1540
时间@@ 1540
硅胶 1540
纸板 1540
esa 1539
protected 1539
赐福 1539
邓@@ 1539
销量 1539
Baby 1538
Hamster 1538
MI@@ 1538
Ori@@ 1538
Tan@@ 1538
fa@@ 1538
巴拉 1538
很漂亮 1538
氮气 1538
浮动 1538
碱 1538
而出 1538
Ja@@ 1537
Vill@@ 1537
功耗 1537
安防 1537
眉 1537
筹 1537
自由化 1537
重力 1537
顽@@ 1537
PD 1536
ask@@ 1536
民粹主义 1536
語 1536
铭 1536
公益 1535
利未人 1535
归于 1535
忠@@ 1535
疗 1535
离弃 1535
私密 1535
终生 1535
要点 1535
钢材 1535
长期以来 1535
ABS 1534
Tour 1534
ities 1534
mot@@ 1534
凌 1534
掉@@ 1534
1939 1533
克罗@@ 1533
国有企业 1533
改编 1533
渣 1533
Jump 1532
pres@@ 1532
感恩 1532
法式 1532
祸 1532
缠@@ 1532
1800 1531
30319.@@ 1531
从来不 1531
唱歌 1531
心跳 1531
泳@@ 1531
理工学院 1531
第七 1531
Rusalochkax 1530
erie 1530
pri@@ 1530
不足以 1530
吉尔吉斯斯坦 1530
君主 1530
奔驰 1530
石化 1530
祖父 1530
签字 1530
造就 1530
start 1529
冰川 1529
几家 1529
堪@@ 1529
山羊 1529
源码 1529
用具 1529
航天@@ 1529
转过身 1529
香味 1529
Bitcoin 1528
Get@@ 1528
Script 1528
从不 1528
另一方 1528
是非 1528
综合@@ 1528
苏梅岛 1528
贝尔@@ 1528
贯穿 1528
驰 1528
Car 1527
Ra@@ 1527
download 1527
居留 1527
市场需求 1527
秒钟 1527
素材 1527
South@@ 1526
Spring 1526
Stat@@ 1526
如意 1526
布鲁克林 1526
本能 1526
条文 1526
刚性 1525
显卡 1525
牢 1525
笑话 1525
为您服务 1524
光照 1524
培 1524
杀手 1524
校区 1524
ENG 1523
HR@@ 1523
Well@@ 1523
handler 1523
会儿 1523
关节炎 1523
常识 1523
没收 1523
米亚 1523
计算机科学 1523
840@@ 1522
Falls 1522
One@@ 1522
Rua 1522
haus 1522
sup@@ 1522
万亿美元 1522
上床 1522
冬 1522
可疑 1522
排出 1522
满脸 1522
灿烂 1522
Cart@@ 1521
Oper@@ 1521
Opt@@ 1521
一幕 1521
中心@@ 1521
固有 1521
张开 1521
赢@@ 1521
astic 1520
yi 1520
之路 1520
借记卡 1520
反射@@ 1520
履@@ 1520
拟 1520
Community 1519
Do 1519
X射线 1519
illo 1519
会长 1519
委任 1519
数步 1519
新闻资讯 1519
武装冲突 1519
纺 1519
高速@@ 1519
1930 1518
KS 1518
UM 1518
log 1518
oda 1518
克里@@ 1518
嫁给 1518
孕妇 1518
测量@@ 1518
玛丽亚 1518
留意 1518
第六 1518
翅膀 1518
计划@@ 1518
重启 1518
10000 1517
137 1517
lan 1517
十六@@ 1517
售@@ 1517
埋葬 1517
大事 1517
淡水 1517
界限 1517
韵 1517
麻将 1517
ICA 1516
亲属 1516
必要性 1516
肘 1516
185 1515
ains 1515
experience 1515
分类@@ 1515
后退 1515
岸@@ 1515
左翼 1515
灾害 1515
热电偶 1515
阿拉 1515
ade@@ 1514
ons@@ 1514
各式各样 1514
姿 1514
孙子 1514
正规 1514
筋 1514
船长 1514
地理@@ 1513
拇指 1513
排气 1513
涌@@ 1513
Backpackers 1512
PowerPoint 1512
以至 1512
外滩 1512
张力 1512
笨@@ 1512
Las@@ 1511
公差 1511
宝血 1511
慷慨 1511
猎人 1511
馬 1511
Icecat 1510
Processor 1510
bin 1510
said 1510
中介 1510
套间 1510
截面 1510
抵消 1510
普罗@@ 1510
acy 1509
前期 1509
可变 1509
妆 1509
很近 1509
得多 1509
总督 1509
金发 1509
镜@@ 1509
ails 1508
isa 1508
lia 1508
伯恩 1508
意料 1508
比萨 1508
登入 1508
看护 1508
hof 1507
市场份额 1507
泊车 1507
瘦 1507
解放@@ 1507
追随者 1507
ily 1506
rio 1506
唇@@ 1506
它@@ 1506
就是说 1506
开创 1506
打包 1506
歌手 1506
珠海 1506
袍 1506
贵方 1506
邻里 1506
Brisbane 1505
Pap@@ 1505
iver 1505
卵@@ 1505
塔拉 1505
最新消息 1505
狄@@ 1505
阿拉伯@@ 1505
鼎 1505
iang@@ 1504
station 1504
侵入 1504
制止 1504
当成 1504
有点儿 1504
破解 1504
秘书处 1504
ble 1503
效能 1503
散热器 1503
文本文件 1503
毫克 1503
Mand@@ 1502
哥林 1502
新品 1502
闪光 1502
April 1501
Geneva 1501
Mataf 1501
Points 1501
ights 1501
ren@@ 1501
万圣节 1501
仅供 1501
佛陀 1501
内有 1501
国民@@ 1501
快点 1501
旅行@@ 1501
特里 1501
骨头 1501
160@@ 1500
plus 1500
急性 1500
格兰@@ 1500
歇@@ 1500
照样 1500
网有 1500
音乐家 1500
CityPASS 1499
ban@@ 1499
大战 1499
峰值 1499
烫 1499
products 1498
伪造 1498
供水 1498
姿态 1498
染@@ 1498
浓缩 1498
电子书 1498
谐@@ 1498
High@@ 1497
交通线 1497
定居 1497
忧虑 1497
笑了笑 1497
Executive 1496
QB 1496
front 1496
不能@@ 1496
客车 1496
怎能 1496
本着 1496
膝 1496
乌干达 1495
何等 1495
叙@@ 1495
意向 1495
焚烧 1495
特拉@@ 1495
算了 1495
跌@@ 1495
颜@@ 1495
Dimaiolines 1494
Equ@@ 1494
nm 1494
下身 1494
伪 1494
前款 1494
加工@@ 1494
病因 1494
结成 1494
行货 1494
ability 1493
帅 1493
文本框 1493
海底 1493
西西里岛 1493
贺@@ 1493
起草 1493
GeForce 1492
不良@@ 1492
传统@@ 1492
发生@@ 1492
好玩 1492
棋 1492
横跨 1492
网可 1492
赞成 1492
闪电 1492
136 1491
7.4 1491
AO@@ 1491
OliveThomas 1491
ws 1491
东方@@ 1491
分子@@ 1491
家乡 1491
敞开 1491
来访 1491
神色 1491
Band@@ 1490
ird 1490
一届 1490
串行 1490
合成@@ 1490
纪 1490
结晶 1490
邀 1490
高密度 1490
DebbieOlsen 1489
Edition 1489
Les@@ 1489
hed 1489
地下室 1489
室内@@ 1489
或者说 1489
示威 1489
罗马@@ 1489
蚀 1489
Magento 1488
mak@@ 1488
requ@@ 1488
专员 1488
新年快乐 1488
艰巨 1488
通讯@@ 1488
％ 1488
Lind@@ 1487
global 1487
免疫@@ 1487
尺度 1487
德国@@ 1487
拨 1487
特别@@ 1487
简约 1487
高标准 1487
Floor 1486
Ga@@ 1486
Menu 1486
下令 1486
商标法 1486
想不到 1486
海运 1486
热烈 1486
特殊要求 1486
稍 1486
语言@@ 1486
超级@@ 1486
造物主 1486
666 1485
Alexand@@ 1485
BER@@ 1485
Will@@ 1485
core 1485
pAb 1485
仰 1485
凌战 1485
磁性 1485
箱子 1485
虹桥 1485
采取措施 1485
需求量 1485
Care 1484
Hotel@@ 1484
da@@ 1484
ture 1484
半天 1484
放过 1484
斯托@@ 1484
73@@ 1483
Rectifier 1483
igr@@ 1483
十五 1483
占地面积 1483
点播 1483
Flor@@ 1482
RON@@ 1482
从小 1482
减排 1482
批发@@ 1482
江苏省 1482
臭 1482
LL@@ 1481
Magic 1481
Nar@@ 1481
ald@@ 1481
ava 1481
eds 1481
good 1481
ud 1481
从头开始 1481
卡尔顿 1481
结构化 1481
4A 1480
Altium 1480
Jos@@ 1480
ouse 1480
出门 1480
前瞻性 1480
安大略省 1480
摆在 1480
魔力 1480
鼓舞 1480
bt@@ 1479
伯利兹 1479
分会 1479
制表 1479
台阶 1479
掩盖 1479
狭@@ 1479
美方 1479
那日 1479
aa 1478
lad@@ 1478
佳能 1478
各个方面 1478
安德烈 1478
巴哈马 1478
战略性 1478
泪水 1478
矩形 1478
肤@@ 1478
Jan@@ 1477
SM320CC6713@@ 1477
入场 1477
历史性 1477
巨人 1477
急剧 1477
涨@@ 1477
清空 1477
科视 1477
虔诚 1477
KA 1476
Site@@ 1476
Sle@@ 1476
Water@@ 1476
ology 1476
stud@@ 1476
企@@ 1476
低气压 1476
短短 1476
砸 1476
胜过 1476
镁 1476
陪伴 1476
飞船 1476
Platform 1475
eto 1475
事后 1475
会堂 1475
光临 1475
共计 1475
典礼 1475
发售 1475
囚犯 1475
复杂度 1475
瓶子 1475
短裤 1475
Application 1474
Recovery 1474
dd@@ 1474
不下 1474
协 1474
生动 1474
筛 1474
而生 1474
Kevin 1473
Mr 1473
prot@@ 1473
仇@@ 1473
天赋 1473
实实在在 1473
岗 1473
阴 1473
高昂 1473
chen 1472
gh@@ 1472
uke 1472
复制到 1472
庞@@ 1472
拆除 1472
稳固 1472
Cottage 1471
Pil@@ 1471
Wat 1471
iro 1471
wan@@ 1471
布雷@@ 1471
珍惜 1471
评定 1471
顺便 1471
ify 1470
义人 1470
斯大林 1470
Bukit 1469
Dre@@ 1469
back@@ 1469
gu 1469
long 1469
割礼 1469
杂质 1469
珊瑚礁 1469
韧性 1469
Jin@@ 1468
dSPACE 1468
posted 1468
发病 1468
情欲 1468
新颖 1468
格拉@@ 1468
添@@ 1468
猎 1468
生命@@ 1468
详@@ 1468
Dell 1467
Other 1467
aster 1467
come 1467
ient 1467
master 1467
umi 1467
波利斯 1467
霍夫 1467
领事馆 1467
一枚 1466
定向 1466
工作坊 1466
沙拉 1466
烦 1466
ARM 1465
十二个 1465
地平线 1465
恐龙 1465
维塔 1465
这人 1465
MBT 1464
Tour@@ 1464
pay@@ 1464
享誉 1464
出台 1464
旅游指南 1464
晚宴 1464
王宫 1464
眼看 1464
私募 1464
耸@@ 1464
LI@@ 1463
MAN@@ 1463
Map 1463
太阳系 1463
狂热 1463
Daniel 1462
Km 1462
pi@@ 1462
一共 1462
印刷机 1462
手势 1462
接地 1462
淘汰 1462
湿润 1462
路易@@ 1462
铣削 1462
险@@ 1462
饥荒 1462
Bou@@ 1461
Dual 1461
Intersil 1461
Je@@ 1461
LAS 1461
bert 1461
bps 1461
esh 1461
严重@@ 1461
宣扬 1461
有神 1461
服装@@ 1461
海尔斯 1461
脱衣舞 1461
310 1460
Adri@@ 1460
Sanyo 1460
奥斯汀 1460
肝@@ 1460
遂 1460
cit@@ 1459
专家组 1459
使用@@ 1459
在乎 1459
射线 1459
撕裂 1459
过剩 1459
限额 1459
Cover 1458
冻@@ 1458
加深 1458
王后 1458
视力 1458
9000 1457
Bus 1457
made 1457
ones 1457
加热器 1457
大笑 1457
巴登 1457
意味 1457
挪亚 1457
采样 1457
Class@@ 1456
ein 1456
gen 1456
印花 1456
圆满 1456
型材 1456
小曦 1456
Bod@@ 1455
Fro@@ 1455
优先权 1455
党派 1455
南京@@ 1455
印刷@@ 1455
同一时间 1455
或作 1455
摊 1455
未满 1455
物超所值 1455
通报 1455
Lev@@ 1454
Shopify 1454
ara@@ 1454
ario 1454
创业@@ 1454
拼命 1454
界定 1454
mes 1453
ube 1453
全包@@ 1453
房型 1453
日式 1453
生产能力 1453
疹 1453
色谱 1453
赶快 1453
防火 1453
Fire@@ 1452
shell 1452
sv@@ 1452
刑罚 1452
奖赏 1452
游轮 1452
理智 1452
网不对 1452
4.8 1451
Beta 1451
eas@@ 1451
尔曼 1451
帐幕 1451
捧 1451
诺诺 1451
这么@@ 1451
GA@@ 1450
OD@@ 1450
呈@@ 1450
存储设备 1450
希茨 1450
撒哈拉 1450
束@@ 1450
水量 1450
竟@@ 1450
聚氨酯 1450
负债表 1450
镍 1450
1300 1449
Christie 1449
Dro 1449
INR 1449
ject 1449
month 1449
加利利 1449
多层 1449
目睹 1449
粘 1449
蓬勃发展 1449
问问 1449
Miss@@ 1448
ends 1448
ho 1448
illy 1448
set@@ 1448
俯@@ 1448
光荣 1448
尔多 1448
撒旦 1448
特质 1448
竖@@ 1448
饱@@ 1448
cess@@ 1447
chin@@ 1447
一向 1447
十五@@ 1447
博格 1447
娃 1447
本性 1447
湖南 1447
纯洁 1447
uro 1446
最小化 1446
皱 1446
致辞 1446
Ts@@ 1445
ching 1445
ough 1445
ses 1445
some 1445
their 1445
事业部 1445
十六 1445
身份证件 1445
迪亚 1445
ancer 1444
ores 1444
wiktionary 1444
八年 1444
变频器 1444
导线 1444
市场经济 1444
窗格 1444
第一条 1444
Now 1443
rov@@ 1443
出具 1443
名录 1443
对齐 1443
计时 1443
HASH 1442
Mastercard 1442
ami 1442
一般性 1442
三角形 1442
公示 1442
悬崖 1442
日光 1442
瑞享 1442
耗材 1442
赢取 1442
rgen 1441
加沙 1441
县@@ 1441
启 1441
宽容 1441
届时 1441
框@@ 1441
流离失所 1441
神庙 1441
绑架 1441
虐 1441
ANT 1440
Jo 1440
三位 1440
小麦 1440
Saf@@ 1439
Semicon 1439
手机@@ 1439
打动 1439
此事 1439
消 1439
近日 1439
高原 1439
Nak@@ 1438
pm 1438
ve@@ 1438
之人 1438
修补 1438
公民@@ 1438
昭@@ 1438
臂@@ 1438
锤 1438
June 1437
SN74AHC@@ 1437
arn@@ 1437
147 1436
Flex@@ 1436
LIMITED 1436
世卫 1436
中向 1436
允@@ 1436
全民 1436
商机 1436
挖@@ 1436
授 1436
绕过 1436
途@@ 1436
Arena 1435
Do@@ 1435
Experience 1435
also 1435
hr@@ 1435
sur 1435
二级 1435
低下头 1435
塔尔图 1435
弥赛亚 1435
深入@@ 1435
着色 1435
稳健 1435
邪 1435
8000 1434
万个 1434
三位一体 1434
以东 1434
健全 1434
学习@@ 1434
拱@@ 1434
瘦@@ 1434
组织者 1434
腔@@ 1434
螺@@ 1434
速递 1434
青春 1434
si@@ 1433
妙@@ 1433
或电子邮件 1433
jQuery 1432
ram 1432
云彩 1432
天气@@ 1432
指甲 1432
祖国 1432
精品店 1432
老年 1432
320@@ 1431
SQ@@ 1431
War 1431
bel@@ 1431
不远处 1431
技@@ 1431
橄榄球 1431
职权 1431
览 1431
试用版 1431
Estate 1430
Serv@@ 1430
rid 1430
sit@@ 1430
沐浴 1430
迪克 1430
bridge 1429
共和 1429
剂@@ 1429
机箱 1429
紧邻 1429
记录@@ 1429
门户网站 1429
TM@@ 1428
缅@@ 1428
蒸发 1428
196 1427
Health 1427
KG 1427
Prov@@ 1427
go@@ 1427
信使 1427
情报@@ 1427
流畅 1427
裕 1427
论者 1427
错误@@ 1427
151 1426
ti 1426
不多 1426
仙 1426
实用性 1426
承 1426
活塞 1426
读数 1426
Champ@@ 1425
bus 1425
ica@@ 1425
主宰 1425
伸出手 1425
地质 1425
堵 1425
第一件 1425
羊群 1425
量子 1425
题目 1425
风景如画 1425
6.3 1424
Dou@@ 1424
hrs 1424
► 1424
三人行 1424
乔治@@ 1424
互连 1424
剥@@ 1424
嗨 1424
国际性 1424
圣彼得 1424
坚强 1424
帝国主义 1424
用法 1424
电视节目 1424
离岸 1424
竹 1424
镜片 1424
173 1423
Column 1423
but 1423
哥伦布 1423
拉丁 1423
既有 1423
Bin@@ 1422
Conver@@ 1422
亚伯 1422
卡塔尼亚 1422
喜来登 1422
文艺复兴 1422
油画 1422
诠释 1422
轮椅 1422
酒馆 1422
Ale@@ 1421
platz 1421
real 1421
咒诅 1421
恳求 1421
投票@@ 1421
抢先 1421
涉嫌 1421
监事会 1421
膀@@ 1421
芽 1421
餐点 1421
不断@@ 1420
不间断 1420
懒@@ 1420
朋@@ 1420
水资源 1420
直觉 1420
破裂 1420
资质等级 1420
hal@@ 1419
势头 1419
提取物 1419
步行街 1419
海地 1419
玛格丽特 1419
聊@@ 1419
草坪 1419
轧@@ 1419
Bour@@ 1418
Marco 1418
Nic@@ 1418
Quick@@ 1418
虽@@ 1418
Tel 1417
Vel@@ 1417
ram@@ 1417
中间@@ 1417
停下 1417
全国@@ 1417
升起 1417
复审 1417
大叫 1417
德意志 1417
格雷@@ 1417
毁@@ 1417
气泡 1417
洗发水 1417
环绕着 1417
荷载 1417
费尔 1417
arch@@ 1416
始 1416
废水 1416
德州 1416
浸泡 1416
选配 1416
SAN 1415
创设 1415
华尔街 1415
四分之一 1415
糟 1415
逆转 1415
exp@@ 1414
yy 1414
克拉科夫 1414
全地 1414
微博 1414
皱@@ 1414
174@@ 1413
七章 1413
女孩子 1413
崎 1413
慈悲 1413
扰@@ 1413
拉夫 1413
排斥 1413
接管 1413
束缚 1413
法治 1413
肺@@ 1413
诡@@ 1413
采纳 1413
Close 1412
RM 1412
Ventures 1412
icon@@ 1412
侮辱 1412
必定会 1412
摇摇头 1412
瑞格 1412
罗夫 1412
MissSquirter 1411
Select 1411
bre@@ 1411
以法 1411
墓@@ 1411
希特勒 1411
开发新 1411
比起 1411
烧结 1411
责备 1411
1400 1410
DU@@ 1410
anger 1410
亏损 1410
股东大会 1410
辱骂 1410
Porn@@ 1409
Tou@@ 1409
into 1409
oud@@ 1409
塔尔 1409
数个 1409
武力 1409
科医生 1409
胶带 1409
说不出 1409
骗@@ 1409
安迅 1408
成年 1408
楼下 1408
睁 1408
过失 1408
铲@@ 1408
雷诺 1408
Lag@@ 1407
不及 1407
不成 1407
复印件 1407
彩虹 1407
立体 1407
.2 1406
Wightlink 1406
ives 1406
发怒 1406
头来 1406
放射@@ 1406
迁 1406
鞭@@ 1406
NI@@ 1405
吵@@ 1405
家居@@ 1405
笔者 1405
项下 1405
270 1404
NetApp 1404
aid 1404
days 1404
交通运输 1404
单机 1404
头顶 1404
快餐 1404
新生儿 1404
服务费 1404
涉 1404
游戏机 1404
生产者 1404
福建 1404
面团 1404
HB@@ 1403
Portal 1403
VC 1403
vol@@ 1403
中产阶级 1403
会众 1403
勋章 1403
十一 1403
听取 1403
外人 1403
对接 1403
1918 1402
MC74VHCT@@ 1402
Step@@ 1402
Vit@@ 1402
师范大学 1402
有序 1402
电视机 1402
美属 1402
听众 1401
整套 1401
糊 1401
英国人 1401
草地 1401
蒂诺 1401
陀 1401
Sid@@ 1400
中华@@ 1400
北极 1400
林业 1400
煎@@ 1400
贪婪 1400
集市 1400
霸 1400
Phot@@ 1399
ting 1399
不快 1399
哲学家 1399
疗@@ 1399
科西嘉 1399
肯尼迪 1399
Alex 1398
Krist@@ 1398
Roma 1398
Stone 1398
ications 1398
哈佛大学 1398
唯有 1398
收看 1398
文件名 1398
方舟 1398
正直 1398
热那亚 1398
蓝光 1398
藤 1398
陆淳风 1398
onn@@ 1397
ution 1397
不来 1397
恨@@ 1397
摆动 1397
斯维尔 1397
Nan@@ 1396
fil@@ 1396
iti 1396
row 1396
yth@@ 1396
喘@@ 1396
晓 1396
6.2 1395
Lounge 1395
PIN 1395
传染性 1395
悦 1395
柴 1395
核心@@ 1395
济 1395
申诉 1395
编织 1395
贡 1395
追随 1395
Reserved 1394
Twin 1394
ills 1394
伙 1394
拥挤 1394
文件类型 1394
更少 1394
最受 1394
生物科技 1394
结核病 1394
Cathedral 1393
Forum 1393
Hovertravel 1393
Len@@ 1393
Project@@ 1393
Wind@@ 1393
另一只 1393
可谓 1393
喉咙 1393
外星人 1393
挑 1393
新鲜@@ 1393
李克强 1393
Os@@ 1392
pi 1392
凑@@ 1392
圣父 1392
恒定 1392
抗生素 1392
提醒您 1392
条纹 1392
策@@ 1392
补丁 1392
透镜 1392
Cross 1391
KE 1391
Up@@ 1391
py 1391
东路 1391
价值链 1391
卢旺达 1391
接过 1391
直拨 1391
研究者 1391
Ly@@ 1390
Republic 1390
Stre@@ 1390
不太@@ 1390
剩 1390
战术 1390
放电 1390
爱抚 1390
ga@@ 1389
hom@@ 1389
剪切 1389
十二章 1389
地道 1389
起床 1389
Japanese 1388
PT@@ 1388
狩猎 1388
电容器 1388
认出 1388
LinkedIn 1387
ili@@ 1387
唐人街 1387
大麻 1387
左手 1387
水质 1387
津巴布韦 1387
滋@@ 1387
诈骗 1387
Adv@@ 1386
Cin@@ 1386
Ctrl 1386
Domin@@ 1386
之窗 1386
充当 1386
化工@@ 1386
科学研究 1386
腐 1386
资本@@ 1386
跨国公司 1386
.1 1385
Bill 1385
Webcam 1385
不动产 1385
大区 1385
尼克松 1385
撑@@ 1385
最合适 1385
耀 1385
1959 1384
1966 1384
Book@@ 1384
Infinity 1384
Perfect 1384
夫斯基 1384
栏目 1384
竭诚 1384
预付 1384
饱 1384
HTC 1383
Id@@ 1383
SM5@@ 1383
ific@@ 1383
there 1383
前行 1383
快捷方式 1383
接收@@ 1383
本页 1383
腐蚀性 1383
莱德 1383
谋杀 1383
Muang 1382
Word@@ 1382
select 1382
一门 1382
不顾 1382
几内亚 1382
变态 1382
流行@@ 1382
礼堂 1382
耗时 1382
超声 1382
连衣裙 1382
203 1381
亚语 1381
写信 1381
卧 1381
四十 1381
碳酸@@ 1381
雅加达 1381
黄油 1381
777 1380
Tian@@ 1380
water 1380
前途 1380
厌@@ 1380
圣子 1380
堵塞 1380
展位 1380
生日快乐 1380
藉@@ 1380
說 1380
记念 1380
3.8 1379
facebook 1379
上将 1379
发泄 1379
投影仪 1379
牛仔裤 1379
行人 1379
革命性 1379
Ji@@ 1378
igo 1378
不服 1378
历史学家 1378
右翼 1378
席位 1378
水管 1378
肾脏 1378
葡萄@@ 1378
March 1377
doc@@ 1377
jiang 1377
卡通 1377
在一起 1377
女郎 1377
巴布亚新几内亚 1377
疆@@ 1377
瞎@@ 1377
稀有 1377
程序员 1377
161 1376
Merc@@ 1376
Sitecore 1376
Soft 1376
Sus@@ 1376
Works 1376
arts 1376
不准 1376
保持联系 1376
包容性 1376
反击 1376
垫@@ 1376
大山雀 1376
承租人 1376
特斯 1376
电线 1376
简要 1376
ANES 1375
Chang 1375
Playa 1375
信道 1375
充 1375
必有 1375
日报 1375
气象@@ 1375
第三章 1375
自然保护区 1375
货币@@ 1375
配料 1375
232 1374
佩斯卡拉 1374
债务人 1374
动脉 1374
场面 1374
实相 1374
紧接着 1374
舒适性 1374
贫困@@ 1374
鹿特丹 1374
7.3 1373
Riad 1373
yan 1373
会计@@ 1373
伸缩 1373
制服 1373
幕后 1373
机架 1373
祸@@ 1373
纯净 1373
肖 1373
跌 1373
aca 1372
ione 1372
万怡 1372
实质性 1372
挽救 1372
格局 1372
神是 1372
素贞 1372
自助餐 1372
莱茵 1372
诅咒 1372
酮 1372
agn@@ 1371
api 1371
these 1371
军用 1371
几周 1371
大幅度 1371
整修 1371
Lou@@ 1370
UA 1370
Universal 1370
qq 1370
人格 1370
双层 1370
咯 1370
少数民族 1370
瑕疵 1370
鲜 1370
Kingdom 1369
Pul@@ 1369
克拉@@ 1369
定罪 1369
梵蒂冈 1369
瑜 1369
磨削 1369
驾驶@@ 1369
Act@@ 1368
BM@@ 1368
Dublin 1368
Tat@@ 1368
pendant 1368
tro 1368
vers@@ 1368
一九@@ 1368
世界领先 1368
墨水 1368
学费 1368
汇报 1368
没法 1368
红十字会 1368
911 1367
yu@@ 1367
内饰 1367
征税 1367
招募 1367
敦@@ 1367
斐@@ 1367
mill@@ 1366
sav@@ 1366
上门 1366
外来 1366
屠杀 1366
米拉 1366
视讯 1366
颂 1366
Backup 1365
BlogThis 1365
RIETI 1365
Safari 1365
Zhong@@ 1365
can@@ 1365
中央商务区 1365
审视 1365
张大 1365
救助 1365
焊机 1365
足迹 1365
Ax@@ 1364
TC1303C 1364
esc@@ 1364
ever@@ 1364
克林顿 1364
消极 1364
理会 1364
电商 1364
耐用性 1364
虑 1364
长沙 1364
192 1363
FTP 1363
GC 1363
Nord 1363
Phone 1363
上级 1363
亏 1363
冗余 1363
吉尔 1363
咖啡店 1363
失落 1363
晚期 1363
绵羊 1363
Hi 1362
Tem@@ 1362
ista 1362
ls 1362
一览 1362
企业级 1362
双子座 1362
弓 1362
手腕 1362
格勒 1362
电动@@ 1362
香槟 1362
7.0 1361
Ex 1361
Michel@@ 1361
testo 1361
uce 1361
蹦@@ 1361
Kun@@ 1360
头痛 1360
瘾 1360
粒度 1360
车手 1360
阅 1360
Neg@@ 1359
不用说 1359
东北@@ 1359
判定 1359
哲@@ 1359
定理 1359
援@@ 1359
数千@@ 1359
每秒 1359
甜点 1359
约翰逊 1359
聘 1359
解体 1359
迦勒 1359
1941 1358
专线 1358
传教士 1358
做成 1358
发挥作用 1358
叙述 1358
向着 1358
妥善 1358
开辟 1358
拉姆斯 1358
精华 1358
跌倒 1358
Advanced 1357
M2 1357
gam@@ 1357
point 1357
供应量 1357
宰 1357
小狗 1357
解放阵线 1357
izh@@ 1356
三明治 1356
海牙 1356
肛交 1356
膏@@ 1356
芙 1356
蜡 1356
Bai@@ 1355
Carol@@ 1355
WIFI 1355
ept 1355
wor@@ 1355
姓 1355
开放@@ 1355
请点 1355
越野 1355
LilliCarati 1354
几分 1354
印度洋 1354
图库 1354
忽@@ 1354
接机 1354
数据源 1354
深远 1354
纪录片 1354
1917 1353
SM5545@@ 1353
SexyMirana 1353
mil@@ 1353
倒入 1353
厉 1353
布罗 1353
怀特 1353
扩建 1353
提高效率 1353
机械工程 1353
柱子 1353
相片 1353
联合国大会 1353
被告 1353
Bell@@ 1352
ican 1352
拉恩 1352
朴茨茅斯 1352
白云@@ 1352
盛名 1352
第九 1352
缓冲 1352
HC 1351
Help 1351
SCH@@ 1351
antibody 1351
一一 1351
住宅区 1351
孙利勇 1351
打死 1351
档@@ 1351
歇 1351
窃取 1351
童年 1351
辛苦 1351
09@@ 1350
Ky@@ 1350
Storage 1350
emon 1350
nam 1350
yan@@ 1350
上衣 1350
不由 1350
共产@@ 1350
奋斗 1350
房费 1350
手持式 1350
打扰 1350
编译器 1350
计数器 1350
风采 1350
Olym@@ 1349
close 1349
内部@@ 1349
四处 1349
大都市 1349
瑶 1349
第八 1349
选票 1349
那次 1349
QIQIGallery 1348
som@@ 1348
到位 1348
固定@@ 1348
巨型 1348
文件@@ 1348
替代品 1348
来不及 1348
监视器 1348
腹 1348
赋@@ 1348
骨骼 1348
1963 1347
7000 1347
Kon@@ 1347
rix 1347
全力 1347
参加者 1347
布列塔尼 1347
归功于 1347
往前 1347
恐慌 1347
恶心 1347
搅拌机 1347
梅里 1347
跟进 1347
跳跃 1347
Madrid 1346
刹@@ 1346
游乐 1346
红蜘蛛 1346
1958 1345
Model 1345
Stef@@ 1345
地缘 1345
外围 1345
年满 1345
矿石 1345
礼仪 1345
肠道 1345
越发 1345
6.4 1344
TEC 1344
WIKA 1344
以为@@ 1344
傲@@ 1344
冷却@@ 1344
月玲 1344
经济区 1344
苍白 1344
1956 1343
Sig@@ 1343
UT@@ 1343
oud 1343
wick 1343
书中 1343
代表处 1343
個 1343
兑 1343
准许 1343
多种语言 1343
得胜 1343
茎 1343
资金@@ 1343
Circle 1342
ashi 1342
don 1342
hon@@ 1342
las 1342
万名 1342
农用 1342
割 1342
彻 1342
心爱 1342
EK 1341
blowjob 1341
个案 1341
人要 1341
奏 1341
政府部门 1341
细致 1341
肆@@ 1341
行者 1341
eira 1340
做过 1340
克尔 1340
半径 1340
鑫@@ 1340
Hanting 1339
刃 1339
南亚 1339
大峡谷 1339
澄清 1339
0x80070002 1338
Cons@@ 1338
Lucky 1338
Site 1338
arter 1338
liv@@ 1338
oth 1338
东海 1338
伺服 1338
宪@@ 1338
额度 1338
007 1337
Bank@@ 1337
sv 1337
try@@ 1337
偏离 1337
勘探 1337
木头 1337
澡 1337
纪念日 1337
绿洲 1337
虫@@ 1337
风景优美 1337
Gateway 1336
TPP 1336
gate 1336
东正教 1336
之心 1336
勘@@ 1336
呼吸@@ 1336
尸 1336
患@@ 1336
豹 1336
迫 1336
ANE@@ 1335
iga 1335
人身@@ 1335
侦@@ 1335
后方 1335
壶 1335
应由 1335
柴油机 1335
耗 1335
软件测试 1335
EU 1334
TW@@ 1334
XI 1334
上半年 1334
内向 1334
医药@@ 1334
弗吉尼亚州 1334
机动车 1334
波浪 1334
申请@@ 1334
sites 1333
外国@@ 1333
蒂斯 1333
赠 1333
起伏 1333
防治 1333
高跟鞋 1333
eau 1332
ham@@ 1332
云中 1332
公牛 1332
打败 1332
替@@ 1332
督@@ 1332
秦 1332
终点 1332
翔@@ 1332
8.7 1331
9720 1331
pos 1331
免于 1331
插进 1331
董@@ 1331
路灯 1331
邮政编码 1331
隙 1331
中美 1330
丰富多彩 1330
学期 1330
应用软件 1330
航天 1330
1957 1329
Plat@@ 1329
ci 1329
亚历山@@ 1329
勒斯 1329
有过 1329
肢 1329
葡京 1329
锈 1329
BE 1328
Pas@@ 1328
ca@@ 1328
wer@@ 1328
人有 1328
动摇 1328
富人 1328
淫荡 1328
牢固 1328
芳 1328
贷 1328
通信@@ 1328
逢 1328
食材 1328
Brown 1327
Mov@@ 1327
Seattle 1327
ational 1327
now 1327
国立大学 1327
宵禁 1327
辩 1327
集体@@ 1327
需在 1327
AmberWillis 1326
ana@@ 1326
los 1326
伊斯@@ 1326
分离式 1326
基石 1326
惬意 1326
煮@@ 1326
织 1326
芦@@ 1326
Denver 1325
一小 1325
一度 1325
反病毒 1325
咋 1325
氧化物 1325
经贸 1325
高脚 1325
Kan@@ 1324
Vac@@ 1324
产品编号 1324
宏观经济 1324
巨蟹座 1324
怎样才能 1324
裁判 1324
逆变器 1324
长途@@ 1324
166 1323
245 1323
ANG 1323
AVE 1323
Fut@@ 1323
yo 1323
时髦 1323
盛大 1323
社群 1323
ott 1322
shop@@ 1322
丹佛 1322
开户 1322
有意思 1322
盟@@ 1322
管控 1322
CX@@ 1321
Controller 1321
FPGA 1321
are@@ 1321
themes 1321
克里 1321
看电视 1321
贫 1321
Search@@ 1320
erator 1320
review 1320
东海岸 1320
励@@ 1320
媚 1320
数码相机 1320
标识符 1320
环保@@ 1320
被盗 1320
阿斯顿 1320
ment@@ 1319
oss 1319
wei 1319
克森 1319
商务区 1319
晴@@ 1319
智能卡 1319
权人 1319
漫游 1319
路边 1319
V3 1318
五分钟 1318
华欣 1318
斯堪的纳维亚 1318
有事 1318
相遇 1318
福门 1318
联想 1318
黎明 1318
Loft 1317
Mumbai 1317
养老金 1317
发自 1317
尸@@ 1317
广西 1317
旅店 1317
狮子座 1317
羊羔 1317
该市 1317
Fit@@ 1316
abi 1316
aia 1316
bet@@ 1316
格里@@ 1316
立体声 1316
Progr@@ 1315
pur 1315
一瞬间 1315
伯尔尼 1315
俪 1315
诺基亚 1315
轮机 1315
通行 1315
Cert 1314
Henry 1314
bal@@ 1314
iche 1314
ound 1314
tag 1314
公投 1314
刑事责任 1314
好评率 1314
律师@@ 1314
残 1314
波尔多 1314
那人 1314
183 1313
1955 1313
302 1313
Motor 1313
lay@@ 1313
一是 1313
厨房@@ 1313
吸附 1313
天际线 1313
头衔 1313
尤为 1313
律例 1313
渡 1313
船员 1313
距@@ 1313
释 1313
饶 1313
You@@ 1312
ku 1312
内斯 1312
到访 1312
困 1312
国有 1312
大床 1312
小船 1312
短片 1312
117@@ 1311
Days 1311
iri 1311
ray 1311
佛法 1311
加航 1311
各州 1311
挡@@ 1311
摇滚 1311
梵@@ 1311
流量计 1311
碳水化合物 1311
觉醒 1311
July 1310
dong 1310
位移 1310
基督城 1310
导电 1310
投降 1310
领地 1310
黑白 1310
ATM 1309
Anal@@ 1309
Georgia 1309
Grande 1309
Hua 1309
Lite 1309
etr@@ 1309
outh 1309
ser 1309
sz@@ 1309
东南 1309
五条 1309
巧@@ 1309
拟@@ 1309
美居 1309
补救 1309
1947 1308
别致 1308
在此之前 1308
率先 1308
结帐 1308
资讯@@ 1308
钟表 1308
马拉@@ 1308
高等@@ 1308
ep 1307
习俗 1307
反应堆 1307
安道尔 1307
废弃 1307
按时 1307
换算 1307
世界报 1306
增量 1306
格但斯克 1306
箭@@ 1306
统计@@ 1306
这段 1306
酒庄 1306
闭上眼睛 1306
ASE 1305
SolidWorks 1305
publ@@ 1305
tw@@ 1305
寂寞 1305
我家 1305
承载 1305
棒球 1305
盈余 1305
私营 1305
自然环境 1305
鲜明 1305
临床试验 1304
全会 1304
喔 1304
基辅 1304
斯莫尔 1304
晨@@ 1304
被捕 1304
解散 1304
说不@@ 1304
顺畅 1304
220@@ 1303
Alber@@ 1303
GER 1303
PW 1303
一倍 1303
亚书 1303
保管箱 1303
刑事@@ 1303
就餐 1303
巨大@@ 1303
灌溉 1303
终端用户 1303
门店 1303
1954 1302
LINE 1302
Viv@@ 1302
五十@@ 1302
出任 1302
医学院 1302
千克 1302
可视 1302
宏观 1302
彼得@@ 1302
正文 1302
牛顿 1302
电磁 1302
黄金价格 1302
74LVTH16@@ 1301
Motion 1301
PKimage 1301
ango 1301
pages 1301
tr 1301
中心区 1301
区块 1301
场馆 1301
开端 1301
排球 1301
科夫 1301
英飞凌 1301
赤裸 1301
鉴赏家 1301
Alpha 1300
Bri@@ 1300
Eva 1300
Ki@@ 1300
Leon@@ 1300
Romania 1300
Tit@@ 1300
委屈 1300
宴会厅 1300
收藏夹 1300
着急 1300
繁殖 1300
胰@@ 1300
Magn@@ 1299
Raj@@ 1299
九章 1299
圣马@@ 1299
太大 1299
并发症 1299
相关者 1299
秘 1299
糕点 1299
芽庄 1299
高等 1299
黛@@ 1299
Lex@@ 1298
欧盟委员会 1298
歧@@ 1298
溶解 1298
肖像 1298
赛道 1298
额头 1298
142 1297
5.4 1297
Near 1297
eve 1297
有史以来 1297
至上 1297
cam 1296
rec@@ 1296
兑现 1296
尔克 1296
牛肉 1296
甜美 1296
经济危机 1296
美国国会 1296
ISE 1295
RI@@ 1295
xin@@ 1295
专利@@ 1295
名誉 1295
电厂 1295
225 1294
Owner 1294
SATA 1294
ict@@ 1294
句@@ 1294
叫声 1294
在线@@ 1294
实物 1294
政府@@ 1294
神父 1294
马提@@ 1294
PPT 1293
eck 1293
努力@@ 1293
印度人 1293
四章 1293
抽屉 1293
热心 1293
热烈@@ 1293
超高 1293
默认值 1293
Juan 1292
Look@@ 1292
MID@@ 1292
enza 1292
不知不觉 1292
克雷@@ 1292
圣者 1292
建筑材料 1292
诺贝尔@@ 1292
8.9 1291
G20 1291
Jan 1291
aster@@ 1291
ope 1291
yle 1291
具体情况 1291
延期 1291
捕 1291
爸@@ 1291
窗外 1291
缔@@ 1291
罗兰 1291
脱掉 1291
踩 1291
长得 1291
Anim@@ 1290
But 1290
porn 1290
干旱 1290
开展业务 1290
残忍 1290
石墨 1290
说谎 1290
越过 1290
轴向 1290
雀@@ 1290
Vic@@ 1289
三分之二 1289
中所@@ 1289
奥斯卡 1289
好客 1289
强烈建议 1289
连云港 1289
mobile 1288
亦@@ 1288
北极@@ 1288
恋爱 1288
海绵 1288
番@@ 1288
称义 1288
翻修 1288
血压 1288
马来@@ 1288
骚乱 1288
Bog@@ 1287
Director 1287
Joseph 1287
ential 1287
任何一方 1287
地步 1287
定律 1287
持有者 1287
机身 1287
浮潜 1287
电子邮件发送 1287
纪律 1287
翁俪虹 1287
见过 1287
造纸 1287
锌 1287
非常@@ 1287
Directory 1286
SM5544@@ 1286
What 1286
不堪 1286
外语 1286
快速增长 1286
烘焙 1286
缀 1286
花洒 1286
逗@@ 1286
金斯 1286
BT 1285
Milano 1285
els@@ 1285
space 1285
时装@@ 1285
网均 1285
轨迹 1285
Don 1284
FM@@ 1284
q952085582 1284
向量 1284
悉尼@@ 1284
拳击 1284
杆@@ 1284
猛然 1284
瑞士@@ 1284
用量 1284
造访 1284
高大 1284
Eurail 1283
Ever@@ 1283
Jalan 1283
tern@@ 1283
可扩展性 1283
娱乐@@ 1283
椎@@ 1283
毫不@@ 1283
非常容易 1283
音箱 1283
高血压 1283
Anti@@ 1282
HF 1282
Jol@@ 1282
Virtu 1282
国泰 1282
断开 1282
斯基克达 1282
末端 1282
纺@@ 1282
金融中心 1282
预设 1282
eri 1281
内未以 1281
分化 1281
布兰森 1281
弗朗@@ 1281
栏中 1281
梦幻 1281
死者 1281
淋 1281
淫水 1281
菩萨 1281
融化 1281
财物 1281
贺 1281
转头 1281
Italia 1280
NPN 1280
乞@@ 1280
凡是 1280
处境 1280
夺取 1280
守护 1280
局限 1280
株式会社 1280
越来越@@ 1280
50727.3662 1279
Esp@@ 1279
Lov@@ 1279
写信给 1279
忏悔 1279
晃 1279
汽车站 1279
荷 1279
郊@@ 1279
里亚尔 1279
143 1278
74VHCT@@ 1278
Cha@@ 1278
Mik@@ 1278
居所 1278
带入 1278
当代艺术 1278
星期天 1278
记忆@@ 1278
难得 1278
9.7 1277
900@@ 1277
GRE@@ 1277
团结@@ 1277
堆栈 1277
广义 1277
支持@@ 1277
条形码 1277
来电 1277
组织@@ 1277
胸膛 1277
跃 1277
Cho@@ 1276
KA@@ 1276
LG 1276
encia 1276
oes 1276
о 1276
凑 1276
数年 1276
断路器 1276
环形 1276
羡慕 1276
萨拉 1276
赛鸽 1276
长期@@ 1276
隐瞒 1276
Cheng 1275
Dong 1275
Fle@@ 1275
Monte 1275
Roc@@ 1275
raft 1275
内陆 1275
变异 1275
夹具 1275
想像 1275
扭转 1275
穆 1275
经上 1275
钢板 1275
Coast 1274
NewsList 1274
Prest@@ 1274
aven@@ 1274
± 1274
听听 1274
妻@@ 1274
新人 1274
晚饭 1274
津 1274
Hampton 1273
安科纳 1273
服务平台 1273
脏@@ 1273
西南部 1273
阻挡 1273
LR 1272
万维网 1272
保险人 1272
反恐 1272
帕罗 1272
更强 1272
若有 1272
运动鞋 1272
鸽子 1272
HAR@@ 1271
ask 1271
aus 1271
反思 1271
姑姑 1271
小童 1271
布线 1271
怡 1271
杉 1271
特伦 1271
签约 1271
过夜 1271
迦南 1271
LER 1270
stamp 1270
嫁 1270
棉花 1270
棍 1270
结实 1270
腰带 1270
臣仆 1270
Exhibition 1269
Jose 1269
Secret 1269
ials 1269
谱@@ 1269
Commun@@ 1268
Lima 1268
lo 1268
书签 1268
床铺 1268
摄入 1268
朴 1268
玄@@ 1268
脊柱 1268
舞会 1268
饮用 1268
傲 1267
插进去 1267
朋 1267
污秽 1267
沉积 1267
迈向 1267
颈 1267
Xen@@ 1266
动植物 1266
招商 1266
物权 1266
电动车 1266
稀 1266
红外线 1266
芝 1266
谦@@ 1266
颈部 1266
330@@ 1265
7.9 1265
FARO 1265
Visemar 1265
互惠 1265
低廉 1265
奴役 1265
施洗 1265
竭力 1265
记录仪 1265
EMF 1264
nl 1264
尖叫 1264
帕特雷 1264
跌落 1264
prof@@ 1263
博士@@ 1263
喷雾 1263
宰@@ 1263
巨额 1263
疑虑 1263
约旦河 1263
袖 1263
躁 1263
这样的话 1263
迫切 1263
马拉喀什 1263
驰@@ 1263
PB 1262
uang 1262
р 1262
出境 1262
古城 1262
奋进 1262
奥本 1262
宫颈癌 1262
文学@@ 1262
斯蒂@@ 1262
知名度 1262
莫桑比克 1262
轻型 1262
雅思 1262
非常高兴 1262
158 1261
238 1261
Sit@@ 1261
wang 1261
冥想 1261
几点 1261
单人 1261
多于 1261
悲哀 1261
烂 1261
返还 1261
郊 1261
阵营 1261
颂@@ 1261
Board 1260
Herm@@ 1260
eli 1260
低下 1260
午饭 1260
流连忘返 1260
畅销 1260
监察 1260
硕@@ 1260
行业新闻 1260
156 1259
凭@@ 1259
圣诞@@ 1259
巨头 1259
移徙 1259
继承人 1259
该类 1259
阿拉伯人 1259
降雨 1259
隶属于 1259
3.9 1258
reen 1258
发音 1258
回合 1258
差价 1258
笨 1258
言论自由 1258
越南@@ 1258
适于 1258
atr@@ 1257
cams 1257
ogo 1257
俄罗斯@@ 1257
凭据 1257
君@@ 1257
太过 1257
布里 1257
帐@@ 1257
心血管 1257
撇@@ 1257
绑 1257
NX 1256
一线 1256
创伤 1256
原先 1256
天文学 1256
市政府 1256
汗@@ 1256
笼@@ 1256
Back@@ 1255
EmmaBraun 1255
Kit 1255
之子 1255
会场 1255
参议员 1255
枢@@ 1255
栏@@ 1255
祢 1255
自私 1255
行列 1255
警惕 1255
Note 1254
何况 1254
堪 1254
对立 1254
应验 1254
惯@@ 1254
洪都拉斯 1254
点心 1254
类固醇 1254
hig@@ 1253
would 1253
书本 1253
惊恐 1253
惟有 1253
无声 1253
炭 1253
爆炸@@ 1253
讷 1253
雕@@ 1253
SuperEnalotto 1252
丛 1252
凯法利 1252
叔 1252
完备 1252
工程机械 1252
巴赫 1252
微米 1252
检疫 1252
油脂 1252
语言选择 1252
这样一来 1252
马赛克 1252
高美 1252
CNN 1251
EB@@ 1251
Forest 1251
Manor 1251
anti 1251
ches 1251
edit 1251
之力 1251
变焦 1251
坚挺 1251
拉姆 1251
招揽 1251
爱上 1251
Blu 1250
XS 1250
soft 1250
司祭 1250
纺织@@ 1250
Ath@@ 1249
B1 1249
Railway 1249
Zip 1249
一时间 1249
惊 1249
抵触 1249
斯普@@ 1249
AH 1248
JP@@ 1248
ators 1248
傍晚 1248
受洗 1248
少妇 1248
廷@@ 1248
房里 1248
新手 1248
秀丽 1248
行传 1248
Ibis 1247
exc@@ 1247
inst@@ 1247
size 1247
vi 1247
不容 1247
充分发挥 1247
创造者 1247
摩洛 1247
撒丁岛 1247
无损 1247
枕 1247
某项 1247
清洁剂 1247
献祭 1247
而行 1247
辨识 1247
阐明 1247
Base 1246
dorf 1246
grann@@ 1246
nia 1246
伊尔 1246
刚果 1246
淹没 1246
猛烈 1246
电子表格 1246
病变 1246
Cand@@ 1245
ety 1245
izz@@ 1245
ken 1245
拢 1245
泊 1245
英亩 1245
这部分 1245
74LV@@ 1244
Euro 1244
Happy 1244
INA 1244
chen@@ 1244
上合 1244
济南 1244
ASX 1243
LM3@@ 1243
T250 1243
uma 1243
东南部 1243
伺候 1243
低声 1243
利沃诺 1243
大豆 1243
弗吉尼亚 1243
最佳@@ 1243
理事 1243
被保险人 1243
野兽 1243
铸铁 1243
Delta 1242
Hay@@ 1242
PF 1242
RG@@ 1242
WAV 1242
人去 1242
弗兰@@ 1242
源文件 1242
灯塔 1242
田野 1242
表上 1242
Pant@@ 1241
Style 1241
agu@@ 1241
不解 1241
利沙 1241
力求 1241
原生 1241
突变 1241
竞标 1241
胸罩 1241
AWS 1240
Energy 1240
make 1240
vCenter 1240
圣克鲁斯 1240
烟花 1240
片剂 1240
芒@@ 1240
Check@@ 1239
Chemin 1239
alia 1239
qiao 1239
上游 1239
借贷 1239
军团 1239
加勒比 1239
周四 1239
坐式 1239
拖动 1239
毒性 1239
溢 1239
炎症 1239
照亮 1239
起飞 1239
遗忘 1239
Ho@@ 1238
Marykiska99 1238
Side 1238
Wel@@ 1238
conf 1238
夷@@ 1238
昆明 1238
未必 1238
死亡率 1238
测量仪 1238
珊珊 1238
瓦拉 1238
眸 1238
缓和 1238
翻转 1238
职场 1238
躺@@ 1238
Apartam@@ 1237
Springs 1237
ogr@@ 1237
下拉菜单 1237
分隔 1237
头寸 1237
封锁 1237
度假区 1237
愧 1237
手法 1237
打着 1237
衰老 1237
162 1236
195 1236
Aud@@ 1236
Subversion 1236
mond 1236
二零一 1236
弗雷德 1236
征得 1236
拾@@ 1236
暴力@@ 1236
罗波安 1236
1953 1235
3N@@ 1235
ALL 1235
ALL@@ 1235
Illustrator 1235
XT 1235
adi 1235
为本 1235
人工@@ 1235
凭着 1235
真空泵 1235
美军 1235
耳环 1235
银色 1235
龙涛 1235
Atlant@@ 1234
Cefalonia 1234
Islands 1234
seo 1234
书房 1234
伯里 1234
做事 1234
全是 1234
出入 1234
废弃物 1234
晟 1234
清晰度 1234
物资 1234
MAT@@ 1233
TER@@ 1233
invest@@ 1233
库塔 1233
赐予 1233
隐 1233
Files 1232
Ko@@ 1232
Vin@@ 1232
bg@@ 1232
edge 1232
冲压 1232
最强 1232
硬化 1232
BEL@@ 1231
inx 1231
商旅 1231
城中 1231
实用程序 1231
永 1231
液位 1231
渔业 1231
甘 1231
腰部 1231
一来 1230
热水器 1230
Camp 1229
Memory 1229
RI 1229
Resorts 1229
gi 1229
wat@@ 1229
三国 1229
喷 1229
嫩@@ 1229
己@@ 1229
废墟 1229
或默示 1229
打印@@ 1229
拉克 1229
海里 1229
408 1228
COL@@ 1228
Ho 1228
erra 1228
ments 1228
ner@@ 1228
sa@@ 1228
两台 1228
售后 1228
西岛 1228
酒厂 1228
镑 1228
1933 1227
摩押 1227
玩游戏 1227
秤 1227
翻译成 1227
蕴@@ 1227
蜂窝 1227
表示@@ 1227
褐色 1227
贯 1227
Heritage 1226
上空 1226
仁川 1226
击杀 1226
国家级 1226
塔吉克斯坦 1226
年长 1226
慰@@ 1226
木制 1226
综@@ 1226
质保 1226
金子 1226
Gol@@ 1225
仿 1225
侵蚀 1225
哥伦比亚特区 1225
未成年 1225
栗 1225
理财 1225
革命@@ 1225
SON 1224
体形 1224
打断 1224
拉力 1224
收据 1224
焊接机 1224
端的 1224
隔壁 1224
159 1223
Delhi 1223
LES 1223
Taiisa 1223
兰德 1223
幼儿 1223
深厚 1223
筹备 1223
系统管理员 1223
股份公司 1223
连续性 1223
领略 1223
ISA 1222
Nova 1222
委托人 1222
姬 1222
尼龙 1222
屁 1222
微观 1222
橡@@ 1222
汇聚 1222
看守 1222
真人 1222
169 1221
Frankfurt 1221
SGS 1221
Texts 1221
众民 1221
推理 1221
月光 1221
神鹰 1221
福克斯 1221
第四章 1221
行长 1221
170@@ 1220
Enter 1220
Termini 1220
丰田 1220
估计值 1220
压抑 1220
双击 1220
安妮 1220
山东省 1220
平方@@ 1220
面具 1220
斯图@@ 1219
浓 1219
胎@@ 1219
袜 1219
高级专员 1219
Villas 1218
even 1218
frame 1218
rat@@ 1218
中东地区 1218
涂抹 1218
153 1217
Audio 1217
DD 1217
ROM 1217
Siem 1217
UB 1217
ball 1217
ny@@ 1217
sy@@ 1217
单程 1217
斜 1217
核能 1217
简 1217
雌@@ 1217
Aff@@ 1216
Consult@@ 1216
Gartner 1216
Trojan 1216
artic@@ 1216
dt 1216
hk 1216
与此有关 1216
中山 1216
元首 1216
先驱 1216
博拉 1216
多地 1216
子弹 1216
桃 1216
颁奖典礼 1216
1944 1215
dy 1215
加拉 1215
却@@ 1215
夜里 1215
巫@@ 1215
柯 1215
款待 1215
瞩目 1215
讯@@ 1215
诺德 1215
420 1214
9380 1214
Iv@@ 1214
主阿 1214
卖出 1214
巴德 1214
巴拉圭 1214
库克 1214
想象力 1214
派锐 1214
清华 1214
税务机关 1214
维京 1214
贝格 1214
车床 1214
850 1213
BustyxxHelen 1213
动力@@ 1213
弗洛@@ 1213
材@@ 1213
落入 1213
递 1213
Am 1212
uploads 1212
二维 1212
亞@@ 1212
伽@@ 1212
唾@@ 1212
多方面 1212
淳风 1212
球阀 1212
票数 1212
陶 1212
Homestay 1211
Ker@@ 1211
Oliv@@ 1211
一轮 1211
七天 1211
两边 1211
卡罗@@ 1211
小岛 1211
惠灵顿 1211
深层 1211
阿尔赫西 1211
BY 1210
Dig@@ 1210
girls 1210
slide 1210
地球@@ 1210
堪称 1210
密封件 1210
心率 1210
拔出 1210
无菌 1210
百分点 1210
财政部 1210
质量标准 1210
赏@@ 1210
高级@@ 1210
2SD@@ 1209
DEL@@ 1209
DH@@ 1209
Developer 1209
Sin@@ 1209
aco@@ 1209
void 1209
一小部分 1209
倩 1209
公用 1209
别名 1209
平均值 1209
开关@@ 1209
总局 1209
日内 1209
牧人 1209
赔@@ 1209
醒过来 1209
鉴@@ 1209
队员 1209
sp 1208
when 1208
保姆 1208
加勒比地区 1208
基础知识 1208
怎么@@ 1208
拿单 1208
自由贸易 1208
隔热 1208
41@@ 1207
54LS@@ 1207
Fair@@ 1207
GI 1207
Hend@@ 1207
Please 1207
Rid@@ 1207
lik@@ 1207
东北部 1207
传感 1207
保护措施 1207
前线 1207
即刻 1207
掩 1207
氨基酸 1207
氮@@ 1207
瓣 1207
眉头 1207
鸣 1207
235 1206
py@@ 1206
wifi 1206
一国 1206
件事 1206
宝马 1206
崩@@ 1206
持续增长 1206
斯特伦 1206
杰作 1206
构想 1206
熊猫 1206
ASTM 1205
Kap@@ 1205
Our 1205
Spe@@ 1205
Wyndham 1205
参与@@ 1205
奶嘴 1205
法定@@ 1205
轰炸 1205
追赶 1205
附录 1205
马萨诸塞州 1205
1936 1204
Auto@@ 1204
agen 1204
世纪末 1204
乐于 1204
多哈 1204
时性 1204
考量 1204
表面@@ 1204
首款 1204
Drama 1203
Kim@@ 1203
SN74AHC245@@ 1203
下巴 1203
乘车 1203
争夺 1203
刚果民主共和国 1203
劣@@ 1203
开幕式 1203
浮 1203
现存 1203
衰竭 1203
访谈 1203
遗失 1203
Farm 1202
Ig@@ 1202
RY 1202
SynfuAmber 1202
Term@@ 1202
结交 1202
裁 1202
逼迫 1202
雨水 1202
FC@@ 1201
lines 1201
卜@@ 1201
喝咖啡 1201
打字 1201
法拉利 1201
金刚石 1201
Alex@@ 1200
Frank 1200
IPS 1200
Just@@ 1200
Vega 1200
嘴角 1200
蜘蛛 1200
车厢 1200
重现 1200
1919 1199
Brooks 1199
model 1199
sur@@ 1199
为业 1199
人才@@ 1199
停产 1199
初次 1199
摄氏度 1199
救世主 1199
期满 1199
源头 1199
盖子 1199
遍@@ 1199
题@@ 1199
3GP 1198
MX 1198
Tai@@ 1198
appl@@ 1198
awn 1198
eu 1198
eway 1198
files 1198
一百零@@ 1198
二者 1198
小穴 1198
数据安全 1198
汕@@ 1198
素食者 1198
绝缘@@ 1198
荷兰语 1198
视网膜 1198
164 1197
Ped@@ 1197
Roo@@ 1197
ife 1197
专区 1197
五颜六色 1197
所处 1197
改良 1197
晚间 1197
移交 1197
茹嫣 1197
负有 1197
面对面 1197
黄金@@ 1197
380 1196
Marie 1196
View@@ 1196
W0rld 1196
bed@@ 1196
光束 1196
宽恕 1196
年会 1196
提请 1196
水性 1196
精湛 1196
ENGLISH 1195
H4cking 1195
Obaby 1195
PK@@ 1195
Reap 1195
UE 1195
asi 1195
ision 1195
公共场所 1195
托斯卡纳 1195
照明@@ 1195
640 1194
7.7 1194
rad@@ 1194
公开@@ 1194
加里 1194
圣卢西亚 1194
尝 1194
找个 1194
水槽 1194
生产流程 1194
科目 1194
空缺 1194
论点 1194
KR 1193
上课 1193
商业模式 1193
对准 1193
机器@@ 1193
检查和 1193
翘@@ 1193
Bull@@ 1192
Field 1192
Mou@@ 1192
н 1192
举起 1192
会以 1192
恰恰 1192
泄@@ 1192
社交活动 1192
Personal 1191
RT 1191
put 1191
冰冷 1191
判 1191
向本 1191
增益 1191
录取 1191
房间内 1191
斯特拉 1191
朝向 1191
果实 1191
现金@@ 1191
试点 1191
里克 1191
针织 1191
Silver@@ 1190
λ 1190
两周 1190
依托 1190
名词 1190
拒@@ 1190
FX@@ 1189
NT 1189
rot@@ 1189
三世 1189
举办活动 1189
半年 1189
富含 1189
我俩 1189
抽动 1189
方言 1189
网路 1189
601 1188
KaelynDiva 1188
common 1188
体系结构 1188
关系@@ 1188
威斯汀 1188
阴唇 1188
项目经理 1188
高下 1188
ION@@ 1187
Pierre 1187
add 1187
eu@@ 1187
iers 1187
决策@@ 1187
加州大学 1187
午夜 1187
小鸟 1187
耶夫 1187
臀 1187
谜 1187
辨别 1187
金牌 1187
700@@ 1186
Adult 1186
PNG 1186
Richard 1186
SNAV 1186
Sign 1186
eral 1186
how 1186
want 1186
т 1186
伤亡 1186
古典@@ 1186
台式机 1186
岂@@ 1186
带回 1186
悔 1186
扰 1186
模组 1186
测验 1186
满足@@ 1186
1952 1185
Disney 1185
try 1185
ument 1185
仔细@@ 1185
军方 1185
多台 1185
多长时间 1185
布林迪西 1185
江西 1185
硝@@ 1185
筑 1185
默默 1185
6.8 1184
Nicky30 1184
RE 1184
SN74AHCU04@@ 1184
Science 1184
Three 1184
contentView 1184
webcam 1184
参展商 1184
咖啡壶 1184
师傅 1184
批量生产 1184
此地 1184
肋 1184
说不定 1184
豪华轿车 1184
降解 1184
ANSI 1183
Hi@@ 1183
Jordan 1183
Squ@@ 1183
eth 1183
乏@@ 1183
冒充 1183
堤 1183
干脆 1183
炒@@ 1183
照射 1183
誉 1183
跑车 1183
IDATE 1182
eBay 1182
rich 1182
全面@@ 1182
古怪 1182
宗教信仰 1182
成型机 1182
抑郁症 1182
排队 1182
月初 1182
机油 1182
概@@ 1182
溢@@ 1182
而设 1182
Front@@ 1181
Ref@@ 1181
Town@@ 1181
via 1181
兽@@ 1181
开销 1181
彼拉多 1181
族@@ 1181
聘@@ 1181
霞 1181
Let@@ 1180
RG 1180
T1K 1180
tech 1180
一晚 1180
傻瓜 1180
拦截 1180
斋@@ 1180
琳娜 1180
美金 1180
衬 1180
钢筋 1180
阅@@ 1180
食品工业 1180
230@@ 1179
Bali 1179
Hen@@ 1179
MM 1179
azz@@ 1179
來 1179
回报率 1179
指挥官 1179
预留 1179
Hospital 1178
anne 1178
aug@@ 1178
ovo 1178
杀戮 1178
柳 1178
爹 1178
玩真 1178
第一章 1178
蔚@@ 1178
规划@@ 1178
路德 1178
郑重 1178
重塑 1178
阈值 1178
Compl@@ 1177
Gall@@ 1177
eva 1177
ury 1177
一回 1177
切尔西 1177
图片@@ 1177
播放列表 1177
植入 1177
澳元 1177
Cache 1176
MER@@ 1176
MR 1176
Out 1176
刮 1176
反弹 1176
咸@@ 1176
官僚 1176
看清 1176
肮脏 1176
莹 1176
身旁 1176
颠覆 1176
Intern@@ 1175
Pedro 1175
ego 1175
pack@@ 1175
不说 1175
人中 1175
嫁@@ 1175
强壮 1175
时间段 1175
服侍 1175
煽动 1175
独一 1175
获奖者 1175
蝶@@ 1175
酿 1175
院士 1175
184 1174
Dragon 1174
Johnson 1174
Moscow 1174
Tul@@ 1174
WC 1174
iles 1174
na@@ 1174
戈斯 1174
特许权 1174
省钱 1174
199 1173
258 1173
Gard@@ 1173
Georg@@ 1173
Van@@ 1173
善意 1173
法国人 1173
洞察力 1173
游船 1173
特瑞堡 1173
窃 1173
筑@@ 1173
腐@@ 1173
踏上 1173
这本 1173
韦尔 1173
bus@@ 1172
到时候 1172
又称 1172
嗓@@ 1172
家装 1172
根管 1172
菲什 1172
表盘 1172
鼠@@ 1172
Branson 1171
Cruz 1171
一岁 1171
合营 1171
回转 1171
多瑙河 1171
妥 1171
履行@@ 1171
想一想 1171
抛 1171
斯蒂芬 1171
歌唱 1171
现成 1171
电能 1171
磐石 1171
第二条 1171
降到 1171
饭菜 1171
ATA 1170
FE@@ 1170
aci 1170
ander 1170
ple@@ 1170
post@@ 1170
stat@@ 1170
佑 1170
时分 1170
有机硅 1170
漩涡 1170
穴@@ 1170
调制 1170
躺椅 1170
迷宫 1170
316 1169
CV@@ 1169
Engine 1169
FF@@ 1169
Marc@@ 1169
NSR 1169
任由 1169
布莱@@ 1169
推测 1169
暴动 1169
泪 1169
泰式 1169
衡 1169
订制 1169
骗子 1169
Right 1168
Zhu@@ 1168
传染病 1168
列支敦士登 1168
地去 1168
城市化 1168
波尔 1168
管路 1168
议案 1168
首届 1168
Brook@@ 1167
Chris 1167
Love@@ 1167
Penthouse 1167
Trip@@ 1167
二个 1167
公司章程 1167
利兹 1167
卡拉@@ 1167
工业区 1167
想过 1167
更进一步 1167
直销 1167
脊@@ 1167
静音 1167
Pink 1166
ingen 1166
store 1166
story 1166
times 1166
丙@@ 1166
山丘 1166
流媒体 1166
率领 1166
膝@@ 1166
資@@ 1166
152 1165
Acc@@ 1165
Miller 1165
rent 1165
rose 1165
var 1165
ā 1165
系统性 1165
遣@@ 1165
JB 1164
Zoo 1164
bbs 1164
equ@@ 1164
oro 1164
qing 1164
全然 1164
压缩空气 1164
圣马力诺 1164
忿怒 1164
疟疾 1164
移动电话 1164
轩 1164
转载 1164
软件应用 1164
Cross@@ 1163
amil@@ 1163
duc@@ 1163
fo 1163
ils 1163
jie 1163
photo 1163
全球@@ 1163
呈现出 1163
周三 1163
大衣 1163
座落 1163
提供@@ 1163
服事 1163
玩弄 1163
美好@@ 1163
雪白 1163
820 1162
Thai 1162
erson@@ 1162
ismo 1162
仕@@ 1162
史塔 1162
壁垒 1162
多大 1162
尔巴@@ 1162
属灵 1162
干燥@@ 1162
构件 1162
汽车配件 1162
电讯 1162
管理机构 1162
萎缩 1162
EUN 1161
LL 1161
Pages 1161
Strat@@ 1161
TN@@ 1161
Univers@@ 1161
Vir@@ 1161
bod@@ 1161
ural 1161
格尔弗安希 1161
水流 1161
洛赫 1161
粘合剂 1161
迷失 1161
钻戒 1161
anta 1160
sem@@ 1160
不为 1160
价钱 1160
保护主义 1160
出血 1160
半球 1160
圣路易斯 1160
察觉 1160
德勒 1160
整整 1160
牛仔 1160
纵向 1160
176 1159
CDN 1159
android 1159
bank@@ 1159
tri@@ 1159
亲戚 1159
历史数据 1159
城邑 1159
大容量 1159
授课 1159
明德 1159
科布 1159
贞@@ 1159
迈出 1159
211 1158
Poly@@ 1158
spe@@ 1158
上佳 1158
书上 1158
化物 1158
十七 1158
名片 1158
塞拉利昂 1158
扇@@ 1158
熔化 1158
须知 1158
Century 1157
hard 1157
oke 1157
剃@@ 1157
消化@@ 1157
篡改 1157
纱@@ 1157
绘@@ 1157
集成式 1157
B2 1156
Django 1156
Nicol@@ 1156
SCA@@ 1156
rap@@ 1156
乌斯 1156
党员 1156
卡斯@@ 1156
哈尔滨 1156
喧嚣 1156
复仇 1156
投标 1156
橙@@ 1156
缩减 1156
螺母 1156
走近 1156
酒店式 1156
阿布 1156
饱满 1156
骚@@ 1156
Canon 1155
发誓 1155
大饭店 1155
奇异 1155
晚会 1155
普鲁士 1155
曝@@ 1155
肿@@ 1155
达成协议 1155
50727.@@ 1154
Christian 1154
Corn@@ 1154
JE@@ 1154
Sync 1154
odes 1154
ser@@ 1154
入口处 1154
稿@@ 1154
行动计划 1154
逝世 1154
配额 1154
颠@@ 1154
5.8 1153
CONTACT 1153
LAN@@ 1153
Ticonderoga 1153
以供 1153
前列 1153
摩羯座 1153
显出 1153
油价 1153
珀斯 1153
财 1153
113@@ 1152
dou@@ 1152
them 1152
不懈 1152
些@@ 1152
往常 1152
所要 1152
犹@@ 1152
美学 1152
说来 1152
返 1152
魂@@ 1152
Cert@@ 1151
Human 1151
Mi@@ 1151
Petit 1151
Sheraton 1151
Swiss 1151
ds@@ 1151
š 1151
个人电脑 1151
决不 1151
妃 1151
数千 1151
构@@ 1151
纳米比亚 1151
解码 1151
集成电路 1151
额@@ 1151
51@@ 1150
Diego 1150
Silicon 1150
git 1150
刀剑 1150
删@@ 1150
博洛尼亚 1150
咨询@@ 1150
强势 1150
柏 1150
椭圆形 1150
环境影响 1150
纹身 1150
败坏 1150
道德@@ 1150
铸件 1150
Mess@@ 1149
PH 1149
dale 1149
enb@@ 1149
obe 1149
ules 1149
who 1149
依本 1149
傲慢 1149
刹车 1149
听话 1149
币@@ 1149
急需 1149
投资银行 1149
泰尔 1149
监管@@ 1149
短路 1149
ELEMENTARY 1148
Meta 1148
ZAR 1148
ika@@ 1148
inn 1148
免税 1148
圣基茨 1148
如图 1148
慧@@ 1148
打量 1148
股票@@ 1148
链条 1148
CRE@@ 1147
Hard@@ 1147
MAN 1147
eck@@ 1147
iko 1147
ists 1147
uch@@ 1147
展示@@ 1147
怒气 1147
机动 1147
琥珀 1147
琼斯 1147
领事 1147
Channel 1146
Region 1146
tit@@ 1146
公共卫生 1146
吞吐量 1146
气缸 1146
源泉 1146
盛会 1146
SMS 1145
XM 1145
agon 1145
avi 1145
emma 1145
发电厂 1145
多位 1145
宽大 1145
尼尔 1145
第二年 1145
重重 1145
预知 1145
IZ@@ 1144
Lady 1144
Quinta 1144
filter 1144
than 1144
一经 1144
五大 1144
亡@@ 1144
受限 1144
填 1144
寄宿 1144
巡演 1144
布尔@@ 1144
思想@@ 1144
恐怖@@ 1144
日益增长 1144
碳纤维 1144
组分 1144
Caf 1143
Night 1143
反光 1143
国有@@ 1143
奢侈 1143
居家 1143
挖 1143
数字式 1143
演化 1143
砍伐 1143
续订 1143
胸口 1143
螺旋@@ 1143
闭上 1143
228 1142
Bag@@ 1142
Birmingham 1142
BrandyWhite 1142
Brazil 1142
ache 1142
aig@@ 1142
eum 1142
ograph@@ 1142
下线 1142
仑 1142
优于 1142
优惠价格 1142
兔子 1142
周边@@ 1142
商用车 1142
圣托 1142
娱乐中心 1142
甲状腺 1142
粤@@ 1142
诺夫 1142
首脑 1142
178 1141
198 1141
ARE 1141
Color 1141
Lau@@ 1141
den@@ 1141
lish 1141
下半@@ 1141
前列腺癌 1141
嵌@@ 1141
平均价 1141
引脚 1141
援 1141
毯 1141
液压@@ 1141
证券@@ 1141
适应性 1141
黑夜 1141
Font@@ 1140
Trader 1140
fel@@ 1140
onom@@ 1140
rooms 1140
今年@@ 1140
几十@@ 1140
发热 1140
各式 1140
岳@@ 1140
握@@ 1140
犹他州 1140
第一批 1140
290 1139
510 1139
Driv@@ 1139
Ye@@ 1139
不列颠 1139
优惠@@ 1139
公共服务 1139
参考资料 1139
各种类型 1139
撑 1139
柴@@ 1139
灌装机 1139
石英 1139
Esaote 1138
Ruyi 1138
XI@@ 1138
mark@@ 1138
ower 1138
write 1138
以下内容 1138
忠诚度 1138
红利 1138
腓@@ 1138
西贡 1138
赢家 1138
54FCT374@@ 1137
GM 1137
TY@@ 1137
ili 1137
保温 1137
尼维斯 1137
有种 1137
耀@@ 1137
脑子 1137
逛@@ 1137
领导@@ 1137
首歌 1137
Brampton 1136
Invest 1136
Naughty 1136
aver@@ 1136
ways 1136
九个 1136
卵 1136
吸入 1136
德黑兰 1136
扶手 1136
放进 1136
波特兰 1136
窍门 1136
西亚@@ 1136
近距离 1136
问答 1136
Gur@@ 1135
IRF@@ 1135
STE@@ 1135
不容@@ 1135
佛得角 1135
户外活动 1135
教科书 1135
村民 1135
点儿 1135
长长的 1135
静脉 1135
题为 1135
麦加 1135
Greece 1134
Waterfront 1134
iere 1134
俄亥俄州 1134
债@@ 1134
尼古拉 1134
棘手 1134
滑块 1134
畅 1134
祖母 1134
立约 1134
经合组织 1134
闷@@ 1134
208 1133
SAR 1133
Sv@@ 1133
TV@@ 1133
kins 1133
出借 1133
新版 1133
混蛋 1133
结识 1133
蒙德 1133
适用范围 1133
ISL@@ 1132
Joh@@ 1132
NOR@@ 1132
Table 1132
会议@@ 1132
姑@@ 1132
对外开放 1132
干部 1132
挪威@@ 1132
杭@@ 1132
盒@@ 1132
自然风光 1132
萝@@ 1132
蚂蚁 1132
Antalaha 1131
CTR@@ 1131
Hangzhou 1131
KinkyMoni 1131
信箱 1131
基利 1131
娱乐场所 1131
山林 1131
晕@@ 1131
果树 1131
概括 1131
白羊座 1131
空气@@ 1131
胡克 1131
薛@@ 1131
被子 1131
香港特别行政区 1131
Jackson 1130
Total 1130
Vall@@ 1130
entry 1130
别说 1130
奥林匹克运动会 1130
攻略 1130
日文 1130
极力 1130
装入 1130
首家 1130
Nast@@ 1129
Wall@@ 1129
aud@@ 1129
mal@@ 1129
pass@@ 1129
wen@@ 1129
三名 1129
使用费 1129
圈子 1129
安全可靠 1129
宣 1129
巴兰 1129
或非 1129
报导 1129
控股公司 1129
理查德 1129
纶 1129
美因河 1129
肢体 1129
贵金属 1129
里奇 1129
167 1128
FP 1128
Na@@ 1128
Transl@@ 1128
self 1128
were 1128
博伊 1128
尼加拉瓜 1128
开合 1128
怎@@ 1128
批判 1128
沟@@ 1128
落下 1128
赫尔辛堡 1128
首批 1128
马克思主义 1128
HT 1127
Jew@@ 1127
box@@ 1127
ography 1127
rom@@ 1127
zer 1127
一号 1127
债权 1127
帕尼 1127
肝炎 1127
跑道 1127
风景@@ 1127
Arc@@ 1126
HBM 1126
Spain 1126
局域网 1126
歉意 1126
镶@@ 1126
障 1126
Buenos 1125
Eb@@ 1125
Grand@@ 1125
Update 1125
cast@@ 1125
def@@ 1125
健康状况 1125
存入 1125
对照 1125
庙@@ 1125
洒@@ 1125
耐高温 1125
茨基 1125
蜜 1125
重新安装 1125
鉴 1125
香气 1125
207 1124
But@@ 1124
Nai@@ 1124
mm@@ 1124
不敢相信 1124
双臂 1124
多种@@ 1124
大功率 1124
第一百 1124
谅解 1124
蹲 1124
重叠 1124
重命名 1124
金币 1124
银行业 1124
1050 1123
2EMFTR 1123
Barb@@ 1123
French 1123
Grade 1123
Sample 1123
Spl@@ 1123
Yu@@ 1123
使该 1123
商业利益 1123
图象 1123
本届 1123
滕@@ 1123
磊 1123
紧急@@ 1123
209 1122
Electro 1122
NFC 1122
ff 1122
丹东 1122
你别 1122
冷藏 1122
平坦 1122
最低@@ 1122
矮@@ 1122
自由主义 1122
詹@@ 1122
计入 1122
追加 1122
银行卡 1122
25.@@ 1121
2G 1121
Course 1121
KLSE 1121
Tang@@ 1121
error 1121
ingo 1121
ipe 1121
哈佛 1121
心事 1121
戳 1121
摘录 1121
滥@@ 1121
白葡萄酒 1121
紧迫 1121
纳米@@ 1121
聚乙烯 1121
踢@@ 1121
野心 1121
霍尔姆 1121
DO 1120
FF 1120
Set 1120
dh@@ 1120
一圈 1120
三角洲 1120
上层 1120
以利 1120
商量 1120
礼品店 1120
管材 1120
菲尔 1120
BN@@ 1119
Fa@@ 1119
Imerese 1119
交易商 1119
侨@@ 1119
展品 1119
特雷@@ 1119
私营部门 1119
袖@@ 1119
AK 1118
Argentina 1118
Bang 1118
JPEG 1118
一百 1118
不理 1118
佛山 1118
入选 1118
兴建 1118
垃圾@@ 1118
朝阳 1118
眯@@ 1118
矿产 1118
谜题 1118
ANA 1117
EFI 1117
WIL@@ 1117
yang@@ 1117
开发工具 1117
总站 1117
无忧 1117
晒@@ 1117
王室 1117
锤@@ 1117
首选项 1117
3C 1116
EUNTR 1116
PLA@@ 1116
WA@@ 1116
ishi 1116
profile 1116
view@@ 1116
几率 1116
可行性 1116
国土 1116
坡@@ 1116
寡妇 1116
应答 1116
急促 1116
无处不在 1116
来时 1116
灾难性 1116
疾@@ 1116
第四次 1116
许茹卿 1116
说实话 1116
达尔文 1116
邮轮 1116
金士顿 1116
2A 1115
4.7 1115
ALE 1115
CX 1115
LTE 1115
zhu 1115
三菱 1115
保卫 1115
创性 1115
外交@@ 1115
小时候 1115
扫除 1115
猪@@ 1115
紧固件 1115
罗得岛 1115
耕 1115
蔽 1115
韩语 1115
Abb@@ 1114
CB 1114
Cou@@ 1114
Four 1114
Inchange 1114
du@@ 1114
rop 1114
克制 1114
克罗地亚语 1114
勒姆 1114
医疗@@ 1114
才华 1114
直布罗陀 1114
肆 1114
肇@@ 1114
贝尔格莱德 1114
郑州 1114
ACSI 1113
Sol 1113
修剪 1113
囊@@ 1113
塑料制品 1113
奥尔 1113
奴仆 1113
宠物@@ 1113
细微 1113
龙头 1113
Barco 1112
Com 1112
Computer 1112
何莉萍 1112
十字@@ 1112
合金@@ 1112
学业 1112
指示灯 1112
楼上 1112
穷 1112
第五章 1112
规矩 1112
IH@@ 1111
Jard@@ 1111
aining 1111
imate 1111
ying 1111
接线 1111
栖@@ 1111
榨@@ 1111
沫 1111
触及 1111
金牛座 1111
A2 1110
Bornholmstrafikken 1110
CAH 1110
Dam@@ 1110
Git 1110
dit@@ 1110
fal@@ 1110
vo@@ 1110
wikivoyage 1110
图像处理 1110
坤 1110
撒谎 1110
王毅 1110
监 1110
社会科学 1110
错误信息 1110
Fed@@ 1109
Fran@@ 1109
Library 1109
MAC@@ 1109
Pur@@ 1109
center 1109
egr@@ 1109
hover 1109
ign 1109
ult 1109
八章 1109
压力@@ 1109
学生@@ 1109
平均价格 1109
忌 1109
瓦尔@@ 1109
男生 1109
绝大部分 1109
计费 1109
逸@@ 1109
钓 1109
DAT@@ 1108
Gor@@ 1108
ension 1108
不太可能 1108
定做 1108
少数@@ 1108
拥 1108
浪潮 1108
追究 1108
逼@@ 1108
KEC 1107
RIS@@ 1107
esco 1107
优秀品质 1107
商务部 1107
时才 1107
本网 1107
正宗 1107
费率 1107
钻孔 1107
颜 1107
191 1106
BEST 1106
FQ@@ 1106
Nord@@ 1106
led 1106
malaysia 1106
rt@@ 1106
yer 1106
中旬 1106
六十 1106
吊 1106
寡@@ 1106
工人阶级 1106
归类 1106
斯图加特 1106
玩儿 1106
通知书 1106
额定@@ 1106
验收 1106
Chr@@ 1105
Lay@@ 1105
Praia 1105
Tpl 1105
deb@@ 1105
kW 1105
ral 1105
凸显 1105
加德满都 1105
喊@@ 1105
捍卫者 1105
独立性 1105
GMT 1104
eff@@ 1104
一首 1104
三十年 1104
兆@@ 1104
地方@@ 1104
恐怖分子 1104
摩根 1104
阮梅 1104
驾驶室 1104
189 1103
Meg@@ 1103
walk 1103
乒乓球 1103
喉@@ 1103
嘱咐 1103
大洋洲 1103
要死 1103
Maison 1102
Sonos 1102
喻 1102
大批 1102
神殿 1102
陵@@ 1102
369 1101
Chen 1101
He 1101
cheng@@ 1101
typ@@ 1101
不知@@ 1101
世界卫生组织 1101
低估 1101
天蝎座 1101
恍@@ 1101
特殊@@ 1101
美发 1101
雄厚 1101
DP@@ 1100
Jam@@ 1100
MC10@@ 1100
Niceblonde 1100
Polar 1100
comment 1100
vent@@ 1100
哈斯 1100
尾巴 1100
布里奇 1100
志愿 1100
格外 1100
气压 1100
润滑剂 1100
视听 1100
锦 1100
COMP@@ 1099
FE 1099
HY@@ 1099
MacBook 1099
Regency 1099
lar@@ 1099
oj@@ 1099
仪@@ 1099
光辉 1099
单点 1099
南路 1099
友好@@ 1099
变速箱 1099
届满 1099
德班 1099
打折 1099
执照 1099
百分@@ 1099
胡淑仪 1099
Kur@@ 1098
Pool 1098
Simple 1098
TSI 1098
中环 1098
光标 1098
函@@ 1098
审判@@ 1098
推力 1098
棋牌 1098
牲@@ 1098
范例 1098
AQI 1097
PCT 1097
STK@@ 1097
Sharma 1097
VAC 1097
丫 1097
异象 1097
搂住 1097
油气 1097
着陆 1097
西北@@ 1097
重复性 1097
青铜 1097
303 1096
camp@@ 1096
三人间 1096
代号 1096
冯某 1096
垢 1096
奥尼亚 1096
恩斯 1096
瞿霞 1096
粗糙 1096
较长 1096
退化 1096
静下来 1096
Dh@@ 1095
ITY 1095
ucci 1095
偷看 1095
全职 1095
哈尔 1095
激动人心 1095
美术@@ 1095
膨胀@@ 1095
躲避 1095
釜山 1095
长距离 1095
预防性 1095
Big@@ 1094
hotels 1094
ission 1094
trade 1094
yuan 1094
一到 1094
关键因素 1094
把头 1094
最美 1094
的里雅斯特 1094
示意 1094
让步 1094
铸币 1094
ACT 1093
Bond@@ 1093
RSTAB 1093
Wood 1093
acker 1093
ument@@ 1093
反驳 1093
坠@@ 1093
姆斯 1093
掀起 1093
敢@@ 1093
曼联 1093
译@@ 1093
City@@ 1092
DF 1092
Jet 1092
imm@@ 1092
一动 1092
专心 1092
凯尔特人 1092
哀求 1092
彻底@@ 1092
淀粉 1092
离心@@ 1092
饰品 1092
Angeles 1091
Ot@@ 1091
Promot@@ 1091
ality 1091
template 1091
代表@@ 1091
信息中心 1091
分层 1091
刻录 1091
台湾@@ 1091
坪 1091
娇 1091
床头 1091
斯托克 1091
构思 1091
瓷 1091
选型 1091
AX@@ 1090
Anavar 1090
Arg@@ 1090
Coc@@ 1090
DIY 1090
MU@@ 1090
Na 1090
esta 1090
上演 1090
佳肴 1090
同胞 1090
堪萨斯城 1090
峰@@ 1090
弓@@ 1090
往后 1090
戴斯 1090
检修 1090
联系电话 1090
蓝图 1090
野蛮 1090
阳市 1090
QNAP 1089
Seg@@ 1089
T1 1089
之王 1089
客户@@ 1089
潘沁风 1089
班次 1089
研究成果 1089
祥@@ 1089
Alt 1088
Mix@@ 1088
Steel 1088
anca 1088
olution 1088
sam@@ 1088
国际电联 1088
这块 1088
CSA 1087
Econom@@ 1087
Uk@@ 1087
Vinc@@ 1087
arta 1087
不锈@@ 1087
书店 1087
外贸 1087
局限于 1087
悉 1087
成套 1087
更深 1087
橄榄 1087
欧式 1087
装作 1087
阿什 1087
预防措施 1087
1942 1086
Disk 1086
Nag@@ 1086
Strada 1086
一架 1086
业务部门 1086
处女座 1086
恩惠 1086
昨@@ 1086
比较@@ 1086
游玩 1086
经受 1086
装载机 1086
货品 1086
1937 1085
仁慈 1085
保险费 1085
减税 1085
始建 1085
婆@@ 1085
崇高 1085
巷 1085
并会 1085
扭 1085
携@@ 1085
派出 1085
舒缓 1085
蜜月 1085
表带 1085
ADI 1084
cle@@ 1084
ians 1084
which 1084
wik@@ 1084
制冷剂 1084
家用电器 1084
心头 1084
拦@@ 1084
海尔 1084
涡轮机 1084
灌 1084
花岗岩 1084
违法行为 1084
256@@ 1083
Aires 1083
Imp@@ 1083
Stock@@ 1083
inv@@ 1083
借此 1083
哈里@@ 1083
对冲 1083
柠檬 1083
格林@@ 1083
经贸@@ 1083
评测 1083
迫不及待 1083
193 1082
EF 1082
How 1082
Kle@@ 1082
Over@@ 1082
低收入 1082
婷 1082
尼罗河 1082
执 1082
腻 1082
萨克 1082
萨摩亚 1082
西路 1082
赌注 1082
Industrial 1081
NAS@@ 1081
Pad@@ 1081
Sobra 1081
Wolfram 1081
ening 1081
一应俱全 1081
下班 1081
亲眼@@ 1081
促@@ 1081
土库曼斯坦 1081
天秤座 1081
弗兰克 1081
悟@@ 1081
搬迁 1081
无情 1081
008 1080
IAL 1080
WIN@@ 1080
club 1080
happ@@ 1080
wit@@ 1080
此举 1080
民国 1080
氯 1080
病情 1080
睁开 1080
筛查 1080
迈进 1080
Din@@ 1079
tit 1079
中央政府 1079
其他@@ 1079
冷水 1079
密集型 1079
染料 1079
火车票 1079
速器 1079
遗嘱 1079
174 1078
STER 1078
名胜 1078
时空 1078
犯下 1078
真实@@ 1078
舱@@ 1078
高贵 1078
Alba 1077
Bak@@ 1077
DFDS 1077
Gang@@ 1077
HI 1077
伊利诺伊州 1077
全美 1077
可信赖 1077
宜人 1077
振兴 1077
液化 1077
珊@@ 1077
维斯 1077
聘用 1077
链路 1077
锦江 1077
饮@@ 1077
Men@@ 1076
anco 1076
南北 1076
卡特彼勒 1076
外商投资 1076
尽职 1076
赞誉 1076
长官 1076
ges 1075
借款 1075
假冒 1075
卓 1075
外汇市场 1075
大家庭 1075
宛@@ 1075
期内 1075
浮现 1075
结婚戒指 1075
Valve 1074
chan@@ 1074
die 1074
izer 1074
opp@@ 1074
shire 1074
voters 1074
伺服@@ 1074
希西 1074
有钱 1074
登录名 1074
萃取 1074
蠕@@ 1074
触控 1074
醒@@ 1074
野餐 1074
Appl@@ 1073
Asp@@ 1073
RON 1073
ancing 1073
fun@@ 1073
zip 1073
专用@@ 1073
使劲 1073
先是 1073
兽医 1073
史诗 1073
基础@@ 1073
基莫 1073
审计@@ 1073
居民@@ 1073
恤 1073
画布 1073
行动@@ 1073
181 1072
Host@@ 1072
Park@@ 1072
Report 1072
万能 1072
业力 1072
从根本上 1072
关押 1072
拿来 1072
病毒@@ 1072
羞耻 1072
Ca 1071
STAR 1071
ily@@ 1071
中毒 1071
侵略 1071
凌晨 1071
哪种 1071
多米尼加共和国 1071
愈合 1071
成份 1071
擦拭 1071
汉庭 1071
法律效力 1071
炎热 1071
热性 1071
牧场 1071
称作 1071
纳特 1071
Abr@@ 1070
同性 1070
契机 1070
後@@ 1070
心疼 1070
提倡 1070
整数 1070
检视 1070
流血 1070
盗窃 1070
色素 1070
这栋 1070
重重@@ 1070
附加值 1070
高出 1070
010 1069
AW@@ 1069
BG@@ 1069
EMI 1069
Laylaa66 1069
antage 1069
business 1069
look 1069
安达@@ 1069
就业@@ 1069
措 1069
淘 1069
烯@@ 1069
种植@@ 1069
营业@@ 1069
逝 1069
遵照 1069
024 1068
PV@@ 1068
change 1068
class@@ 1068
一书 1068
克利@@ 1068
单曲 1068
城门 1068
大洲 1068
悄悄 1068
文案 1068
烷 1068
畏 1068
面貌 1068
Fusion 1067
Lic@@ 1067
NI 1067
Vil@@ 1067
action 1067
wap@@ 1067
一瓶 1067
体力 1067
劣 1067
唐纳德 1067
大米 1067
废料 1067
推销 1067
暗暗 1067
精确度 1067
20000 1066
Amber 1066
PB@@ 1066
Price 1066
Tourist 1066
beacon 1066
reg 1066
公平@@ 1066
内存@@ 1066
名声 1066
哑@@ 1066
招待 1066
邻 1066
饶恕 1066
1938 1065
As 1065
INT 1065
Oasis 1065
tern 1065
大专 1065
媒体文件 1065
水瓶座 1065
演讲者 1065
胡说 1065
2N@@ 1064
LAB 1064
Rain@@ 1064
Superior 1064
Warsaw 1064
喘息 1064
坏事 1064
妓女 1064
攻击@@ 1064
斥 1064
树枝 1064
添 1064
监事 1064
科孚岛 1064
绵 1064
罚@@ 1064
耗尽 1064
自称 1064
郁金香 1064
215 1063
Dist@@ 1063
useducationportal 1063
不由自主 1063
买入 1063
动向 1063
只得 1063
姜@@ 1063
戈尔 1063
正法 1063
获得最佳 1063
镀膜 1063
飞快 1063
305 1062
3EMFTR 1062
Alice@@ 1062
Carrera 1062
Downline 1062
GAR@@ 1062
low 1062
used 1062
不定 1062
印记 1062
思思 1062
牛津大学 1062
真神 1062
藤@@ 1062
说唱 1062
谨守 1062
贞 1062
铺盖 1062
面包@@ 1062
URE 1061
boy 1061
eman 1061
ended 1061
专利法 1061
以弗所 1061
口岸 1061
圣乔治 1061
性能@@ 1061
构成犯罪 1061
特克斯 1061
筒@@ 1061
美地 1061
马克思 1061
away 1060
cz@@ 1060
乳制品 1060
劲@@ 1060
匆匆 1060
国务@@ 1060
坏蛋 1060
基因@@ 1060
基因组 1060
塑胶@@ 1060
瞄准 1060
菊 1060
這@@ 1060
AME 1059
Istanbul 1059
LY@@ 1059
Medical 1059
Prince 1059
ø 1059
共赢 1059
投递 1059
拓@@ 1059
滕 1059
锋@@ 1059
CAP 1058
Cairns 1058
Gul@@ 1058
LO 1058
NO 1058
achi 1058
cd@@ 1058
west 1058
zt@@ 1058
估@@ 1058
信标 1058
出名 1058
出游 1058
大片 1058
妊娠 1058
屠@@ 1058
巴克 1058
弊 1058
毅 1058
议院 1058
运通 1058
Wolf@@ 1057
ett 1057
ices 1057
sha 1057
丽思 1057
厉@@ 1057
展台 1057
日渐 1057
瑞典@@ 1057
网络管理 1057
老虎 1057
者@@ 1057
耐磨性 1057
陵 1057
334@@ 1056
Att@@ 1056
Bath 1056
Corner 1056
Depart@@ 1056
Song@@ 1056
Transrussia 1056
dom@@ 1056
newsinfo 1056
伊古 1056
如果说 1056
山坡 1056
开花 1056
放射性 1056
数最多 1056
空闲 1056
羞愧 1056
贩@@ 1056
Graphics 1055
Inner 1055
eg 1055
part 1055
三相 1055
北美洲 1055
定性 1055
性欲 1055
揭开 1055
文莱 1055
登山 1055
精简 1055
行为准则 1055
裂缝 1055
重写 1055
麦子 1055
LT 1054
Lyn@@ 1054
Relations 1054
ando 1054
anth@@ 1054
丙烯@@ 1054
信号@@ 1054
公子 1054
农药 1054
切尔 1054
原则上 1054
录像机 1054
笑声 1054
1904 1053
Cres 1053
JCB 1053
KT@@ 1053
Manhattan 1053
Plan@@ 1053
Ple@@ 1053
ffer 1053
ischer 1053
中以 1053
出租人 1053
分明 1053
小天 1053
掩饰 1053
数码@@ 1053
贴身 1053
赶上 1053
逾期 1053
闯@@ 1053
黄铜 1053
Industry 1052
Message 1052
Og@@ 1052
ements 1052
一端 1052
人性化 1052
供暖 1052
口水 1052
各界 1052
尽享 1052
布洛涅 1052
溢出 1052
用心 1052
耐久性 1052
菲利普 1052
西班牙文 1052
访问控制 1052
试剂 1052
ADC 1051
AST@@ 1051
QR 1051
一艘 1051
废气 1051
扭动 1051
法兰西 1051
苹果公司 1051
配电 1051
钦 1051
雷尔 1051
非线性 1051
Autom@@ 1050
Cher@@ 1050
Gig@@ 1050
HL 1050
Meccanotecnica 1050
Pep@@ 1050
Set@@ 1050
WAN 1050
两座 1050
扫罗@@ 1050
来信 1050
营业额 1050
187 1049
Joomla 1049
Pattaya 1049
WMA 1049
san 1049
价格指数 1049
分部 1049
加里@@ 1049
化器 1049
安倍 1049
靴 1049
2050 1048
Beach@@ 1048
Driver 1048
Eco@@ 1048
Frank@@ 1048
God 1048
PDM 1048
Pel@@ 1048
edo 1048
oga 1048
传入 1048
公安 1048
工作温度 1048
承包 1048
星际 1048
爱因斯坦 1048
珍 1048
的是 1048
盲目 1048
蒸 1048
进军 1048
CENT@@ 1047
PageService 1047
political 1047
仰望 1047
华美达 1047
商品名称 1047
夸张 1047
守则 1047
收支 1047
教派 1047
新西@@ 1047
蒙古@@ 1047
误会 1047
鲨鱼 1047
6.7 1046
CalliaRose 1046
DC@@ 1046
TN3 1046
Wr@@ 1046
ocket 1046
一抹 1046
万象 1046
介于 1046
以较 1046
俏 1046
其余部分 1046
格兰迪 1046
沉思 1046
看不@@ 1046
窑@@ 1046
诚然 1046
雇 1046
Eng@@ 1045
Infineon 1045
Lec@@ 1045
Surface 1045
asha 1045
九州 1045
人类@@ 1045
动物@@ 1045
口语 1045
可口 1045
台球 1045
广州@@ 1045
暇 1045
河边 1045
而异 1045
112@@ 1044
350@@ 1044
AM26C32@@ 1044
Bee 1044
MG 1044
Ship 1044
Sophiaacat 1044
α 1044
交叉@@ 1044
信条 1044
劫 1044
地问 1044
寄居 1044
密切@@ 1044
文华 1044
法国@@ 1044
浩 1044
箔 1044
超薄 1044
重心 1044
降落 1044
鼓掌 1044
GHT 1043
Retreat 1043
Sealines 1043
Yang 1043
lex@@ 1043
uba 1043
专人 1043
仅次于 1043
凯悦 1043
婴孩 1043
广告牌 1043
恐@@ 1043
抵 1043
渴@@ 1043
球磨机 1043
179 1042
5G 1042
Andrew 1042
Ray 1042
ej@@ 1042
ocker 1042
otte 1042
social 1042
世贸组织 1042
事工 1042
倚靠 1042
圣神 1042
手提电脑 1042
海事 1042
田地 1042
154 1041
Comments 1041
Date 1041
End@@ 1041
Stan@@ 1041
VictoriaReed 1041
test 1041
品牌网 1041
奸 1041
幸存者 1041
慎@@ 1041
朝鲜半岛 1041
版块 1041
EtherCAT 1040
Fire 1040
Lavrio 1040
Unix 1040
乘船 1040
喜剧 1040
工程技术 1040
底特律 1040
弹出式 1040
普顿 1040
木星 1040
每隔 1040
爪@@ 1040
纳卡 1040
络 1040
老头 1040
胖子 1040
陈列 1040
香烟 1040
1951 1039
Cay@@ 1039
NinaJaymes 1039
Pod@@ 1039
Si 1039
Trop@@ 1039
信函 1039
南省 1039
变性 1039
宅 1039
宾夕法尼亚州 1039
工程设计 1039
并不@@ 1039
挖掘机 1039
格雷 1039
滚筒 1039
知识库 1039
编程语言 1039
009 1038
CAN@@ 1038
Cash 1038
Motor@@ 1038
Partners 1038
PlayStation 1038
Rab@@ 1038
TTT 1038
WP 1038
休斯敦 1038
使馆 1038
信息化 1038
并不需要 1038
必备 1038
抖动 1038
此页 1038
秘诀 1038
笼 1038
艰苦 1038
蓬 1038
Administrator 1037
Hostal 1037
MBA 1037
sid@@ 1037
亚哈 1037
凝胶 1037
分给 1037
增加@@ 1037
奴@@ 1037
排水 1037
桂 1037
海平面 1037
独 1037
瓶颈 1037
第一季度 1037
车里 1037
达斯 1037
邮局 1037
14001 1036
Video@@ 1036
tar@@ 1036
完好 1036
寺院 1036
矿泉水 1036
确 1036
路易 1036
138@@ 1035
Tun@@ 1035
istic 1035
prefix 1035
三倍 1035
不至于 1035
击中 1035
就读 1035
序列号 1035
建筑设计 1035
开会 1035
注册资本 1035
申请者 1035
端到 1035
观光@@ 1035
酌情 1035
Kas@@ 1034
Pointe 1034
Vent@@ 1034
banner 1034
hair 1034
专利权人 1034
两国@@ 1034
乾@@ 1034
寄存处 1034
帕克 1034
怎麼 1034
惹@@ 1034
而后 1034
蓄@@ 1034
隐含 1034
静静地 1034
麦迪逊 1034
S3 1033
Yai 1033
beaut@@ 1033
eH@@ 1033
ums 1033
也@@ 1033
前去 1033
半夜 1033
拉斐 1033
深感 1033
赎 1033
输入@@ 1033
连续@@ 1033
遭@@ 1033
高手 1033
Band 1032
Light@@ 1032
SNCM 1032
street 1032
Ö 1032
乖乖 1032
分辨 1032
千万@@ 1032
咒@@ 1032
收录 1032
维萨 1032
认罪 1032
这一@@ 1032
Jac@@ 1031
Reserve 1031
Richmond 1031
UNIX 1031
Wan@@ 1031
elles 1031
人民检察院 1031
兄弟姐妹 1031
公共部门 1031
咖啡@@ 1031
扳手 1031
教育部 1031
树上 1031
橡胶@@ 1031
看得@@ 1031
闸 1031
體 1031
1927 1030
Ele@@ 1030
Fox@@ 1030
wu 1030
不仅如此 1030
俯伏 1030
允 1030
天主教徒 1030
福音书 1030
荒谬 1030
蔡杏娟 1030
访@@ 1030
进料 1030
颈@@ 1030
PG 1029
rare 1029
uch 1029
у 1029
严谨 1029
亚利桑那州 1029
初创 1029
图像@@ 1029
影城 1029
德尔@@ 1029
无视 1029
每一 1029
经济效益 1029
隐蔽 1029
风能 1029
171 1028
BT@@ 1028
Indiana 1028
Lang@@ 1028
Leading 1028
SB 1028
TC1303A 1028
WN@@ 1028
Yellow 1028
state 1028
vir@@ 1028
一并 1028
北爱尔兰 1028
南安普敦 1028
宁愿 1028
布吉 1028
强硬 1028
标本 1028
牛排 1028
139@@ 1027
FP@@ 1027
Sharing 1027
Supply 1027
bass@@ 1027
vin 1027
二是 1027
击打 1027
单方面 1027
周二 1027
失误 1027
奎 1027
安装@@ 1027
年里 1027
指示器 1027
斐济 1027
核电站 1027
温度计 1027
特立尼达和多巴哥 1027
理疗 1027
继续@@ 1027
胚胎 1027
舰@@ 1027
获得成功 1027
轉移 1027
长途 1027
鲸 1027
216 1026
Click@@ 1026
Vor@@ 1026
dzyy 1026
ells 1026
兑@@ 1026
写字@@ 1026
复原 1026
威尼斯人 1026
小声 1026
平房 1026
年度报告 1026
撤退 1026
整天 1026
综合症 1026
胶东 1026
量级 1026
CV 1025
Chat@@ 1025
Hum@@ 1025
Industries 1025
Radeon 1025
发射@@ 1025
巴伐利亚 1025
幽默 1025
摔@@ 1025
摩托罗拉 1025
炒 1025
蓄电池 1025
装饰@@ 1025
裸@@ 1025
诺贝尔奖 1025
起重 1025
鲁斯 1025
6.6 1024
Age 1024
gh 1024
冥@@ 1024
国际博览 1024
天文台 1024
征求 1024
指派 1024
新城 1024
测绘 1024
窑 1024
茶具 1024
跳动 1024
防静电 1024
马拉松 1024
5.7 1023
CU@@ 1023
Camps 1023
Festival 1023
Ireland 1023
Mun@@ 1023
Secure 1023
bec@@ 1023
以防 1023
列宁 1023
圆柱 1023
工艺流程 1023
摇摆 1023
数据包 1023
气象 1023
深情 1023
潜艇 1023
火花 1023
病毒感染 1023
自行@@ 1023
Adventure 1022
BN 1022
DDoS 1022
PGP 1022
Venice 1022
cho 1022
准时 1022
因斯布鲁克 1022
实用@@ 1022
活在 1022
灵顿 1022
点钟 1022
独木舟 1022
纳德 1022
线或 1022
蟹 1022
[...]
